{
  "version": "1.0",
  "truncation": null,
  "padding": null,
  "added_tokens": [],
  "normalizer": {
    "type": "NFC"
  },
  "pre_tokenizer": {
    "type": "Whitespace"
  },
  "post_processor": null,
  "decoder": null,
  "model": {
    "type": "BPE",
    "dropout": null,
    "unk_token": "<unk>",
    "continuing_subword_prefix": null,
    "end_of_word_suffix": null,
    "fuse_unk": false,
    "byte_fallback": false,
    "ignore_merges": false,
    "vocab": {
      "<unk>": 0,
      " ": 1,
      "\"": 2,
      "$": 3,
      "%": 4,
      "&": 5,
      "'": 6,
      "(": 7,
      ")": 8,
      "+": 9,
      ",": 10,
      "-": 11,
      ".": 12,
      "/": 13,
      "0": 14,
      "1": 15,
      "2": 16,
      "3": 17,
      "4": 18,
      "5": 19,
      "6": 20,
      "7": 21,
      "8": 22,
      "9": 23,
      ":": 24,
      ";": 25,
      "=": 26,
      "?": 27,
      "A": 28,
      "B": 29,
      "C": 30,
      "D": 31,
      "E": 32,
      "F": 33,
      "G": 34,
      "H": 35,
      "I": 36,
      "J": 37,
      "K": 38,
      "L": 39,
      "M": 40,
      "N": 41,
      "O": 42,
      "P": 43,
      "Q": 44,
      "R": 45,
      "S": 46,
      "T": 47,
      "U": 48,
      "V": 49,
      "W": 50,
      "X": 51,
      "Y": 52,
      "Z": 53,
      "^": 54,
      "_": 55,
      "a": 56,
      "b": 57,
      "c": 58,
      "d": 59,
      "e": 60,
      "f": 61,
      "g": 62,
      "h": 63,
      "i": 64,
      "j": 65,
      "k": 66,
      "l": 67,
      "m": 68,
      "n": 69,
      "o": 70,
      "p": 71,
      "q": 72,
      "r": 73,
      "s": 74,
      "t": 75,
      "u": 76,
      "v": 77,
      "w": 78,
      "x": 79,
      "y": 80,
      "z": 81,
      "|": 82,
      "°": 83,
      "Ö": 84,
      "á": 85,
      "â": 86,
      "æ": 87,
      "è": 88,
      "é": 89,
      "í": 90,
      "ü": 91,
      "ā": 92,
      "ī": 93,
      "Ś": 94,
      "ś": 95,
      "ū": 96,
      "ș": 97,
      "ί": 98,
      "α": 99,
      "δ": 100,
      "ν": 101,
      "ς": 102,
      "ό": 103,
      "ँ": 104,
      "ं": 105,
      "ः": 106,
      "अ": 107,
      "आ": 108,
      "इ": 109,
      "ई": 110,
      "उ": 111,
      "ऊ": 112,
      "ऋ": 113,
      "ए": 114,
      "ऐ": 115,
      "ऑ": 116,
      "ओ": 117,
      "औ": 118,
      "क": 119,
      "ख": 120,
      "ग": 121,
      "घ": 122,
      "च": 123,
      "छ": 124,
      "ज": 125,
      "झ": 126,
      "ञ": 127,
      "ट": 128,
      "ठ": 129,
      "ड": 130,
      "ढ": 131,
      "ण": 132,
      "त": 133,
      "थ": 134,
      "द": 135,
      "ध": 136,
      "न": 137,
      "प": 138,
      "फ": 139,
      "ब": 140,
      "भ": 141,
      "म": 142,
      "य": 143,
      "र": 144,
      "ऱ": 145,
      "ल": 146,
      "ळ": 147,
      "व": 148,
      "श": 149,
      "ष": 150,
      "स": 151,
      "ह": 152,
      "़": 153,
      "ा": 154,
      "ि": 155,
      "ी": 156,
      "ु": 157,
      "ू": 158,
      "ृ": 159,
      "ॅ": 160,
      "े": 161,
      "ै": 162,
      "ॉ": 163,
      "ो": 164,
      "ौ": 165,
      "्": 166,
      "ॠ": 167,
      "।": 168,
      "०": 169,
      "१": 170,
      "२": 171,
      "३": 172,
      "४": 173,
      "५": 174,
      "६": 175,
      "७": 176,
      "८": 177,
      "९": 178,
      "॰": 179,
      "ॲ": 180,
      "ం": 181,
      "ః": 182,
      "అ": 183,
      "ఆ": 184,
      "ఇ": 185,
      "ఈ": 186,
      "ఉ": 187,
      "ఋ": 188,
      "ఎ": 189,
      "ఏ": 190,
      "ఐ": 191,
      "ఒ": 192,
      "ఓ": 193,
      "ఔ": 194,
      "క": 195,
      "ఖ": 196,
      "గ": 197,
      "ఘ": 198,
      "చ": 199,
      "ఛ": 200,
      "జ": 201,
      "ఞ": 202,
      "ట": 203,
      "ఠ": 204,
      "డ": 205,
      "ఢ": 206,
      "ణ": 207,
      "త": 208,
      "థ": 209,
      "ద": 210,
      "ధ": 211,
      "న": 212,
      "ప": 213,
      "ఫ": 214,
      "బ": 215,
      "భ": 216,
      "మ": 217,
      "య": 218,
      "ర": 219,
      "ల": 220,
      "ళ": 221,
      "వ": 222,
      "శ": 223,
      "ష": 224,
      "స": 225,
      "హ": 226,
      "ా": 227,
      "ి": 228,
      "ీ": 229,
      "ు": 230,
      "ూ": 231,
      "ృ": 232,
      "ె": 233,
      "ే": 234,
      "ై": 235,
      "ొ": 236,
      "ో": 237,
      "ౌ": 238,
      "్": 239,
      "ṅ": 240,
      "ṇ": 241,
      "ṣ": 242,
      "ṭ": 243,
      "Ἰ": 244,
      "‌": 245,
      "‍": 246,
      "–": 247,
      "—": 248,
      "‘": 249,
      "’": 250,
      "†": 251,
      "′": 252,
      "₹": 253,
      "↑": 254,
      "ⓘ": 255,
      "﻿": 256,
      "an": 257,
      "th": 258,
      "in": 259,
      "er": 260,
      "ार": 261,
      "్ర": 262,
      "ార": 263,
      "లు": 264,
      "्य": 265,
      "्या": 266,
      "्र": 267,
      "on": 268,
      "the": 269,
      "al": 270,
      "en": 271,
      "के": 272,
      "లో": 273,
      "స్": 274,
      "్య": 275,
      "ात": 276,
      "हे": 277,
      "र्": 278,
      "ed": 279,
      "ar": 280,
      "es": 281,
      "or": 282,
      "ें": 283,
      "న్": 284,
      "ది": 285,
      "దే": 286,
      "ारत": 287,
      "ां": 288,
      "भारत": 289,
      "ti": 290,
      "di": 291,
      "In": 292,
      "and": 293,
      "में": 294,
      "ప్ర": 295,
      "ిం": 296,
      "దేశ": 297,
      "स्": 298,
      "आहे": 299,
      "प्र": 300,
      "of": 301,
      "as": 302,
      "is": 303,
      "Indi": 304,
      "है": 305,
      "ాల": 306,
      "ిక": 307,
      "ర్": 308,
      "ाल": 309,
      "ाच": 310,
      "िक": 311,
      "20": 312,
      "re": 313,
      "ri": 314,
      "at": 315,
      "का": 316,
      "భార": 317,
      "భారత": 318,
      "ాలు": 319,
      "ान": 320,
      "ील": 321,
      "ले": 322,
      "om": 323,
      "India": 324,
      "ing": 325,
      "ent": 326,
      "भार": 327,
      "న్న": 328,
      "గా": 329,
      "కు": 330,
      "रा": 331,
      "सा": 332,
      "ला": 333,
      "tion": 334,
      "ic": 335,
      "it": 336,
      "to": 337,
      "ों": 338,
      "ని": 339,
      "వి": 340,
      "ాత": 341,
      "वि": 342,
      "वा": 343,
      "ती": 344,
      "ou": 345,
      "ec": 346,
      "ly": 347,
      "Th": 348,
      "या": 349,
      "ాయ": 350,
      "క్": 351,
      "ాన": 352,
      "ना": 353,
      "मु": 354,
      "च्या": 355,
      "ch": 356,
      "st": 357,
      "li": 358,
      "ur": 359,
      "की": 360,
      "దేశం": 361,
      "రా": 362,
      "్ట": 363,
      "ून": 364,
      "ष्": 365,
      "ित": 366,
      "et": 367,
      "am": 368,
      "ver": 369,
      "The": 370,
      "और": 371,
      "ను": 372,
      "ము": 373,
      "ండ": 374,
      "ीय": 375,
      "क्": 376,
      "तर": 377,
      ").": 378,
      "le": 379,
      "201": 380,
      "ra": 381,
      "से": 382,
      "ీయ": 383,
      "ిన": 384,
      "ద్": 385,
      "ने": 386,
      "ली": 387,
      "सं": 388,
      "19": 389,
      "for": 390,
      "ved": 391,
      "ter": 392,
      "ता": 393,
      "త్": 394,
      "ించ": 395,
      "తి": 396,
      "चे": 397,
      "अस": 398,
      "मध": 399,
      "em": 400,
      "ol": 401,
      "ation": 402,
      "ce": 403,
      "था": 404,
      "ల్": 405,
      "స్త": 406,
      "ంది": 407,
      "ही": 408,
      "ते": 409,
      "दे": 410,
      "ig": 411,
      "il": 412,
      "ro": 413,
      "ad": 414,
      "न्": 415,
      "ంత": 416,
      "రి": 417,
      "సం": 418,
      "्ये": 419,
      "त्": 420,
      "हो": 421,
      "ul": 422,
      "el": 423,
      "rom": 424,
      "res": 425,
      "िया": 426,
      "రు": 427,
      "పు": 428,
      "ులు": 429,
      "ची": 430,
      "द्": 431,
      "हा": 432,
      "200": 433,
      "ist": 434,
      "78": 435,
      "con": 436,
      "पर": 437,
      "స్థ": 438,
      "ింది": 439,
      "ాయి": 440,
      "र्व": 441,
      "राज": 442,
      "क्ष": 443,
      "ge": 444,
      "Indian": 445,
      "from": 446,
      "us": 447,
      "कर": 448,
      "ంట": 449,
      "ంలో": 450,
      "భారతదేశం": 451,
      "भा": 452,
      "्यां": 453,
      "आहेत": 454,
      "un": 455,
      "978": 456,
      "op": 457,
      "ir": 458,
      "ति": 459,
      "భా": 460,
      "ైన": 461,
      "ంగ": 462,
      "ंग": 463,
      "ष्ट": 464,
      "त्र": 465,
      "BN": 466,
      "IS": 467,
      "ISBN": 468,
      "by": 469,
      "हैं": 470,
      "ూడ": 471,
      "ంగా": 472,
      "ధిక": 473,
      "भारतीय": 474,
      "ाच्या": 475,
      "देश": 476,
      "ity": 477,
      "ow": 478,
      "si": 479,
      "tic": 480,
      "को": 481,
      "పా": 482,
      "వా": 483,
      "సా": 484,
      "वर": 485,
      "स्थ": 486,
      "वे": 487,
      "ve": 488,
      "ment": 489,
      "ast": 490,
      "ma": 491,
      "मा": 492,
      "క్ష": 493,
      "ఉన్న": 494,
      "ారు": 495,
      "ातील": 496,
      "कार": 497,
      "चा": 498,
      "de": 499,
      "du": 500,
      "tu": 501,
      "est": 502,
      "हु": 503,
      "టి": 504,
      "ార్": 505,
      "ిత": 506,
      "झाल": 507,
      "पा": 508,
      "त्या": 509,
      "wi": 510,
      "ci": 511,
      "ex": 512,
      "ber": 513,
      "ड़": 514,
      "్చ": 515,
      "జాత": 516,
      "ష్ట": 517,
      "तात": 518,
      "पु": 519,
      "जात": 520,
      "der": 521,
      "ate": 522,
      "ay": 523,
      "2011": 524,
      "जा": 525,
      "కూడ": 526,
      "ప్రా": 527,
      "రాజ": 528,
      "पू": 529,
      "हि": 530,
      "भारतात": 531,
      "wh": 532,
      "Ar": 533,
      "with": 534,
      "over": 535,
      "िय": 536,
      "కో": 537,
      "క్ర": 538,
      "ట్ట": 539,
      "मध्ये": 540,
      "ंद": 541,
      "ल्या": 542,
      "su": 543,
      "ong": 544,
      "rie": 545,
      "se": 546,
      "भी": 547,
      "కా": 548,
      "చ్చ": 549,
      "నే": 550,
      "मि": 551,
      "मान": 552,
      "ाची": 553,
      "sh": 554,
      "Ret": 555,
      "ab": 556,
      "ni": 557,
      "सम": 558,
      "పే": 559,
      "మొ": 560,
      "00": 561,
      "मो": 562,
      "वी": 563,
      "्रा": 564,
      "ts": 565,
      "ress": 566,
      "was": 567,
      "rieved": 568,
      "्ट": 569,
      "ంచ": 570,
      "దు": 571,
      "మా": 572,
      "मी": 573,
      "ळे": 574,
      "्यात": 575,
      "Retrieved": 576,
      "be": 577,
      "ary": 578,
      "ang": 579,
      "िन्": 580,
      "యా": 581,
      "లి": 582,
      "వ్య": 583,
      "द्ध": 584,
      "नि": 585,
      "स्त": 586,
      "ere": 587,
      "ac": 588,
      "ag": 589,
      "ion": 590,
      "तथा": 591,
      "భారతీయ": 592,
      "తర": 593,
      "నా": 594,
      "विध": 595,
      "णे": 596,
      "ये": 597,
      "im": 598,
      "um": 599,
      "ld": 600,
      "inal": 601,
      "इस": 602,
      "రై": 603,
      "వాత": 604,
      "సి": 605,
      "्रप": 606,
      "ंड": 607,
      "सु": 608,
      "orig": 609,
      "ear": 610,
      "vers": 611,
      "Arch": 612,
      "दी": 613,
      "్ల": 614,
      "త్వ": 615,
      "జాతీయ": 616,
      "ंत": 617,
      "नी": 618,
      "म्": 619,
      "gh": 620,
      "ived": 621,
      "inc": 622,
      "original": 623,
      "एक": 624,
      "తం": 625,
      "తో": 626,
      "రాష్ట": 627,
      "ल्": 628,
      "वर्": 629,
      "भारताच्या": 630,
      "ich": 631,
      "ak": 632,
      "has": 633,
      "par": 634,
      "शा": 635,
      "రాష్ట్ర": 636,
      "ఖ్య": 637,
      "గు": 638,
      "ाचे": 639,
      "कि": 640,
      "कृ": 641,
      "mo": 642,
      "og": 643,
      "ut": 644,
      "Archived": 645,
      "राज्य": 646,
      "వచ్చ": 647,
      "ికి": 648,
      "భారతదేశ": 649,
      "ास": 650,
      "ोक": 651,
      "काळ": 652,
      "10": 653,
      "ally": 654,
      "versity": 655,
      "so": 656,
      "बा": 657,
      "ద్ధ": 658,
      "ల్ల": 659,
      "ంత్ర": 660,
      "नेक": 661,
      "स्था": 662,
      "अनेक": 663,
      "ther": 664,
      "are": 665,
      "orld": 666,
      "Ch": 667,
      "श्": 668,
      "అధిక": 669,
      "కొ": 670,
      "డు": 671,
      "दि": 672,
      "री": 673,
      "हार": 674,
      "ain": 675,
      "pp": 676,
      "ory": 677,
      "which": 678,
      "रू": 679,
      "పాల": 680,
      "మైన": 681,
      "వే": 682,
      "शि": 683,
      "र्थ": 684,
      "र्म": 685,
      "Uni": 686,
      "lo": 687,
      "sp": 688,
      "21": 689,
      "षा": 690,
      "he": 691,
      "ఒక": 692,
      "కాల": 693,
      "ाला": 694,
      "ाने": 695,
      "मुख": 696,
      "cont": 697,
      "com": 698,
      "ew": 699,
      "per": 700,
      "जन": 701,
      "డి": 702,
      "ణా": 703,
      "ద్ర": 704,
      "भाग": 705,
      "पूर्व": 706,
      "चित": 707,
      "ud": 708,
      "its": 709,
      "cent": 710,
      "id": 711,
      "जि": 712,
      "మార్": 713,
      "ండి": 714,
      "ఉంది": 715,
      "दा": 716,
      "णा": 717,
      "शी": 718,
      "ru": 719,
      "ence": 720,
      "oun": 721,
      "tern": 722,
      "सर": 723,
      "చే": 724,
      "టు": 725,
      "ధ్య": 726,
      "ाली": 727,
      "मुळे": 728,
      "मिळ": 729,
      "Hin": 730,
      "me": 731,
      "end": 732,
      "ies": 733,
      "ंत्र": 734,
      "శా": 735,
      "్‌": 736,
      "ింద": 737,
      "्रपट": 738,
      "चित्रपट": 739,
      "गे": 740,
      "lar": 741,
      "our": 742,
      "co": 743,
      "od": 744,
      "तक": 745,
      "దేశాల": 746,
      "ఉన్నాయి": 747,
      "వ్యవ": 748,
      "ठी": 749,
      "भू": 750,
      "ाचा": 751,
      "ted": 752,
      "ism": 753,
      "overn": 754,
      "An": 755,
      "अन": 756,
      "ఎన్న": 757,
      "కి": 758,
      "పార": 759,
      "िक्": 760,
      "साह": 761,
      "विविध": 762,
      "Ju": 763,
      "mil": 764,
      "outh": 765,
      "form": 766,
      "किया": 767,
      "పంచ": 768,
      "ాబ": 769,
      "ాన్": 770,
      "ंतर": 771,
      "आण": 772,
      "कड": 773,
      "Press": 774,
      "University": 775,
      "Asi": 776,
      "econ": 777,
      "द्र": 778,
      "ర్వ": 779,
      "న్ని": 780,
      "భారతదేశంలో": 781,
      "धर्म": 782,
      "लोक": 783,
      "वै": 784,
      "overnment": 785,
      "July": 786,
      "av": 787,
      "pl": 788,
      "ंध": 789,
      "చె": 790,
      "డ్": 791,
      "ధాన": 792,
      "स्कृ": 793,
      "क्र": 794,
      "णी": 795,
      "were": 796,
      "all": 797,
      "199": 798,
      "istory": 799,
      "धिक": 800,
      "పె": 801,
      "ిన్న": 802,
      "ెండ": 803,
      "दार": 804,
      "म्रा": 805,
      "सि": 806,
      "ry": 807,
      "sti": 808,
      "ture": 809,
      "age": 810,
      "िण": 811,
      "మార్గ": 812,
      "వ్యవస్థ": 813,
      "ంబ": 814,
      "सर्व": 815,
      "हर": 816,
      "१९": 817,
      "gen": 818,
      "ans": 819,
      "ated": 820,
      "ical": 821,
      "लि": 822,
      "కృ": 823,
      "కే": 824,
      "కార": 825,
      "संस्कृ": 826,
      "ठा": 827,
      "तो": 828,
      "pri": 829,
      "pro": 830,
      "gion": 831,
      "hi": 832,
      "साथ": 833,
      "తు": 834,
      "దా": 835,
      "హింద": 836,
      "दल": 837,
      "द्या": 838,
      "व्य": 839,
      "low": 840,
      "mar": 841,
      "ot": 842,
      "por": 843,
      "भाषा": 844,
      "ానికి": 845,
      "స్తు": 846,
      "కూడా": 847,
      "वार": 848,
      "प्रा": 849,
      "प्रकार": 850,
      "ass": 851,
      "Hindu": 852,
      "Con": 853,
      "ff": 854,
      "उत्": 855,
      "పేరు": 856,
      "మొద": 857,
      "అధికార": 858,
      "असे": 859,
      "म्ह": 860,
      "वर्ष": 861,
      "ub": 862,
      "stitu": 863,
      "History": 864,
      "cul": 865,
      "दक्ष": 866,
      "ndi": 867,
      "కర": 868,
      "ట్": 869,
      "स्थाप": 870,
      "साहित": 871,
      "जी": 872,
      "ha": 873,
      "min": 874,
      ".;": 875,
      "do": 876,
      "धान": 877,
      "త్ర": 878,
      "త్య": 879,
      "దక్ష": 880,
      "यां": 881,
      "रु": 882,
      "शिक्": 883,
      "ep": 884,
      "fter": 885,
      "ty": 886,
      "uc": 887,
      "हिन्": 888,
      "పర": 889,
      "పరి": 890,
      "మత": 891,
      "ांत": 892,
      "नाव": 893,
      "ष्ट्र": 894,
      "vi": 895,
      "ance": 896,
      "ous": 897,
      "ough": 898,
      "ोग": 899,
      "మీ": 900,
      "మే": 901,
      "మధ్య": 902,
      "झाले": 903,
      "शिक्ष": 904,
      "जे": 905,
      ".).": 906,
      "ati": 907,
      "fe": 908,
      "we": 909,
      "दक्षिण": 910,
      "వర": 911,
      "సు": 912,
      "ప్రపంచ": 913,
      "मार": 914,
      "ऱ्या": 915,
      "वन": 916,
      "rid": 917,
      "ame": 918,
      "ember": 919,
      "CE": 920,
      "दो": 921,
      "ప్రధాన": 922,
      "ాత్ర": 923,
      "ద్ద": 924,
      "स्व": 925,
      "काही": 926,
      "मधील": 927,
      "ok": 928,
      "any": 929,
      "ine": 930,
      "lion": 931,
      "्रे": 932,
      "స్థాన": 933,
      "భాష": 934,
      "ప్రాంత": 935,
      "स्थान": 936,
      "जाती": 937,
      "म्हण": 938,
      "angu": 939,
      "23": 940,
      "bec": 941,
      "uring": 942,
      "प्": 943,
      "రాజ్య": 944,
      "రైలు": 945,
      "దాయ": 946,
      "गर": 947,
      "टि": 948,
      "्रि": 949,
      "Asia": 950,
      "econom": 951,
      "17": 952,
      "South": 953,
      "यु": 954,
      "నాలు": 955,
      "ప్": 956,
      "వార": 957,
      "प्रदेश": 958,
      "शिक्षण": 959,
      "टक्": 960,
      "nor": 961,
      "tra": 962,
      "rit": 963,
      "ome": 964,
      "सरकार": 965,
      "వర్": 966,
      "సభ": 967,
      "క్కు": 968,
      "ण्यात": 969,
      "रो": 970,
      "प्रजाती": 971,
      "ury": 972,
      "ational": 973,
      "dern": 974,
      "22": 975,
      "यह": 976,
      "దేశంలో": 977,
      "్టీ": 978,
      "క్రీ": 979,
      "साम्रा": 980,
      "ष्ठ": 981,
      "ाचीन": 982,
      "81": 983,
      "har": 984,
      "into": 985,
      "eral": 986,
      "शास": 987,
      "పార్టీ": 988,
      "దక్షి": 989,
      "అయ": 990,
      "पूर्वी": 991,
      "आणि": 992,
      "संस्कृती": 993,
      "ish": 994,
      "2010": 995,
      "opul": 996,
      "50": 997,
      "ओं": 998,
      "ఆర్": 999,
      "గి": 1000,
      "జనా": 1001,
      "साम्राज": 1002,
      "इंग": 1003,
      "इंड": 1004,
      "DF": 1005,
      "PDF": 1006,
      "ap": 1007,
      "led": 1008,
      "बसे": 1009,
      "పూ": 1010,
      "పో": 1011,
      "భు": 1012,
      "तील": 1013,
      "तसे": 1014,
      "धार": 1015,
      "po": 1016,
      "up": 1017,
      "ant": 1018,
      "row": 1019,
      "सबसे": 1020,
      "మన": 1021,
      "మి": 1022,
      "రో": 1023,
      "वळ": 1024,
      "व्या": 1025,
      "प्राचीन": 1026,
      "sub": 1027,
      "stitution": 1028,
      "bo": 1029,
      "cl": 1030,
      "क्षे": 1031,
      "రెండ": 1032,
      "లం": 1033,
      "లా": 1034,
      "साठी": 1035,
      "पास": 1036,
      "तसेच": 1037,
      "land": 1038,
      "oc": 1039,
      "qu": 1040,
      "world": 1041,
      "जिस": 1042,
      "వు": 1043,
      "వె": 1044,
      "్యం": 1045,
      "दक्षि": 1046,
      "गो": 1047,
      "त्य": 1048,
      "ates": 1049,
      "ford": 1050,
      "olog": 1051,
      "tics": 1052,
      "बहु": 1053,
      "ప్రజ": 1054,
      "ప్రభు": 1055,
      "ముఖ్య": 1056,
      "पार": 1057,
      "मू": 1058,
      "रे": 1059,
      "16": 1060,
      "18": 1061,
      "Ma": 1062,
      "but": 1063,
      "रूप": 1064,
      "ించిన": 1065,
      "ించింది": 1066,
      "హిందూ": 1067,
      "ांच्या": 1068,
      "विद्या": 1069,
      "केले": 1070,
      "ser": 1071,
      "xford": 1072,
      "year": 1073,
      "ore": 1074,
      "ढ़": 1075,
      "ంద్ర": 1076,
      "ఇతర": 1077,
      "గీ": 1078,
      "होते": 1079,
      "हिम": 1080,
      "येथ": 1081,
      "tions": 1082,
      "amb": 1083,
      "irst": 1084,
      "duc": 1085,
      "ंग्रे": 1086,
      "తా": 1087,
      "తరు": 1088,
      "లకు": 1089,
      "मुख्य": 1090,
      "श्च": 1091,
      "टक्के": 1092,
      "ages": 1093,
      "ubl": 1094,
      "13": 1095,
      "26": 1096,
      "बाद": 1097,
      "వీ": 1098,
      "శ్ర": 1099,
      "ష్": 1100,
      "आज": 1101,
      "इति": 1102,
      "घे": 1103,
      "Oxford": 1104,
      "World": 1105,
      "ces": 1106,
      "gan": 1107,
      "क्षेत्र": 1108,
      "ీన": 1109,
      "స్కృ": 1110,
      "ాల్": 1111,
      "जग": 1112,
      "ण्या": 1113,
      "पड": 1114,
      "government": 1115,
      "langu": 1116,
      "ph": 1117,
      "ers": 1118,
      "गया": 1119,
      "స్త్ర": 1120,
      "సాం": 1121,
      "వచ్చింది": 1122,
      "पद": 1123,
      "पृ": 1124,
      "ब्रि": 1125,
      "out": 1126,
      "incl": 1127,
      "25": 1128,
      "Mar": 1129,
      "जो": 1130,
      "పెద్ద": 1131,
      "క్కువ": 1132,
      "gu": 1133,
      "सो": 1134,
      "सार": 1135,
      "ांचा": 1136,
      "Re": 1137,
      "ban": 1138,
      "dec": 1139,
      "pe": 1140,
      "बंध": 1141,
      "nt": 1142,
      "అతి": 1143,
      "ఉత్": 1144,
      "ालय": 1145,
      "असते": 1146,
      "होता": 1147,
      "pi": 1148,
      "popul": 1149,
      "sy": 1150,
      "als": 1151,
      "सी": 1152,
      "ఉంట": 1153,
      "కలి": 1154,
      "గర": 1155,
      "झाला": 1156,
      "हिंद": 1157,
      "साहित्य": 1158,
      "ork": 1159,
      "region": 1160,
      "lear": 1161,
      "ations": 1162,
      "राष्ट्र": 1163,
      "జన": 1164,
      "జరి": 1165,
      "పట్ట": 1166,
      "उत्तर": 1167,
      "टिश": 1168,
      "पासून": 1169,
      "igh": 1170,
      "elec": 1171,
      "larg": 1172,
      "ridge": 1173,
      "मिल": 1174,
      "బడ": 1175,
      "బా": 1176,
      "బె": 1177,
      "इतिहा": 1178,
      "ब्रिटिश": 1179,
      "),": 1180,
      "Ac": 1181,
      "Com": 1182,
      "Cong": 1183,
      "Camb": 1184,
      "अप": 1185,
      "బ్ర": 1186,
      "మహ": 1187,
      "లలో": 1188,
      "ंब": 1189,
      "अज": 1190,
      "इतर": 1191,
      "Econ": 1192,
      "first": 1193,
      "ting": 1194,
      "tical": 1195,
      "श्व": 1196,
      "వంట": 1197,
      "ుకు": 1198,
      "విధ": 1199,
      "उप": 1200,
      "खास": 1201,
      "ज्": 1202,
      "contin": 1203,
      "Congress": 1204,
      "Cambridge": 1205,
      "Econom": 1206,
      "थी": 1207,
      "భాగ": 1208,
      "వాణా": 1209,
      "మార్గాలు": 1210,
      "नंतर": 1211,
      "बंग": 1212,
      "महार": 1213,
      "14": 1214,
      "Mo": 1215,
      "ca": 1216,
      "dh": 1217,
      "सद": 1218,
      "కేంద్ర": 1219,
      "ప్ప": 1220,
      "క్రీడ": 1221,
      "समु": 1222,
      "हवा": 1223,
      "ृष्ट": 1224,
      "fl": 1225,
      "mer": 1226,
      "ral": 1227,
      "tur": 1228,
      "विश्व": 1229,
      "అయిన": 1230,
      "జనాభా": 1231,
      "ప్రభుత్వ": 1232,
      "्याने": 1233,
      "प्रमा": 1234,
      "त्व": 1235,
      "vel": 1236,
      "war": 1237,
      "eng": 1238,
      "estern": 1239,
      "साम": 1240,
      "తరువాత": 1241,
      "అనే": 1242,
      "ఇది": 1243,
      "केली": 1244,
      "झाली": 1245,
      "व्यव": 1246,
      "ister": 1247,
      "rec": 1248,
      "reas": 1249,
      "reli": 1250,
      "माण": 1251,
      "ఎక్కువ": 1252,
      "ఏర్": 1253,
      "కీయ": 1254,
      "महारा": 1255,
      "हवामान": 1256,
      "अर्थ": 1257,
      "cial": 1258,
      "century": 1259,
      "largest": 1260,
      "\".": 1261,
      "लग": 1262,
      "గో": 1263,
      "గ్": 1264,
      "గిన": 1265,
      "आहार": 1266,
      "उदा": 1267,
      "दिक": 1268,
      "24": 1269,
      "after": 1270,
      "during": 1271,
      "gre": 1272,
      "चीन": 1273,
      "టిక": 1274,
      "ణం": 1275,
      "బహ": 1276,
      "पै": 1277,
      "बां": 1278,
      "भर": 1279,
      "had": 1280,
      "ust": 1281,
      "wo": 1282,
      "ater": 1283,
      "शासन": 1284,
      "మాన": 1285,
      "మంత్ర": 1286,
      "రవాణా": 1287,
      "मे": 1288,
      "सण": 1289,
      "सर्": 1290,
      "stem": 1291,
      "2007": 1292,
      "used": 1293,
      "uclear": 1294,
      "अधिक": 1295,
      "లే": 1296,
      "లను": 1297,
      "సిం": 1298,
      "ांमध्ये": 1299,
      "स्त्र": 1300,
      "लाग": 1301,
      "became": 1302,
      "pire": 1303,
      "system": 1304,
      "28": 1305,
      "चु": 1306,
      "సరి": 1307,
      "ిల్ల": 1308,
      "్రా": 1309,
      "होती": 1310,
      "मोठ": 1311,
      "पर्य": 1312,
      "Al": 1313,
      "Bud": 1314,
      "May": 1315,
      "New": 1316,
      "तु": 1317,
      "్రె": 1318,
      "ప్రస్తు": 1319,
      "ప్రదాయ": 1320,
      "निर्": 1321,
      "वैदिक": 1322,
      "सिंध": 1323,
      "Pl": 1324,
      "cast": 1325,
      "fic": 1326,
      "iv": 1327,
      "दिया": 1328,
      "క్క": 1329,
      "స్తాన్": 1330,
      "ందిన": 1331,
      "इंडिया": 1332,
      "हिमालय": 1333,
      "पृष्ठ": 1334,
      "ial": 1335,
      "jor": 1336,
      "more": 1337,
      "thema": 1338,
      "बड़": 1339,
      "ంగ్రె": 1340,
      "పాకి": 1341,
      "సాధ": 1342,
      "इतिहास": 1343,
      "पैकी": 1344,
      "गण": 1345,
      "also": 1346,
      "ord": 1347,
      "ties": 1348,
      "tive": 1349,
      "लो": 1350,
      "రాజకీయ": 1351,
      "కాంగ్రె": 1352,
      "కాలంలో": 1353,
      "गा": 1354,
      "गु": 1355,
      "च्": 1356,
      "ext": 1357,
      "been": 1358,
      "have": 1359,
      "ublic": 1360,
      "हिन्दी": 1361,
      "ఎన్నో": 1362,
      "ాబ్": 1363,
      "మొదటి": 1364,
      "णात": 1365,
      "तां": 1366,
      "त्ये": 1367,
      "15": 1368,
      "Jan": 1369,
      "Oc": 1370,
      "St": 1371,
      "ज़": 1372,
      "దక్షిణ": 1373,
      "అత్య": 1374,
      "ఇండి": 1375,
      "पक्ष": 1376,
      "बन": 1377,
      "बौ": 1378,
      "cy": 1379,
      "les": 1380,
      "pr": 1381,
      "ss": 1382,
      "बी": 1383,
      "ఉప": 1384,
      "క్య": 1385,
      "గణ": 1386,
      "मह": 1387,
      "वली": 1388,
      "००": 1389,
      "that": 1390,
      "ari": 1391,
      "tober": 1392,
      "196": 1393,
      "मंत्र": 1394,
      "గల": 1395,
      "చిన్న": 1396,
      "దం": 1397,
      "ाले": 1398,
      "िका": 1399,
      "विष": 1400,
      "2009": 1401,
      "such": 1402,
      "most": 1403,
      "thern": 1404,
      "ोड़": 1405,
      "పం": 1406,
      "పై": 1407,
      "పతి": 1408,
      "वाधिक": 1409,
      "नाट": 1410,
      "असले": 1411,
      "ount": 1412,
      "million": 1413,
      "minister": 1414,
      "years": 1415,
      "नाम": 1416,
      "భూ": 1417,
      "మై": 1418,
      "యు": 1419,
      "असून": 1420,
      "द्वी": 1421,
      "वेग": 1422,
      "October": 1423,
      "40": 1424,
      "Bri": 1425,
      "BCE": 1426,
      "अनु": 1427,
      "యో": 1428,
      "రం": 1429,
      "రంగ": 1430,
      "जातो": 1431,
      "ंद्र": 1432,
      "ल्ली": 1433,
      "De": 1434,
      "Em": 1435,
      "En": 1436,
      "Eur": 1437,
      "ध्य": 1438,
      "లతో": 1439,
      "వల": 1440,
      "శ్": 1441,
      "किल्": 1442,
      "काळात": 1443,
      "इंग्र": 1444,
      "cal": 1445,
      "cri": 1446,
      "fi": 1447,
      "long": 1448,
      "लय": 1449,
      "షు": 1450,
      "సము": 1451,
      "ావర": 1452,
      "बंगाल": 1453,
      "सर्वाधिक": 1454,
      "पर्यंत": 1455,
      "num": 1456,
      "edi": 1457,
      "dition": 1458,
      "life": 1459,
      "काल": 1460,
      "ుకో": 1461,
      "ెలు": 1462,
      "్మ": 1463,
      "सिंधू": 1464,
      "बौद्ध": 1465,
      "द्वीप": 1466,
      "ament": 1467,
      "raph": 1468,
      "ign": 1469,
      "ell": 1470,
      "हुआ": 1471,
      "ప్రము": 1472,
      "ప్రతి": 1473,
      "ాలలో": 1474,
      "nd": 1475,
      "अति": 1476,
      "काली": 1477,
      "istan": 1478,
      "major": 1479,
      "increas": 1480,
      "modern": 1481,
      "जाता": 1482,
      "ాలను": 1483,
      "విస్త": 1484,
      "ండు": 1485,
      "गी": 1486,
      "टी": 1487,
      "डी": 1488,
      "ound": 1489,
      "class": 1490,
      "continent": 1491,
      "velop": 1492,
      "कु": 1493,
      "ించి": 1494,
      "సంగీ": 1495,
      "సంస్కృ": 1496,
      "निक": 1497,
      "पठ": 1498,
      "बदल": 1499,
      "80": 1500,
      "Cent": 1501,
      "Government": 1502,
      "Ra": 1503,
      "चि": 1504,
      "ంగ్ల": 1505,
      "ిత్ర": 1506,
      "ప్రాచ": 1507,
      "भे": 1508,
      "मस": 1509,
      "महा": 1510,
      "Un": 1511,
      "aw": 1512,
      "ever": 1513,
      "grow": 1514,
      "तिक": 1515,
      "క్రమ": 1516,
      "సిని": 1517,
      "సియా": 1518,
      "यं": 1519,
      "लाल": 1520,
      "ळू": 1521,
      "mon": 1522,
      "not": 1523,
      "ple": 1524,
      "ta": 1525,
      "दान": 1526,
      "ద్ధి": 1527,
      "శాస్త్ర": 1528,
      "ఆర్ధిక": 1529,
      "व्": 1530,
      "शत": 1531,
      "शे": 1532,
      "two": 1533,
      "ins": 1534,
      "ens": 1535,
      "isation": 1536,
      "वं": 1537,
      "సరిహ": 1538,
      "అత్యధిక": 1539,
      "ఇండియా": 1540,
      "सभा": 1541,
      "ह्या": 1542,
      "ांनी": 1543,
      "etwe": 1544,
      "under": 1545,
      "prime": 1546,
      "doi": 1547,
      "ैन": 1548,
      "ప్రముఖ": 1549,
      "ct": 1550,
      "lis": 1551,
      "प्रत्ये": 1552,
      "साय": 1553,
      "राज्यां": 1554,
      "both": 1555,
      "ology": 1556,
      "etween": 1557,
      "27": 1558,
      "केंद्र": 1559,
      "ంధ": 1560,
      "ఆధ": 1561,
      "కాలు": 1562,
      "वरील": 1563,
      "पुर": 1564,
      "पूर्": 1565,
      "36": 1566,
      "47": 1567,
      "85": 1568,
      "Pak": 1569,
      "हुई": 1570,
      "గలు": 1571,
      "జాబ": 1572,
      "ట్ల": 1573,
      "करून": 1574,
      "दिल्ली": 1575,
      "क्रम": 1576,
      "her": 1577,
      "ob": 1578,
      "ose": 1579,
      "pan": 1580,
      "समय": 1581,
      "ఢిల్ల": 1582,
      "ణి": 1583,
      "తిక": 1584,
      "विद्यार्थ": 1585,
      "येथील": 1586,
      "जगातील": 1587,
      "rough": 1588,
      "though": 1589,
      "art": 1590,
      "tish": 1591,
      "देशों": 1592,
      "తంత్ర": 1593,
      "దార": 1594,
      "ధి": 1595,
      "समुद्र": 1596,
      "महाराष्ट्र": 1597,
      "उदाहर": 1598,
      "lim": 1599,
      "urban": 1600,
      "197": 1601,
      "main": 1602,
      "प्त": 1603,
      "నీ": 1604,
      "నె": 1605,
      "నడి": 1606,
      "बांध": 1607,
      "अतिश": 1608,
      "कालीन": 1609,
      "cient": 1610,
      "ack": 1611,
      "ograph": 1612,
      "spec": 1613,
      "एश": 1614,
      "భిన్న": 1615,
      "మె": 1616,
      "మూడ": 1617,
      "प्रत्येक": 1618,
      "ंच": 1619,
      "आले": 1620,
      "large": 1621,
      "economic": 1622,
      "includ": 1623,
      "caste": 1624,
      "ियों": 1625,
      "మాత్ర": 1626,
      "రహ": 1627,
      "వహ": 1628,
      "इम": 1629,
      "इस्": 1630,
      "ओळ": 1631,
      "British": 1632,
      "Empire": 1633,
      "Pakistan": 1634,
      "29": 1635,
      "राज्यों": 1636,
      "వై": 1637,
      "సౌ": 1638,
      "సింది": 1639,
      "कर्": 1640,
      "ग्": 1641,
      "जै": 1642,
      "Sep": 1643,
      "air": 1644,
      "bal": 1645,
      "other": 1646,
      "अन्य": 1647,
      "సమా": 1648,
      "హార": 1649,
      "ీర్": 1650,
      "ज्या": 1651,
      "डा": 1652,
      "त्यां": 1653,
      "tec": 1654,
      "tro": 1655,
      "tember": 1656,
      "uary": 1657,
      "हीं": 1658,
      "స్య": 1659,
      "స్వ": 1660,
      "స్వా": 1661,
      "तमिळ": 1662,
      "दु": 1663,
      "ध्या": 1664,
      "ange": 1665,
      "than": 1666,
      "this": 1667,
      "ince": 1668,
      "टे": 1669,
      "స్వాత": 1670,
      "్యాయ": 1671,
      "భారత్": 1672,
      "नु": 1673,
      "नृ": 1674,
      "नदी": 1675,
      "ons": 1676,
      "their": 1677,
      "Ind": 1678,
      "ise": 1679,
      "बना": 1680,
      "వివిధ": 1681,
      "ద్దు": 1682,
      "ంతో": 1683,
      "पश्च": 1684,
      "मत": 1685,
      "यार": 1686,
      "ement": 1687,
      "ade": 1688,
      "ower": 1689,
      "part": 1690,
      "रि": 1691,
      "సామ": 1692,
      "కోర్": 1693,
      "పేర్": 1694,
      "यात": 1695,
      "ळी": 1696,
      "वड": 1697,
      "language": 1698,
      "population": 1699,
      "January": 1700,
      "Europ": 1701,
      "क्त": 1702,
      "000": 1703,
      "రాష్ట్రాలు": 1704,
      "రాష్ట్రపతి": 1705,
      "वृ": 1706,
      "हळू": 1707,
      "्थ": 1708,
      "number": 1709,
      "September": 1710,
      "):": 1711,
      "11": 1712,
      "जाति": 1713,
      "శాఖ": 1714,
      "డ్డ": 1715,
      "మొదల": 1716,
      "ातंत्र": 1717,
      "ांचे": 1718,
      "ानंतर": 1719,
      "30": 1720,
      "Apri": 1721,
      "Jun": 1722,
      "Po": 1723,
      "लिए": 1724,
      "కర్య": 1725,
      "ప్రాంతాలు": 1726,
      "దేశంలోని": 1727,
      "राष्ट": 1728,
      "सागर": 1729,
      "मध्य": 1730,
      "app": 1731,
      "between": 1732,
      "dance": 1733,
      "fol": 1734,
      "अन्": 1735,
      "రెండు": 1736,
      "ాల్లో": 1737,
      "ఉత్తర": 1738,
      "क्षण": 1739,
      "वरून": 1740,
      "जाते": 1741,
      "ik": 1742,
      "lit": 1743,
      "man": 1744,
      "many": 1745,
      "अंग्रे": 1746,
      "పట్టణ": 1747,
      "బెంగ": 1748,
      "బ్రి": 1749,
      "परंत": 1750,
      "निवड": 1751,
      "्रपती": 1752,
      "pre": 1753,
      "rate": 1754,
      "south": 1755,
      "ten": 1756,
      "आध": 1757,
      "భాగం": 1758,
      "ప్పటిక": 1759,
      "ఏర్ప": 1760,
      "सर्वांत": 1761,
      "वर्षां": 1762,
      "रुव": 1763,
      "ure": 1764,
      "western": 1765,
      "erg": 1766,
      "ond": 1767,
      "ज्य": 1768,
      "బహు": 1769,
      "మంత్రి": 1770,
      "సింధ": 1771,
      "शास्त्र": 1772,
      "स्वातंत्र": 1773,
      "दक्षिणे": 1774,
      "ard": 1775,
      "2021": 1776,
      "ries": 1777,
      "ited": 1778,
      "द्य": 1779,
      "సరిహద్దు": 1780,
      "ఢిల్లీ": 1781,
      "దారులు": 1782,
      "बहुतां": 1783,
      "ज्ञ": 1784,
      "ृष्ट्या": 1785,
      "itary": 1786,
      "ures": 1787,
      "fore": 1788,
      "old": 1789,
      "पश्": 1790,
      "నడిప": 1791,
      "సౌకర్య": 1792,
      "స్వాతంత్ర": 1793,
      "अर्थव्यव": 1794,
      "मोठ्या": 1795,
      "पूर्ण": 1796,
      "ild": 1797,
      "und": 1798,
      "supp": 1799,
      "able": 1800,
      "ब्": 1801,
      "..": 1802,
      "no": 1803,
      "ంద": 1804,
      "अतिशय": 1805,
      "इमारत": 1806,
      "इस्ला": 1807,
      "began": 1808,
      "anges": 1809,
      "imal": 1810,
      "Chin": 1811,
      "बढ़": 1812,
      "ందు": 1813,
      "అభ": 1814,
      "అను": 1815,
      "ओळख": 1816,
      "पश्चि": 1817,
      "राष्ट्रपती": 1818,
      "peri": 1819,
      "Hinduism": 1820,
      "Constitution": 1821,
      "culture": 1822,
      "मै": 1823,
      "కం": 1824,
      "కళ": 1825,
      "కల్": 1826,
      "परंतु": 1827,
      "बहुतांशी": 1828,
      "अथ": 1829,
      "north": 1830,
      "March": 1831,
      "Buddh": 1832,
      "ountry": 1833,
      "संघ": 1834,
      "గే": 1835,
      "గంగా": 1836,
      "చార": 1837,
      "आढ": 1838,
      "आप": 1839,
      "आली": 1840,
      "Europe": 1841,
      "April": 1842,
      "After": 1843,
      "Bi": 1844,
      "िये": 1845,
      "చరి": 1846,
      "చైన": 1847,
      "జ్య": 1848,
      "आक्रम": 1849,
      "कला": 1850,
      "ख्": 1851,
      "Dec": 1852,
      "Del": 1853,
      "Is": 1854,
      "It": 1855,
      "स्तान": 1856,
      "టం": 1857,
      "టీ": 1858,
      "టె": 1859,
      "गंग": 1860,
      "घल": 1861,
      "जिक": 1862,
      "Sans": 1863,
      "US": 1864,
      "ai": 1865,
      "ach": 1866,
      "अम": 1867,
      "తన": 1868,
      "తూ": 1869,
      "తమి": 1870,
      "टा": 1871,
      "णार": 1872,
      "ण्यां": 1873,
      "bi": 1874,
      "des": 1875,
      "dom": 1876,
      "eb": 1877,
      "कई": 1878,
      "తాబ్": 1879,
      "థిక": 1880,
      "నగర": 1881,
      "तयार": 1882,
      "दृष्ट्या": 1883,
      "पी": 1884,
      "ev": 1885,
      "gra": 1886,
      "hum": 1887,
      "ke": 1888,
      "खा": 1889,
      "పత": 1890,
      "పొ": 1891,
      "పద్ధ": 1892,
      "पे": 1893,
      "मरा": 1894,
      "यी": 1895,
      "krit": 1896,
      "lish": 1897,
      "later": 1898,
      "ne": 1899,
      "तंत्र": 1900,
      "పాత్ర": 1901,
      "పండు": 1902,
      "మలు": 1903,
      "शै": 1904,
      "सभे": 1905,
      "सध्या": 1906,
      "non": 1907,
      "new": 1908,
      "pec": 1909,
      "pres": 1910,
      "धी": 1911,
      "మ్య": 1912,
      "రూ": 1913,
      "ళం": 1914,
      "्म": 1915,
      "्त्व": 1916,
      "ांची": 1917,
      "some": 1918,
      "tan": 1919,
      "ugh": 1920,
      "ven": 1921,
      "मन": 1922,
      "ళ్ల": 1923,
      "వడ": 1924,
      "వృ": 1925,
      "भारताचे": 1926,
      "वाद": 1927,
      "वाह": 1928,
      "ann": 1929,
      "one": 1930,
      "ali": 1931,
      "enti": 1932,
      "रहा": 1933,
      "వత్": 1934,
      "శతాబ్": 1935,
      "సమ": 1936,
      "मुघल": 1937,
      "तरी": 1938,
      "संख": 1939,
      "ort": 1940,
      "tim": 1941,
      "ash": 1942,
      "ised": 1943,
      "सू": 1944,
      "సై": 1945,
      "సార": 1946,
      "సర్వ": 1947,
      "होत": 1948,
      "राज्यात": 1949,
      "क्षा": 1950,
      "ree": 1951,
      "urr": 1952,
      "ural": 1953,
      "leg": 1954,
      "समा": 1955,
      "ిమ": 1956,
      "ుంది": 1957,
      "ాలతో": 1958,
      "वेश": 1959,
      "पुरा": 1960,
      "ंदि": 1961,
      "1950": 1962,
      "2008": 1963,
      "ople": 1964,
      "own": 1965,
      "सैन": 1966,
      "న్నాయి": 1967,
      "నిర్వ": 1968,
      "నుక": 1969,
      "मोठा": 1970,
      "सुरू": 1971,
      "सुरुव": 1972,
      "lowing": 1973,
      "economy": 1974,
      "northern": 1975,
      "tradition": 1976,
      "विधान": 1977,
      "నుండి": 1978,
      "త్తం": 1979,
      "ించే": 1980,
      "शिया": 1981,
      "शिष्ट": 1982,
      "मुख्याने": 1983,
      "subcontinent": 1984,
      "thematics": 1985,
      "Raj": 1986,
      "China": 1987,
      "हुए": 1988,
      "ల్వే": 1989,
      "సంఖ్య": 1990,
      "పుట్ట": 1991,
      "भागात": 1992,
      "गेट": 1993,
      "कडे": 1994,
      "Sanskrit": 1995,
      "33": 1996,
      "Au": 1997,
      "By": 1998,
      "कारण": 1999,
      "ితా": 2000,
      "కూడిన": 2001,
      "మొత్తం": 2002,
      "प्रामुख्याने": 2003,
      "स्थानिक": 2004,
      "म्हणून": 2005,
      "Mugh": 2006,
      "bas": 2007,
      "ck": 2008,
      "cre": 2009,
      "ंगा": 2010,
      "రైల్వే": 2011,
      "వాతావర": 2012,
      "భారతదేశానికి": 2013,
      "अजून": 2014,
      "खासदार": 2015,
      "निर्मि": 2016,
      "ft": 2017,
      "gi": 2018,
      "pany": 2019,
      "power": 2020,
      "इसके": 2021,
      "పాలన": 2022,
      "ఒకటి": 2023,
      "చేయ": 2024,
      "राष्ट्रीय": 2025,
      "वेगळे": 2026,
      "किल्ला": 2027,
      "since": 2028,
      "te": 2029,
      "ani": 2030,
      "there": 2031,
      "चुनाव": 2032,
      "దేశాలలో": 2033,
      "కారం": 2034,
      "తున్న": 2035,
      "पठार": 2036,
      "मंत्री": 2037,
      "उदाहरण": 2038,
      "infl": 2039,
      "eration": 2040,
      "eds": 2041,
      "dis": 2042,
      "एशिया": 2043,
      "అధికారిక": 2044,
      "ట్లు": 2045,
      "ప్రపంచంలో": 2046,
      "ia": 2047,
      "अभ": 2048,
      "अशी": 2049,
      "diversity": 2050,
      "cho": 2051,
      "litical": 2052,
      "liament": 2053,
      "कॉ": 2054,
      "భాషలు": 2055,
      "వెబ": 2056,
      "ప్రజా": 2057,
      "उद": 2058,
      "कथ": 2059,
      "कमी": 2060,
      "ety": 2061,
      "among": 2062,
      "ley": 2063,
      "1947": 2064,
      "दश": 2065,
      "ఉంటాయి": 2066,
      "కలిగి": 2067,
      "జరిగిన": 2068,
      "खन": 2069,
      "चळ": 2070,
      "ठिका": 2071,
      "2001": 2072,
      "develop": 2073,
      "mill": 2074,
      "increased": 2075,
      "न्या": 2076,
      "వంటి": 2077,
      "అనేక": 2078,
      "ఎక్కువగా": 2079,
      "डू": 2080,
      "दर्": 2081,
      "दख्": 2082,
      "classical": 2083,
      "including": 2084,
      "Indus": 2085,
      "June": 2086,
      "नहीं": 2087,
      "ప్రస్తుతం": 2088,
      "కాంగ్రెసు": 2089,
      "సముద్ర": 2090,
      "पो": 2091,
      "पती": 2092,
      "पंत": 2093,
      "liter": 2094,
      "Delhi": 2095,
      "influ": 2096,
      "521": 2097,
      "योग": 2098,
      "ప్రాచీన": 2099,
      "జాబితా": 2100,
      "రహదారులు": 2101,
      "बत": 2102,
      "बर": 2103,
      "भवन": 2104,
      "Beng": 2105,
      "For": 2106,
      "Ge": 2107,
      "No": 2108,
      "ारी": 2109,
      "అభి": 2110,
      "చరిత్ర": 2111,
      "శతాబ్దం": 2112,
      "रंग": 2113,
      "वस": 2114,
      "शक": 2115,
      "National": 2116,
      "Per": 2117,
      "Pro": 2118,
      "Pun": 2119,
      "्री": 2120,
      "నిర్వహ": 2121,
      "వాతావరణం": 2122,
      "angua": 2123,
      "हात": 2124,
      "ूर": 2125,
      "ेत्र": 2126,
      "So": 2127,
      "York": 2128,
      "ace": 2129,
      "cour": 2130,
      "प्रति": 2131,
      "%),": 2132,
      "CI": 2133,
      "km": 2134,
      "१२": 2135,
      "५०": 2136,
      "ांना": 2137,
      "gr": 2138,
      "gust": 2139,
      "hn": 2140,
      "high": 2141,
      "प्रधान": 2142,
      "langua": 2143,
      "mi": 2144,
      "sq": 2145,
      "भारताची": 2146,
      "भारताने": 2147,
      "स्ट": 2148,
      "jab": 2149,
      "king": 2150,
      "mus": 2151,
      "mid": 2152,
      "प्रमुख": 2153,
      "tal": 2154,
      "అని": 2155,
      "ఆఫ": 2156,
      "प्रांत": 2157,
      "सामा": 2158,
      "वाळ": 2159,
      "nuclear": 2160,
      "ood": 2161,
      "pt": 2162,
      "pen": 2163,
      "संविधान": 2164,
      "ఇవ": 2165,
      "కల": 2166,
      "ఖండ": 2167,
      "वापर": 2168,
      "नाडू": 2169,
      "संगी": 2170,
      "set": 2171,
      "tr": 2172,
      "tri": 2173,
      "ves": 2174,
      "करने": 2175,
      "చి": 2176,
      "జి": 2177,
      "జన్": 2178,
      "संसद": 2179,
      "त्तर": 2180,
      "त्याचे": 2181,
      "ving": 2182,
      "west": 2183,
      "well": 2184,
      "enni": 2185,
      "करोड़": 2186,
      "టా": 2187,
      "డే": 2188,
      "ణంగా": 2189,
      "पुत्र": 2190,
      "करतात": 2191,
      "करण्यात": 2192,
      "arm": 2193,
      "ess": 2194,
      "Indo": 2195,
      "ics": 2196,
      "ड़ा": 2197,
      "దన": 2198,
      "దీ": 2199,
      "ద్య": 2200,
      "मानवी": 2201,
      "गेली": 2202,
      "भूमी": 2203,
      "ite": 2204,
      "sty": 2205,
      "state": 2206,
      "aman": 2207,
      "द्वार": 2208,
      "నాయ": 2209,
      "న్యాయ": 2210,
      "పద": 2211,
      "कडील": 2212,
      "वैशिष्ट": 2213,
      "सिद्ध": 2214,
      "2012": 2215,
      "2017": 2216,
      "forest": 2217,
      "ular": 2218,
      "भाषाओं": 2219,
      "పశ": 2220,
      "పక్ష": 2221,
      "మల": 2222,
      "जास्त": 2223,
      "प्राण्यां": 2224,
      "म्हणजे": 2225,
      "2003": 2226,
      "constitution": 2227,
      "ird": 2228,
      "sion": 2229,
      "्राज्य": 2230,
      "మాలు": 2231,
      "మ్మ": 2232,
      "యాలు": 2233,
      "पूर्वीचे": 2234,
      "साम्राज्य": 2235,
      "युद्ध": 2236,
      "cience": 2237,
      "ately": 2238,
      "parliament": 2239,
      "ains": 2240,
      "अनुसार": 2241,
      "రే": 2242,
      "ర్య": 2243,
      "రకాల": 2244,
      "गोल": 2245,
      "ण्यास": 2246,
      "हिंदू": 2247,
      "rule": 2248,
      "econd": 2249,
      "general": 2250,
      "mark": 2251,
      "ख्या": 2252,
      "లక్ష": 2253,
      "వరి": 2254,
      "సర": 2255,
      "भरत": 2256,
      "च्छ": 2257,
      "इंग्रजी": 2258,
      "cultur": 2259,
      "lands": 2260,
      "occ": 2261,
      "people": 2262,
      "गठ": 2263,
      "సూ": 2264,
      "హా": 2265,
      "ిల్": 2266,
      "दोन": 2267,
      "विद्यार्थ्यां": 2268,
      "तमिळनाडू": 2269,
      "election": 2270,
      "ensus": 2271,
      "species": 2272,
      "period": 2273,
      "चल": 2274,
      "ిస్త": 2275,
      "ీలు": 2276,
      "ుల": 2277,
      "नृत्य": 2278,
      "अर्थव्यवस्था": 2279,
      "इस्लामी": 2280,
      "August": 2281,
      "Mughal": 2282,
      "Punjab": 2283,
      "49": 2284,
      "नों": 2285,
      "ెల": 2286,
      "ోర": 2287,
      "లోక్": 2288,
      "अथवा": 2289,
      "आढळ": 2290,
      "पेक्षा": 2291,
      "69": 2292,
      "Am": 2293,
      "From": 2294,
      "Feb": 2295,
      "पह": 2296,
      "స్లా": 2297,
      "దినాలు": 2298,
      "ప్రకారం": 2299,
      "निर्मिती": 2300,
      "चळवळ": 2301,
      "पंतप्रधान": 2302,
      "Mus": 2303,
      "Nuclear": 2304,
      "Pr": 2305,
      "Par": 2306,
      "यू": 2307,
      "ాలీ": 2308,
      "ాలకు": 2309,
      "ికత": 2310,
      "सामाजिक": 2311,
      "%;": 2312,
      "ंट": 2313,
      "Pra": 2314,
      "Sh": 2315,
      "Sik": 2316,
      "Tim": 2317,
      "संबंध": 2318,
      "ిక్": 2319,
      "కుల": 2320,
      "కుంట": 2321,
      "ंची": 2322,
      "अर": 2323,
      "अस्त": 2324,
      "bil": 2325,
      "bel": 2326,
      "ced": 2327,
      "country": 2328,
      "सम्": 2329,
      "కుటు": 2330,
      "నిర్": 2331,
      "ాయు": 2332,
      "आर्": 2333,
      "आर्थ": 2334,
      "आधार": 2335,
      "dle": 2336,
      "pol": 2337,
      "pend": 2338,
      "public": 2339,
      "हिन्द": 2340,
      "రాస్య": 2341,
      "ములో": 2342,
      "ముంబ": 2343,
      "इत्या": 2344,
      "ऋष": 2345,
      "ऑफ": 2346,
      "ron": 2347,
      "tor": 2348,
      "ude": 2349,
      "vement": 2350,
      "ंग्रेस": 2351,
      "ద్వీ": 2352,
      "ల్లో": 2353,
      "సంఘ": 2354,
      "खो": 2355,
      "ग्रा": 2356,
      "घट": 2357,
      "ank": 2358,
      "through": 2359,
      "them": 2360,
      "educ": 2361,
      "स्वतंत्र": 2362,
      "సంప్రదాయ": 2363,
      "సంవత్": 2364,
      "స్థాన్": 2365,
      "घड": 2366,
      "घो": 2367,
      "जवळ": 2368,
      "arn": 2369,
      "til": 2370,
      "time": 2371,
      "offic": 2372,
      "पार्ट": 2373,
      "ంటే": 2374,
      "పాక్": 2375,
      "పాటు": 2376,
      "जयं": 2377,
      "ट्": 2378,
      "डे": 2379,
      "rel": 2380,
      "river": 2381,
      "ata": 2382,
      "ats": 2383,
      "भूमि": 2384,
      "క్షరాస్య": 2385,
      "ఉన్నారు": 2386,
      "టిలో": 2387,
      "णू": 2388,
      "द्यां": 2389,
      "द्रा": 2390,
      "lead": 2391,
      "2014": 2392,
      "2015": 2393,
      "emerg": 2394,
      "मैदान": 2395,
      "ంచి": 2396,
      "వ్యా": 2397,
      "రైళ్ల": 2398,
      "नार": 2399,
      "नद्यां": 2400,
      "पात": 2401,
      "ill": 2402,
      "ultan": 2403,
      "2004": 2404,
      "2005": 2405,
      "चुनावों": 2406,
      "రాష్ట్రాల": 2407,
      "వచ్చిన": 2408,
      "భారతదేశపు": 2409,
      "बि": 2410,
      "मर": 2411,
      "मंदि": 2412,
      "ments": 2413,
      "wide": 2414,
      "expor": 2415,
      "soci": 2416,
      "व्यवस्था": 2417,
      "కొన్ని": 2418,
      "పాలిత": 2419,
      "మైనది": 2420,
      "लु": 2421,
      "ळा": 2422,
      "विक": 2423,
      "social": 2424,
      "ruary": 2425,
      "military": 2426,
      "port": 2427,
      "द्वारा": 2428,
      "వేగంగా": 2429,
      "ణాసియా": 2430,
      "భారతదేశంలోని": 2431,
      "वसाय": 2432,
      "वंट": 2433,
      "शह": 2434,
      "served": 2435,
      "languages": 2436,
      "Company": 2437,
      "Economy": 2438,
      "इन": 2439,
      "చెందిన": 2440,
      "డ్డు": 2441,
      "వ్యవస్థలో": 2442,
      "शो": 2443,
      "शहर": 2444,
      "षे": 2445,
      "Economic": 2446,
      "Modern": 2447,
      "caused": 2448,
      "religion": 2449,
      "ण्": 2450,
      "కార్య": 2451,
      "కరణ": 2452,
      "పరంగా": 2453,
      "सात": 2454,
      "सस्त": 2455,
      "साली": 2456,
      "Plate": 2457,
      "troduc": 2458,
      "millenni": 2459,
      "Bengal": 2460,
      "तृ": 2461,
      "పరిశ్ర": 2462,
      "మేన": 2463,
      "ప్రధానమంత్రి": 2464,
      "सम्रा": 2465,
      "सऱ्या": 2466,
      "हज": 2467,
      "February": 2468,
      "millennium": 2469,
      "31": 2470,
      "37": 2471,
      "फ़": 2472,
      "స్థానంలో": 2473,
      "రాజ్యాలు": 2474,
      "వారస": 2475,
      "ाळ": 2476,
      "ृत": 2477,
      "१८": 2478,
      "45": 2479,
      "51": 2480,
      "53": 2481,
      "87": 2482,
      "बे": 2483,
      "సభ్య": 2484,
      "ఆర్థిక": 2485,
      "పూర్వ": 2486,
      "्याच्या": 2487,
      "ातून": 2488,
      "र्ज": 2489,
      "Dem": 2490,
      "East": 2491,
      "Gand": 2492,
      "Himal": 2493,
      "रह": 2494,
      "రోడ్డు": 2495,
      "ముఖ్యమైన": 2496,
      "సాంప్రదాయ": 2497,
      "ांग": 2498,
      "ांवर": 2499,
      "भारताला": 2500,
      "Ne": 2501,
      "Or": 2502,
      "Rout": 2503,
      "Science": 2504,
      "शु": 2505,
      "జనగణ": 2506,
      "బాద్": 2507,
      "కేంద్రపాలిత": 2508,
      "स्वी": 2509,
      "स्मार": 2510,
      "स्पती": 2511,
      "can": 2512,
      "cord": 2513,
      "day": 2514,
      "eth": 2515,
      "नेतृ": 2516,
      "ప్రభుత్వం": 2517,
      "పాకిస్తాన్": 2518,
      "పాకిస్థాన్": 2519,
      "लेला": 2520,
      "वाघ": 2521,
      "काम": 2522,
      "eas": 2523,
      "east": 2524,
      "fam": 2525,
      "ga": 2526,
      "विका": 2527,
      "area": 2528,
      "దక్షిణాన": 2529,
      "పైగా": 2530,
      "ित्त्व": 2531,
      "त्त्व": 2532,
      "केला": 2533,
      "last": 2534,
      "prom": 2535,
      "ris": 2536,
      "rural": 2537,
      "विस्त": 2538,
      "సంగీతం": 2539,
      "సంస్కృతి": 2540,
      "సినిమా": 2541,
      "द्दल": 2542,
      "राज्ये": 2543,
      "पाकि": 2544,
      "sa": 2545,
      "son": 2546,
      "sing": 2547,
      "second": 2548,
      "संख्या": 2549,
      "శాస్త్రం": 2550,
      "list": 2551,
      "total": 2552,
      "त्यामुळे": 2553,
      "पूर": 2554,
      "मान्य": 2555,
      "uries": 2556,
      "work": 2557,
      "ya": 2558,
      "ana": 2559,
      "धिकार": 2560,
      "ఆధార": 2561,
      "మూడు": 2562,
      "మాత్రం": 2563,
      "येतात": 2564,
      "ल्प": 2565,
      "किनार": 2566,
      "indu": 2567,
      "ered": 2568,
      "theast": 2569,
      "ederal": 2570,
      "बहुत": 2571,
      "స్వతంత్ర": 2572,
      "స్వామ్య": 2573,
      "సామ్రా": 2574,
      "णाऱ्या": 2575,
      "गेल्या": 2576,
      "वैविध": 2577,
      "ese": 2578,
      "ori": 2579,
      "disp": 2580,
      "direc": 2581,
      "द्योग": 2582,
      "బెంగాలీ": 2583,
      "బ్రిటి": 2584,
      "ప్పటికీ": 2585,
      "व्यु": 2586,
      "वारी": 2587,
      "वारे": 2588,
      "2022": 2589,
      "righ": 2590,
      "ating": 2591,
      "ature": 2592,
      "कॉंग्रेस": 2593,
      "నడిపించ": 2594,
      "స్వాతంత్ర్య": 2595,
      "వృద్ధి": 2596,
      "प्रकारच्या": 2597,
      "वर्षात": 2598,
      "स्थापत्य": 2599,
      "ically": 2600,
      "198": 2601,
      "iron": 2602,
      "owever": 2603,
      "दशक": 2604,
      "సర్వీ": 2605,
      "అభివృద్ధి": 2606,
      "ఆఫ్": 2607,
      "वनस्पती": 2608,
      "प्रदेशात": 2609,
      "इंग्": 2610,
      "who": 2611,
      "ago": 2612,
      "contr": 2613,
      "centuries": 2614,
      "आर्थिक": 2615,
      "పశ్చ": 2616,
      "కుటుంబ": 2617,
      "క్షరాస్యత": 2618,
      "धारण": 2619,
      "धार्म": 2620,
      "व्यावसाय": 2621,
      "coast": 2622,
      "cook": 2623,
      "And": 2624,
      "Asian": 2625,
      "पाकिस्तान": 2626,
      "12": 2627,
      "46": 2628,
      "act": 2629,
      "पारं": 2630,
      "ण्याची": 2631,
      "पडले": 2632,
      "ative": 2633,
      "ledge": 2634,
      "ocra": 2635,
      "Mathematics": 2636,
      "ंप": 2637,
      "ng": 2638,
      "ంభ": 2639,
      "అహ": 2640,
      "पदवी": 2641,
      "सोयी": 2642,
      "सोबत": 2643,
      "religi": 2644,
      "majority": 2645,
      "Central": 2646,
      "human": 2647,
      "उन": 2648,
      "అవి": 2649,
      "ఆక్రమ": 2650,
      "ఆహార": 2651,
      "हिंदी": 2652,
      "उपसागर": 2653,
      "सीमा": 2654,
      "music": 2655,
      "Muslim": 2656,
      "billion": 2657,
      "Gandhi": 2658,
      "जब": 2659,
      "ఇవి": 2660,
      "ఇంగ్ల": 2661,
      "ఇస్లా": 2662,
      "नाटके": 2663,
      "बंगालच्या": 2664,
      "व्ह": 2665,
      "Himalay": 2666,
      "Routledge": 2667,
      "%.": 2668,
      "100": 2669,
      "धि": 2670,
      "ఉండ": 2671,
      "కథ": 2672,
      "కూ": 2673,
      "शतक": 2674,
      "जैन": 2675,
      "नुसार": 2676,
      "43": 2677,
      "44": 2678,
      "BJ": 2679,
      "Co": 2680,
      "पर्व": 2681,
      "కన్న": 2682,
      "కత్వ": 2683,
      "కింద": 2684,
      "वर्षांपूर्वी": 2685,
      "स्वातंत्र्य": 2686,
      "पश्चिम": 2687,
      "Cul": 2688,
      "Its": 2689,
      "Jain": 2690,
      "Sing": 2691,
      "लर": 2692,
      "కీర్": 2693,
      "చన": 2694,
      "చు": 2695,
      "गंगे": 2696,
      "अजूनही": 2697,
      "दख्खन": 2698,
      "Ur": 2699,
      "Western": 2700,
      "ath": 2701,
      "bu": 2702,
      "लों": 2703,
      "చాల": 2704,
      "చిత్ర": 2705,
      "జీ": 2706,
      "वाळवंट": 2707,
      "संगीत": 2708,
      "अस्तित्त्व": 2709,
      "col": 2710,
      "found": 2711,
      "gar": 2712,
      "get": 2713,
      "ोष": 2714,
      "జాలు": 2715,
      "జరు": 2716,
      "జంబ": 2717,
      "इत्यादी": 2718,
      "जयंती": 2719,
      "शहरी": 2720,
      "ho": 2721,
      "ially": 2722,
      "line": 2723,
      "men": 2724,
      "्यों": 2725,
      "టే": 2726,
      "టై": 2727,
      "టర్": 2728,
      "सस्तन": 2729,
      "सम्राट": 2730,
      "धार्मिक": 2731,
      "made": 2732,
      "ned": 2733,
      "ram": 2734,
      "rates": 2735,
      "सेना": 2736,
      "టులు": 2737,
      "డిన": 2738,
      "తల": 2739,
      "व्यावसायिक": 2740,
      "ंचा": 2741,
      "ंनी": 2742,
      "sec": 2743,
      "sur": 2744,
      "val": 2745,
      "vic": 2746,
      "क्ति": 2747,
      "తీ": 2748,
      "తె": 2749,
      "తే": 2750,
      "अल": 2751,
      "अशिया": 2752,
      "आर": 2753,
      "vol": 2754,
      "viron": 2755,
      "wom": 2756,
      "yan": 2757,
      "परमाण": 2758,
      "తము": 2759,
      "తులు": 2760,
      "తంలో": 2761,
      "आला": 2762,
      "कल": 2763,
      "कू": 2764,
      "ancient": 2765,
      "third": 2766,
      "ert": 2767,
      "2023": 2768,
      "जनजाति": 2769,
      "తెలు": 2770,
      "దర": 2771,
      "నది": 2772,
      "कच्छ": 2773,
      "कल्प": 2774,
      "खाली": 2775,
      "reat": 2776,
      "ents": 2777,
      "itec": 2778,
      "str": 2779,
      "निर्माण": 2780,
      "పీ": 2781,
      "పార్": 2782,
      "బి": 2783,
      "गत": 2784,
      "ग्र": 2785,
      "गती": 2786,
      "lies": 2787,
      "ades": 2788,
      "Indians": 2789,
      "use": 2790,
      "च्च": 2791,
      "బంగ్ల": 2792,
      "బంధ": 2793,
      "బడ్డ": 2794,
      "घात": 2795,
      "जु": 2796,
      "जरा": 2797,
      "def": 2798,
      "ders": 2799,
      "acy": 2800,
      "agri": 2801,
      "सैन्य": 2802,
      "భర": 2803,
      "భౌ": 2804,
      "మర": 2805,
      "जवा": 2806,
      "जंग": 2807,
      "डि": 2808,
      "ions": 2809,
      "early": 2810,
      "party": 2811,
      "areas": 2812,
      "न्याया": 2813,
      "మూ": 2814,
      "మౌ": 2815,
      "మాత": 2816,
      "णु": 2817,
      "तन": 2818,
      "थे": 2819,
      "lobal": 2820,
      "contri": 2821,
      "common": 2822,
      "central": 2823,
      "प्रधानमंत्री": 2824,
      "మతి": 2825,
      "మంది": 2826,
      "మారు": 2827,
      "थार": 2828,
      "धा": 2829,
      "धु": 2830,
      "ternational": 2831,
      "Hindi": 2832,
      "Ancient": 2833,
      "forms": 2834,
      "परमाणु": 2835,
      "యం": 2836,
      "యింది": 2837,
      "రీ": 2838,
      "धो": 2839,
      "नवी": 2840,
      "नद्या": 2841,
      "1991": 2842,
      "gener": 2843,
      "harma": 2844,
      "political": 2845,
      "अव": 2846,
      "లీ": 2847,
      "లె": 2848,
      "లిం": 2849,
      "पत्": 2850,
      "पहि": 2851,
      "पद्ध": 2852,
      "cess": 2853,
      "include": 2854,
      "Act": 2855,
      "United": 2856,
      "ईसा": 2857,
      "ళ్": 2858,
      "ళిక": 2859,
      "వం": 2860,
      "पणे": 2861,
      "पदार": 2862,
      "फे": 2863,
      "growth": 2864,
      "following": 2865,
      "Buddhist": 2866,
      "European": 2867,
      "ओर": 2868,
      "వులు": 2869,
      "వల్ల": 2870,
      "వలం": 2871,
      "बॉ": 2872,
      "बार": 2873,
      "बरो": 2874,
      "times": 2875,
      "based": 2876,
      "influen": 2877,
      "trans": 2878,
      "गई": 2879,
      "శెల": 2880,
      "సహ": 2881,
      "సే": 2882,
      "बद्दल": 2883,
      "भदे": 2884,
      "मंच": 2885,
      "Sikh": 2886,
      "Times": 2887,
      "emerged": 2888,
      "ultanate": 2889,
      "गति": 2890,
      "స్ర": 2891,
      "సులు": 2892,
      "సైన": 2893,
      "यश": 2894,
      "यातील": 2895,
      "रच": 2896,
      "cording": 2897,
      "control": 2898,
      "Andaman": 2899,
      "religious": 2900,
      "दर": 2901,
      "సార్": 2902,
      "హై": 2903,
      "హిమ": 2904,
      "वू": 2905,
      "वणात": 2906,
      "शन": 2907,
      "BJP": 2908,
      "vironment": 2909,
      "women": 2910,
      "%,": 2911,
      "बो": 2912,
      "ాదేశ": 2913,
      "ాంగ": 2914,
      "ిగా": 2915,
      "श्र": 2916,
      "शाले": 2917,
      "षित": 2918,
      "2n": 2919,
      "39": 2920,
      "400": 2921,
      "55": 2922,
      "रक्षा": 2923,
      "ుకొ": 2924,
      "ూరు": 2925,
      "ెట్": 2926,
      "षभू": 2927,
      "सह": 2928,
      "सै": 2929,
      "57": 2930,
      "500": 2931,
      "Ash": 2932,
      "Bh": 2933,
      "लिये": 2934,
      "్వ": 2935,
      "ారంభ": 2936,
      "లోయ": 2937,
      "समू": 2938,
      "सृष्ट": 2939,
      "सह्या": 2940,
      "Bl": 2941,
      "Bhar": 2942,
      "Civ": 2943,
      "Ear": 2944,
      "शता": 2945,
      "్యా": 2946,
      "ప్రారంభ": 2947,
      "దేశపు": 2948,
      "ीच्या": 2949,
      "ूण": 2950,
      "ौर": 2951,
      "Ganges": 2952,
      "Min": 2953,
      "Mal": 2954,
      "Public": 2955,
      "२००": 2956,
      "దేశానికి": 2957,
      "ాలనే": 2958,
      "ాలెండ": 2959,
      "११": 2960,
      "१५": 2961,
      "१६": 2962,
      "Se": 2963,
      "Stu": 2964,
      "Tam": 2965,
      "bre": 2966,
      "ाना": 2967,
      "ికా": 2968,
      "ర్త": 2969,
      "ర్ష": 2970,
      "१७": 2971,
      "२६": 2972,
      "्योग": 2973,
      "bir": 2974,
      "car": 2975,
      "cru": 2976,
      "census": 2977,
      "भाई": 2978,
      "ర్‌": 2979,
      "న్నది": 2980,
      "న్నారు": 2981,
      "्याचे": 2982,
      "्यानंतर": 2983,
      "ातन": 2984,
      "ds": 2985,
      "dra": 2986,
      "fer": 2987,
      "far": 2988,
      "भाज": 2989,
      "గాంధ": 2990,
      "కులు": 2991,
      "నిస్తాన్": 2992,
      "ांतात": 2993,
      "ांपैकी": 2994,
      "भारताचा": 2995,
      "fig": 2996,
      "fast": 2997,
      "fac": 2998,
      "glish": 2999,
      "कार्य": 3000,
      "విధ్య": 3001,
      "విభిన్న": 3002,
      "విద్య": 3003,
      "स्वर": 3004,
      "स्कार": 3005,
      "प्रसिद्ध": 3006,
      "hist": 3007,
      "hru": 3008,
      "ib": 3009,
      "ive": 3010,
      "१९९": 3011,
      "ాతో": 3012,
      "క్తి": 3013,
      "దేశంగా": 3014,
      "प्रांतात": 3015,
      "लेल्या": 3016,
      "लेणी": 3017,
      "ide": 3018,
      "kn": 3019,
      "lin": 3020,
      "lam": 3021,
      "वीं": 3022,
      "నులు": 3023,
      "నుంచి": 3024,
      "ద్వార": 3025,
      "साद": 3026,
      "विले": 3027,
      "विभाग": 3028,
      "mit": 3029,
      "medi": 3030,
      "ning": 3031,
      "national": 3032,
      "जिसमें": 3033,
      "త్వా": 3034,
      "త్తా": 3035,
      "సంకీర్": 3036,
      "वाढ": 3037,
      "वाटा": 3038,
      "तीय": 3039,
      "pain": 3040,
      "ren": 3041,
      "rul": 3042,
      "sou": 3043,
      "ब्दी": 3044,
      "సంబంధ": 3045,
      "పురు": 3046,
      "స్థి": 3047,
      "यास": 3048,
      "नाही": 3049,
      "मुल": 3050,
      "scul": 3051,
      "ton": 3052,
      "tem": 3053,
      "tex": 3054,
      "धीरे": 3055,
      "ంటు": 3056,
      "పాదన": 3057,
      "వాహ": 3058,
      "मुंब": 3059,
      "संब": 3060,
      "असल्या": 3061,
      "uch": 3062,
      "vis": 3063,
      "vast": 3064,
      "wor": 3065,
      "समाज": 3066,
      "వాణి": 3067,
      "జాతి": 3068,
      "కూడుకు": 3069,
      "केवळ": 3070,
      "होत्या": 3071,
      "भाषे": 3072,
      "ances": 3073,
      "indi": 3074,
      "inter": 3075,
      "they": 3076,
      "ण्ड": 3077,
      "రాజు": 3078,
      "కోల్": 3079,
      "ట్టమొదటి": 3080,
      "्यांचे": 3081,
      "वेद": 3082,
      "वेषभू": 3083,
      "ality": 3084,
      "ara": 3085,
      "arch": 3086,
      "espec": 3087,
      "नेतृत्व": 3088,
      "కాగా": 3089,
      "కాశ్": 3090,
      "నేపాల": 3091,
      "कारभार": 3092,
      "त्यात": 3093,
      "जातात": 3094,
      "diff": 3095,
      "remain": 3096,
      "icy": 3097,
      "ites": 3098,
      "विकास": 3099,
      "మొట్టమొదటి": 3100,
      "మాబాద్": 3101,
      "లిచ": 3102,
      "करणे": 3103,
      "येते": 3104,
      "कृष्ट": 3105,
      "ecu": 3106,
      "There": 3107,
      "ched": 3108,
      "ste": 3109,
      "अरब": 3110,
      "తరాలు": 3111,
      "నాగర": 3112,
      "గువ": 3113,
      "काळातील": 3114,
      "दिवस": 3115,
      "एकूण": 3116,
      "states": 3117,
      "litics": 3118,
      "ets": 3119,
      "eton": 3120,
      "शताब्दी": 3121,
      "గుర్త": 3122,
      "వచ్చు": 3123,
      "ద్ధం": 3124,
      "मिळते": 3125,
      "मिळतात": 3126,
      "गेले": 3127,
      "amp": 3128,
      "verse": 3129,
      "2013": 3130,
      "2018": 3131,
      "एँ": 3132,
      "పాలించ": 3133,
      "ఒకే": 3134,
      "చేసింది": 3135,
      "धर्मीय": 3136,
      "सर्वो": 3137,
      "१९७": 3138,
      "2019": 3139,
      "ration": 3140,
      "territ": 3141,
      "emp": 3142,
      "एवं": 3143,
      "్‌సై": 3144,
      "offi": 3145,
      "ఎన్నిక": 3146,
      "संस्कृत": 3147,
      "लिवू": 3148,
      "स्थापन": 3149,
      "eld": 3150,
      "2000": 3151,
      "operation": 3152,
      "mathema": 3153,
      "गंगा": 3154,
      "పెనీ": 3155,
      "కేవలం": 3156,
      "కారణంగా": 3157,
      "जीव": 3158,
      "द्री": 3159,
      "यांच्या": 3160,
      "depend": 3161,
      "movement": 3162,
      "Union": 3163,
      "lood": 3164,
      "चार": 3165,
      "తుంది": 3166,
      "దాపు": 3167,
      "దాదాపు": 3168,
      "नावाने": 3169,
      "नावाचा": 3170,
      "जेवणात": 3171,
      "local": 3172,
      "formed": 3173,
      "produc": 3174,
      "lower": 3175,
      "तमिल": 3176,
      "హిందీ": 3177,
      "త్రి": 3178,
      "మతాలు": 3179,
      "मार्": 3180,
      "वन्य": 3181,
      "म्हणतात": 3182,
      "ffair": 3183,
      "view": 3184,
      "apit": 3185,
      "pos": 3186,
      "पं": 3187,
      "స్థానం": 3188,
      "భాషా": 3189,
      "రాజ్యాంగ": 3190,
      "कोटी": 3191,
      "पारिक": 3192,
      "येथे": 3193,
      "book": 3194,
      "ological": 3195,
      "regions": 3196,
      "grew": 3197,
      "मौ": 3198,
      "నాలుగు": 3199,
      "వర్గ": 3200,
      "వర్ణ": 3201,
      "पदव्यु": 3202,
      "उत्तरे": 3203,
      "प्रमाणात": 3204,
      "Environment": 3205,
      "English": 3206,
      "fied": 3207,
      "five": 3208,
      "लन": 3209,
      "దక్షిణాసియా": 3210,
      "వెనుక": 3211,
      "ప్రజల": 3212,
      "लागले": 3213,
      "गणला": 3214,
      "गुप्त": 3215,
      "ography": 3216,
      "head": 3217,
      "ildlife": 3218,
      "December": 3219,
      "लोग": 3220,
      "హిందూదేశం": 3221,
      "వీటిలో": 3222,
      "శ్రీ": 3223,
      "महत्त्व": 3224,
      "विषय": 3225,
      "नाटक": 3226,
      "Islam": 3227,
      "chool": 3228,
      "literacy": 3229,
      "parliamentary": 3230,
      "सक": 3231,
      "ష్ణ": 3232,
      "స్కృతిక": 3233,
      "సాంస్కృతిక": 3234,
      "असलेली": 3235,
      "इंग्रज": 3236,
      "द्वीपसमू": 3237,
      "cultural": 3238,
      "occup": 3239,
      "religions": 3240,
      "troduction": 3241,
      "हें": 3242,
      "ntry": 3243,
      "ఉంటుంది": 3244,
      "కలిసి": 3245,
      "व्हा": 3246,
      "शेती": 3247,
      "पुरातन": 3248,
      "Nehru": 3249,
      "fami": 3250,
      "indust": 3251,
      "Singh": 3252,
      "हरी": 3253,
      "బడత": 3254,
      "బడిన": 3255,
      "బడింది": 3256,
      "पुरस्कार": 3257,
      "हळूहळू": 3258,
      "क्षणिक": 3259,
      "itecture": 3260,
      "2nd": 3261,
      "Civil": 3262,
      "Tamil": 3263,
      "साल": 3264,
      "మహా": 3265,
      "ుకుంట": 3266,
      "క్రీడలు": 3267,
      "ओळखले": 3268,
      "णारे": 3269,
      "शैली": 3270,
      "painting": 3271,
      "especially": 3272,
      "ffairs": 3273,
      "35": 3274,
      "न्द्र": 3275,
      "తరువాతి": 3276,
      "లేదా": 3277,
      "సాధించ": 3278,
      "सुरुवात": 3279,
      "ठिकाणी": 3280,
      "समावेश": 3281,
      "59": 3282,
      "60": 3283,
      "70": 3284,
      "76": 3285,
      "राजनी": 3286,
      "ఉపఖండ": 3287,
      "క్యాలెండ": 3288,
      "ుకోవడ": 3289,
      "वैशिष्ट्य": 3290,
      "युद्धात": 3291,
      "आढळतात": 3292,
      "Af": 3293,
      "At": 3294,
      "Ara": 3295,
      "Ass": 3296,
      "देख": 3297,
      "ప్రతిపాదన": 3298,
      "విస్తారు": 3299,
      "ిత్రక": 3300,
      "आधारित": 3301,
      "मंदिरे": 3302,
      "वैविध्य": 3303,
      "Be": 3304,
      "Bo": 3305,
      "DP": 3306,
      "Des": 3307,
      "ड़ी": 3308,
      "సినిమాలు": 3309,
      "శాస్త్రీయ": 3310,
      "వైవిధ్య": 3311,
      "पारंपारिक": 3312,
      "अशियाई": 3313,
      "थारचे": 3314,
      "During": 3315,
      "Ex": 3316,
      "Gu": 3317,
      "GDP": 3318,
      "हाँ": 3319,
      "సమాఖ్య": 3320,
      "కోర్టు": 3321,
      "కోర్టులు": 3322,
      "पद्धती": 3323,
      "पदार्थ": 3324,
      "बॉलिवू": 3325,
      "He": 3326,
      "Jo": 3327,
      "Jam": 3328,
      "Kash": 3329,
      "हाला": 3330,
      "పేర్లు": 3331,
      "పేర్కొ": 3332,
      "మొదలైన": 3333,
      "बरोबर": 3334,
      "शालेय": 3335,
      "सृष्टी": 3336,
      "Langu": 3337,
      "Lond": 3338,
      "Mich": 3339,
      "Mid": 3340,
      "निर": 3341,
      "పట్టణాలు": 3342,
      "ఏర్పడ్డ": 3343,
      "బహుళ": 3344,
      "सह्याद्री": 3345,
      "स्वरू": 3346,
      "मुंबई": 3347,
      "Nic": 3348,
      "Pol": 3349,
      "Publ": 3350,
      "Vol": 3351,
      "वर्त": 3352,
      "సింధు": 3353,
      "Consti": 3354,
      "కంపెనీ": 3355,
      "पदव्युत्तर": 3356,
      "द्वीपसमूह": 3357,
      "बॉलिवूड": 3358,
      "Wi": 3359,
      "au": 3360,
      "bod": 3361,
      "back": 3362,
      "जनसंख्या": 3363,
      "చారిత్రక": 3364,
      "తమిళం": 3365,
      "నగరాలు": 3366,
      "eter": 3367,
      "kil": 3368,
      "ंह": 3369,
      "den": 3370,
      "ded": 3371,
      "dem": 3372,
      "ef": 3373,
      "जिन": 3374,
      "పతకాలు": 3375,
      "పొందిన": 3376,
      "పద్ధతి": 3377,
      "ंजा": 3378,
      "अश": 3379,
      "अरा": 3380,
      "federal": 3381,
      "hy": 3382,
      "hen": 3383,
      "hou": 3384,
      "प्ले": 3385,
      "పండుగలు": 3386,
      "ఒకటిగా": 3387,
      "వెబ్‌సై": 3388,
      "अंद": 3389,
      "अग्": 3390,
      "अणु": 3391,
      "hav": 3392,
      "history": 3393,
      "ii": 3394,
      "iz": 3395,
      "युक्त": 3396,
      "ప్రజాస్వామ్య": 3397,
      "సముద్రం": 3398,
      "నిర్వహణ": 3399,
      "आम": 3400,
      "आसा": 3401,
      "आकर्": 3402,
      "jec": 3403,
      "ling": 3404,
      "lay": 3405,
      "mis": 3406,
      "स्थित": 3407,
      "ile": 3408,
      "జన్మ": 3409,
      "ముంబై": 3410,
      "आधु": 3411,
      "ईश": 3412,
      "उष्": 3413,
      "now": 3414,
      "os": 3415,
      "pur": 3416,
      "pture": 3417,
      "क्षेत्रीय": 3418,
      "సంప్రదాయాలు": 3419,
      "వ్యాపార": 3420,
      "రైళ్లను": 3421,
      "उठा": 3422,
      "ऊन": 3423,
      "ओघात": 3424,
      "pical": 3425,
      "ran": 3426,
      "sm": 3427,
      "sist": 3428,
      "बंधन": 3429,
      "కార్యక్రమ": 3430,
      "పరిశ్రమలు": 3431,
      "వారసత్వ": 3432,
      "ओडि": 3433,
      "कले": 3434,
      "कीय": 3435,
      "sultanate": 3436,
      "tly": 3437,
      "uis": 3438,
      "ution": 3439,
      "वर्षों": 3440,
      "సాంప్రదాయిక": 3441,
      "lists": 3442,
      "సర్వీసులు": 3443,
      "कमान": 3444,
      "खक": 3445,
      "खाल": 3446,
      "ually": 3447,
      "wa": 3448,
      "won": 3449,
      "went": 3450,
      "सदस": 3451,
      "ఆఫ్ఘ": 3452,
      "ffer": 3453,
      "ఇస్లామాబాద్": 3454,
      "खील": 3455,
      "खंड": 3456,
      "गड": 3457,
      "andi": 3458,
      "ants": 3459,
      "inf": 3460,
      "ini": 3461,
      "बीच": 3462,
      "కన్నడ": 3463,
      "చాలా": 3464,
      "జరుపు": 3465,
      "गि": 3466,
      "ग्रे": 3467,
      "घा": 3468,
      "ines": 3469,
      "ones": 3470,
      "alth": 3471,
      "ales": 3472,
      "म्भ": 3473,
      "జంబూ": 3474,
      "తెలుగు": 3475,
      "పీఠ": 3476,
      "चाल": 3477,
      "छा": 3478,
      "जाने": 3479,
      "along": 3480,
      "edic": 3481,
      "arti": 3482,
      "dies": 3483,
      "कुल": 3484,
      "బంగ్లాదేశ": 3485,
      "ళ్ళ": 3486,
      "శెలవు": 3487,
      "टो": 3488,
      "ड्रा": 3489,
      "णि": 3490,
      "diverse": 3491,
      "International": 3492,
      "Introduction": 3493,
      "often": 3494,
      "संस्कृति": 3495,
      "హిమాల": 3496,
      "గాంధీ": 3497,
      "ద్వారా": 3498,
      "तत्": 3499,
      "दह": 3500,
      "ध्र": 3501,
      "isl": 3502,
      "2024": 3503,
      "reg": 3504,
      "republic": 3505,
      "अन्त": 3506,
      "త్వాన్ని": 3507,
      "వాణిజ్య": 3508,
      "కాశ్మీ": 3509,
      "नै": 3510,
      "नात": 3511,
      "नमु": 3512,
      "atures": 3513,
      "inger": 3514,
      "ently": 3515,
      "oup": 3516,
      "स्वतंत्रता": 3517,
      "నాగరికత": 3518,
      "official": 3519,
      "వెనుకటి": 3520,
      "नमार": 3521,
      "नगर": 3522,
      "पट": 3523,
      "ould": 3524,
      "These": 3525,
      "change": 3526,
      "lid": 3527,
      "गणराज्य": 3528,
      "క్యాలెండర్": 3529,
      "Constitu": 3530,
      "వెబ్‌సైటు": 3531,
      "पां": 3532,
      "पाच": 3533,
      "पान": 3534,
      "liest": 3535,
      "urther": 3536,
      "rah": 3537,
      "term": 3538,
      "ँच": 3539,
      "\"(": 3540,
      "\",": 3541,
      "1లో": 3542,
      "पसं": 3543,
      "पंजा": 3544,
      "बंद": 3545,
      "ters": 3546,
      "igni": 3547,
      "ross": 3548,
      "rock": 3549,
      "ँकि": 3550,
      "287": 3551,
      "56": 3552,
      "62": 3553,
      "म्या": 3554,
      "महि": 3555,
      "मंड": 3556,
      "adv": 3557,
      "2006": 3558,
      "union": 3559,
      "sive": 3560,
      "अलग": 3561,
      "7లో": 3562,
      "83": 3563,
      "8లో": 3564,
      "मौर": 3565,
      "यो": 3566,
      "यत्": 3567,
      "cities": 3568,
      "ciety": 3569,
      "execu": 3570,
      "ays": 3571,
      "आधिकार": 3572,
      "As": 3573,
      "Country": 3574,
      "EF": 3575,
      "रण": 3576,
      "रणा": 3577,
      "लग्": 3578,
      "whose": 3579,
      "sum": 3580,
      "sever": 3581,
      "sequ": 3582,
      "घोष": 3583,
      "ER": 3584,
      "Eth": 3585,
      "Eng": 3586,
      "वान": 3587,
      "वतात": 3588,
      "ववृ": 3589,
      "ablish": 3590,
      "inceton": 3591,
      "parti": 3592,
      "Chand": 3593,
      "जल": 3594,
      "Fact": 3595,
      "Hi": 3596,
      "Li": 3597,
      "षिक": 3598,
      "सव": 3599,
      "सां": 3600,
      "loy": 3601,
      "commer": 3602,
      "ruc": 3603,
      "ternal": 3604,
      "डॉ": 3605,
      "SI": 3606,
      "TER": 3607,
      "_of": 3608,
      "सित": 3609,
      "सदे": 3610,
      "समी": 3611,
      "endem": 3612,
      "ourn": 3613,
      "alled": 3614,
      "1992": 3615,
      "थिय": 3616,
      "br": 3617,
      "bly": 3618,
      "ect": 3619,
      "हान": 3620,
      "िं": 3621,
      "ुष्": 3622,
      "1994": 3623,
      "gency": 3624,
      "marri": 3625,
      "ffec": 3626,
      "ब्र": 3627,
      "lp": 3628,
      "mbly": 3629,
      "ror": 3630,
      "ृह": 3631,
      "१०": 3632,
      "१३": 3633,
      "minist": 3634,
      "viol": 3635,
      "weap": 3636,
      "become": 3637,
      "बनी": 3638,
      "tar": 3639,
      "ంక": 3640,
      "అణ": 3641,
      "‍नी": 3642,
      "्याची": 3643,
      "ांमुळे": 3644,
      "serv": 3645,
      "popular": 3646,
      "regional": 3647,
      "elections": 3648,
      "लिया": 3649,
      "అవ": 3650,
      "అంత": 3651,
      "అంట": 3652,
      "स्वा": 3653,
      "प्रे": 3654,
      "प्रश्": 3655,
      "According": 3656,
      "record": 3657,
      "All": 3658,
      "ficant": 3659,
      "हथिय": 3660,
      "అన్ని": 3661,
      "అప్ప": 3662,
      "అమె": 3663,
      "प्रिय": 3664,
      "प्रगती": 3665,
      "ीला": 3666,
      "Develop": 3667,
      "longer": 3668,
      "growing": 3669,
      "techn": 3670,
      "ुनिक": 3671,
      "అక్షరాస్యత": 3672,
      "ఆసియా": 3673,
      "ఇదే": 3674,
      "लेले": 3675,
      "लेली": 3676,
      "लेखक": 3677,
      "Politics": 3678,
      "undament": 3679,
      "Buddhism": 3680,
      "desh": 3681,
      "२०": 3682,
      "ఇండ": 3683,
      "ఇక్క": 3684,
      "ఇటీ": 3685,
      "राण": 3686,
      "साधारण": 3687,
      "लाभ": 3688,
      "alition": 3689,
      "traditional": 3690,
      "created": 3691,
      "Persi": 3692,
      "ारम्भ": 3693,
      "ఈశ": 3694,
      "ఈస్": 3695,
      "ఎడ": 3696,
      "वादी": 3697,
      "यामुळे": 3698,
      "नाथ": 3699,
      "Society": 3700,
      "penins": 3701,
      "styles": 3702,
      "Among": 3703,
      "स्तर": 3704,
      "ఎల": 3705,
      "ఏప్ర": 3706,
      "ఐరో": 3707,
      "नाभ": 3708,
      "नाऱ्या": 3709,
      "काश्": 3710,
      "Princeton": 3711,
      "Pradesh": 3712,
      "education": 3713,
      "widely": 3714,
      "प्रभा": 3715,
      "ఐక్య": 3716,
      "ఒలం": 3717,
      "కీ": 3718,
      "संपूर्ण": 3719,
      "संलग्": 3720,
      "असली": 3721,
      "eastern": 3722,
      "Himalayas": 3723,
      "Urban": 3724,
      "Publications": 3725,
      "प्रारम्भ": 3726,
      "కలు": 3727,
      "కిక": 3728,
      "కాత": 3729,
      "असतात": 3730,
      "असतो": 3731,
      "देखील": 3732,
      "southern": 3733,
      "territor": 3734,
      "posed": 3735,
      "London": 3736,
      "विदेश": 3737,
      "కను": 3738,
      "కనుక": 3739,
      "కంటే": 3740,
      "त्वे": 3741,
      "त्ता": 3742,
      "होतो": 3743,
      "Publish": 3744,
      "body": 3745,
      "ignificant": 3746,
      "Development": 3747,
      "न्न": 3748,
      "కబడ్డ": 3749,
      "ఖో": 3750,
      "ఖని": 3751,
      "राजव": 3752,
      "राजा": 3753,
      "राजस्थान": 3754,
      "05": 3755,
      "300": 3756,
      "317": 3757,
      "4th": 3758,
      "संयुक्त": 3759,
      "గత": 3760,
      "గమ": 3761,
      "గ్ర": 3762,
      "राजकीय": 3763,
      "भाव": 3764,
      "्यांच्या": 3765,
      "63": 3766,
      "74": 3767,
      "79": 3768,
      "82": 3769,
      "परंप": 3770,
      "గర్": 3771,
      "గంగ": 3772,
      "గమన": 3773,
      "्यांचा": 3774,
      "्यांमध्ये": 3775,
      "भारतीयांनी": 3776,
      "94": 3777,
      "Affairs": 3778,
      "Brah": 3779,
      "Col": 3780,
      "करना": 3781,
      "గ్రా": 3782,
      "గెలు": 3783,
      "చద": 3784,
      "देशात": 3785,
      "ातीला": 3786,
      "पाठ": 3787,
      "El": 3788,
      "Flood": 3789,
      "Gen": 3790,
      "Gav": 3791,
      "मालय": 3792,
      "చయ": 3793,
      "చీ": 3794,
      "చూ": 3795,
      "पावली": 3796,
      "त्याला": 3797,
      "पुढ": 3798,
      "Har": 3799,
      "Hum": 3800,
      "Journ": 3801,
      "Long": 3802,
      "निभाई": 3803,
      "చవి": 3804,
      "చూడ": 3805,
      "చించిన": 3806,
      "पुत": 3807,
      "हिं": 3808,
      "करत": 3809,
      "Mon": 3810,
      "Nor": 3811,
      "Out": 3812,
      "Pe": 3813,
      "इसी": 3814,
      "చుకోవడ": 3815,
      "జల": 3816,
      "జో": 3817,
      "तिसऱ्या": 3818,
      "मोठी": 3819,
      "मोसमी": 3820,
      "Pal": 3821,
      "Popul": 3822,
      "Ro": 3823,
      "Rep": 3824,
      "दोनों": 3825,
      "జ్": 3826,
      "జిక": 3827,
      "జ్యం": 3828,
      "मीण": 3829,
      "निध्र": 3830,
      "स्तरा": 3831,
      "Sri": 3832,
      "Sou": 3833,
      "Sur": 3834,
      "Shi": 3835,
      "दोलन": 3836,
      "జమ్మ": 3837,
      "టక": 3838,
      "ట్ర": 3839,
      "सुमार": 3840,
      "किनाऱ्या": 3841,
      "काळाच्या": 3842,
      "Spr": 3843,
      "Va": 3844,
      "West": 3845,
      "aver": 3846,
      "अपने": 3847,
      "టలు": 3848,
      "టన్": 3849,
      "టంలో": 3850,
      "दिला": 3851,
      "णामुळे": 3852,
      "सेव": 3853,
      "ael": 3854,
      "bor": 3855,
      "bro": 3856,
      "bot": 3857,
      "अपनी": 3858,
      "ట్‌": 3859,
      "టాన్": 3860,
      "టోర": 3861,
      "मिळाले": 3862,
      "चित्रपटसृष्टी": 3863,
      "भूभाग": 3864,
      "clo": 3865,
      "coun": 3866,
      "curr": 3867,
      "dances": 3868,
      "बड़ा": 3869,
      "డైన": 3870,
      "ఢా": 3871,
      "ణులు": 3872,
      "भूगोल": 3873,
      "आणली": 3874,
      "कडून": 3875,
      "equ": 3876,
      "four": 3877,
      "further": 3878,
      "however": 3879,
      "ज़ी": 3880,
      "తర్": 3881,
      "తను": 3882,
      "తంగా": 3883,
      "धर्माचा": 3884,
      "लोकसभा": 3885,
      "लोकसभे": 3886,
      "held": 3887,
      "ip": 3888,
      "ian": 3889,
      "jo": 3890,
      "अंग्रेजी": 3891,
      "తత్వ": 3892,
      "తక్కువ": 3893,
      "థాలు": 3894,
      "सरस्व": 3895,
      "सिंह": 3896,
      "१९२": 3897,
      "ks": 3898,
      "kar": 3899,
      "la": 3900,
      "mir": 3901,
      "आधुनिक": 3902,
      "థ్యం": 3903,
      "దర్": 3904,
      "దగా": 3905,
      "लिश": 3906,
      "प्रकारचे": 3907,
      "साहित्यात": 3908,
      "mary": 3909,
      "member": 3910,
      "nat": 3911,
      "nam": 3912,
      "अमे": 3913,
      "దరా": 3914,
      "దండ": 3915,
      "దులు": 3916,
      "उत्कृष्ट": 3917,
      "यांना": 3918,
      "यांचा": 3919,
      "odiversity": 3920,
      "pa": 3921,
      "pra": 3922,
      "pass": 3923,
      "गठबंधन": 3924,
      "ధీన": 3925,
      "నం": 3926,
      "నూ": 3927,
      "यांनी": 3928,
      "झालेले": 3929,
      "जेचे": 3930,
      "pages": 3931,
      "red": 3932,
      "rise": 3933,
      "significant": 3934,
      "पहले": 3935,
      "నిక": 3936,
      "పలు": 3937,
      "పిక": 3938,
      "शाहज": 3939,
      "गरजेचे": 3940,
      "प्रदेशातील": 3941,
      "tes": 3942,
      "tle": 3943,
      "ue": 3944,
      "upp": 3945,
      "पार्टी": 3946,
      "పవి": 3947,
      "ప్ల": 3948,
      "పల్ల": 3949,
      "शिक्षणपद्धती": 3950,
      "रोप": 3951,
      "रोजी": 3952,
      "vo": 3953,
      "vid": 3954,
      "vember": 3955,
      "vari": 3956,
      "भूमिका": 3957,
      "పడు": 3958,
      "పర్వ": 3959,
      "పతా": 3960,
      "राज्यसभे": 3961,
      "पूर्वीच्या": 3962,
      "इंडो": 3963,
      "vill": 3964,
      "anted": 3965,
      "three": 3966,
      "independ": 3967,
      "न्यायालय": 3968,
      "పక్క": 3969,
      "పడిన": 3970,
      "ఫల": 3971,
      "युग": 3972,
      "युरोप": 3973,
      "प्पा": 3974,
      "onial": 3975,
      "enac": 3976,
      "ars": 3977,
      "around": 3978,
      "भाजपा": 3979,
      "బు": 3980,
      "బౌ": 3981,
      "బంగ": 3982,
      "मूळ": 3983,
      "विद्यापी": 3984,
      "मुख्यत्वे": 3985,
      "estim": 3986,
      "ors": 3987,
      "organ": 3988,
      "tice": 3989,
      "मूल": 3990,
      "భవ": 3991,
      "భాతో": 3992,
      "భక్తి": 3993,
      "घेत": 3994,
      "घेण्यास": 3995,
      "सारख्या": 3996,
      "dist": 3997,
      "dish": 3998,
      "ditions": 3999,
      "off": 4000,
      "शेष": 4001,
      "మ్": 4002,
      "మించ": 4003,
      "మిత": 4004,
      "न्स": 4005,
      "प्रमाण": 4006,
      "प्रमाणा": 4007,
      "ising": 4008,
      "203": 4009,
      "read": 4010,
      "rig": 4011,
      "हालाँकि": 4012,
      "మరో": 4013,
      "యాత్ర": 4014,
      "యమించ": 4015,
      "व्यवसाय": 4016,
      "आहारात": 4017,
      "मोठे": 4018,
      "rich": 4019,
      "omin": 4020,
      "omet": 4021,
      "ice": 4022,
      "प्लेट": 4023,
      "రకాలు": 4024,
      "రికా": 4025,
      "రచయ": 4026,
      "पृष्ठीय": 4027,
      "पक्षास": 4028,
      "बनविले": 4029,
      "This": 4030,
      "char": 4031,
      "changes": 4032,
      "sts": 4033,
      "आधिकारिक": 4034,
      "లౌ": 4035,
      "లకొ": 4036,
      "లమె": 4037,
      "किल्ल्या": 4038,
      "द्वीपकल्प": 4039,
      "अधिकृत": 4040,
      "stan": 4041,
      "stat": 4042,
      "liber": 4043,
      "left": 4044,
      "हथियार": 4045,
      "లస్య": 4046,
      "ళా": 4047,
      "ళి": 4048,
      "मसाल": 4049,
      "मसाले": 4050,
      "महासागर": 4051,
      "2016": 4052,
      "empire": 4053,
      "rop": 4054,
      "administ": 4055,
      "परंपरा": 4056,
      "విం": 4057,
      "వంత": 4058,
      "వరు": 4059,
      "विद्यार्थी": 4060,
      "महाराष्ट्रातील": 4061,
      "आलेल्या": 4062,
      "ulti": 4063,
      "elf": 4064,
      "resent": 4065,
      "resid": 4066,
      "अफ": 4067,
      "వైన": 4068,
      "వార్": 4069,
      "వత్ర": 4070,
      "कर्नाटक": 4071,
      "जैव": 4072,
      "ज्याचा": 4073,
      "2002": 4074,
      "istry": 4075,
      "consi": 4076,
      "conduc": 4077,
      "आं": 4078,
      "వనాలు": 4079,
      "వాయు": 4080,
      "శక": 4081,
      "त्यांची": 4082,
      "वृक्ष": 4083,
      "निवडणू": 4084,
      "ush": 4085,
      "uni": 4086,
      "until": 4087,
      "establish": 4088,
      "आग": 4089,
      "శి": 4090,
      "శీ": 4091,
      "శై": 4092,
      "शास्त्रीय": 4093,
      "दक्षिणेकडील": 4094,
      "ज्ञान": 4095,
      "exp": 4096,
      "bert": 4097,
      "Art": 4098,
      "abil": 4099,
      "उस": 4100,
      "శో": 4101,
      "శకు": 4102,
      "షం": 4103,
      "इमारती": 4104,
      "पश्चिमे": 4105,
      "आपले": 4106,
      "angered": 4107,
      "import": 4108,
      "earliest": 4109,
      "ake": 4110,
      "ऊँ": 4111,
      "షయాలు": 4112,
      "సన": 4113,
      "సీ": 4114,
      "आक्रमणे": 4115,
      "मराठा": 4116,
      "शैक्षणिक": 4117,
      "akh": 4118,
      "aksh": 4119,
      "spe": 4120,
      "spread": 4121,
      "एं": 4122,
      "సె": 4123,
      "సాల": 4124,
      "సిక్": 4125,
      "शासित": 4126,
      "राज्यातील": 4127,
      "सुरुवातीला": 4128,
      "compan": 4129,
      "endangered": 4130,
      "coalition": 4131,
      "ples": 4132,
      "कह": 4133,
      "హో": 4134,
      "హ్ర": 4135,
      "ామ": 4136,
      "mother": 4137,
      "अभि": 4138,
      "उद्योग": 4139,
      "plain": 4140,
      "place": 4141,
      "1998": 4142,
      "genous": 4143,
      "किन्": 4144,
      "ాన్ని": 4145,
      "ాడే": 4146,
      "ిమాన": 4147,
      "कथा": 4148,
      "रंगमंच": 4149,
      "चळवळी": 4150,
      "process": 4151,
      "ports": 4152,
      "230": 4153,
      "traditions": 4154,
      "जिन्": 4155,
      "ీం": 4156,
      "ీక్ష": 4157,
      "ీషు": 4158,
      "अरबी": 4159,
      "ऋषभदे": 4160,
      "ग्रामीण": 4161,
      "subsequ": 4162,
      "1885": 4163,
      "ength": 4164,
      "Although": 4165,
      "दृ": 4166,
      "ుత్": 4167,
      "ుపూర్వ": 4168,
      "ూనది": 4169,
      "ट्ट": 4170,
      "मैल": 4171,
      "विकसित": 4172,
      "States": 4173,
      "1965": 4174,
      "1967": 4175,
      "cript": 4176,
      "पड़": 4177,
      "ోత్": 4178,
      "ౌర": 4179,
      "్మా": 4180,
      "शोध": 4181,
      "शहरे": 4182,
      "स्मारक": 4183,
      "increasing": 4184,
      "every": 4185,
      "tax": 4186,
      "hered": 4187,
      "पहा": 4188,
      "‌సభ": 4189,
      "‌కాత": 4190,
      "ారి": 4191,
      "इंग्लिश": 4192,
      "उपसागराला": 4193,
      "शतकात": 4194,
      "obar": 4195,
      "thought": 4196,
      "1970": 4197,
      "Constitutional": 4198,
      "भग": 4199,
      "లుగా": 4200,
      "లోమీ": 4201,
      "స్వీ": 4202,
      "गंगेच्या": 4203,
      "दख्खनच्या": 4204,
      "अस्तित्त्वात": 4205,
      "Islands": 4206,
      "doms": 4207,
      "domin": 4208,
      "eval": 4209,
      "लं": 4210,
      "స్కరణ": 4211,
      "స్లిం": 4212,
      "దిన": 4213,
      "ometer": 4214,
      "जंगले": 4215,
      "पत्‍नी": 4216,
      "gradu": 4217,
      "present": 4218,
      "legisl": 4219,
      "developed": 4220,
      "ृद्ध": 4221,
      "దేమాత": 4222,
      "ప్రదేశ": 4223,
      "ప్రాయ": 4224,
      "पर्वत": 4225,
      "यशस्वी": 4226,
      "रचना": 4227,
      "November": 4228,
      "courts": 4229,
      "group": 4230,
      "kingdoms": 4231,
      "ैली": 4232,
      "ప్రసి": 4233,
      "ప్రత్య": 4234,
      "ప్రయో": 4235,
      "सैनिक": 4236,
      "केंद्रशासित": 4237,
      "वेषभूषा": 4238,
      "middle": 4239,
      "style": 4240,
      "market": 4241,
      "arna": 4242,
      "केन्द्र": 4243,
      "ప్రీం": 4244,
      "దేశీ": 4245,
      "దేశాలు": 4246,
      "सर्वोच्च": 4247,
      "kilometer": 4248,
      "अरावली": 4249,
      "leading": 4250,
      "Democra": 4251,
      "Organ": 4252,
      "disput": 4253,
      "्यता": 4254,
      "ాలే": 4255,
      "ర్తి": 4256,
      "ర్పు": 4257,
      "अग्निध्र": 4258,
      "आमदार": 4259,
      "आसाम": 4260,
      "right": 4261,
      "cooked": 4262,
      "Culture": 4263,
      "Jainism": 4264,
      "सेवा": 4265,
      "ర్జాతీయ": 4266,
      "ర్చు": 4267,
      "ర్థ్యం": 4268,
      "ईशान": 4269,
      "उष्ण": 4270,
      "उठाव": 4271,
      "influenced": 4272,
      "Bharat": 4273,
      "Ministry": 4274,
      "Studies": 4275,
      "ियाँ": 4276,
      "భారతం": 4277,
      "భారత్‌": 4278,
      "న్నీ": 4279,
      "जानेवारी": 4280,
      "तत्कालीन": 4281,
      "दहशत": 4282,
      "birth": 4283,
      "figures": 4284,
      "histor": 4285,
      "known": 4286,
      "करण": 4287,
      "న్నై": 4288,
      "గాన్ని": 4289,
      "నిపు": 4290,
      "नमुने": 4291,
      "पंजाब": 4292,
      "बंदर": 4293,
      "sculpture": 4294,
      "worn": 4295,
      "indigenous": 4296,
      "differ": 4297,
      "तिहा": 4298,
      "నిడి": 4299,
      "నియమించ": 4300,
      "విలు": 4301,
      "म्यानमार": 4302,
      "ुष्क": 4303,
      "प्रश्न": 4304,
      "employ": 4305,
      "mathematical": 4306,
      "families": 4307,
      "industry": 4308,
      "वायु": 4309,
      "విమాన": 4310,
      "విశ్": 4311,
      "విషయాలు": 4312,
      "साधारणपणे": 4313,
      "विस्तार": 4314,
      "संलग्न": 4315,
      "Guj": 4316,
      "Kashmir": 4317,
      "Michael": 4318,
      "Middle": 4319,
      "ियन": 4320,
      "విదేశీ": 4321,
      "ాతం": 4322,
      "ాతి": 4323,
      "सरस्वती": 4324,
      "शाहजहान": 4325,
      "kilometers": 4326,
      "Nicobar": 4327,
      "house": 4328,
      "ization": 4329,
      "mission": 4330,
      "लावा": 4331,
      "ాత్మా": 4332,
      "క్టోర": 4333,
      "ానీ": 4334,
      "hu": 4335,
      "ँग्रे": 4336,
      "ंश": 4337,
      "executive": 4338,
      "technology": 4339,
      "undamental": 4340,
      "Persian": 4341,
      "पालि": 4342,
      "ాను": 4343,
      "ాన్య": 4344,
      "ములు": 4345,
      "ंवा": 4346,
      "ंवर": 4347,
      "ंपी": 4348,
      "peninsular": 4349,
      "Gavin": 4350,
      "Journal": 4351,
      "Southeast": 4352,
      "लीन": 4353,
      "ముడి": 4354,
      "ముస్లిం": 4355,
      "ండ్": 4356,
      "ंजो": 4357,
      "अख": 4358,
      "अ‍": 4359,
      "Springer": 4360,
      "consider": 4361,
      "1200": 4362,
      "219": 4363,
      "वर्ण": 4364,
      "ినీ": 4365,
      "తిరు": 4366,
      "స్తులు": 4367,
      "असा": 4368,
      "आकार": 4369,
      "आल्या": 4370,
      "281": 4371,
      "415": 4372,
      "84": 4373,
      "90": 4374,
      "जनता": 4375,
      "స్తారు": 4376,
      "ందింది": 4377,
      "సంస్కరణ": 4378,
      "आदि": 4379,
      "आशि": 4380,
      "आद्र": 4381,
      "91": 4382,
      "Ba": 4383,
      "Bar": 4384,
      "Bas": 4385,
      "ंधी": 4386,
      "పుకో": 4387,
      "పుతూ": 4388,
      "స్థాయి": 4389,
      "आंब": 4390,
      "आघा": 4391,
      "इट": 4392,
      "Bang": 4393,
      "Cl": 4394,
      "Curr": 4395,
      "Census": 4396,
      "१९८": 4397,
      "స్థావర": 4398,
      "ంటి": 4399,
      "భావిస్తారు": 4400,
      "इत": 4401,
      "इंद्र": 4402,
      "इव्ह": 4403,
      "Dr": 4404,
      "Dy": 4405,
      "Dra": 4406,
      "Gh": 4407,
      "जिसके": 4408,
      "భాగాన్ని": 4409,
      "పావ": 4410,
      "పాంత": 4411,
      "इराण": 4412,
      "ईस्ट": 4413,
      "उम": 4414,
      "Gup": 4415,
      "Gree": 4416,
      "Global": 4417,
      "HO": 4418,
      "बहुमत": 4419,
      "పాడు": 4420,
      "వాదం": 4421,
      "సాహ": 4422,
      "उर्": 4423,
      "उर्व": 4424,
      "ऋत्य": 4425,
      "However": 4426,
      "Kar": 4427,
      "Law": 4428,
      "Lank": 4429,
      "प्राप्त": 4430,
      "సామా": 4431,
      "జాతులు": 4432,
      "కూడి": 4433,
      "एका": 4434,
      "ऑग": 4435,
      "ऑस्": 4436,
      "Lib": 4437,
      "Me": 4438,
      "Man": 4439,
      "Met": 4440,
      "लगभग": 4441,
      "కూడుకొ": 4442,
      "కోట్ల": 4443,
      "క్రి": 4444,
      "ऑस्ट": 4445,
      "कम": 4446,
      "कॅ": 4447,
      "Many": 4448,
      "Old": 4449,
      "Off": 4450,
      "PA": 4451,
      "बड़ी": 4452,
      "కాహార": 4453,
      "కాపాడు": 4454,
      "చ్చే": 4455,
      "कान": 4456,
      "कनि": 4457,
      "कांच्या": 4458,
      "Pandi": 4459,
      "Ru": 4460,
      "Rob": 4461,
      "SA": 4462,
      "बड़े": 4463,
      "నేరే": 4464,
      "మొగలు": 4465,
      "ంచిన": 4466,
      "कन्या": 4467,
      "कंप": 4468,
      "खु": 4469,
      "Sin": 4470,
      "Sum": 4471,
      "She": 4472,
      "TO": 4473,
      "वंश": 4474,
      "దుగా": 4475,
      "మాట్ల": 4476,
      "యాళం": 4477,
      "खात": 4478,
      "खून": 4479,
      "खित": 4480,
      "Tec": 4481,
      "Tra": 4482,
      "Up": 4483,
      "UPA": 4484,
      "महाद्वीप": 4485,
      "నాథ": 4486,
      "గుబా": 4487,
      "వచ్చని": 4488,
      "ख्रि": 4489,
      "गम": 4490,
      "गल": 4491,
      "Vi": 4492,
      "Val": 4493,
      "Vis": 4494,
      "War": 4495,
      "गांधी": 4496,
      "వేద": 4497,
      "వేల": 4498,
      "help": 4499,
      "गां": 4500,
      "गला": 4501,
      "गरी": 4502,
      "Wildlife": 4503,
      "Year": 4504,
      "af": 4505,
      "adi": 4506,
      "रहे": 4507,
      "కాలే": 4508,
      "డిస్": 4509,
      "ద్రా": 4510,
      "गडा": 4511,
      "गळी": 4512,
      "गपूर": 4513,
      "ail": 4514,
      "bl": 4515,
      "bar": 4516,
      "band": 4517,
      "विस्तृत": 4518,
      "శాసన": 4519,
      "దేశాలను": 4520,
      "ofile": 4521,
      "गव्ह": 4522,
      "घरा": 4523,
      "चर": 4524,
      "ble": 4525,
      "cis": 4526,
      "cover": 4527,
      "capit": 4528,
      "कर्ज": 4529,
      "ఎన్నుకో": 4530,
      "ఎన్నుకుంట": 4531,
      "కిలోమీ": 4532,
      "चो": 4533,
      "चक्र": 4534,
      "चस्व": 4535,
      "called": 4536,
      "ctice": 4537,
      "del": 4538,
      "dha": 4539,
      "शील": 4540,
      "చెప్": 4541,
      "చెంద": 4542,
      "చెందు": 4543,
      "चतु": 4544,
      "चांग": 4545,
      "जड": 4546,
      "down": 4547,
      "dram": 4548,
      "ee": 4549,
      "eigh": 4550,
      "सहयोग": 4551,
      "చెన్నై": 4552,
      "వ్యవస్థకు": 4553,
      "కేతిక": 4554,
      "जम": 4555,
      "जर": 4556,
      "जॉ": 4557,
      "fo": 4558,
      "fence": 4559,
      "fundamental": 4560,
      "ger": 4561,
      "डॉलर": 4562,
      "తులతో": 4563,
      "అధికారం": 4564,
      "త్యం": 4565,
      "जम्": 4566,
      "जंब": 4567,
      "जमह": 4568,
      "good": 4569,
      "global": 4570,
      "his": 4571,
      "ians": 4572,
      "विदेशी": 4573,
      "పర్యాయ": 4574,
      "పరీక్ష": 4575,
      "పరిపాలన": 4576,
      "झर्व": 4577,
      "डकर": 4578,
      "ढऱ्या": 4579,
      "just": 4580,
      "kh": 4581,
      "ker": 4582,
      "ken": 4583,
      "अमेरि": 4584,
      "మీదగా": 4585,
      "వరీ": 4586,
      "సుప్రీం": 4587,
      "णयुग": 4588,
      "तान": 4589,
      "तच्या": 4590,
      "lades": 4591,
      "ms": 4592,
      "mals": 4593,
      "ns": 4594,
      "किन्तु": 4595,
      "ప్రపంచములో": 4596,
      "స్థానాలను": 4597,
      "భాషలను": 4598,
      "तही": 4599,
      "तद्": 4600,
      "तज्ञ": 4601,
      "pu": 4602,
      "ped": 4603,
      "pay": 4604,
      "pharma": 4605,
      "पालिका": 4606,
      "ప్రాంతీయ": 4607,
      "ప్రాంతాల్లో": 4608,
      "రాజ్యంగా": 4609,
      "थंड": 4610,
      "दली": 4611,
      "दगड": 4612,
      "reduc": 4613,
      "sine": 4614,
      "sari": 4615,
      "sign": 4616,
      "ंस": 4617,
      "దాయంలో": 4618,
      "వారి": 4619,
      "వర్తి": 4620,
      "धड": 4621,
      "धर": 4622,
      "नो": 4623,
      "school": 4624,
      "tre": 4625,
      "ual": 4626,
      "ued": 4627,
      "ंति": 4628,
      "సభను": 4629,
      "జనాభాతో": 4630,
      "పూర్తి": 4631,
      "नौ": 4632,
      "न्य": 4633,
      "नां": 4634,
      "ues": 4635,
      "utical": 4636,
      "win": 4637,
      "wear": 4638,
      "अब": 4639,
      "పోరా": 4640,
      "పోయింది": 4641,
      "మనదేశం": 4642,
      "नष्ट": 4643,
      "नमू": 4644,
      "पण": 4645,
      "writ": 4646,
      "xim": 4647,
      "anim": 4648,
      "animal": 4649,
      "अभी": 4650,
      "మిస్తు": 4651,
      "రెండవ": 4652,
      "రెండో": 4653,
      "पर्": 4654,
      "पाल": 4655,
      "परा": 4656,
      "throp": 4657,
      "ined": 4658,
      "ining": 4659,
      "invol": 4660,
      "आया": 4661,
      "లంక": 4662,
      "లాహో": 4663,
      "వుతుంది": 4664,
      "पहात": 4665,
      "पर्ज": 4666,
      "पतन": 4667,
      "era": 4668,
      "ale": 4669,
      "ened": 4670,
      "aries": 4671,
      "आन्": 4672,
      "వెల్ల": 4673,
      "ప్రజలు": 4674,
      "ప్రభుత్వాన్ని": 4675,
      "फळ": 4676,
      "फ्": 4677,
      "फ्रे": 4678,
      "oral": 4679,
      "div": 4680,
      "dian": 4681,
      "anding": 4682,
      "इं": 4683,
      "ముఖ్యంగా": 4684,
      "ern": 4685,
      "error": 4686,
      "फाळ": 4687,
      "बट": 4688,
      "बळ": 4689,
      "associ": 4690,
      "istic": 4691,
      "2020": 4692,
      "2026": 4693,
      "उन्": 4694,
      "గీతం": 4695,
      "స్త్రీలు": 4696,
      "సాంకేతిక": 4697,
      "बती": 4698,
      "बद्ध": 4699,
      "बरी": 4700,
      "reme": 4701,
      "reach": 4702,
      "rial": 4703,
      "rica": 4704,
      "ऋतु": 4705,
      "gue": 4706,
      "అతిపెద్ద": 4707,
      "జనతా": 4708,
      "बदार": 4709,
      "भु": 4710,
      "भौ": 4711,
      "atri": 4712,
      "took": 4713,
      "touch": 4714,
      "oul": 4715,
      "कटि": 4716,
      "జనవరి": 4717,
      "జరిగే": 4718,
      "మహి": 4719,
      "मृ": 4720,
      "मां": 4721,
      "मित": 4722,
      "che": 4723,
      "lig": 4724,
      "liance": 4725,
      "etwork": 4726,
      "गए": 4727,
      "మహాత్మా": 4728,
      "క్రీడా": 4729,
      "క్రీడలలో": 4730,
      "मते": 4731,
      "मरी": 4732,
      "मलि": 4733,
      "ama": 4734,
      "ams": 4735,
      "Their": 4736,
      "1980": 4737,
      "जू": 4738,
      "అయినా": 4739,
      "263": 4740,
      "269": 4741,
      "ममाण": 4742,
      "मणि": 4743,
      "यण": 4744,
      "1951": 4745,
      "embly": 4746,
      "cept": 4747,
      "ceutical": 4748,
      "जलो": 4749,
      "26న": 4750,
      "గోదా": 4751,
      "గోళిక": 4752,
      "यन": 4753,
      "याच": 4754,
      "यमु": 4755,
      "igration": 4756,
      "roxim": 4757,
      "ada": 4758,
      "ulting": 4759,
      "जाना": 4760,
      "గినది": 4761,
      "మానం": 4762,
      "లేదు": 4763,
      "याचे": 4764,
      "यदा": 4765,
      "याचा": 4766,
      "elites": 4767,
      "resulting": 4768,
      "conso": 4769,
      "consist": 4770,
      "टन": 4771,
      "ప్రస్తుతము": 4772,
      "క్కను": 4773,
      "సాధించిన": 4774,
      "यानंतर": 4775,
      "रत": 4776,
      "रळ": 4777,
      "six": 4778,
      "sions": 4779,
      "vey": 4780,
      "astri": 4781,
      "तः": 4782,
      "కాంగ్రెస్": 4783,
      "ాబ్ది": 4784,
      "ఉపయో": 4785,
      "रका": 4786,
      "रित": 4787,
      "रक्षण": 4788,
      "mathematics": 4789,
      "exist": 4790,
      "external": 4791,
      "when": 4792,
      "दू": 4793,
      "గణతంత్ర": 4794,
      "భూభాగం": 4795,
      "భూటాన్": 4796,
      "रडे": 4797,
      "रममाण": 4798,
      "ऱ्यां": 4799,
      "where": 4800,
      "within": 4801,
      "overty": 4802,
      "rief": 4803,
      "पि": 4804,
      "యుగ": 4805,
      "రంగంలో": 4806,
      "వలన": 4807,
      "ऱ्यात": 4808,
      "लू": 4809,
      "लंड": 4810,
      "shar": 4811,
      "show": 4812,
      "ably": 4813,
      "about": 4814,
      "पीय": 4815,
      "వలస": 4816,
      "ప్రతిపక్ష": 4817,
      "విస్తీర్": 4818,
      "लंब": 4819,
      "लगत": 4820,
      "लब्": 4821,
      "before": 4822,
      "anged": 4823,
      "again": 4824,
      "Architecture": 4825,
      "फल": 4826,
      "నెలకొ": 4827,
      "మాత్రమే": 4828,
      "సమాజ": 4829,
      "ळची": 4830,
      "ळकार": 4831,
      "वत": 4832,
      "aka": 4833,
      "aking": 4834,
      "soon": 4835,
      "ained": 4836,
      "बै": 4837,
      "స్వతం": 4838,
      "సామర్థ్యం": 4839,
      "ఉత్తరాన": 4840,
      "वला": 4841,
      "वने": 4842,
      "वाच्या": 4843,
      "pped": 4844,
      "composed": 4845,
      "meat": 4846,
      "Anthrop": 4847,
      "बने": 4848,
      "బ్రిటీ": 4849,
      "ప్పటికినీ": 4850,
      "సింధూనది": 4851,
      "वाला": 4852,
      "वालय": 4853,
      "शृ": 4854,
      "avour": 4855,
      "plate": 4856,
      "1996": 4857,
      "1999": 4858,
      "भरा": 4859,
      "సరిహద్దుగా": 4860,
      "సౌకర్యాలు": 4861,
      "సౌకర్యాలలో": 4862,
      "शिक": 4863,
      "शुष्क": 4864,
      "षणा": 4865,
      "protec": 4866,
      "portion": 4867,
      "Conserv": 4868,
      "vidian": 4869,
      "भिन्": 4870,
      "స్వాతంత్ర్యం": 4871,
      "Congr": 4872,
      "nolo": 4873,
      "सन": 4874,
      "साच": 4875,
      "सरा": 4876,
      "ously": 4877,
      "features": 4878,
      "trade": 4879,
      "anta": 4880,
      "यों": 4881,
      "కళలు": 4882,
      "చైనా": 4883,
      "చైనాను": 4884,
      "सभाग": 4885,
      "सिक्": 4886,
      "स्रि": 4887,
      "quality": 4888,
      "Mah": 4889,
      "Maury": 4890,
      "series": 4891,
      "र्य": 4892,
      "తూర్పు": 4893,
      "తమిళ": 4894,
      "రూపాంత": 4895,
      "सचि": 4896,
      "ह्य": 4897,
      "हळे": 4898,
      "Marri": 4899,
      "Review": 4900,
      "decades": 4901,
      "elected": 4902,
      "रिक": 4903,
      "సమరం": 4904,
      "సారస్వతం": 4905,
      "సంఖ్యా": 4906,
      "हंपी": 4907,
      "ावर": 4908,
      "ामध्ये": 4909,
      "continued": 4910,
      "meric": 4911,
      "turned": 4912,
      "wars": 4913,
      "वल": 4914,
      "పుట్టుపూర్వ": 4915,
      "రైల్వేశాఖ": 4916,
      "పాలనలో": 4917,
      "ासाठी": 4918,
      "ाप्रमा": 4919,
      "ावरील": 4920,
      "reasing": 4921,
      "great": 4922,
      "greater": 4923,
      "Buddha": 4924,
      "वरी": 4925,
      "ప్రపంచంలోని": 4926,
      "వెబ్": 4927,
      "ప్రజాదర": 4928,
      "िप": 4929,
      "िल": 4930,
      "ीक": 4931,
      "exten": 4932,
      "extant": 4933,
      "Janata": 4934,
      "Defence": 4935,
      "शक्ति": 4936,
      "సముద్రతీ": 4937,
      "నిర్వహించింది": 4938,
      "185": 4939,
      "ीन": 4940,
      "ुस्थान": 4941,
      "ुसार": 4942,
      "calf": 4943,
      "crip": 4944,
      "Century": 4945,
      "Under": 4946,
      "हन": 4947,
      "CIA": 4948,
      "CITER": 4949,
      "చిరు": 4950,
      "ुववृ": 4951,
      "ूद्वीप": 4952,
      "ेत": 4953,
      "ackwell": 4954,
      "tropical": 4955,
      "numbers": 4956,
      "Political": 4957,
      "िम": 4958,
      "నాయకత్వ": 4959,
      "పదవి": 4960,
      "మలయాళం": 4961,
      "ेडकर": 4962,
      "ोबार": 4963,
      "२८": 4964,
      "approxim": 4965,
      "ergy": 4966,
      "foreign": 4967,
      "oldest": 4968,
      "िकी": 4969,
      "సూచించిన": 4970,
      "హాకీ": 4971,
      "ిస్తారు": 4972,
      "३८": 4973,
      "४५": 4974,
      "४७": 4975,
      "support": 4976,
      "bian": 4977,
      "vention": 4978,
      "anning": 4979,
      "ोल": 4980,
      "లోక్‌సభ": 4981,
      "కులాలు": 4982,
      "కుంటూ": 4983,
      "४८": 4984,
      "५५": 4985,
      "५७": 4986,
      "traditionally": 4987,
      "Rajat": 4988,
      "development": 4989,
      "influence": 4990,
      "ोच्च": 4991,
      "కుంటారు": 4992,
      "నిర్మ": 4993,
      "ాయుత": 4994,
      "५००": 4995,
      "्याचा": 4996,
      "हेब": 4997,
      "Forest": 4998,
      "court": 4999,
      "constitutional": 5000,
      "691": 5001,
      "विवाद": 5002,
      "ద్వీప": 5003,
      "సంవత్సర": 5004,
      "మేనని": 5005,
      "हेंजो": 5006,
      "ांक": 5007,
      "ांवि": 5008,
      "Party": 5009,
      "Short": 5010,
      "below": 5011,
      "relations": 5012,
      "विभिन्": 5013,
      "రాజ్యాలుగా": 5014,
      "సభ్యు": 5015,
      "సభ్యులు": 5016,
      "ांसाठी": 5017,
      "ांपासून": 5018,
      "ांसोबत": 5019,
      "leader": 5020,
      "exports": 5021,
      "Plateau": 5022,
      "single": 5023,
      "करता": 5024,
      "జనగణన": 5025,
      "జనగణమన": 5026,
      "ఆధారపడిన": 5027,
      "ांचल": 5028,
      "भारतभर": 5029,
      "स्फे": 5030,
      "directly": 5031,
      "rights": 5032,
      "cooking": 5033,
      "secular": 5034,
      "वाली": 5035,
      "సామ్రాజ్య": 5036,
      "సామ్రాజ్యం": 5037,
      "బ్రిటిష్": 5038,
      "प्रण": 5039,
      "प्रवेश": 5040,
      "ान्": 5041,
      "survi": 5042,
      "agriculture": 5043,
      "agricultural": 5044,
      "contribut": 5045,
      "लाख": 5046,
      "బ్రిటిషు": 5047,
      "పశ్చిమ": 5048,
      "పశ్చిమాన": 5049,
      "रामा": 5050,
      "साडी": 5051,
      "साजरा": 5052,
      "contribu": 5053,
      "commonly": 5054,
      "Asher": 5055,
      "Blackwell": 5056,
      "पाद": 5057,
      "461": 5058,
      "sembly": 5059,
      "ఆహారం": 5060,
      "साहेब": 5061,
      "वाट": 5062,
      "वास्त": 5063,
      "Early": 5064,
      "Sea": 5065,
      "crust": 5066,
      "renew": 5067,
      "समर्थ": 5068,
      "ఇంగ్లీషు": 5069,
      "ఉండటం": 5070,
      "కిందకు": 5071,
      "वामुळे": 5072,
      "वाजी": 5073,
      "तीनंतर": 5074,
      "texts": 5075,
      "Africa": 5076,
      "Assembly": 5077,
      "Before": 5078,
      "इसकी": 5079,
      "టైటి": 5080,
      "టర్లకు": 5081,
      "పార్లమె": 5082,
      "यादी": 5083,
      "यासाठी": 5084,
      "नागर": 5085,
      "Desert": 5086,
      "John": 5087,
      "Language": 5088,
      "Policy": 5089,
      "वर्ग": 5090,
      "భరత": 5091,
      "భౌగోళిక": 5092,
      "మూల": 5093,
      "नाइट": 5094,
      "नागपूर": 5095,
      "मुद्": 5096,
      "Wiley": 5097,
      "democra": 5098,
      "small": 5099,
      "waist": 5100,
      "मिला": 5101,
      "మౌర్య": 5102,
      "వందేమాత": 5103,
      "సహస్ర": 5104,
      "कावे": 5105,
      "काहार": 5106,
      "काबी": 5107,
      "artis": 5108,
      "partition": 5109,
      "commercial": 5110,
      "violence": 5111,
      "१९५": 5112,
      "సైనిక": 5113,
      "సార్వత్ర": 5114,
      "హైదరా": 5115,
      "कावरून": 5116,
      "काँग्रे": 5117,
      "ष्ठा": 5118,
      "weapons": 5119,
      "recorded": 5120,
      "territories": 5121,
      "Publishing": 5122,
      "१९६": 5123,
      "ప్రారంభించ": 5124,
      "ర్షణ": 5125,
      "ర్‌ల": 5126,
      "नेहर": 5127,
      "नेशिया": 5128,
      "संत": 5129,
      "General": 5130,
      "Human": 5131,
      "Population": 5132,
      "Survey": 5133,
      "उत्पाद": 5134,
      "విద్యుత్": 5135,
      "సంకీర్ణ": 5136,
      "పురుషు": 5137,
      "संप": 5138,
      "संदर्": 5139,
      "संसदे": 5140,
      "upper": 5141,
      "vided": 5142,
      "enacted": 5143,
      "estimated": 5144,
      "194": 5145,
      "స్థితి": 5146,
      "కూడుకుని": 5147,
      "కోల్‌కాత": 5148,
      "संशोध": 5149,
      "संरक्षण": 5150,
      "असत": 5151,
      "conducted": 5152,
      "established": 5153,
      "ability": 5154,
      "important": 5155,
      "अधिकार": 5156,
      "నేపాల్": 5157,
      "పాలించారు": 5158,
      "ఎన్నికల్లో": 5159,
      "असणे": 5160,
      "मधे": 5161,
      "तेथे": 5162,
      "Constituent": 5163,
      "Organization": 5164,
      "Gujar": 5165,
      "Banglades": 5166,
      "कुछ": 5167,
      "రాజ్యాంగం": 5168,
      "బడతారు": 5169,
      "మహాసముద్రం": 5170,
      "्येकडील": 5171,
      "केल्या": 5172,
      "केरळ": 5173,
      "Current": 5174,
      "Dravidian": 5175,
      "Ghats": 5176,
      "Libr": 5177,
      "ष्ण": 5178,
      "ప్రతిపాదనకు": 5179,
      "మొదలైనవి": 5180,
      "ఏర్పడ్డాయి": 5181,
      "होय": 5182,
      "द्वारे": 5183,
      "क्षणामुळे": 5184,
      "Metcalf": 5185,
      "Pandit": 5186,
      "Valley": 5187,
      "dramas": 5188,
      "अंग्रेज़ी": 5189,
      "కార్యక్రమాలు": 5190,
      "ఆఫ్ఘనిస్తాన్": 5191,
      "జరుపుకుంటారు": 5192,
      "भावार": 5193,
      "भाज्या": 5194,
      "्यांची": 5195,
      "pharmaceutical": 5196,
      "reduced": 5197,
      "consolid": 5198,
      "Anthropology": 5199,
      "अमरी": 5200,
      "పీఠభూ": 5201,
      "బంగ్లాదేశ్‌": 5202,
      "శెలవుదినాలు": 5203,
      "त्रि": 5204,
      "देश्य": 5205,
      "देशातील": 5206,
      "Conservation": 5207,
      "approximately": 5208,
      "Bangladesh": 5209,
      ");": 5210,
      "बनाने": 5211,
      "హిమాలయ": 5212,
      "CEE": 5213,
      "Ethnolo": 5214,
      "देशाचे": 5215,
      "देशांमध्ये": 5216,
      "स्थेत": 5217,
      ".,": 5218,
      "06": 5219,
      "116": 5220,
      "114": 5221,
      "्रीका": 5222,
      "Factbo": 5223,
      "Profile": 5224,
      "_of_": 5225,
      "वेढ": 5226,
      "वेरू": 5227,
      "वेळा": 5228,
      "42": 5229,
      "54": 5230,
      "5th": 5231,
      "517": 5232,
      "प्रतिशत": 5233,
      "evan": 5234,
      "harv": 5235,
      "target": 5236,
      "माग": 5237,
      "माश": 5238,
      "माध्य": 5239,
      "540": 5240,
      "6th": 5241,
      "72": 5242,
      "7th": 5243,
      "यूरो": 5244,
      "అంతర్జాతీయ": 5245,
      "అమెరికా": 5246,
      "ఇండో": 5247,
      "झाल्यानंतर": 5248,
      "पाट": 5249,
      "पाव": 5250,
      "86": 5251,
      "88": 5252,
      "93": 5253,
      "981": 5254,
      "हिन्दू": 5255,
      "ఈశాన్య": 5256,
      "ఈస్ట్": 5257,
      "ఎలక్టోర": 5258,
      "पाठी": 5259,
      "त्याने": 5260,
      "त्याची": 5261,
      "Ad": 5262,
      "Ak": 5263,
      "Agre": 5264,
      "Agency": 5265,
      "जबकि": 5266,
      "ఏప్రిల్": 5267,
      "ఐరోపా": 5268,
      "కనుమలు": 5269,
      "त्यासाठी": 5270,
      "पुरी": 5271,
      "पुरु": 5272,
      "Americ": 5273,
      "Bus": 5274,
      "Bay": 5275,
      "Between": 5276,
      "स्थापना": 5277,
      "కబడ్డీ": 5278,
      "ఖనిజాలు": 5279,
      "గెలుచుకోవడ": 5280,
      "पुन्": 5281,
      "हिमा": 5282,
      "हिनी": 5283,
      "CN": 5284,
      "Cri": 5285,
      "City": 5286,
      "Crow": 5287,
      "व्यापार": 5288,
      "చూడండి": 5289,
      "జమ్మూ": 5290,
      "ట్రో": 5291,
      "ंदी": 5292,
      "मिश्र": 5293,
      "मानले": 5294,
      "Clim": 5295,
      "Capit": 5296,
      "DA": 5297,
      "Di": 5298,
      "राजनीतिक": 5299,
      "ఢాకా": 5300,
      "తర్వాత": 5301,
      "పిక్‌": 5302,
      "मानला": 5303,
      "मोगल": 5304,
      "मोहेंजो": 5305,
      "Don": 5306,
      "Dal": 5307,
      "Dis": 5308,
      "Dance": 5309,
      "वर्तमान": 5310,
      "పవిత్ర": 5311,
      "పక్కన": 5312,
      "బౌద్ధ": 5313,
      "तासाठी": 5314,
      "ताजमह": 5315,
      "परि": 5316,
      "Eas": 5317,
      "Fi": 5318,
      "Fore": 5319,
      "First": 5320,
      "जलवायु": 5321,
      "బంగారు": 5322,
      "రచయిత": 5323,
      "లౌకిక": 5324,
      "परिक": 5325,
      "मीर": 5326,
      "द्धा": 5327,
      "Fron": 5328,
      "Federal": 5329,
      "Fran": 5330,
      "GE": 5331,
      "प्रभाव": 5332,
      "ోత్తరాలు": 5333,
      "ప్రసిద్ధి": 5334,
      "భారత్‌లో": 5335,
      "येणारे": 5336,
      "ंडवन": 5337,
      "सुवर्": 5338,
      "Go": 5339,
      "Gar": 5340,
      "Gre": 5341,
      "Gange": 5342,
      "अफ्रीका": 5343,
      "నిపుణులు": 5344,
      "నిడివి": 5345,
      "తిరుగుబా": 5346,
      "सुधारण": 5347,
      "सुद्धा": 5348,
      "म्म": 5349,
      "Gond": 5350,
      "Gold": 5351,
      "Home": 5352,
      "II": 5353,
      "दृष्ट": 5354,
      "స్థావరాలు": 5355,
      "సామాజిక": 5356,
      "కూడుకొని": 5357,
      "वर्तु": 5358,
      "वर्चस्व": 5359,
      "किंवा": 5360,
      "Id": 5361,
      "Im": 5362,
      "JS": 5363,
      "Jhar": 5364,
      "तिहास": 5365,
      "కాపాడుకుంటూ": 5366,
      "నేరేడు": 5367,
      "మాట్లాడే": 5368,
      "ोकाने": 5369,
      "दिस": 5370,
      "शिख": 5371,
      "Kal": 5372,
      "Kum": 5373,
      "Keral": 5374,
      "Le": 5375,
      "जलोढ़": 5376,
      "ఎన్నుకోబడతారు": 5377,
      "కిలోమీటర్లకు": 5378,
      "చెప్పుకో": 5379,
      "शिरका": 5380,
      "शिवाजी": 5381,
      "पूर्वे": 5382,
      "Laksh": 5383,
      "Mes": 5384,
      "Mad": 5385,
      "Mani": 5386,
      "विभिन्न": 5387,
      "చెందాయి": 5388,
      "చెందుతున్న": 5389,
      "పర్యాయాలు": 5390,
      "एकच": 5391,
      "एकनाथ": 5392,
      "दाख": 5393,
      "Myan": 5394,
      "NJ": 5395,
      "Non": 5396,
      "Nag": 5397,
      "समर्थन": 5398,
      "పూర్తిగా": 5399,
      "ఉపయోగి": 5400,
      "పుట్టుపూర్వోత్తరాలు": 5401,
      "मिळाला": 5402,
      "चित्रपटाला": 5403,
      "चित्रपटांची": 5404,
      "Nep": 5405,
      "NDA": 5406,
      "Over": 5407,
      "Py": 5408,
      "यूरोपीय": 5409,
      "ప్రజాదరణ": 5410,
      "CITEREF": 5411,
      "సూచించినట్లు": 5412,
      "कडा": 5413,
      "कडधान": 5414,
      "लोकशा": 5415,
      "Pall": 5416,
      "Power": 5417,
      "Res": 5418,
      "Rig": 5419,
      "ंक": 5420,
      "వందేమాతరం": 5421,
      "సహస్రాబ్ది": 5422,
      "సార్వత్రిక": 5423,
      "लोकनृ": 5424,
      "लोकसंख": 5425,
      "क्री": 5426,
      "Rother": 5427,
      "Sp": 5428,
      "Sy": 5429,
      "San": 5430,
      "असम": 5431,
      "కోల్‌కాతా": 5432,
      "Ethnologue": 5433,
      "Factbook": 5434,
      "सरे": 5435,
      "सरपट": 5436,
      "सर्वात": 5437,
      "Ser": 5438,
      "Son": 5439,
      "Sab": 5440,
      "Sim": 5441,
      "अधि": 5442,
      "Library": 5443,
      "ఎలక్టోరల్": 5444,
      "గెలుచుకోవడం": 5445,
      "हरि": 5446,
      "हरलाल": 5447,
      "१९५०": 5448,
      "Sub": 5449,
      "Some": 5450,
      "Sign": 5451,
      "Stil": 5452,
      "अलावा": 5453,
      "తిరుగుబాటు": 5454,
      "%)": 5455,
      "%).": 5456,
      "१९१३": 5457,
      "१९४७": 5458,
      "जाऊ": 5459,
      "Sharma": 5460,
      "School": 5461,
      "Ter": 5462,
      "Tal": 5463,
      "उच्च": 5464,
      "01": 5465,
      "04": 5466,
      "07": 5467,
      "दलदली": 5468,
      "द्याने": 5469,
      "लिह": 5470,
      "Tri": 5471,
      "Tem": 5472,
      "Treat": 5473,
      "Ut": 5474,
      "एन": 5475,
      "060": 5476,
      "1000": 5477,
      "220": 5478,
      "लिखित": 5479,
      "प्राणी": 5480,
      "प्राप्": 5481,
      "Ver": 5482,
      "Win": 5483,
      "Wall": 5484,
      "WHO": 5485,
      "कश्": 5486,
      "32": 5487,
      "4లో": 5488,
      "447": 5489,
      "प्रकारात": 5490,
      "प्रकारची": 5491,
      "असेही": 5492,
      "ae": 5493,
      "aic": 5494,
      "ather": 5495,
      "bes": 5496,
      "कर्म": 5497,
      "422": 5498,
      "48లో": 5499,
      "421": 5500,
      "वर्षे": 5501,
      "स्थापत्याचे": 5502,
      "कीम": 5503,
      "cing": 5504,
      "cli": 5505,
      "cro": 5506,
      "city": 5507,
      "किये": 5508,
      "52": 5509,
      "546": 5510,
      "65": 5511,
      "द्रे": 5512,
      "रुंद": 5513,
      "रुद्ध": 5514,
      "ctic": 5515,
      "cut": 5516,
      "cav": 5517,
      "came": 5518,
      "चना": 5519,
      "73": 5520,
      "75": 5521,
      "700": 5522,
      "नावाची": 5523,
      "झालेला": 5524,
      "झालेली": 5525,
      "count": 5526,
      "cise": 5527,
      "could": 5528,
      "dy": 5529,
      "छो": 5530,
      "7000": 5531,
      "740": 5532,
      "900": 5533,
      "शिक्षणा": 5534,
      "शाकाहार": 5535,
      "स्थानिक्": 5536,
      "dar": 5537,
      "dri": 5538,
      "dest": 5539,
      "ei": 5540,
      "छोड़": 5541,
      "912": 5542,
      "960": 5543,
      "973": 5544,
      "टिळ": 5545,
      "प्रदेशांत": 5546,
      "शिक्षणाच्या": 5547,
      "ez": 5548,
      "ely": 5549,
      "etic": 5550,
      "eign": 5551,
      "जहाँ": 5552,
      "AL": 5553,
      "BB": 5554,
      "BS": 5555,
      "बाज": 5556,
      "बायो": 5557,
      "बाबती": 5558,
      "effec": 5559,
      "fem": 5560,
      "fil": 5561,
      "fall": 5562,
      "तट": 5563,
      "Date": 5564,
      "Devan": 5565,
      "HZ": 5566,
      "बाह्य": 5567,
      "रोवली": 5568,
      "रोखून": 5569,
      "feration": 5570,
      "fram": 5571,
      "gas": 5572,
      "god": 5573,
      "तम": 5574,
      "IN": 5575,
      "Int": 5576,
      "Langua": 5577,
      "राज्यसभा": 5578,
      "राज्यकर्": 5579,
      "संस्कृतीची": 5580,
      "gins": 5581,
      "han": 5582,
      "ham": 5583,
      "hab": 5584,
      "दारी": 5585,
      "Nation": 5586,
      "PAL": 5587,
      "PIN": 5588,
      "साम्राज्ये": 5589,
      "साम्राज्याच्या": 5590,
      "साम्राज्याची": 5591,
      "here": 5592,
      "hub": 5593,
      "ira": 5594,
      "jur": 5595,
      "निय": 5596,
      "Ty": 5597,
      "VII": 5598,
      "Wa": 5599,
      "कोरडे": 5600,
      "गोड": 5601,
      "गोंडवन": 5602,
      "kes": 5603,
      "kame": 5604,
      "ls": 5605,
      "lor": 5606,
      "नदिया": 5607,
      "XVII": 5608,
      "_Assembly": 5609,
      "bj": 5610,
      "बहुसंख": 5611,
      "रूकू": 5612,
      "विद्याल": 5613,
      "lat": 5614,
      "lab": 5615,
      "law": 5616,
      "mb": 5617,
      "पहु": 5618,
      "bate": 5619,
      "bac": 5620,
      "cor": 5621,
      "केलेल्या": 5622,
      "श्चन": 5623,
      "आजही": 5624,
      "mu": 5625,
      "med": 5626,
      "mam": 5627,
      "mund": 5628,
      "फि": 5629,
      "cau": 5630,
      "fin": 5631,
      "go": 5632,
      "घेऊ": 5633,
      "घेण्यात": 5634,
      "जगात": 5635,
      "much": 5636,
      "multi": 5637,
      "ner": 5638,
      "nar": 5639,
      "फ्रा": 5640,
      "ges": 5641,
      "giv": 5642,
      "how": 5643,
      "पडतो": 5644,
      "पृष्ठा": 5645,
      "हिंदुस्थान": 5646,
      "nom": 5647,
      "nation": 5648,
      "near": 5649,
      "name": 5650,
      "बंगा": 5651,
      "liv": 5652,
      "nct": 5653,
      "othe": 5654,
      "उत्तरांचल": 5655,
      "इतिहासा": 5656,
      "ब्रिटिशकालीन": 5657,
      "oz": 5658,
      "oin": 5659,
      "oge": 5660,
      "ove": 5661,
      "यक": 5662,
      "odu": 5663,
      "rces": 5664,
      "rep": 5665,
      "ब्रिटिशांवि": 5666,
      "अजिं": 5667,
      "अजनाभ": 5668,
      "pon": 5669,
      "pet": 5670,
      "pil": 5671,
      "pul": 5672,
      "यत": 5673,
      "scri": 5674,
      "siz": 5675,
      "spu": 5676,
      "उपप्रकार": 5677,
      "उपयोग": 5678,
      "उपलब्": 5679,
      "put": 5680,
      "push": 5681,
      "poverty": 5682,
      "ring": 5683,
      "रही": 5684,
      "tation": 5685,
      "vern": 5686,
      "ybac": 5687,
      "ज्वाला": 5688,
      "न्ही": 5689,
      "समुद्रा": 5690,
      "range": 5691,
      "sc": 5692,
      "sen": 5693,
      "sil": 5694,
      "लना": 5695,
      "ంజ": 5696,
      "ంతి": 5697,
      "ంకా": 5698,
      "महाराज": 5699,
      "बांगला": 5700,
      "लागू": 5701,
      "sover": 5702,
      "slow": 5703,
      "sites": 5704,
      "sched": 5705,
      "श्री": 5706,
      "ంకాగా": 5707,
      "ంథాలు": 5708,
      "అర": 5709,
      "लागते": 5710,
      "हिमालयीन": 5711,
      "पृष्ठाचा": 5712,
      "tin": 5713,
      "test": 5714,
      "urid": 5715,
      "vil": 5716,
      "सत": 5717,
      "అల": 5718,
      "అస్": 5719,
      "అది": 5720,
      "इतिहासातील": 5721,
      "इतिहासकार": 5722,
      "गणतंत्र": 5723,
      "vity": 5724,
      "way": 5725,
      "wana": 5726,
      "wildlife": 5727,
      "सल्": 5728,
      "అన్న": 5729,
      "అల్": 5730,
      "అంది": 5731,
      "गुजरा": 5732,
      "गुजर": 5733,
      "गुरूकू": 5734,
      "would": 5735,
      "ys": 5736,
      "ze": 5737,
      "aning": 5738,
      "सफल": 5739,
      "అరు": 5740,
      "అక్ష": 5741,
      "అవర": 5742,
      "तुल": 5743,
      "तांद": 5744,
      "बनला": 5745,
      "anag": 5746,
      "another": 5747,
      "anced": 5748,
      "thor": 5749,
      "हरा": 5750,
      "అద్ద": 5751,
      "అలం": 5752,
      "అధి": 5753,
      "बनली": 5754,
      "मह्त्व": 5755,
      "०००": 5756,
      "those": 5757,
      "inated": 5758,
      "institution": 5759,
      "iness": 5760,
      "ोसी": 5761,
      "అంద": 5762,
      "అఖండ": 5763,
      "అమల": 5764,
      "्रेलि": 5765,
      "विषुववृ": 5766,
      "असलेला": 5767,
      "introduc": 5768,
      "then": 5769,
      "these": 5770,
      "ala": 5771,
      "ौद्योग": 5772,
      "అరే": 5773,
      "అంటే": 5774,
      "అంక": 5775,
      "असलेल्या": 5776,
      "वेगवेगळे": 5777,
      "काळातच": 5778,
      "ene": 5779,
      "enn": 5780,
      "ency": 5781,
      "energy": 5782,
      "१४": 5783,
      "అధీన": 5784,
      "అశో": 5785,
      "ఆగ": 5786,
      "ndmother": 5787,
      "गीरी": 5788,
      "दोन्ही": 5789,
      "edomin": 5790,
      "arter": 5791,
      "arts": 5792,
      "estic": 5793,
      "२४": 5794,
      "ఆలో": 5795,
      "ఆవి": 5796,
      "ఆతి": 5797,
      "निकोबार": 5798,
      "बदलांमुळे": 5799,
      "मसाला": 5800,
      "orally": 5801,
      "orted": 5802,
      "tian": 5803,
      "tially": 5804,
      "केवल": 5805,
      "ఆక్ర": 5806,
      "ఆయా": 5807,
      "ఆనా": 5808,
      "महाखंड": 5809,
      "महाविद्याल": 5810,
      "सभासद": 5811,
      "tiles": 5812,
      "dia": 5813,
      "dic": 5814,
      "ase": 5815,
      "स्लि": 5816,
      "ఆడు": 5817,
      "ఆధ్య": 5818,
      "ఆదాయ": 5819,
      "राज्यांत": 5820,
      "राज्यांच्या": 5821,
      "राज्यांमध्ये": 5822,
      "isol": 5823,
      "ision": 5824,
      "Indira": 5825,
      "20th": 5826,
      "प्रशासन": 5827,
      "ఆగ్": 5828,
      "ఆవల": 5829,
      "ఆంగ్ల": 5830,
      "दिल्लीतील": 5831,
      "उदाहरणे": 5832,
      "बांधले": 5833,
      "reet": 5834,
      "recent": 5835,
      "reven": 5836,
      "refer": 5837,
      "प्रत्य": 5838,
      "ఆణి": 5839,
      "ఆచార": 5840,
      "ఆర్య": 5841,
      "बांधून": 5842,
      "बांधली": 5843,
      "बांधणी": 5844,
      "ric": 5845,
      "rivers": 5846,
      "oming": 5847,
      "ings": 5848,
      "प्रचल": 5849,
      "ఆక్షరాస్యత": 5850,
      "ఆటలు": 5851,
      "ఆనం": 5852,
      "त्यांचा": 5853,
      "त्यांनी": 5854,
      "दुसऱ्या": 5855,
      "enter": 5856,
      "icon": 5857,
      "icies": 5858,
      "icken": 5859,
      "प्रौद्योग": 5860,
      "ఆలస్య": 5861,
      "ఆదేశాలు": 5862,
      "ఇయ": 5863,
      "यातून": 5864,
      "मध्यप्रदेशातील": 5865,
      "निवडले": 5866,
      "itz": 5867,
      "itated": 5868,
      "tow": 5869,
      "today": 5870,
      "प्रयास": 5871,
      "ఇన్": 5872,
      "ఇను": 5873,
      "ఇము": 5874,
      "निवडतात": 5875,
      "शास्त्रातील": 5876,
      "दक्षिणेतील": 5877,
      "Thar": 5878,
      "churid": 5879,
      "stand": 5880,
      "struc": 5881,
      "नेमा": 5882,
      "ఇతి": 5883,
      "ఇస్త": 5884,
      "ఇంది": 5885,
      "अर्थव्यवस्थेत": 5886,
      "इस्लाम": 5887,
      "ओळखला": 5888,
      "lian": 5889,
      "lied": 5890,
      "ligion": 5891,
      "like": 5892,
      "वियत": 5893,
      "ఇతరు": 5894,
      "ఇందు": 5895,
      "ఇప్పటికీ": 5896,
      "आपल्या": 5897,
      "आक्रमण": 5898,
      "मराठी": 5899,
      "living": 5900,
      "lief": 5901,
      "liferation": 5902,
      "urta": 5903,
      "परी": 5904,
      "ఇతను": 5905,
      "ఇంటి": 5906,
      "ఇచ్చే": 5907,
      "्मक": 5908,
      "पुराण": 5909,
      "पुराव": 5910,
      "ames": 5911,
      "ample": 5912,
      "very": 5913,
      "lee": 5914,
      "क्षर": 5915,
      "ఇంకా": 5916,
      "ఉర్": 5917,
      "ఉద్": 5918,
      "गेटवे": 5919,
      "पठारावरील": 5920,
      "मंत्रीमंड": 5921,
      "leav": 5922,
      "level": 5923,
      "rag": 5924,
      "rail": 5925,
      "भाष": 5926,
      "ఉపా": 5927,
      "ఉండి": 5928,
      "ఉదా": 5929,
      "stor": 5930,
      "उदयास": 5931,
      "दर्श": 5932,
      "rather": 5933,
      "19th": 5934,
      "1935": 5935,
      "olved": 5936,
      "कोई": 5937,
      "ఉండు": 5938,
      "ఉష్ణ": 5939,
      "ఉనిక": 5940,
      "शक्य": 5941,
      "शकतात": 5942,
      "समज": 5943,
      "cean": 5944,
      "iger": 5945,
      "illi": 5946,
      "room": 5947,
      "माल": 5948,
      "ఋతు": 5949,
      "ఎమ": 5950,
      "ఎదు": 5951,
      "हाताळ": 5952,
      "प्रांताचे": 5953,
      "क्षेत्रात": 5954,
      "role": 5955,
      "adem": 5956,
      "adop": 5957,
      "adwe": 5958,
      "राजनै": 5959,
      "ఎగు": 5960,
      "ఎల్ల": 5961,
      "ఎంతో": 5962,
      "क्षेत्रामध्ये": 5963,
      "वैशिष्ट्ये": 5964,
      "प्राण्यांच्या": 5965,
      "addition": 5966,
      "added": 5967,
      "uled": 5968,
      "reser": 5969,
      "देव": 5970,
      "ఎగువ": 5971,
      "ఏక": 5972,
      "ఏడ": 5973,
      "प्राण्यांमध्ये": 5974,
      "गोलिक": 5975,
      "विद्यार्थ्यांची": 5976,
      "respon": 5977,
      "789": 5978,
      "uscript": 5979,
      "ung": 5980,
      "वास": 5981,
      "ఏడు": 5982,
      "ఏటా": 5983,
      "ఏకత్వ": 5984,
      "तमिळनाडूतील": 5985,
      "नृत्यप्रकार": 5986,
      "rad": 5987,
      "unres": 5988,
      "untouch": 5989,
      "unleav": 5990,
      "sia": 5991,
      "भील": 5992,
      "ఏళ్ళ": 5993,
      "ఐదు": 5994,
      "ఒక్": 5995,
      "आर्क": 5996,
      "आर्द्र": 5997,
      "खोरे": 5998,
      "side": 5999,
      "tically": 6000,
      "veget": 6001,
      "makes": 6002,
      "्यादा": 6003,
      "ఒరి": 6004,
      "ఒలిం": 6005,
      "ఒడిస్": 6006,
      "घटना": 6007,
      "घटने": 6008,
      "घडल्या": 6009,
      "defe": 6010,
      "devo": 6011,
      "due": 6012,
      "civil": 6013,
      "तरह": 6014,
      "ఓడ": 6015,
      "ఓటర్": 6016,
      "ఔట్‌": 6017,
      "घोषित": 6018,
      "घोषणा": 6019,
      "जवळपास": 6020,
      "expan": 6021,
      "exchange": 6022,
      "example": 6023,
      "berg": 6024,
      "तीस": 6025,
      "కిం": 6026,
      "కర్": 6027,
      "కని": 6028,
      "नद्यांमध्ये": 6029,
      "रिझर्व": 6030,
      "लुप्त": 6031,
      "Aryan": 6032,
      "separ": 6033,
      "seals": 6034,
      "shor": 6035,
      "तीसर": 6036,
      "కాయ": 6037,
      "కరా": 6038,
      "కము": 6039,
      "विकि": 6040,
      "हजार": 6041,
      "स्वीकार": 6042,
      "share": 6043,
      "ship": 6044,
      "abin": 6045,
      "abad": 6046,
      "शांति": 6047,
      "కంట": 6048,
      "కార్": 6049,
      "కిత": 6050,
      "स्मारकावरून": 6051,
      "नामशेष": 6052,
      "स्थापत्यशास्त्रातील": 6053,
      "ables": 6054,
      "ressed": 6055,
      "being": 6056,
      "belief": 6057,
      "बाहरी": 6058,
      "కష్ట": 6059,
      "కట్ట": 6060,
      "కమైన": 6061,
      "वनस्पतीं": 6062,
      "इंग्लंड": 6063,
      "स्वातंत्र्यप्राप्": 6064,
      "anging": 6065,
      "aced": 6066,
      "action": 6067,
      "acter": 6068,
      "रूस": 6069,
      "కమీ": 6070,
      "క్యం": 6071,
      "కమల": 6072,
      "गंगेचे": 6073,
      "दख्खनचे": 6074,
      "rea": 6075,
      "across": 6076,
      "impro": 6077,
      "ume": 6078,
      "income": 6079,
      "ंत्रिक": 6080,
      "కమేన": 6081,
      "కెట్": 6082,
      "కర్‌": 6083,
      "अलिक": 6084,
      "आरक्षणामुळे": 6085,
      "ग्रीक": 6086,
      "originally": 6087,
      "partic": 6088,
      "parts": 6089,
      "moist": 6090,
      "माना": 6091,
      "కత్తా": 6092,
      "కానీ": 6093,
      "కవరీ": 6094,
      "जुन्या": 6095,
      "जवाबदार": 6096,
      "जवाहरलाल": 6097,
      "ogn": 6098,
      "ute": 6099,
      "107": 6100,
      "1080": 6101,
      "मानसू": 6102,
      "ఖిక": 6103,
      "ఖగో": 6104,
      "ఖర్చు": 6105,
      "धाड": 6106,
      "धोरण": 6107,
      "पहिला": 6108,
      "Chris": 6109,
      "Champ": 6110,
      "loss": 6111,
      "loose": 6112,
      "मुस्लि": 6113,
      "ఖాతం": 6114,
      "గృ": 6115,
      "గె": 6116,
      "१६३८": 6117,
      "१६४८": 6118,
      "सादर": 6119,
      "spor": 6120,
      "spic": 6121,
      "contain": 6122,
      "contains": 6123,
      "भाषाएँ": 6124,
      "గించ": 6125,
      "గతి": 6126,
      "గల్": 6127,
      "मुलगा": 6128,
      "असल्याने": 6129,
      "असल्याची": 6130,
      "compl": 6131,
      "comple": 6132,
      "comprom": 6133,
      "ework": 6134,
      "जीत": 6135,
      "గులు": 6136,
      "గింది": 6137,
      "గలి": 6138,
      "मार्ग": 6139,
      "वन्यजीव": 6140,
      "वन्यसंप": 6141,
      "ident": 6142,
      "idly": 6143,
      "idel": 6144,
      "ends": 6145,
      "सरकारें": 6146,
      "గిన్న": 6147,
      "గనులు": 6148,
      "గౌర": 6149,
      "महत्त्वाच्या": 6150,
      "इंग्रजांनी": 6151,
      "व्हावे": 6152,
      "ending": 6153,
      "endments": 6154,
      "ourish": 6155,
      "ources": 6156,
      "स्थि": 6157,
      "ఘన": 6158,
      "ఘు": 6159,
      "ఘిక": 6160,
      "पदार्थांचा": 6161,
      "स्वरूप": 6162,
      "स्वरूपात": 6163,
      "cost": 6164,
      "formal": 6165,
      "formation": 6166,
      "play": 6167,
      "कृष": 6168,
      "ఘట్ట": 6169,
      "ఘోర": 6170,
      "ఘర్షణ": 6171,
      "अशोकाने": 6172,
      "अंदमान": 6173,
      "आकर्षित": 6174,
      "plains": 6175,
      "1995": 6176,
      "primary": 6177,
      "provided": 6178,
      "जिसका": 6179,
      "చా": 6180,
      "చో": 6181,
      "చ్": 6182,
      "ओडिशा": 6183,
      "गिधाड": 6184,
      "चालतो": 6185,
      "margins": 6186,
      "porary": 6187,
      "assert": 6188,
      "Hindustan": 6189,
      "दिल्": 6190,
      "చర్": 6191,
      "చము": 6192,
      "చిన": 6193,
      "ड्राइव्ह": 6194,
      "नैऋत्य": 6195,
      "पांढऱ्या": 6196,
      "atis": 6197,
      "wealth": 6198,
      "oka": 6199,
      "inequality": 6200,
      "मिलियन": 6201,
      "చులు": 6202,
      "చింది": 6203,
      "చిత": 6204,
      "पानगळी": 6205,
      "पसंती": 6206,
      "महिन": 6207,
      "becoming": 6208,
      "posi": 6209,
      "clop": 6210,
      "168": 6211,
      "सिनेमा": 6212,
      "చక్ర": 6213,
      "చట్ట": 6214,
      "ఛాయుత": 6215,
      "मौर्य": 6216,
      "प्रेम": 6217,
      "काश्मीर": 6218,
      "13th": 6219,
      "governments": 6220,
      "Religion": 6221,
      "declar": 6222,
      "लगा": 6223,
      "జా": 6224,
      "జె": 6225,
      "జై": 6226,
      "राजवट": 6227,
      "पुढार": 6228,
      "पुतळा": 6229,
      "decade": 6230,
      "populous": 6231,
      "Compan": 6232,
      "Commission": 6233,
      "हिस्": 6234,
      "జౌ": 6235,
      "జ్ర": 6236,
      "జాన": 6237,
      "हिंसाच": 6238,
      "स्तरावर": 6239,
      "सुमारास": 6240,
      "Mohen": 6241,
      "cause": 6242,
      "merch": 6243,
      "wards": 6244,
      "उपमहाद्वीप": 6245,
      "జిన": 6246,
      "జంత": 6247,
      "జైన": 6248,
      "किनाऱ्यालगत": 6249,
      "सेवांचा": 6250,
      "१९२०": 6251,
      "wood": 6252,
      "castes": 6253,
      "ival": 6254,
      "extinc": 6255,
      "बनाई": 6256,
      "జపా": 6257,
      "జిత": 6258,
      "జ్‌": 6259,
      "राज्यसभेतील": 6260,
      "इंडोनेशिया": 6261,
      "युरोपीय": 6262,
      "Street": 6263,
      "cyclop": 6264,
      "less": 6265,
      "predomin": 6266,
      "अन्तर": 6267,
      "జెండ": 6268,
      "జనాలు": 6269,
      "జిల్ల": 6270,
      "विद्यापीठ": 6271,
      "जैववैविध्य": 6272,
      "निवडणूक": 6273,
      "1960": 6274,
      "1962": 6275,
      "ministers": 6276,
      "4020": 6277,
      "संघीय": 6278,
      "జవహ": 6279,
      "జెట్": 6280,
      "ఞాన": 6281,
      "पश्चिमेकडे": 6282,
      "ऋषभदेव": 6283,
      "ईशान्येकडील": 6284,
      "Depart": 6285,
      "Encyclop": 6286,
      "Euras": 6287,
      "crimin": 6288,
      "पश्चिमी": 6289,
      "టన": 6290,
      "టో": 6291,
      "టస్": 6292,
      "दहशतवाद": 6293,
      "शाहजहानने": 6294,
      "grandmother": 6295,
      "edia": 6296,
      "classes": 6297,
      "Centre": 6298,
      "Rao": 6299,
      "शुरू": 6300,
      "టండ": 6301,
      "టిన": 6302,
      "టాయి": 6303,
      "अवलंब": 6304,
      "अ‍ॅ": 6305,
      "अमेर": 6306,
      "360": 6307,
      "476": 6308,
      "urbanisation": 6309,
      "1971": 6310,
      "पेक्ष": 6311,
      "టచే": 6312,
      "ట్యం": 6313,
      "ట్రా": 6314,
      "आशियातील": 6315,
      "आंबेडकर": 6316,
      "आघाडी": 6317,
      "1972": 6318,
      "maint": 6319,
      "ographical": 6320,
      "ographics": 6321,
      "लोगों": 6322,
      "టంతో": 6323,
      "టమూ": 6324,
      "ఠీ": 6325,
      "इतका": 6326,
      "इसवी": 6327,
      "उमट": 6328,
      "others": 6329,
      "Indones": 6330,
      "appear": 6331,
      "folk": 6332,
      "निरपेक्ष": 6333,
      "డ్ర": 6334,
      "డ్య": 6335,
      "డాల": 6336,
      "उर्वरित": 6337,
      "ऑगस्ट": 6338,
      "ऑस्कर": 6339,
      "follow": 6340,
      "prev": 6341,
      "ilding": 6342,
      "supported": 6343,
      "उसके": 6344,
      "డాలు": 6345,
      "డింది": 6346,
      "డ్చ": 6347,
      "ऑस्ट्रेलि": 6348,
      "कमाली": 6349,
      "कनिष्ठ": 6350,
      "northwest": 6351,
      "Bib": 6352,
      "Bihar": 6353,
      "Biodiversity": 6354,
      "कहते": 6355,
      "డ్ల": 6356,
      "డ్‌": 6357,
      "డానికి": 6358,
      "कंपनी": 6359,
      "ख्रिश्चन": 6360,
      "चोल": 6361,
      "Deccan": 6362,
      "aith": 6363,
      "president": 6364,
      "sometimes": 6365,
      "पड़ोसी": 6366,
      "డించింది": 6367,
      "డబు": 6368,
      "డమ్": 6369,
      "जॉर्ज": 6370,
      "जम्मू": 6371,
      "जंबूद्वीप": 6372,
      "urred": 6373,
      "1950s": 6374,
      "basin": 6375,
      "cket": 6376,
      "अमेरिका": 6377,
      "ఢవి": 6378,
      "ణే": 6379,
      "ణిక": 6380,
      "धरतो": 6381,
      "नमूद": 6382,
      "पहाता": 6383,
      "teen": 6384,
      "discrimin": 6385,
      "chosen": 6386,
      "Proliferation": 6387,
      "आन्दोलन": 6388,
      "ణాలు": 6389,
      "ణించ": 6390,
      "ణంతో": 6391,
      "फ्रेंच": 6392,
      "बरीच": 6393,
      "भौगोलिक": 6394,
      "Social": 6395,
      "setting": 6396,
      "tribal": 6397,
      "arms": 6398,
      "जून": 6399,
      "ణదారులు": 6400,
      "ణుల": 6401,
      "తార": 6402,
      "मरीन": 6403,
      "यमुना": 6404,
      "शिकारी": 6405,
      "armies": 6406,
      "forests": 6407,
      "marked": 6408,
      "cultures": 6409,
      "तनत": 6410,
      "తాయ": 6411,
      "తాన": 6412,
      "తరా": 6413,
      "सभागृह": 6414,
      "सिक्कीम": 6415,
      "सचिवालय": 6416,
      "Practice": 6417,
      "belong": 6418,
      "bellion": 6419,
      "poll": 6420,
      "दृष्टि": 6421,
      "తాయి": 6422,
      "తదు": 6423,
      "తక్కు": 6424,
      "ाप्रमाणे": 6425,
      "स्फेअर": 6426,
      "रामायण": 6427,
      "policy": 6428,
      "policies": 6429,
      "pending": 6430,
      "office": 6431,
      "कश्मी": 6432,
      "తలం": 6433,
      "తగ్": 6434,
      "తమై": 6435,
      "काबीज": 6436,
      "काँग्रेस": 6437,
      "संदर्भ": 6438,
      "related": 6439,
      "exporter": 6440,
      "society": 6441,
      "375": 6442,
      "छोटे": 6443,
      "తమ్య": 6444,
      "తాలతో": 6445,
      "తదేశపు": 6446,
      "भावार्थ": 6447,
      "माध्यम": 6448,
      "पुरुष": 6449,
      "Demographics": 6450,
      "gave": 6451,
      "safe": 6452,
      "1988": 6453,
      "नदियाँ": 6454,
      "థన": 6455,
      "థమ": 6456,
      "థి": 6457,
      "पुन्हा": 6458,
      "ताजमहाल": 6459,
      "सुधारणांचा": 6460,
      "coastline": 6461,
      "Himalayan": 6462,
      "1007": 6463,
      "colonial": 6464,
      "सल्तनत": 6465,
      "థాత": 6466,
      "థాన": 6467,
      "థార్": 6468,
      "वर्तुळकार": 6469,
      "कडधान्ये": 6470,
      "लोकशाही": 6471,
      "garh": 6472,
      "sector": 6473,
      "vice": 6474,
      "reatened": 6475,
      "प्रौद्योगिकी": 6476,
      "దశ": 6477,
      "దస": 6478,
      "దూ": 6479,
      "लोकसंख्ये": 6480,
      "बायोस्फेअर": 6481,
      "बाबतीत": 6482,
      "strong": 6483,
      "strength": 6484,
      "generally": 6485,
      "influences": 6486,
      "राजनैतिक": 6487,
      "దృ": 6488,
      "దాన": 6489,
      "దీయ": 6490,
      "बहुसंख्य": 6491,
      "ब्रिटिशांविरुद्ध": 6492,
      "अजिंठा": 6493,
      "transmit": 6494,
      "Sikhism": 6495,
      "Ashoka": 6496,
      "Malay": 6497,
      "मानसून": 6498,
      "దైన": 6499,
      "దారు": 6500,
      "దాబ": 6501,
      "अजनाभवर्ष": 6502,
      "उपलब्ध": 6503,
      "ज्वालामुख": 6504,
      "breath": 6505,
      "crucial": 6506,
      "drain": 6507,
      "factor": 6508,
      "मुस्लिम": 6509,
      "దీన": 6510,
      "దగ్": 6511,
      "దీర్": 6512,
      "बांगलादेश": 6513,
      "गुजराथ": 6514,
      "गुजरात": 6515,
      "mediately": 6516,
      "medieval": 6517,
      "nings": 6518,
      "architecture": 6519,
      "अग": 6520,
      "దగినది": 6521,
      "దక్కను": 6522,
      "ధం": 6523,
      "गुरूकूल": 6524,
      "सभासदांना": 6525,
      "मंत्रीमंडळ": 6526,
      "remaining": 6527,
      "Environmental": 6528,
      "Islamic": 6529,
      "Civilisation": 6530,
      "अने": 6531,
      "ధర": 6532,
      "ధు": 6533,
      "ధాల": 6534,
      "हाताळून": 6535,
      "स्वातंत्र्यप्राप्तीनंतर": 6536,
      "१६३८ला": 6537,
      "Arabian": 6538,
      "Health": 6539,
      "Jammu": 6540,
      "Volume": 6541,
      "अल्": 6542,
      "ధిన": 6543,
      "ధరి": 6544,
      "ధనా": 6545,
      "हिंसाचार": 6546,
      ".\"": 6547,
      "IU": 6548,
      "having": 6549,
      "regul": 6550,
      "summer": 6551,
      "endemic": 6552,
      "आय": 6553,
      "ధిల్ల": 6554,
      "నృ": 6555,
      "నై": 6556,
      "Ou": 6557,
      "Tr": 6558,
      "Tit": 6559,
      "marriages": 6560,
      "Brahma": 6561,
      "Longman": 6562,
      "North": 6563,
      "आस": 6564,
      "నో": 6565,
      "నలు": 6566,
      "న్య": 6567,
      "crad": 6568,
      "eco": 6569,
      "grea": 6570,
      "Republic": 6571,
      "average": 6572,
      "broad": 6573,
      "currency": 6574,
      "उसे": 6575,
      "నాల": 6576,
      "నర్": 6577,
      "నవి": 6578,
      "gend": 6579,
      "hp": 6580,
      "iom": 6581,
      "guard": 6582,
      "natal": 6583,
      "practic": 6584,
      "passing": 6585,
      "एव": 6586,
      "నంలో": 6587,
      "నసా": 6588,
      "నికి": 6589,
      "lace": 6590,
      "ouc": 6591,
      "phe": 6592,
      "village": 6593,
      "independence": 6594,
      "organisation": 6595,
      "distinc": 6596,
      "कप": 6597,
      "నడు": 6598,
      "ననీ": 6599,
      "నాలతో": 6600,
      "pee": 6601,
      "rt": 6602,
      "spee": 6603,
      "dishes": 6604,
      "ometres": 6605,
      "character": 6606,
      "status": 6607,
      "कों": 6608,
      "నవచ్చు": 6609,
      "నబడిన": 6610,
      "నదులు": 6611,
      "trad": 6612,
      "trea": 6613,
      "tiv": 6614,
      "liberal": 6615,
      "administration": 6616,
      "residents": 6617,
      "companies": 6618,
      "क्यों": 6619,
      "నప్పటికినీ": 6620,
      "పక": 6621,
      "పబ": 6622,
      "uab": 6623,
      "unt": 6624,
      "ँट": 6625,
      "subsequent": 6626,
      "increasingly": 6627,
      "gradually": 6628,
      "Democracy": 6629,
      "घर": 6630,
      "పి": 6631,
      "పస్": 6632,
      "పది": 6633,
      "ंज": 6634,
      "ंथ": 6635,
      "ंभ": 6636,
      "disputes": 6637,
      "different": 6638,
      "employed": 6639,
      "Class": 6640,
      "चला": 6641,
      "పిన": 6642,
      "పింది": 6643,
      "పంలో": 6644,
      "ंम": 6645,
      "ंका": 6646,
      "ंता": 6647,
      "Dyson": 6648,
      "Gupta": 6649,
      "Greek": 6650,
      "SAGE": 6651,
      "चली": 6652,
      "పూడ": 6653,
      "పిత": 6654,
      "పరాజ": 6655,
      "ंकी": 6656,
      "ंसाठी": 6657,
      "ंपैकी": 6658,
      "TOR": 6659,
      "Tecton": 6660,
      "capita": 6661,
      "goods": 6662,
      "जट": 6663,
      "పచ్చ": 6664,
      "పలి": 6665,
      "పట్": 6666,
      "ंभी": 6667,
      "ःख": 6668,
      "ःसीमा": 6669,
      "khand": 6670,
      "kilometres": 6671,
      "signed": 6672,
      "schools": 6673,
      "जों": 6674,
      "పించింది": 6675,
      "పకళ": 6676,
      "పటం": 6677,
      "अध": 6678,
      "अह": 6679,
      "अले": 6680,
      "written": 6681,
      "animals": 6682,
      "reached": 6683,
      "oulder": 6684,
      "जमा": 6685,
      "పించే": 6686,
      "పిక్": 6687,
      "పస్ర": 6688,
      "अक्ष": 6689,
      "अंग": 6690,
      "अशि": 6691,
      "consists": 6692,
      "protected": 6693,
      "Maurya": 6694,
      "extensive": 6695,
      "टल": 6696,
      "పర్ష": 6697,
      "పబడింది": 6698,
      "పటంలో": 6699,
      "अलि": 6700,
      "अरु": 6701,
      "अप्": 6702,
      "contributions": 6703,
      "Gujarat": 6704,
      "American": 6705,
      "Business": 6706,
      "ढा": 6707,
      "పవనాలు": 6708,
      "పౌర": 6709,
      "పండ్": 6710,
      "अध्या": 6711,
      "अमरा": 6712,
      "अन्या": 6713,
      "Capital": 6714,
      "Eastern": 6715,
      "Foreign": 6716,
      "Front": 6717,
      "नव": 6718,
      "పత్యం": 6719,
      "ఫు": 6720,
      "ఫ్ర": 6721,
      "अपो": 6722,
      "अमर": 6723,
      "अहिं": 6724,
      "Francis": 6725,
      "Gangetic": 6726,
      "Identi": 6727,
      "JSTOR": 6728,
      "फा": 6729,
      "ఫర్": 6730,
      "ఫరా": 6731,
      "ఫ్ట": 6732,
      "अट्ट": 6733,
      "अयशस्वी": 6734,
      "अतिक": 6735,
      "Jharkhand": 6736,
      "Kumar": 6737,
      "Kerala": 6738,
      "Lakshadwe": 6739,
      "फैली": 6740,
      "ఫలం": 6741,
      "ఫిక్": 6742,
      "బల": 6743,
      "अतुल": 6744,
      "अंम": 6745,
      "आख": 6746,
      "Myanmar": 6747,
      "Pallav": 6748,
      "Rothermund": 6749,
      "Sonia": 6750,
      "बजट": 6751,
      "బై": 6752,
      "బొ": 6753,
      "బాల": 6754,
      "आठ": 6755,
      "आफ": 6756,
      "आव": 6757,
      "Sabha": 6758,
      "Still": 6759,
      "Talbot": 6760,
      "Treaty": 6761,
      "भ्यता": 6762,
      "బండ": 6763,
      "బంగా": 6764,
      "బడ్": 6765,
      "आपा": 6766,
      "आता": 6767,
      "आंतर": 6768,
      "Uttar": 6769,
      "daro": 6770,
      "eignty": 6771,
      "framework": 6772,
      "मल": 6773,
      "బిన్న": 6774,
      "బాబ్": 6775,
      "బ్యా": 6776,
      "आंध": 6777,
      "आमू": 6778,
      "आश्च": 6779,
      "habit": 6780,
      "kameez": 6781,
      "latter": 6782,
      "laws": 6783,
      "यि": 6784,
      "బద్ధం": 6785,
      "భ్య": 6786,
      "భిం": 6787,
      "आग्": 6788,
      "आशिया": 6789,
      "आकडे": 6790,
      "mammals": 6791,
      "sovereignty": 6792,
      "scheduled": 6793,
      "introduced": 6794,
      "यहाँ": 6795,
      "భంగ": 6796,
      "భదాయ": 6797,
      "భజిత": 6798,
      "आगम": 6799,
      "आकडा": 6800,
      "इच्छ": 6801,
      "revenues": 6802,
      "churidars": 6803,
      "devotion": 6804,
      "Christian": 6805,
      "रख": 6806,
      "మయ": 6807,
      "మో": 6808,
      "మార": 6809,
      "ईड": 6810,
      "ईद": 6811,
      "उभ": 6812,
      "compromise": 6813,
      "Mohenjo": 6814,
      "Department": 6815,
      "Indonesia": 6816,
      "लै": 6817,
      "మస్": 6818,
      "మిం": 6819,
      "మాల": 6820,
      "उद्": 6821,
      "उभा": 6822,
      "उंच": 6823,
      "transmitted": 6824,
      "practices": 6825,
      "Lakshadweep": 6826,
      "\")": 6827,
      "लौ": 6828,
      "మాయ": 6829,
      "మరా": 6830,
      "మిన": 6831,
      "उभार": 6832,
      "उगम": 6833,
      "उदेश्य": 6834,
      ",\"": 6835,
      "-/": 6836,
      "010": 6837,
      "120": 6838,
      "लड़ा": 6839,
      "మంత": 6840,
      "మంలో": 6841,
      "మలి": 6842,
      "उद्याने": 6843,
      "ऊस": 6844,
      "ऊर्": 6845,
      "1st": 6846,
      "210": 6847,
      "2203": 6848,
      "38": 6849,
      "सन्": 6850,
      "మతం": 6851,
      "మికి": 6852,
      "మ్‌": 6853,
      "एड": 6854,
      "एतद्": 6855,
      "ऑल": 6856,
      "387": 6857,
      "41": 6858,
      "58": 6859,
      "582": 6860,
      "सहा": 6861,
      "మాల్": 6862,
      "మిత్ర": 6863,
      "మణి": 6864,
      "ऑक्": 6865,
      "ओण": 6866,
      "ओसा": 6867,
      "64": 6868,
      "68": 6869,
      "674": 6870,
      "77": 6871,
      "सभ्यता": 6872,
      "మంచి": 6873,
      "మసాల": 6874,
      "మద్రా": 6875,
      "ओव्या": 6876,
      "औद": 6877,
      "औष": 6878,
      "714": 6879,
      "92": 6880,
      "96": 6881,
      "936": 6882,
      "हॉ": 6883,
      "మంజ": 6884,
      "యి": 6885,
      "యూ": 6886,
      "कळ": 6887,
      "क़": 6888,
      "कौ": 6889,
      "Aj": 6890,
      "Ach": 6891,
      "Aust": 6892,
      "Br": 6893,
      "हों": 6894,
      "యస్": 6895,
      "యము": 6896,
      "యిన": 6897,
      "क्या": 6898,
      "कात": 6899,
      "करा": 6900,
      "Ban": 6901,
      "Ber": 6902,
      "Bal": 6903,
      "Bur": 6904,
      "ृत्य": 6905,
      "యులు": 6906,
      "యంలో": 6907,
      "యంతో": 6908,
      "कोक": 6909,
      "काने": 6910,
      "कसे": 6911,
      "Brid": 6912,
      "Brit": 6913,
      "Bank": 6914,
      "Bakh": 6915,
      "ेक्षा": 6916,
      "యనులు": 6917,
      "యథాత": 6918,
      "రొ": 6919,
      "कलि": 6920,
      "कपड": 6921,
      "कल्ली": 6922,
      "Brief": 6923,
      "Cr": 6924,
      "Can": 6925,
      "Cal": 6926,
      "ोत्": 6927,
      "ర‌": 6928,
      "రలో": 6929,
      "రాలు": 6930,
      "कांचे": 6931,
      "ककला": 6932,
      "कूर": 6933,
      "Clo": 6934,
      "Cour": 6935,
      "Cav": 6936,
      "Cup": 6937,
      "ौहार": 6938,
      "రకు": 6939,
      "రాయ": 6940,
      "రము": 6941,
      "कांपैकी": 6942,
      "कत्ता": 6943,
      "क्यांचा": 6944,
      "Carna": 6945,
      "Cather": 6946,
      "Day": 6947,
      "Dut": 6948,
      "्द": 6949,
      "రద్": 6950,
      "రత్": 6951,
      "రంగా": 6952,
      "कट्ट": 6953,
      "खट": 6954,
      "खड": 6955,
      "Dav": 6956,
      "Div": 6957,
      "Dunleav": 6958,
      "EU": 6959,
      "२२": 6960,
      "రక్ష": 6961,
      "రమైన": 6962,
      "రవే": 6963,
      "खल": 6964,
      "खी": 6965,
      "खू": 6966,
      "Ec": 6967,
      "Eg": 6968,
      "Ele": 6969,
      "Ety": 6970,
      "४०": 6971,
      "రమే": 6972,
      "రించిన": 6973,
      "రవీ": 6974,
      "ख्य": 6975,
      "खले": 6976,
      "खजु": 6977,
      "Educ": 6978,
      "Eigh": 6979,
      "Emer": 6980,
      "Ess": 6981,
      "र्ष": 6982,
      "రక్షరాస్యత": 6983,
      "రారి": 6984,
      "రాతి": 6985,
      "गझ": 6986,
      "गट": 6987,
      "गढ": 6988,
      "Fr": 6989,
      "Fol": 6990,
      "Food": 6991,
      "Faith": 6992,
      "प्रका": 6993,
      "రతాయ": 6994,
      "రబద్ధం": 6995,
      "లిక": 6996,
      "गध": 6997,
      "गळ": 6998,
      "गू": 6999,
      "Gil": 7000,
      "Gow": 7001,
      "Grow": 7002,
      "Gho": 7003,
      "प्रसार": 7004,
      "లిన": 7005,
      "లైన": 7006,
      "లకాల": 7007,
      "गिक": 7008,
      "गान": 7009,
      "गणे": 7010,
      "Hand": 7011,
      "Hol": 7012,
      "Hist": 7013,
      "Hay": 7014,
      "प्रदान": 7015,
      "లబె": 7016,
      "లపై": 7017,
      "లహా": 7018,
      "गंड": 7019,
      "गच्छ": 7020,
      "गमर": 7021,
      "Hag": 7022,
      "Hud": 7023,
      "IT": 7024,
      "Ide": 7025,
      "प्रणा": 7026,
      "లమానం": 7027,
      "లఘు": 7028,
      "లబై": 7029,
      "गृत": 7030,
      "गवान": 7031,
      "गृह": 7032,
      "Jud": 7033,
      "Jap": 7034,
      "Jaw": 7035,
      "Ka": 7036,
      "नेह": 7037,
      "లభ్య": 7038,
      "ళల": 7039,
      "ళు": 7040,
      "गतासाठी": 7041,
      "गंभी": 7042,
      "घू": 7043,
      "Ki": 7044,
      "Ko": 7045,
      "Kul": 7046,
      "Karn": 7047,
      "क्ट": 7048,
      "ళులు": 7049,
      "ళూరు": 7050,
      "ళవిం": 7051,
      "घ्र": 7052,
      "घतात": 7053,
      "घांत": 7054,
      "Kaver": 7055,
      "LC": 7056,
      "Ling": 7057,
      "Lud": 7058,
      "विरो": 7059,
      "వత": 7060,
      "వూ": 7061,
      "వ‌": 7062,
      "घडा": 7063,
      "घकाल": 7064,
      "चव": 7065,
      "Lok": 7066,
      "Mc": 7067,
      "Med": 7068,
      "Mor": 7069,
      "विशेष": 7070,
      "వలి": 7071,
      "వస్తు": 7072,
      "వద్ద": 7073,
      "चू": 7074,
      "चाच": 7075,
      "चिक": 7076,
      "Mat": 7077,
      "Mate": 7078,
      "Mac": 7079,
      "Mum": 7080,
      "नागा": 7081,
      "వమి": 7082,
      "వలను": 7083,
      "వస్థానంలో": 7084,
      "चाली": 7085,
      "चंद्र": 7086,
      "चपात": 7087,
      "Medi": 7088,
      "Meas": 7089,
      "Multi": 7090,
      "Make": 7091,
      "ियां": 7092,
      "వనాథ": 7093,
      "వజ్ర": 7094,
      "వన్య": 7095,
      "चंदी": 7096,
      "छित": 7097,
      "छत्र": 7098,
      "Migration": 7099,
      "NA": 7100,
      "Ni": 7101,
      "Nar": 7102,
      "संग": 7103,
      "శే": 7104,
      "శాల": 7105,
      "శక్": 7106,
      "जय": 7107,
      "जव": 7108,
      "जार": 7109,
      "Nat": 7110,
      "Nad": 7111,
      "Num": 7112,
      "Not": 7113,
      "करती": 7114,
      "శంలో": 7115,
      "శించే": 7116,
      "శిల్": 7117,
      "जना": 7118,
      "ज्ये": 7119,
      "जत्र": 7120,
      "Nations": 7121,
      "Network": 7122,
      "Onew": 7123,
      "Open": 7124,
      "करते": 7125,
      "శక్తి": 7126,
      "శాతం": 7127,
      "శరద్": 7128,
      "ज्यात": 7129,
      "जास": 7130,
      "जर्म": 7131,
      "Odish": 7132,
      "Orig": 7133,
      "Ocean": 7134,
      "PP": 7135,
      "भागी": 7136,
      "షే": 7137,
      "షన్": 7138,
      "షాలు": 7139,
      "जशी": 7140,
      "जरे": 7141,
      "ज्याने": 7142,
      "Pa": 7143,
      "Ph": 7144,
      "Pu": 7145,
      "Pre": 7146,
      "त्री": 7147,
      "షులు": 7148,
      "షకాహార": 7149,
      "సొ": 7150,
      "जव्यव": 7151,
      "जनिक": 7152,
      "जारी": 7153,
      "Pri": 7154,
      "Pet": 7155,
      "Past": 7156,
      "Pear": 7157,
      "माता": 7158,
      "సాలు": 7159,
      "సగా": 7160,
      "సాయ": 7161,
      "जवान": 7162,
      "ज्यांची": 7163,
      "जकूर": 7164,
      "Peng": 7165,
      "Peter": 7166,
      "Present": 7167,
      "Presid": 7168,
      "राजवंश": 7169,
      "సిన": 7170,
      "సల్": 7171,
      "సభా": 7172,
      "झां": 7173,
      "झिक": 7174,
      "झगड": 7175,
      "Qu": 7176,
      "Rv": 7177,
      "Rec": 7178,
      "Rus": 7179,
      "देखा": 7180,
      "సవా": 7181,
      "సత్య": 7182,
      "సమి": 7183,
      "झपाट": 7184,
      "टत": 7185,
      "टर": 7186,
      "Row": 7187,
      "Redi": 7188,
      "Rural": 7189,
      "Sar": 7190,
      "हाल": 7191,
      "సమాన": 7192,
      "సరం": 7193,
      "సీలు": 7194,
      "टस": 7195,
      "टॉ": 7196,
      "टला": 7197,
      "Sch": 7198,
      "Sup": 7199,
      "Sant": 7200,
      "Sever": 7201,
      "त्न": 7202,
      "సత్తా": 7203,
      "సాయుత": 7204,
      "సలహా": 7205,
      "टून": 7206,
      "टका": 7207,
      "टवे": 7208,
      "Spen": 7209,
      "Second": 7210,
      "Selection": 7211,
      "Sultanate": 7212,
      "पाया": 7213,
      "హె": 7214,
      "హొ": 7215,
      "హ్": 7216,
      "ट्रा": 7217,
      "टये": 7218,
      "टोक": 7219,
      "Spending": 7220,
      "To": 7221,
      "Tro": 7222,
      "Tel": 7223,
      "पाँच": 7224,
      "హిం": 7225,
      "హర్": 7226,
      "హాలు": 7227,
      "टीला": 7228,
      "टंकी": 7229,
      "टक्या": 7230,
      "Tow": 7231,
      "Tay": 7232,
      "Tru": 7233,
      "Text": 7234,
      "समझ": 7235,
      "హాయ": 7236,
      "హస్త": 7237,
      "హపు": 7238,
      "ठर": 7239,
      "ठसा": 7240,
      "ठला": 7241,
      "Tib": 7242,
      "Twent": 7243,
      "Taka": 7244,
      "Tiger": 7245,
      "समृद्ध": 7246,
      "హక్కు": 7247,
      "హ్మ": 7248,
      "హ్వ": 7249,
      "ठची": 7250,
      "ठ्याचे": 7251,
      "डच": 7252,
      "Ved": 7253,
      "Vedic": 7254,
      "Wol": 7255,
      "Way": 7256,
      "लीवि": 7257,
      "ాలో": 7258,
      "ాము": 7259,
      "ాదు": 7260,
      "डर": 7261,
      "डॅ": 7262,
      "डो": 7263,
      "Yaksh": 7264,
      "Zor": 7265,
      "ah": 7266,
      "aem": 7267,
      "निवेश": 7268,
      "ాంబ": 7269,
      "ాశ్ర": 7270,
      "ాలోయ": 7271,
      "डारत": 7272,
      "डया": 7273,
      "डच्या": 7274,
      "atic": 7275,
      "aim": 7276,
      "aut": 7277,
      "aff": 7278,
      "तीन": 7279,
      "ానిస్తాన్": 7280,
      "ాదాయంలో": 7281,
      "ాంతి": 7282,
      "डून": 7283,
      "डल्या": 7284,
      "डाचे": 7285,
      "ahar": 7286,
      "ause": 7287,
      "affairs": 7288,
      "affec": 7289,
      "इसमें": 7290,
      "ాడ్‌": 7291,
      "ాధిన": 7292,
      "ాపక": 7293,
      "डतो": 7294,
      "डण्यात": 7295,
      "डिया": 7296,
      "ba": 7297,
      "bs": 7298,
      "bur": 7299,
      "bra": 7300,
      "इसका": 7301,
      "ిని": 7302,
      "ిచె": 7303,
      "ిశ్ర": 7304,
      "ड्यांच्या": 7305,
      "डप्पा": 7306,
      "डान्": 7307,
      "big": 7308,
      "bul": 7309,
      "best": 7310,
      "bour": 7311,
      "शाली": 7312,
      "ిలే": 7313,
      "ిరంగ": 7314,
      "ిద్ధి": 7315,
      "ढो": 7316,
      "ढण्यात": 7317,
      "ढांमुळे": 7318,
      "buc": 7319,
      "brough": 7320,
      "bond": 7321,
      "bai": 7322,
      "होना": 7323,
      "ిళ్ళ": 7324,
      "ిటన్": 7325,
      "ియనులు": 7326,
      "ढीला": 7327,
      "णाच": 7328,
      "णत्या": 7329,
      "bron": 7330,
      "bara": 7331,
      "brief": 7332,
      "bably": 7333,
      "किए": 7334,
      "ీకృ": 7335,
      "ీకరణ": 7336,
      "ీకులు": 7337,
      "णकाळ": 7338,
      "णांच्या": 7339,
      "तू": 7340,
      "cu": 7341,
      "cin": 7342,
      "cat": 7343,
      "cra": 7344,
      "किसी": 7345,
      "ుని": 7346,
      "ును": 7347,
      "ుల్": 7348,
      "तै": 7349,
      "तून": 7350,
      "ताच्या": 7351,
      "cil": 7352,
      "cere": 7353,
      "cend": 7354,
      "cap": 7355,
      "पूरा": 7356,
      "ువు": 7357,
      "ుర్య": 7358,
      "ుడైన": 7359,
      "तस्थ": 7360,
      "तमा": 7361,
      "तति": 7362,
      "ctions": 7363,
      "clear": 7364,
      "cust": 7365,
      "cris": 7366,
      "जनवरी": 7367,
      "ునిక": 7368,
      "ుళూరు": 7369,
      "ూలా": 7370,
      "तशी": 7371,
      "तमे": 7372,
      "तत्त्व": 7373,
      "cuis": 7374,
      "cake": 7375,
      "creasing": 7376,
      "das": 7377,
      "द्रो": 7378,
      "ూపం": 7379,
      "ృతంగా": 7380,
      "ెస్": 7381,
      "ततच्या": 7382,
      "दाल": 7383,
      "दित": 7384,
      "dre": 7385,
      "dro": 7386,
      "dus": 7387,
      "date": 7388,
      "ंधु": 7389,
      "ెర్": 7390,
      "ెన్న": 7391,
      "ెనే": 7392,
      "दंत": 7393,
      "दूर": 7394,
      "दगडा": 7395,
      "dry": 7396,
      "dates": 7397,
      "data": 7398,
      "eously": 7399,
      "भाषाएं": 7400,
      "ెడ్": 7401,
      "ెల్లో": 7402,
      "ెక్కను": 7403,
      "दसरा": 7404,
      "दडो": 7405,
      "धन": 7406,
      "fes": 7407,
      "ful": 7408,
      "flow": 7409,
      "fty": 7410,
      "जीवन": 7411,
      "ేత": 7412,
      "ేష్": 7413,
      "ేకమైన": 7414,
      "धले": 7415,
      "ध्ये": 7416,
      "धातील": 7417,
      "fish": 7418,
      "fell": 7419,
      "fash": 7420,
      "food": 7421,
      "दिरा": 7422,
      "ేననీ": 7423,
      "ేయులు": 7424,
      "ైక": 7425,
      "धोक": 7426,
      "धम्म": 7427,
      "नई": 7428,
      "farm": 7429,
      "flood": 7430,
      "flower": 7431,
      "favour": 7432,
      "बंधीय": 7433,
      "ైస్త": 7434,
      "ైపో": 7435,
      "ైవరు": 7436,
      "नन": 7437,
      "नॅ": 7438,
      "न‍": 7439,
      "gin": 7440,
      "gic": 7441,
      "gation": 7442,
      "gig": 7443,
      "अपना": 7444,
      "ోంది": 7445,
      "ోక్ష": 7446,
      "ోద్య": 7447,
      "नर्": 7448,
      "नाल": 7449,
      "नका": 7450,
      "gist": 7451,
      "gir": 7452,
      "govern": 7453,
      "gold": 7454,
      "सदन": 7455,
      "ోత్రి": 7456,
      "ోధాల": 7457,
      "్లో": 7458,
      "नीय": 7459,
      "नक्ष": 7460,
      "नवर": 7461,
      "gained": 7462,
      "groom": 7463,
      "hl": 7464,
      "hal": 7465,
      "सिंधु": 7466,
      "్తదేశపు": 7467,
      "‌కు": 7468,
      "‌టిక": 7469,
      "नंत": 7470,
      "नर्म": 7471,
      "नव्या": 7472,
      "hun": 7473,
      "hni": 7474,
      "hear": 7475,
      "hous": 7476,
      "सामरिक": 7477,
      "‌తంలో": 7478,
      "‌ఫర్": 7479,
      "‌వ‌": 7480,
      "नरे": 7481,
      "नंदि": 7482,
      "नातून": 7483,
      "hoc": 7484,
      "hood": 7485,
      "ier": 7486,
      "ili": 7487,
      "उत्तरी": 7488,
      "్రిచె": 7489,
      "ారణంగా": 7490,
      "ారమ్‌": 7491,
      "नयाचे": 7492,
      "पच": 7493,
      "पथ": 7494,
      "idu": 7495,
      "ials": 7496,
      "ific": 7497,
      "ja": 7498,
      "तुलना": 7499,
      "లుపలి": 7500,
      "లోన్": 7501,
      "లోని": 7502,
      "पॅ": 7503,
      "पौ": 7504,
      "पिक": 7505,
      "jam": 7506,
      "jay": 7507,
      "jack": 7508,
      "jpay": 7509,
      "मंत्रिम": 7510,
      "లోను": 7511,
      "లోకాల": 7512,
      "లోపం": 7513,
      "पला": 7514,
      "पत्र": 7515,
      "पल्या": 7516,
      "ka": 7517,
      "ked": 7518,
      "ket": 7519,
      "kim": 7520,
      "स्कृतिक": 7521,
      "స్లో": 7522,
      "స్వే": 7523,
      "స్వర": 7524,
      "पमान": 7525,
      "पंड": 7526,
      "पणा": 7527,
      "kho": 7528,
      "kurta": 7529,
      "ll": 7530,
      "lv": 7531,
      "टेलीवि": 7532,
      "స్లే": 7533,
      "స్టా": 7534,
      "స్టే": 7535,
      "पाली": 7536,
      "पसर": 7537,
      "पन्": 7538,
      "ler": 7539,
      "lal": 7540,
      "lic": 7541,
      "late": 7542,
      "ष्क": 7543,
      "స్వర్ణ": 7544,
      "స్టలు": 7545,
      "్యులు": 7546,
      "पट्": 7547,
      "पगडा": 7548,
      "पऱ्यात": 7549,
      "lati": 7550,
      "lanted": 7551,
      "length": 7552,
      "mand": 7553,
      "बढ़कर": 7554,
      "్యంలో": 7555,
      "న్మార్": 7556,
      "న్సీ": 7557,
      "पँट": 7558,
      "फर": 7559,
      "फु": 7560,
      "mass": 7561,
      "mater": 7562,
      "mology": 7563,
      "males": 7564,
      "बढ़ती": 7565,
      "న్లుగా": 7566,
      "దిర్": 7567,
      "దిరి": 7568,
      "फॉ": 7569,
      "फो": 7570,
      "फिक": 7571,
      "medic": 7572,
      "mns": 7573,
      "migration": 7574,
      "na": 7575,
      "सूची": 7576,
      "దికి": 7577,
      "దిగ్": 7578,
      "దిభాగం": 7579,
      "फळे": 7580,
      "बस": 7581,
      "बु": 7582,
      "nin": 7583,
      "nas": 7584,
      "nic": 7585,
      "nel": 7586,
      "समाप्त": 7587,
      "దిగువ": 7588,
      "ప్రార్": 7589,
      "ప్రమా": 7590,
      "बोक": 7591,
      "बदा": 7592,
      "बजा": 7593,
      "next": 7594,
      "network": 7595,
      "oic": 7596,
      "och": 7597,
      "मोहन": 7598,
      "ప్రయా": 7599,
      "ప్రఖ్య": 7600,
      "ప్రణా": 7601,
      "बऱ्या": 7602,
      "ब्रे": 7603,
      "बघतात": 7604,
      "osp": 7605,
      "ook": 7606,
      "oastri": 7607,
      "pat": 7608,
      "लोकप्रिय": 7609,
      "ప్రదేశాల": 7610,
      "ప్రగతి": 7611,
      "ప్రథమ": 7612,
      "भव": 7613,
      "भ्र": 7614,
      "भवा": 7615,
      "ption": 7616,
      "pop": 7617,
      "past": 7618,
      "pot": 7619,
      "संबंधों": 7620,
      "ింపు": 7621,
      "ింసాయుత": 7622,
      "దేశిక": 7623,
      "भित": 7624,
      "भव्य": 7625,
      "भपुत्र": 7626,
      "prec": 7627,
      "pite": 7628,
      "pically": 7629,
      "pidly": 7630,
      "हिन्दु": 7631,
      "దేశము": 7632,
      "దేశరాజకీయ": 7633,
      "దేశాన్ని": 7634,
      "भद्रा": 7635,
      "भांग": 7636,
      "भगवान": 7637,
      "rar": 7638,
      "rat": 7639,
      "rast": 7640,
      "round": 7641,
      "मैदानी": 7642,
      "దేశమంత": 7643,
      "దేశాధిన": 7644,
      "ాలని": 7645,
      "म्य": 7646,
      "मात": 7647,
      "मती": 7648,
      "ranges": 7649,
      "ranged": 7650,
      "sto": 7651,
      "sch": 7652,
      "उनके": 7653,
      "ాలన్నీ": 7654,
      "ాలెక్కను": 7655,
      "ికం": 7656,
      "मची": 7657,
      "मकर": 7658,
      "मल्या": 7659,
      "sol": 7660,
      "sci": 7661,
      "sex": 7662,
      "smo": 7663,
      "२००४": 7664,
      "ికలు": 7665,
      "ికులు": 7666,
      "ికూడ": 7667,
      "मदा": 7668,
      "मांच्या": 7669,
      "मिका": 7670,
      "scal": 7671,
      "sedi": 7672,
      "saw": 7673,
      "science": 7674,
      "कार्यकाल": 7675,
      "ర్లు": 7676,
      "ర్టి": 7677,
      "ర్కొ": 7678,
      "मद्रा": 7679,
      "मंचा": 7680,
      "मबे": 7681,
      "slid": 7682,
      "self": 7683,
      "script": 7684,
      "savour": 7685,
      "कार्यपालिका": 7686,
      "ర్తా": 7687,
      "ర్సిం": 7688,
      "ర్జాలు": 7689,
      "मणामुळे": 7690,
      "मजल": 7691,
      "मडॉ": 7692,
      "tw": 7693,
      "tand": 7694,
      "tom": 7695,
      "tel": 7696,
      "ण्डल": 7697,
      "ర్భవ": 7698,
      "ర్జె": 7699,
      "భార్తదేశపు": 7700,
      "मंदी": 7701,
      "मतासाठी": 7702,
      "मंज": 7703,
      "tun": 7704,
      "tak": 7705,
      "tory": 7706,
      "tled": 7707,
      "जिनमें": 7708,
      "భార‌తంలో": 7709,
      "భారతంలో": 7710,
      "ాలున్నాయి": 7711,
      "मगध": 7712,
      "मजकूर": 7713,
      "यॅ": 7714,
      "table": 7715,
      "treat": 7716,
      "uin": 7717,
      "uity": 7718,
      "सदस्य": 7719,
      "న్నత": 7720,
      "న్నా": 7721,
      "గాంచిన": 7722,
      "यक्ष": 7723,
      "यत्र": 7724,
      "याच्या": 7725,
      "uture": 7726,
      "ufac": 7727,
      "uters": 7728,
      "va": 7729,
      "सदस्यों": 7730,
      "గాయి": 7731,
      "కుండ": 7732,
      "కునే": 7733,
      "यंड": 7734,
      "यम्": 7735,
      "यव्य": 7736,
      "vas": 7737,
      "vul": 7738,
      "vest": 7739,
      "vary": 7740,
      "परंपरागत": 7741,
      "కుడు": 7742,
      "కుడి": 7743,
      "కుమార్": 7744,
      "याचीन": 7745,
      "यसी": 7746,
      "यचर": 7747,
      "vard": 7748,
      "varna": 7749,
      "wan": 7750,
      "wet": 7751,
      "आगमन": 7752,
      "కులం": 7753,
      "కులను": 7754,
      "కుమారు": 7755,
      "यक्री": 7756,
      "यद्याने": 7757,
      "यटस": 7758,
      "ways": 7759,
      "wanted": 7760,
      "welf": 7761,
      "xed": 7762,
      "ऊँची": 7763,
      "కుడ్య": 7764,
      "కుదిర్": 7765,
      "కుర్తా": 7766,
      "रल": 7767,
      "रव": 7768,
      "रां": 7769,
      "yal": 7770,
      "yond": 7771,
      "zed": 7772,
      "zes": 7773,
      "जिन्हें": 7774,
      "నివి": 7775,
      "నివా": 7776,
      "నిచ్చ": 7777,
      "रील": 7778,
      "रवि": 7779,
      "रत्": 7780,
      "zens": 7781,
      "νδ": 7782,
      "Ἰνδ": 7783,
      "anth": 7784,
      "डालर": 7785,
      "నియా": 7786,
      "నివార": 7787,
      "నియో": 7788,
      "रणे": 7789,
      "रनिर्": 7790,
      "रपे": 7791,
      "anat": 7792,
      "antic": 7793,
      "anism": 7794,
      "thing": 7795,
      "लंबे": 7796,
      "నిధి": 7797,
      "నివల్ల": 7798,
      "నిలిచ": 7799,
      "रांग": 7800,
      "रधा": 7801,
      "र्यांमध्ये": 7802,
      "threatened": 7803,
      "int": 7804,
      "inst": 7805,
      "inder": 7806,
      "सोवियत": 7807,
      "నిరక్షరాస్యత": 7808,
      "నిలబె": 7809,
      "నిషే": 7810,
      "ऱ्य": 7811,
      "लव": 7812,
      "ल्य": 7813,
      "ints": 7814,
      "inary": 7815,
      "inno": 7816,
      "international": 7817,
      "इंदिरा": 7818,
      "విడ": 7819,
      "విడి": 7820,
      "విధాన": 7821,
      "लात": 7822,
      "लवि": 7823,
      "लद्": 7824,
      "information": 7825,
      "erry": 7826,
      "ont": 7827,
      "only": 7828,
      "उन्हें": 7829,
      "విస్తు": 7830,
      "వివర": 7831,
      "విశాఖ": 7832,
      "लक्ष": 7833,
      "लवार": 7834,
      "लक्षण": 7835,
      "onour": 7836,
      "onomet": 7837,
      "thes": 7838,
      "ald": 7839,
      "कटिबंधीय": 7840,
      "విజన్": 7841,
      "వినాయ": 7842,
      "వితంలో": 7843,
      "लवाद": 7844,
      "लूर": 7845,
      "लयो": 7846,
      "aled": 7847,
      "alliance": 7848,
      "alwars": 7849,
      "alys": 7850,
      "जैसे": 7851,
      "విజ్": 7852,
      "విఫల": 7853,
      "విశి": 7854,
      "लीला": 7855,
      "लतान": 7856,
      "लगीरी": 7857,
      "ening": 7858,
      "enab": 7859,
      "ences": 7860,
      "enhouse": 7861,
      "सांस्कृतिक": 7862,
      "వివాదం": 7863,
      "విభజిత": 7864,
      "విశే": 7865,
      "लकात": 7866,
      "लगान": 7867,
      "लमडॉ": 7868,
      "edd": 7869,
      "arc": 7870,
      "aris": 7871,
      "artic": 7872,
      "अमरीकी": 7873,
      "విసభా": 7874,
      "ాత్మ": 7875,
      "ాయతి": 7876,
      "ळम": 7877,
      "ळु": 7878,
      "ळ्या": 7879,
      "ardis": 7880,
      "ester": 7881,
      "org": 7882,
      "oration": 7883,
      "पहुँच": 7884,
      "ాయకార": 7885,
      "ాయీలు": 7886,
      "క్త": 7887,
      "ळून": 7888,
      "ळ्यां": 7889,
      "ळाच्या": 7890,
      "orce": 7891,
      "orama": 7892,
      "tile": 7893,
      "tives": 7894,
      "फ्रांस": 7895,
      "క్నాల": 7896,
      "క్‌టిక": 7897,
      "ానెట్": 7898,
      "ळातील": 7899,
      "ळाने": 7900,
      "ळपुरी": 7901,
      "tival": 7902,
      "tified": 7903,
      "tiger": 7904,
      "tizens": 7905,
      "परीक्षण": 7906,
      "రామన": 7907,
      "రాణించ": 7908,
      "రామాయ": 7909,
      "वॉ": 7910,
      "व्र": 7911,
      "वां": 7912,
      "did": 7913,
      "died": 7914,
      "dici": 7915,
      "dise": 7916,
      "पर्यटन": 7917,
      "రాసిన": 7918,
      "నున్న": 7919,
      "ముద్ర": 7920,
      "वस्": 7921,
      "वती": 7922,
      "वते": 7923,
      "dives": 7924,
      "dified": 7925,
      "Inf": 7926,
      "Infor": 7927,
      "भाषी": 7928,
      "ములకు": 7929,
      "ముందు": 7930,
      "ముత్యం": 7931,
      "वाने": 7932,
      "वसे": 7933,
      "वसाह": 7934,
      "Inter": 7935,
      "Indu": 7936,
      "Increasing": 7937,
      "Intel": 7938,
      "स्थिति": 7939,
      "ండర్": 7940,
      "ండమస్": 7941,
      "ండ్యులు": 7942,
      "वणी": 7943,
      "वजा": 7944,
      "वटी": 7945,
      "andy": 7946,
      "ofker": 7947,
      "asing": 7948,
      "ashi": 7949,
      "कृषि": 7950,
      "ద్వై": 7951,
      "ద్దిభాగం": 7952,
      "ద్విసభా": 7953,
      "वण्याची": 7954,
      "वजयंती": 7955,
      "वयास": 7956,
      "asures": 7957,
      "asions": 7958,
      "ison": 7959,
      "issions": 7960,
      "कश्मीर": 7961,
      "త్త": 7962,
      "త్తల": 7963,
      "ించుకు": 7964,
      "वजनिक": 7965,
      "शर्": 7966,
      "शतर": 7967,
      "isdic": 7968,
      "2025": 7969,
      "2030": 7970,
      "rev": 7971,
      "शिक्षा": 7972,
      "ించవచ్చు": 7973,
      "ించబడింది": 7974,
      "ించుకోవడ": 7975,
      "शही": 7976,
      "शांत": 7977,
      "शस्त्र": 7978,
      "rece": 7979,
      "reform": 7980,
      "repe": 7981,
      "refl": 7982,
      "सहायक": 7983,
      "తిరి": 7984,
      "ల్స్": 7985,
      "ల్తాన": 7986,
      "श्रे": 7987,
      "शब्": 7988,
      "शल्य": 7989,
      "reement": 7990,
      "reforms": 7991,
      "represent": 7992,
      "returned": 7993,
      "हॉकी": 7994,
      "స్తూ": 7995,
      "స్తాయి": 7996,
      "స్తానీ": 7997,
      "षण": 7998,
      "षद": 7999,
      "षी": 8000,
      "rebellion": 8001,
      "riors": 8002,
      "atts": 8003,
      "atory": 8004,
      "प्रणाली": 8005,
      "ంతల": 8006,
      "ంతై": 8007,
      "రిట్ల": 8008,
      "ष्य": 8009,
      "षभदे": 8010,
      "सॉ": 8011,
      "attra": 8012,
      "ataka": 8013,
      "omo": 8014,
      "omy": 8015,
      "नागरिक": 8016,
      "రిట్లు": 8017,
      "సంస్థ": 8018,
      "సంక్ర": 8019,
      "स्य": 8020,
      "सान": 8021,
      "सत्": 8022,
      "omas": 8023,
      "omic": 8024,
      "entually": 8025,
      "ica": 8026,
      "मंत्रिमण्डल": 8027,
      "సంధి": 8028,
      "సంగమ": 8029,
      "సందర్": 8030,
      "सत्र": 8031,
      "समो": 8032,
      "सरी": 8033,
      "icial": 8034,
      "itor": 8035,
      "itch": 8036,
      "top": 8037,
      "oon": 8038,
      "రుగా": 8039,
      "రుష్": 8040,
      "రుచులు": 8041,
      "सक्र": 8042,
      "सस्थान": 8043,
      "सज्": 8044,
      "ech": 8045,
      "ection": 8046,
      "ections": 8047,
      "lying": 8048,
      "ंजन": 8049,
      "పురి": 8050,
      "పులి": 8051,
      "పుతో": 8052,
      "समस": 8053,
      "सृष्ट्या": 8054,
      "सूर": 8055,
      "Third": 8056,
      "Thail": 8057,
      "Thames": 8058,
      "Thomas": 8059,
      "अर्": 8060,
      "పుత్ర": 8061,
      "పులా": 8062,
      "పుష్": 8063,
      "सत्तर": 8064,
      "सांग": 8065,
      "सकल": 8066,
      "chin": 8067,
      "chat": 8068,
      "chap": 8069,
      "child": 8070,
      "अनि": 8071,
      "పునర్": 8072,
      "స్థ‌": 8073,
      "స్థాపక": 8074,
      "सत्ता": 8075,
      "सपाट": 8076,
      "सततच्या": 8077,
      "chains": 8078,
      "changed": 8079,
      "cherry": 8080,
      "stre": 8081,
      "अहि": 8082,
      "స్థూలా": 8083,
      "ంటో": 8084,
      "ంటుంది": 8085,
      "सलवार": 8086,
      "सळून": 8087,
      "हू": 8088,
      "stra": 8089,
      "stud": 8090,
      "stani": 8091,
      "lia": 8092,
      "अक्ट": 8093,
      "ంటరీ": 8094,
      "భాజపా": 8095,
      "భావిస్తు": 8096,
      "हर्": 8097,
      "हाच": 8098,
      "हस्त": 8099,
      "liz": 8100,
      "lier": 8101,
      "lived": 8102,
      "live": 8103,
      "अच्छ": 8104,
      "ైనెర్": 8105,
      "ంగల": 8106,
      "పాద": 8107,
      "हल्": 8108,
      "हडा": 8109,
      "हम्म": 8110,
      "ured": 8111,
      "urable": 8112,
      "ettes": 8113,
      "etah": 8114,
      "आई": 8115,
      "పాక్ష": 8116,
      "పాండి": 8117,
      "పాండ్యులు": 8118,
      "हडप्पा": 8119,
      "हलवि": 8120,
      "ाजे": 8121,
      "amy": 8122,
      "amed": 8123,
      "amma": 8124,
      "amendments": 8125,
      "आत": 8126,
      "వాద": 8127,
      "వాటి": 8128,
      "వాదన": 8129,
      "ास्त्र": 8130,
      "ापर्यंत": 8131,
      "ाखाली": 8132,
      "They": 8133,
      "rati": 8134,
      "rative": 8135,
      "raven": 8136,
      "आते": 8137,
      "వాటిలో": 8138,
      "వామిత్ర": 8139,
      "సామీ": 8140,
      "ाबद्दल": 8141,
      "ामंच": 8142,
      "ाबरोबर": 8143,
      "rapidly": 8144,
      "1985": 8145,
      "1930": 8146,
      "1949": 8147,
      "आकर्म": 8148,
      "సాకర్‌": 8149,
      "సాఫ్ట": 8150,
      "సానియా": 8151,
      "ामांच्या": 8152,
      "िला": 8153,
      "िष्ठ": 8154,
      "force": 8155,
      "fortable": 8156,
      "fortified": 8157,
      "emer": 8158,
      "इसे": 8159,
      "క్షం": 8160,
      "క్షంగా": 8161,
      "ఉన్నట్లు": 8162,
      "िन्स": 8163,
      "ीण": 8164,
      "ीत": 8165,
      "emper": 8166,
      "emissions": 8167,
      "olon": 8168,
      "olas": 8169,
      "उठ": 8170,
      "ఉన్నతంగా": 8171,
      "ార్థాలు": 8172,
      "ార్క్‌టిక": 8173,
      "ीस": 8174,
      "ीया": 8175,
      "ीचे": 8176,
      "olution": 8177,
      "cep": 8178,
      "ceed": 8179,
      "igar": 8180,
      "उभरा": 8181,
      "ితం": 8182,
      "ితే": 8183,
      "ితంగా": 8184,
      "ीराज": 8185,
      "ींग": 8186,
      "ीपासून": 8187,
      "adher": 8188,
      "respec": 8189,
      "resources": 8190,
      "consum": 8191,
      "ऊपर": 8192,
      "ిత్యం": 8193,
      "ష్టి": 8194,
      "ష్టు": 8195,
      "ींब": 8196,
      "ीदृष्ट्या": 8197,
      "ींची": 8198,
      "geolog": 8199,
      "using": 8200,
      "usive": 8201,
      "usually": 8202,
      "कन्न": 8203,
      "ష్టమైన": 8204,
      "ష్ట్యా": 8205,
      "ప్రాముఖ్య": 8206,
      "ीनुसार": 8207,
      "ुक": 8208,
      "ुण": 8209,
      "united": 8210,
      "unitary": 8211,
      "uncommon": 8212,
      "open": 8213,
      "खर": 8214,
      "ప్రాసె": 8215,
      "ప్రాజా": 8216,
      "ప్రాణుల": 8217,
      "ुकार": 8218,
      "ुति": 8219,
      "ुंत": 8220,
      "irt": 8221,
      "sie": 8222,
      "simil": 8223,
      "ticians": 8224,
      "खे": 8225,
      "ప్రాబల": 8226,
      "ప్రాదేశిక": 8227,
      "రాజధాన": 8228,
      "ुनंतर": 8229,
      "ुडे": 8230,
      "ुझिक": 8231,
      "mented": 8232,
      "astal": 8233,
      "may": 8234,
      "matic": 8235,
      "गै": 8236,
      "కోసం": 8237,
      "కోటి": 8238,
      "కోడు": 8239,
      "ूळ": 8240,
      "ूला": 8241,
      "ूची": 8242,
      "matics": 8243,
      "make": 8244,
      "dev": 8245,
      "deleg": 8246,
      "गों": 8247,
      "కోవార": 8248,
      "కోవడ": 8249,
      "క్రైస్త": 8250,
      "ूपा": 8251,
      "ूंनी": 8252,
      "ॅम्": 8253,
      "devast": 8254,
      "duce": 8255,
      "ducherry": 8256,
      "tuber": 8257,
      "गढ़": 8258,
      "ట్టు": 8259,
      "ట్టూ": 8260,
      "ట్టారు": 8261,
      "ॅनाइट": 8262,
      "ेतील": 8263,
      "ेशन": 8264,
      "cipl": 8265,
      "civi": 8266,
      "citizens": 8267,
      "exer": 8268,
      "ग्री": 8269,
      "ట్టుకు": 8270,
      "ట్టెల": 8271,
      "190": 8272,
      "ैव": 8273,
      "ैसूर": 8274,
      "ॉये": 8275,
      "exts": 8276,
      "expec": 8277,
      "expres": 8278,
      "excav": 8279,
      "चौ": 8280,
      "1956": 8281,
      "1948లో": 8282,
      "కావడ": 8283,
      "ोण": 8284,
      "ोती": 8285,
      "ोचे": 8286,
      "derived": 8287,
      "deriv": 8288,
      "ayat": 8289,
      "what": 8290,
      "छह": 8291,
      "కాకుండ": 8292,
      "నేయ": 8293,
      "నేసియా": 8294,
      "ोची": 8295,
      "ोबत": 8296,
      "ोत्तर": 8297,
      "Artic": 8298,
      "overran": 8299,
      "suc": 8300,
      "super": 8301,
      "जान": 8302,
      "నేరుగా": 8303,
      "పేస్": 8304,
      "పేదర": 8305,
      "ोखाल": 8306,
      "ोषिक": 8307,
      "ोपाठ": 8308,
      "supre": 8309,
      "seats": 8310,
      "sha": 8311,
      "shy": 8312,
      "जन्": 8313,
      "ంచే": 8314,
      "దువు": 8315,
      "దుస్తులు": 8316,
      "ोजड": 8317,
      "ोधले": 8318,
      "ौघात": 8319,
      "shwar": 8320,
      "shali": 8321,
      "short": 8322,
      "shoulder": 8323,
      "झे": 8324,
      "మామి": 8325,
      "మాదిరి": 8326,
      "మాండమస్": 8327,
      "्क": 8328,
      "्त": 8329,
      "्ले": 8330,
      "above": 8331,
      "tspo": 8332,
      "009": 8333,
      "begin": 8334,
      "झार": 8335,
      "యావత్": 8336,
      "యాండర్": 8337,
      "లిసింది": 8338,
      "्ती": 8339,
      "्मा": 8340,
      "्हि": 8341,
      "beyond": 8342,
      "angra": 8343,
      "access": 8344,
      "according": 8345,
      "टक": 8346,
      "లిథిక": 8347,
      "లియం": 8348,
      "లివిజన్": 8349,
      "्छा": 8350,
      "्लो": 8351,
      "्षिक": 8352,
      "accoun": 8353,
      "agana": 8354,
      "agreement": 8355,
      "ional": 8356,
      "टना": 8357,
      "లియాండర్": 8358,
      "వ్యయంతో": 8359,
      "వ్య‌వ‌": 8360,
      "्धातील": 8361,
      "्वजनिक": 8362,
      "ॠग्": 8363,
      "imper": 8364,
      "impor": 8365,
      "imple": 8366,
      "immediately": 8367,
      "ठक": 8368,
      "భారతీయులు": 8369,
      "భారతీయుల": 8370,
      "భారతీయుడైన": 8371,
      "ॠषभदे": 8372,
      "।।": 8373,
      "०१": 8374,
      "Archae": 8375,
      "inces": 8376,
      "akar": 8377,
      "akers": 8378,
      "ठार": 8379,
      "తరించింది": 8380,
      "తరతరాలు": 8381,
      "నాటి": 8382,
      "०८": 8383,
      "०९": 8384,
      "१००": 8385,
      "pared": 8386,
      "parties": 8387,
      "parents": 8388,
      "model": 8389,
      "डु": 8390,
      "నాడు": 8391,
      "నామాలు": 8392,
      "నాట్యం": 8393,
      "२३": 8394,
      "२५७": 8395,
      "३१": 8396,
      "ogni": 8397,
      "ogamy": 8398,
      "utan": 8399,
      "102": 8400,
      "तब": 8401,
      "సిద్ధ": 8402,
      "సిగ్": 8403,
      "సిద్ధం": 8404,
      "३३": 8405,
      "३४": 8406,
      "३७": 8407,
      "10th": 8408,
      "1017": 8409,
      "1093": 8410,
      "sole": 8411,
      "तार": 8412,
      "్లను": 8413,
      "త్వం": 8414,
      "త్వాలు": 8415,
      "३५००": 8416,
      "३०१": 8417,
      "४३": 8418,
      "therers": 8419,
      "Chha": 8420,
      "Change": 8421,
      "Chess": 8422,
      "तरा": 8423,
      "త్వంలో": 8424,
      "త్వరలో": 8425,
      "జాతీయవాదం": 8426,
      "४६": 8427,
      "४५०": 8428,
      "४२३": 8429,
      "Changing": 8430,
      "look": 8431,
      "2126": 8432,
      "comm": 8433,
      "थल": 8434,
      "జాతీయగీతం": 8435,
      "జాతీయాదాయంలో": 8436,
      "తోంది": 8437,
      "५१७": 8438,
      "५४५": 8439,
      "६५": 8440,
      "compr": 8441,
      "company": 8442,
      "commit": 8443,
      "comfortable": 8444,
      "थान": 8445,
      "తోష్ణ": 8446,
      "రాష్ట్రపు": 8447,
      "రాష్ట్రానికి": 8448,
      "६७": 8449,
      "७५": 8450,
      "७९": 8451,
      "percent": 8452,
      "persist": 8453,
      "centre": 8454,
      "Hindus": 8455,
      "दों": 8456,
      "రాష్ట్రపత": 8457,
      "గుప్": 8458,
      "గుత్తా": 8459,
      "७वा": 8460,
      "८४": 8461,
      "९०": 8462,
      "mega": 8463,
      "meaning": 8464,
      "endra": 8465,
      "cot": 8466,
      "दियों": 8467,
      "గుతాయి": 8468,
      "గునవి": 8469,
      "గుతోంది": 8470,
      "९०००": 8471,
      "ॲक्": 8472,
      "ॲंग": 8473,
      "coal": 8474,
      "code": 8475,
      "cosine": 8476,
      "Anand": 8477,
      "नम": 8478,
      "వచ్చి": 8479,
      "భారతదేశము": 8480,
      "భారతదేశమే": 8481,
      "ॲण्": 8482,
      "‍स्थापन": 8483,
      "्यम्": 8484,
      "Analys": 8485,
      "forming": 8486,
      "formally": 8487,
      "formance": 8488,
      "नर": 8489,
      "ద్ధాలు": 8490,
      "ద్ధలతో": 8491,
      "ల్లీ": 8492,
      "्यंतर": 8493,
      "्याल": 8494,
      "्याला": 8495,
      "Asians": 8496,
      "avar": 8497,
      "plant": 8498,
      "placed": 8499,
      "नियों": 8500,
      "ల్లింది": 8501,
      "ల్లాయి": 8502,
      "ల్లయిన": 8503,
      "्यावर": 8504,
      "्यापैकी": 8505,
      "्यासक्र": 8506,
      "allow": 8507,
      "alleng": 8508,
      "1990": 8509,
      "1993": 8510,
      "नदियों": 8511,
      "dial": 8512,
      "ding": 8513,
      "dispu": 8514,
      "ार्धातील": 8515,
      "्रिका": 8516,
      "्रमणामुळे": 8517,
      "stiff": 8518,
      "gender": 8519,
      "generation": 8520,
      "atedly": 8521,
      "पड़ा": 8522,
      "కొక్క": 8523,
      "కొంక": 8524,
      "కొనసా": 8525,
      "ातच": 8526,
      "ात्य": 8527,
      "ातांमध्ये": 8528,
      "prov": 8529,
      "projec": 8530,
      "probably": 8531,
      "produce": 8532,
      "बद": 8533,
      "కొలమానం": 8534,
      "కొద్దిభాగం": 8535,
      "కొత్త": 8536,
      "ात्यांचे": 8537,
      "ात्मक": 8538,
      "ातींब": 8539,
      "marry": 8540,
      "marshy": 8541,
      "ota": 8542,
      "otech": 8543,
      "बल": 8544,
      "డుంబ": 8545,
      "పాలయింది": 8546,
      "పాలకులు": 8547,
      "ात्मा": 8548,
      "ात्री": 8549,
      "हेमी": 8550,
      "assass": 8551,
      "Hindustani": 8552,
      "Contem": 8553,
      "Concept": 8554,
      "बह": 8555,
      "పాలిటన్": 8556,
      "పాలకులను": 8557,
      "మైనదే": 8558,
      "र्ती": 8559,
      "र्गा": 8560,
      "र्तु": 8561,
      "Concise": 8562,
      "Contin": 8563,
      "stitutes": 8564,
      "culos": 8565,
      "बन्": 8566,
      "మైనవి": 8567,
      "వేర్": 8568,
      "వేత్తల": 8569,
      "र्फे": 8570,
      "र्घकाल": 8571,
      "र्तमे": 8572,
      "mini": 8573,
      "minor": 8574,
      "viet": 8575,
      "vide": 8576,
      "बियों": 8577,
      "ఒకటో": 8578,
      "కాలపరి": 8579,
      "కాలాల్లో": 8580,
      "र्न‍": 8581,
      "ांती": 8582,
      "ांका": 8583,
      "ousand": 8584,
      "ought": 8585,
      "atives": 8586,
      "atiya": 8587,
      "बडी": 8588,
      "డిగించ": 8589,
      "ణాన్ని": 8590,
      "ణాటక": 8591,
      "ांतर": 8592,
      "ांशी": 8593,
      "ांपर्यंत": 8594,
      "ativity": 8595,
      "feature": 8596,
      "economies": 8597,
      "172": 8598,
      "भो": 8599,
      "ణాదికి": 8600,
      "మార్కెట్": 8601,
      "చేత": 8602,
      "ांपेक्षा": 8603,
      "ांनुसार": 8604,
      "ांसह": 8605,
      "173": 8606,
      "17th": 8607,
      "1700": 8608,
      "ritory": 8609,
      "भरी": 8610,
      "చేర": 8611,
      "చేసు": 8612,
      "చేసే": 8613,
      "ांछित": 8614,
      "भारतं": 8615,
      "भारती": 8616,
      "erals": 8617,
      "points": 8618,
      "subduc": 8619,
      "substan": 8620,
      "मं": 8621,
      "టువంటి": 8622,
      "శాశ్": 8623,
      "శాకాహార": 8624,
      "भारतील": 8625,
      "भारतचे": 8626,
      "भारतास": 8627,
      "claim": 8628,
      "que": 8629,
      "worldwide": 8630,
      "184": 8631,
      "मक": 8632,
      "్‌వేర్": 8633,
      "దేశాలకు": 8634,
      "దేశాలతో": 8635,
      "भारतभूमी": 8636,
      "भारतरत्": 8637,
      "भारताबद्दल": 8638,
      "18th": 8639,
      "1858": 8640,
      "Major": 8641,
      "serving": 8642,
      "मना": 8643,
      "దేశాలకూ": 8644,
      "దేశాల్లో": 8645,
      "వ్యవహార": 8646,
      "स्मर": 8647,
      "स्मृ": 8648,
      "स्फो": 8649,
      "service": 8650,
      "138": 8651,
      "267": 8652,
      "2645": 8653,
      "मही": 8654,
      "వ్యవసాయ": 8655,
      "ఎన్నుకొ": 8656,
      "కిమీ": 8657,
      "स्लमडॉ": 8658,
      "आहेत्": 8659,
      "प्रवर्": 8660,
      "251": 8661,
      "Marath": 8662,
      "Market": 8663,
      "Report": 8664,
      "मले": 8665,
      "పారిశ్ర": 8666,
      "పంచె": 8667,
      "పంచుకుంట": 8668,
      "प्रस्थाप": 8669,
      "प्रंच": 8670,
      "प्रशास": 8671,
      "Regist": 8672,
      "Reuters": 8673,
      "decis": 8674,
      "declin": 8675,
      "मस्वरूप": 8676,
      "పంచాయతి": 8677,
      "ాబుని": 8678,
      "ాన్స్": 8679,
      "प्रवाह": 8680,
      "प्रकल्प": 8681,
      "प्रयत्": 8682,
      "decreasing": 8683,
      "decidu": 8684,
      "peti": 8685,
      "peace": 8686,
      "यें": 8687,
      "న్నిస్లో": 8688,
      "చెంది": 8689,
      "చెందింది": 8690,
      "प्रबळ": 8691,
      "प्रदर्श": 8692,
      "प्रजास": 8693,
      "ights": 8694,
      "ighbour": 8695,
      "electri": 8696,
      "larger": 8697,
      "यद्य": 8698,
      "డ్స్": 8699,
      "డ్మిం": 8700,
      "పెట్రో": 8701,
      "प्रिन्स": 8702,
      "प्रातांमध्ये": 8703,
      "प्रस्तर": 8704,
      "Across": 8705,
      "Academ": 8706,
      "Common": 8707,
      "Competi": 8708,
      "यपालिका": 8709,
      "పెట్టారు": 8710,
      "మార్గం": 8711,
      "మార్గము": 8712,
      "ालया": 8713,
      "ालये": 8714,
      "ाचित": 8715,
      "Economist": 8716,
      "140": 8717,
      "149": 8718,
      "Modi": 8719,
      "रखा": 8720,
      "మార్గంలో": 8721,
      "మార్గాలలో": 8722,
      "మార్గాలను": 8723,
      "ाच्छा": 8724,
      "िकन": 8725,
      "िकार": 8726,
      "Movement": 8727,
      "dhu": 8728,
      "flourish": 8729,
      "ralian": 8730,
      "रत्न": 8731,
      "మార్గాలే": 8732,
      "వ్యవస్థల": 8733,
      "వ్యవస్థగా": 8734,
      "िकीनुसार": 8735,
      "िकोण": 8736,
      "ानदी": 8737,
      "turn": 8738,
      "tural": 8739,
      "warriors": 8740,
      "isters": 8741,
      "वृद्ध": 8742,
      "వ్యవస్థీకరణ": 8743,
      "ంబే": 8744,
      "కృష్": 8745,
      "ानुसार": 8746,
      "ीली": 8747,
      "ीलंका": 8748,
      "recogn": 8749,
      "relief": 8750,
      "greenhouse": 8751,
      "systems": 8752,
      "शक्त": 8753,
      "కృష్ణ": 8754,
      "కృష్టమైన": 8755,
      "తుడు": 8756,
      "लेस": 8757,
      "लेण्यां": 8758,
      "राहो": 8759,
      "280": 8760,
      "Alan": 8761,
      "Alliance": 8762,
      "Budget": 8763,
      "सों": 8764,
      "తులకాల": 8765,
      "తురుష్": 8766,
      "దాటే": 8767,
      "राहि": 8768,
      "रामलि": 8769,
      "राखले": 8770,
      "News": 8771,
      "Plain": 8772,
      "Planning": 8773,
      "Plofker": 8774,
      "सभी": 8775,
      "దాటిన": 8776,
      "స్తుంది": 8777,
      "స్తున్నారు": 8778,
      "रायसी": 8779,
      "साग": 8780,
      "साव्या": 8781,
      "tively": 8782,
      "extreme": 8783,
      "extends": 8784,
      "Ste": 8785,
      "सिन्": 8786,
      "పేరుతో": 8787,
      "పేరుమీ": 8788,
      "అధికారక": 8789,
      "साडे": 8790,
      "सामान्य": 8791,
      "सापडले": 8792,
      "Step": 8793,
      "princes": 8794,
      "aria": 8795,
      "1964": 8796,
      "सौहार": 8797,
      "అధికారి": 8798,
      "అధికారాలు": 8799,
      "అధికారంలో": 8800,
      "सागरी": 8801,
      "साजरे": 8802,
      "लाक्षणिक": 8803,
      "ountain": 8804,
      "4051": 8805,
      "Deal": 8806,
      "calend": 8807,
      "हत्या": 8808,
      "అధికారాన్ని": 8809,
      "కరించింది": 8810,
      "కరమేనని": 8811,
      "लावणी": 8812,
      "वित": 8813,
      "विन": 8814,
      "numerals": 8815,
      "8069": 8816,
      "awatts": 8817,
      "notable": 8818,
      "ामस्वरूप": 8819,
      "కరంతై": 8820,
      "ట్కా": 8821,
      "దక్షణాసియా": 8822,
      "विष्": 8823,
      "विष्ट": 8824,
      "विंद": 8825,
      "notably": 8826,
      "361": 8827,
      "85168": 8828,
      "obstruc": 8829,
      "ूत": 8830,
      "పరమైన": 8831,
      "పర్యా": 8832,
      "పరచింది": 8833,
      "विश्": 8834,
      "विवाह": 8835,
      "विशिष्ट": 8836,
      "pants": 8837,
      "limited": 8838,
      "1974": 8839,
      "1975": 8840,
      "ूह": 8841,
      "పరమో": 8842,
      "పరోక్ష": 8843,
      "పరిధి": 8844,
      "विजय": 8845,
      "विसाव्या": 8846,
      "वाज": 8847,
      "mainly": 8848,
      "ackbuc": 8849,
      "ographic": 8850,
      "specific": 8851,
      "ूबर": 8852,
      "పరిపాలించ": 8853,
      "పరిశో": 8854,
      "పరిస్థితి": 8855,
      "वाळू": 8856,
      "वाळी": 8857,
      "वावरून": 8858,
      "largely": 8859,
      "included": 8860,
      "includes": 8861,
      "tection": 8862,
      "ेक": 8863,
      "పరిఢవి": 8864,
      "మతాల": 8865,
      "మతాలతో": 8866,
      "वाखाली": 8867,
      "वाणि": 8868,
      "वामित": 8869,
      "techni": 8870,
      "onset": 8871,
      "Junk": 8872,
      "Post": 8873,
      "्ष": 8874,
      "మతాలకు": 8875,
      "మతములు": 8876,
      "మతస్తులు": 8877,
      "वाऱ्यां": 8878,
      "वाहिनी": 8879,
      "वाडया": 8880,
      "appoin": 8881,
      "applied": 8882,
      "manuscript": 8883,
      "manufac": 8884,
      "२५": 8885,
      "మతములకు": 8886,
      "మీర్జాలు": 8887,
      "మేరో": 8888,
      "वायव्य": 8889,
      "वासस्थान": 8890,
      "तीरि": 8891,
      "pread": 8892,
      "rategic": 8893,
      "ards": 8894,
      "supplanted": 8895,
      "५२": 8896,
      "మేరకు": 8897,
      "మేళవిం": 8898,
      "మేషన్": 8899,
      "तींचा": 8900,
      "यामध्ये": 8901,
      "यावरून": 8902,
      "perience": 8903,
      "biodiversity": 8904,
      "biotech": 8905,
      "domestic": 8906,
      "काज": 8907,
      "మధ్యల": 8908,
      "మధ్యకాలంలో": 8909,
      "మధ్యవర్తి": 8910,
      "यापाठ": 8911,
      "याबद्ध": 8912,
      "नामध्ये": 8913,
      "eventually": 8914,
      "gradi": 8915,
      "grave": 8916,
      "humans": 8917,
      "स्ता": 8918,
      "వరకూ": 8919,
      "సును": 8920,
      "సుమారు": 8921,
      "नाबरोबर": 8922,
      "नाद्वारे": 8923,
      "नावावरून": 8924,
      "key": 8925,
      "neighbour": 8926,
      "nonviol": 8927,
      "presence": 8928,
      "स्ति": 8929,
      "సుదీర్": 8930,
      "సుల్తాన": 8931,
      "ప్రపంచదేశాలలో": 8932,
      "मुली": 8933,
      "मुत्": 8934,
      "मुहू": 8935,
      "annually": 8936,
      "annual": 8937,
      "annica": 8938,
      "ential": 8939,
      "प्रदेशों": 8940,
      "ప్రధానమంత్ర": 8941,
      "ద్దులు": 8942,
      "స్థానే": 8943,
      "च्यामधील": 8944,
      "कापा": 8945,
      "काठी": 8946,
      "entieth": 8947,
      "legal": 8948,
      "leges": 8949,
      "Rajiv": 8950,
      "प्रगति": 8951,
      "స్థానిక": 8952,
      "స్థానాలు": 8953,
      "స్థానమైన": 8954,
      "कापासून": 8955,
      "कासी": 8956,
      "काटे": 8957,
      "Rajpu": 8958,
      "333": 8959,
      "creating": 8960,
      "creativity": 8961,
      "प्रभु": 8962,
      "భాషలలో": 8963,
      "భాషలతో": 8964,
      "ప్రాంతాల": 8965,
      "कायदा": 8966,
      "काठची": 8967,
      "काढण्यात": 8968,
      "give": 8969,
      "thereafter": 8970,
      "therefore": 8971,
      "discipl": 8972,
      "नेपा": 8973,
      "ప్రాంతాలతో": 8974,
      "ప్రాంతాలకు": 8975,
      "రాజ్యాలను": 8976,
      "कायद्याने": 8977,
      "ष्प": 8978,
      "ष्णा": 8979,
      "millan": 8980,
      "literary": 8981,
      "literature": 8982,
      "Geological": 8983,
      "विशा": 8984,
      "రాజ్యసమి": 8985,
      "tinct": 8986,
      "వారిగా": 8987,
      "ष्मती": 8988,
      "ितोषिक": 8989,
      "ीयांचे": 8990,
      "Geography": 8991,
      "Geographical": 8992,
      "Performance": 8993,
      "Protection": 8994,
      "विमान": 8995,
      "వర్గీ": 8996,
      "వర్షం": 8997,
      "వర్ధిల్ల": 8998,
      "क्ती": 8999,
      "क्मि": 9000,
      "क्वी": 9001,
      "Soviet": 9002,
      "grand": 9003,
      "highly": 9004,
      "highest": 9005,
      "विद्रो": 9006,
      "వర్షాలు": 9007,
      "పార్టీల": 9008,
      "పార్టీలు": 9009,
      "क्काने": 9010,
      "क्झां": 9011,
      "नेट": 9012,
      "settle": 9013,
      "essential": 9014,
      "markets": 9015,
      "occurred": 9016,
      "विज्ञान": 9017,
      "పార్టీగా": 9018,
      "పార్టీకి": 9019,
      "పార్టీలతో": 9020,
      "नेय": 9021,
      "नेर": 9022,
      "नेने": 9023,
      "occasions": 9024,
      "Punjabi": 9025,
      "Shastri": 9026,
      "Sikkim": 9027,
      "तांत्रिक": 9028,
      "దక్షిణాదికి": 9029,
      "అయింది": 9030,
      "అయితే": 9031,
      "नेचे": 9032,
      "नेचा": 9033,
      "नेमधील": 9034,
      "ronic": 9035,
      "tories": 9036,
      "relative": 9037,
      "ultaneously": 9038,
      "सामान": 9039,
      "గిపోయింది": 9040,
      "గిలిన": 9041,
      "గిల్లీ": 9042,
      "नेशन": 9043,
      "नेऊन": 9044,
      "नेहेमी": 9045,
      "exported": 9046,
      "373": 9047,
      "Ornel": 9048,
      "ethical": 9049,
      "साक्षर": 9050,
      "పూణే": 9051,
      "పోలో": 9052,
      "పోటీ": 9053,
      "संके": 9054,
      "संस्थ": 9055,
      "संपु": 9056,
      "ethnic": 9057,
      "gatherers": 9058,
      "lasted": 9059,
      "promin": 9060,
      "न्तु": 9061,
      "పోతూ": 9062,
      "పోర్చు": 9063,
      "పోషకాహార": 9064,
      "संवर्": 9065,
      "संस्था": 9066,
      "संक्र": 9067,
      "works": 9068,
      "orians": 9069,
      "oriography": 9070,
      "display": 9071,
      "परे": 9072,
      "పోస్టలు": 9073,
      "మనమే": 9074,
      "మనదేశంలో": 9075,
      "संवाद": 9076,
      "संजीव": 9077,
      "संधी": 9078,
      "1983": 9079,
      "1984": 9080,
      "1989": 9081,
      "coasts": 9082,
      "परिण": 9083,
      "మనోర": 9084,
      "మిగిలిన": 9085,
      "రోడ్ల": 9086,
      "संमिश्र": 9087,
      "संगमर": 9088,
      "संघांत": 9089,
      "coastal": 9090,
      "Muslims": 9091,
      "...": 9092,
      "438": 9093,
      "करे": 9094,
      "రెండుకో": 9095,
      "లాంటి": 9096,
      "లాగృ": 9097,
      "चेरी": 9098,
      "चेन्": 9099,
      "असला": 9100,
      "Coastal": 9101,
      "Urdu": 9102,
      "building": 9103,
      "colleges": 9104,
      "करो": 9105,
      "లాభదాయ": 9106,
      "వుని": 9107,
      "వుంది": 9108,
      "असणा": 9109,
      "असणाऱ्या": 9110,
      "मधून": 9111,
      "garment": 9112,
      "garlic": 9113,
      "hotspo": 9114,
      "valley": 9115,
      "राजभाषा": 9116,
      "వున్నా": 9117,
      "వుంటుంది": 9118,
      "వెలుపలి": 9119,
      "हीतात": 9120,
      "तेक": 9121,
      "तेज": 9122,
      "victories": 9123,
      "volcan": 9124,
      "volution": 9125,
      "defence": 9126,
      "राजधान": 9127,
      "ప్రజలకు": 9128,
      "ించినవే": 9129,
      "ించినందు": 9130,
      "तेत": 9131,
      "तेवर": 9132,
      "तेजात": 9133,
      "defini": 9134,
      "defined": 9135,
      "generated": 9136,
      "transformed": 9137,
      "ड़ियाँ": 9138,
      "హిందూస్తాన్": 9139,
      "హిందూస్తానీ": 9140,
      "ంద్రనాథ": 9141,
      "तेरु": 9142,
      "तेपेक्षा": 9143,
      "तेलु": 9144,
      "Sikhs": 9145,
      "Bhangra": 9146,
      "Bhutan": 9147,
      "Bharatiya": 9148,
      "वाम": 9149,
      "ఇతరదేశాలను": 9150,
      "ఇతరదేశాలకు": 9151,
      "తామర": 9152,
      "तेखाली": 9153,
      "तेव्हा": 9154,
      "तेढांमुळे": 9155,
      "Earth": 9156,
      "Maldives": 9157,
      "See": 9158,
      "bread": 9159,
      "कारी": 9160,
      "తాజ్‌": 9161,
      "శ్రద్ధలతో": 9162,
      "ీనములో": 9163,
      "देड": 9164,
      "देचे": 9165,
      "देतात": 9166,
      "break": 9167,
      "carri": 9168,
      "carved": 9169,
      "draw": 9170,
      "ित्य": 9171,
      "ీనోద్య": 9172,
      "సాంఘిక": 9173,
      "పెద్దగా": 9174,
      "देवी": 9175,
      "देतो": 9176,
      "देण्यात": 9177,
      "figure": 9178,
      "fastest": 9179,
      "historians": 9180,
      "knit": 9181,
      "ियस": 9182,
      "పెద్దపులి": 9183,
      "India1950": 9184,
      "gues": 9185,
      "देसू": 9186,
      "देवाच्या": 9187,
      "त्म": 9188,
      "nationalist": 9189,
      "ruled": 9190,
      "ruling": 9191,
      "rulers": 9192,
      "ियो": 9193,
      "gures": 9194,
      "అతివేగంగా": 9195,
      "అతిముఖ్యమైన": 9196,
      "त्पत्": 9197,
      "त्तीय": 9198,
      "त्कृष्ट": 9199,
      "temper": 9200,
      "temples": 9201,
      "textiles": 9202,
      "visional": 9203,
      "पाई": 9204,
      "అతిశీ": 9205,
      "ఉత్సాహ": 9206,
      "ఉత్తరా": 9207,
      "त्वाखाली": 9208,
      "होऊ": 9209,
      "होंद": 9210,
      "intervention": 9211,
      "archaic": 9212,
      "diffused": 9213,
      "remained": 9214,
      "समूह": 9215,
      "ఉత్కృష్టమైన": 9216,
      "ఉంటూ": 9217,
      "కలిగిన": 9218,
      "होळी": 9219,
      "होणार": 9220,
      "होऊन": 9221,
      "stead": 9222,
      "steamed": 9223,
      "amphi": 9224,
      "emphas": 9225,
      "तरिक": 9226,
      "గరలో": 9227,
      "జనకరమేనని": 9228,
      "జరిగింది": 9229,
      "होउन": 9230,
      "होचला": 9231,
      "चीपर्": 9232,
      "mathematicians": 9233,
      "dependent": 9234,
      "producer": 9235,
      "produced": 9236,
      "निम्": 9237,
      "జరిగాయి": 9238,
      "పట్టాలు": 9239,
      "పట్టును": 9240,
      "द्दु": 9241,
      "र्वी": 9242,
      "र्वाचित": 9243,
      "headed": 9244,
      "occupy": 9245,
      "occupation": 9246,
      "family": 9247,
      "निवास": 9248,
      "పట్టాలెక్కను": 9249,
      "బాగా": 9250,
      "బాదు": 9251,
      "राजकार": 9252,
      "राज्याच्या": 9253,
      "राजकु": 9254,
      "industrial": 9255,
      "paintings": 9256,
      "596": 9257,
      "7650": 9258,
      "भारतीयों": 9259,
      "బాంబే": 9260,
      "బెల్": 9261,
      "బెట్కా": 9262,
      "राज्याचे": 9263,
      "राज्याला": 9264,
      "राजवाडया": 9265,
      "Atl": 9266,
      "Atomic": 9267,
      "Assam": 9268,
      "Book": 9269,
      "दीव": 9270,
      "బ్రహ్మ": 9271,
      "బ్రాడ్‌": 9272,
      "బ్రెడ్": 9273,
      "क्षीण": 9274,
      "भाकर": 9275,
      "भाषिक": 9276,
      "Exp": 9277,
      "Heidel": 9278,
      "James": 9279,
      "Languages": 9280,
      "शामिल": 9281,
      "మహల్": 9282,
      "మహేష్": 9283,
      "వంటలు": 9284,
      "्यांना": 9285,
      "्यांपैकी": 9286,
      "्यांसोबत": 9287,
      "With": 9288,
      "dense": 9289,
      "hymns": 9290,
      "iii": 9291,
      "होने": 9292,
      "వంటలకు": 9293,
      "వంటకాలు": 9294,
      "ుకుంది": 9295,
      "ंगल": 9296,
      "ंगी": 9297,
      "ंगने": 9298,
      "ject": 9299,
      "layer": 9300,
      "pura": 9301,
      "uistic": 9302,
      "वर्षा": 9303,
      "విధి": 9304,
      "విధంగా": 9305,
      "విధించిన": 9306,
      "ंगाच्या": 9307,
      "ंगभद्रा": 9308,
      "ष्टात": 9309,
      "initi": 9310,
      "edicts": 9311,
      "artists": 9312,
      "advent": 9313,
      "पूरे": 9314,
      "భాగే": 9315,
      "భాగస్వా": 9316,
      "భాగమేనని": 9317,
      "ष्ट्रा": 9318,
      "त्रे": 9319,
      "त्रिकोण": 9320,
      "advanced": 9321,
      "several": 9322,
      "severely": 9323,
      "partially": 9324,
      "मानव": 9325,
      "కేంద్రాల్లో": 9326,
      "కేంద్రీకృ": 9327,
      "ప్పించుకోవడ": 9328,
      "भारतीयांच्या": 9329,
      "देशी": 9330,
      "देशिक": 9331,
      "commerce": 9332,
      "ructure": 9333,
      "endemism": 9334,
      "married": 9335,
      "मुद्र": 9336,
      "క్రీడల": 9337,
      "అయినప్పటికీ": 9338,
      "అయినప్పటికినీ": 9339,
      "देशित": 9340,
      "देशाच्या": 9341,
      "देशाची": 9342,
      "weapon": 9343,
      "Allchin": 9344,
      "territorial": 9345,
      "Publishers": 9346,
      "नीति": 9347,
      "జనాభాలో": 9348,
      "ప్రభుత్వంలో": 9349,
      "ప్రభుత్వాలన్నీ": 9350,
      "देशाला": 9351,
      "देशाने": 9352,
      "देशांच्या": 9353,
      "Colonial": 9354,
      "Harvard": 9355,
      "Monitor": 9356,
      "Northeast": 9357,
      "लिख": 9358,
      "ప్రభుత్వంచే": 9359,
      "260": 9360,
      "ఎక్కువైపో": 9361,
      "देशांनी": 9362,
      "देशापर्यंत": 9363,
      "देशीयांचे": 9364,
      "Outlook": 9365,
      "Peers": 9366,
      "People": 9367,
      "Palgrave": 9368,
      "प्ति": 9369,
      "ఏర్పాటు": 9370,
      "ఏర్పరచింది": 9371,
      "గోర్": 9372,
      "वरचा": 9373,
      "वरळी": 9374,
      "वरांना": 9375,
      "Roy": 9376,
      "Robert": 9377,
      "Represent": 9378,
      "Shift": 9379,
      "सरकारों": 9380,
      "గోధు": 9381,
      "గోడుంబ": 9382,
      "గ్గులు": 9383,
      "वरिष्ठ": 9384,
      "वेन": 9385,
      "वेळ": 9386,
      "Shiva": 9387,
      "Vajpay": 9388,
      "borne": 9389,
      "borders": 9390,
      "स्थल": 9391,
      "గ్డమ్": 9392,
      "టికంటే": 9393,
      "బహిరంగ": 9394,
      "वेल्": 9395,
      "वेरु": 9396,
      "वेलूर": 9397,
      "bottom": 9398,
      "cloth": 9399,
      "close": 9400,
      "namic": 9401,
      "जिसकी": 9402,
      "బహాయీలు": 9403,
      "మానవుని": 9404,
      "మంత్రుల": 9405,
      "कारामांच्या": 9406,
      "मावारी": 9407,
      "मासां": 9408,
      "voted": 9409,
      "various": 9410,
      "villages": 9411,
      "independent": 9412,
      "जिसने": 9413,
      "లేనివి": 9414,
      "సింహపు": 9415,
      "సరిస్తూ": 9416,
      "झाल्याची": 9417,
      "झाल्यावर": 9418,
      "पाश्च": 9419,
      "organised": 9420,
      "unities": 9421,
      "expanding": 9422,
      "speaking": 9423,
      "बहुमूल": 9424,
      "ప్రస్తుత": 9425,
      "క్కలు": 9426,
      "సాధించింది": 9427,
      "पाषा": 9428,
      "पावस": 9429,
      "पाण्याची": 9430,
      "speakers": 9431,
      "spreading": 9432,
      "processes": 9433,
      "2307": 9434,
      "क्षेत्रों": 9435,
      "సాధించి": 9436,
      "సాధారణంగా": 9437,
      "రాజకీయాలు": 9438,
      "पाउस": 9439,
      "पाऊस": 9440,
      "पाककला": 9441,
      "subsequently": 9442,
      "everyday": 9443,
      "taxes": 9444,
      "hereditary": 9445,
      "धर्मों": 9446,
      "కాంగ్రెసే": 9447,
      "మొదటిది": 9448,
      "మొదటిసార": 9449,
      "पाडण्यात": 9450,
      "पायंड": 9451,
      "त्यास": 9452,
      "dominion": 9453,
      "dominance": 9454,
      "legislature": 9455,
      "groups": 9456,
      "सारी": 9457,
      "దక్షిణదిగ్": 9458,
      "gelist": 9459,
      "ఉపయు": 9460,
      "त्यारी": 9461,
      "त्यामधील": 9462,
      "त्यातील": 9463,
      "Democratic": 9464,
      "disputed": 9465,
      "births": 9466,
      "historical": 9467,
      "अपेक्षा": 9468,
      "ఉపరాష్ట్రపత": 9469,
      "క్యులు": 9470,
      "క్యారమ్‌": 9471,
      "त्यावरून": 9472,
      "त्याखाली": 9473,
      "पुस्त": 9474,
      "historically": 9475,
      "904": 9476,
      "Barbara": 9477,
      "Karanth": 9478,
      "पुड़ा": 9479,
      "గణితం": 9480,
      "పంజాబ": 9481,
      "పంపిన": 9482,
      "पुणे": 9483,
      "पुरे": 9484,
      "पुडी": 9485,
      "Lanka": 9486,
      "Lankan": 9487,
      "Manorama": 9488,
      "Office": 9489,
      "मीणा": 9490,
      "భూపతి": 9491,
      "మైంది": 9492,
      "మైతే": 9493,
      "पुडा": 9494,
      "पुरुव": 9495,
      "पुनर्": 9496,
      "Official": 9497,
      "Rule": 9498,
      "Robb": 9499,
      "Sindhu": 9500,
      "चुकी": 9501,
      "మైత్రి": 9502,
      "మైథి": 9503,
      "మైదాన": 9504,
      "पुर्न‍": 9505,
      "पुद्दु": 9506,
      "पुर्वी": 9507,
      "Trade": 9508,
      "Upinder": 9509,
      "Vijay": 9510,
      "Visaria": 9511,
      "ज़्यादा": 9512,
      "యుద్ధం": 9513,
      "యునై": 9514,
      "యుద్ధాలు": 9515,
      "जातीय": 9516,
      "पूना": 9517,
      "पूरी": 9518,
      "Years": 9519,
      "Yearbook": 9520,
      "blackbuc": 9521,
      "covery": 9522,
      "निर्भर": 9523,
      "యోచన": 9524,
      "యోరారి": 9525,
      "రంగం": 9526,
      "पूजा": 9527,
      "हिवाळ": 9528,
      "भारतातच": 9529,
      "eight": 9530,
      "foetic": 9531,
      "winds": 9532,
      "involved": 9533,
      "केंद्रीय": 9534,
      "రంగాల": 9535,
      "రంగము": 9536,
      "రంగాల్లో": 9537,
      "भारतातून": 9538,
      "करण्या": 9539,
      "करणार": 9540,
      "involving": 9541,
      "divorce": 9542,
      "associate": 9543,
      "associated": 9544,
      "एशन": 9545,
      "వలెనే": 9546,
      "శ్లోకాల": 9547,
      "సముచిత": 9548,
      "करणाऱ्या": 9549,
      "करप्रण": 9550,
      "ल्याने": 9551,
      "cheetah": 9552,
      "ligence": 9553,
      "sixteen": 9554,
      "existing": 9555,
      "चाई": 9556,
      "ుకోవచ్చని": 9557,
      "్మదీయ": 9558,
      "ప్రతినిధి": 9559,
      "मिण": 9560,
      "मिर": 9561,
      "मिरी": 9562,
      "existence": 9563,
      "whereas": 9564,
      "shared": 9565,
      "against": 9566,
      "बनाया": 9567,
      "ాలలోను": 9568,
      "ాలనుండి": 9569,
      "విస్తరించిన": 9570,
      "मिठा": 9571,
      "मिडिया": 9572,
      "मिलयो": 9573,
      "Marriage": 9574,
      "Marriages": 9575,
      "cripts": 9576,
      "Forests": 9577,
      "रुप": 9578,
      "విస్తృతంగా": 9579,
      "సంగీత": 9580,
      "సంగీతము": 9581,
      "मिसळून": 9582,
      "मानाचे": 9583,
      "मानाने": 9584,
      "survives": 9585,
      "contributed": 9586,
      "renewable": 9587,
      "democratic": 9588,
      "क्रय": 9589,
      "సంగీతంలో": 9590,
      "సంస్కృతం": 9591,
      "సంస్కృతీ": 9592,
      "मानण्यात": 9593,
      "मानचि": 9594,
      "मानुसार": 9595,
      "democracy": 9596,
      "artistic": 9597,
      "artisans": 9598,
      "Akbar": 9599,
      "क्रि": 9600,
      "సంస్కృతులతో": 9601,
      "ప్రాచ్య": 9602,
      "ప్రాచుర్య": 9603,
      "मानवाने": 9604,
      "तिन": 9605,
      "तिच्या": 9606,
      "Cricket": 9607,
      "Climate": 9608,
      "Discovery": 9609,
      "Fifty": 9610,
      "बढ़ने": 9611,
      "క్రమంగా": 9612,
      "సరిహద్దులు": 9613,
      "అత్యధికంగా": 9614,
      "तिचे": 9615,
      "तिचा": 9616,
      "तियां": 9617,
      "Green": 9618,
      "Gondwana": 9619,
      "Leg": 9620,
      "Madhav": 9621,
      "संघर्ष": 9622,
      "ఇండియాలో": 9623,
      "ప్రముఖమైనది": 9624,
      "ప్రముఖమైనదే": 9625,
      "तिथे": 9626,
      "तिसरे": 9627,
      "तिखट": 9628,
      "Nepal": 9629,
      "Overview": 9630,
      "Pylee": 9631,
      "Rigved": 9632,
      "गुट": 9633,
      "ouped": 9634,
      "ఆధునిక": 9635,
      "ఆధీనములో": 9636,
      "मोदी": 9637,
      "मोडी": 9638,
      "मोरि": 9639,
      "Series": 9640,
      "Simultaneously": 9641,
      "Subcontinent": 9642,
      "Territory": 9643,
      "मनमोहन": 9644,
      "గలుపు": 9645,
      "ట్లకు": 9646,
      "ధిపత్యం": 9647,
      "मोच्च": 9648,
      "मोहिमा": 9649,
      "मोहिनी": 9650,
      "Temple": 9651,
      "Wind": 9652,
      "climatic": 9653,
      "countries": 9654,
      "मध्यम": 9655,
      "నీతి": 9656,
      "నెహ్ర": 9657,
      "నెమలి": 9658,
      "मोडतो": 9659,
      "मोहम्म": 9660,
      "मोहोंद": 9661,
      "either": 9662,
      "females": 9663,
      "gods": 9664,
      "hubs": 9665,
      "सूचना": 9666,
      "నెరవే": 9667,
      "నెహ్వ": 9668,
      "భిన్నత్వాలు": 9669,
      "तावर": 9670,
      "तामध्ये": 9671,
      "तामुळे": 9672,
      "jurisdic": 9673,
      "mbol": 9674,
      "narrow": 9675,
      "nominal": 9676,
      "प्राचीनतम": 9677,
      "మెట్రో": 9678,
      "మెహర్": 9679,
      "మూడవ": 9680,
      "तावादी": 9681,
      "तापमान": 9682,
      "वीत": 9683,
      "ozoic": 9684,
      "ogeography": 9685,
      "putra": 9686,
      "anagara": 9687,
      "न्यायपालिका": 9688,
      "మూడే": 9689,
      "రహదారు": 9690,
      "వహించిన": 9691,
      "परदेशात": 9692,
      "परदेशातील": 9693,
      "परदेशी": 9694,
      "thorn": 9695,
      "isolation": 9696,
      "ickening": 9697,
      "towns": 9698,
      "मोर्": 9699,
      "వహించింది": 9700,
      "వహించి": 9701,
      "వహించే": 9702,
      "परमोच्च": 9703,
      "मीमधील": 9704,
      "मीटर": 9705,
      "standardis": 9706,
      "levels": 9707,
      "raglia": 9708,
      "railways": 9709,
      "स्थानीय": 9710,
      "వహిస్త": 9711,
      "వైశాల": 9712,
      "వైపులా": 9713,
      "्यातील": 9714,
      "्यातून": 9715,
      "्यातही": 9716,
      "adopted": 9717,
      "additional": 9718,
      "response": 9719,
      "unresolved": 9720,
      "साम्राज्यों": 9721,
      "సమాచార": 9722,
      "స్వాధీన": 9723,
      "రాష్ట్రాలుగా": 9724,
      "द्धींग": 9725,
      "निर्म": 9726,
      "नियु": 9727,
      "untouchability": 9728,
      "vegetari": 9729,
      "defeated": 9730,
      "expansion": 9731,
      "लोकतांत्रिक": 9732,
      "రాష్ట్రపతిచే": 9733,
      "మొదలగువ": 9734,
      "మొదలవుతుంది": 9735,
      "निमंत्र": 9736,
      "निमित": 9737,
      "नियॅ": 9738,
      "separati": 9739,
      "shores": 9740,
      "abinet": 9741,
      "particular": 9742,
      "पहली": 9743,
      "మొదలగునవి": 9744,
      "రెండువైపులా": 9745,
      "పట్టణాల": 9746,
      "निरपे": 9747,
      "निलगीरी": 9748,
      "निवासस्थान": 9749,
      "Champion": 9750,
      "sports": 9751,
      "complet": 9752,
      "complex": 9753,
      "सम्पूर्ण": 9754,
      "పట్టణాలను": 9755,
      "బెంగాల్": 9756,
      "బెంగుళూరు": 9757,
      "निर्वाचित": 9758,
      "स्तंभ": 9759,
      "येमुळे": 9760,
      "played": 9761,
      "position": 9762,
      "declared": 9763,
      "Companion": 9764,
      "पार्टियों": 9765,
      "ఏర్పడే": 9766,
      "ఏర్పడిన": 9767,
      "ఏర్పడింది": 9768,
      "येतो": 9769,
      "येणाऱ्या": 9770,
      "येण्याची": 9771,
      "Commissioner": 9772,
      "merchants": 9773,
      "extinct": 9774,
      "1960s": 9775,
      "शुरु": 9776,
      "బహుమతి": 9777,
      "బహుభాషా": 9778,
      "మంత్రిత్వ": 9779,
      "ंडीराज": 9780,
      "सुन": 9781,
      "सुती": 9782,
      "Encyclopedia": 9783,
      "Eurasia": 9784,
      "followed": 9785,
      "prevent": 9786,
[...]
