{
  "version": "1.0",
  "truncation": null,
  "padding": null,
  "added_tokens": [],
  "normalizer": {
    "type": "NFC"
  },
  "pre_tokenizer": {
    "type": "WhitespaceSplit"
  },
  "post_processor": null,
  "decoder": null,
  "model": {
    "type": "BPE",
    "dropout": null,
    "unk_token": "<unk>",
    "continuing_subword_prefix": null,
    "end_of_word_suffix": null,
    "fuse_unk": false,
    "byte_fallback": false,
    "ignore_merges": false,
    "vocab": {
      "<unk>": 0,
      " ": 1,
      "\"": 2,
      "$": 3,
      "%": 4,
      "&": 5,
      "'": 6,
      "(": 7,
      ")": 8,
      "+": 9,
      ",": 10,
      "-": 11,
      ".": 12,
      "/": 13,
      "0": 14,
      "1": 15,
      "2": 16,
      "3": 17,
      "4": 18,
      "5": 19,
      "6": 20,
      "7": 21,
      "8": 22,
      "9": 23,
      ":": 24,
      ";": 25,
      "=": 26,
      "A": 27,
      "B": 28,
      "C": 29,
      "D": 30,
      "E": 31,
      "F": 32,
      "G": 33,
      "H": 34,
      "I": 35,
      "J": 36,
      "K": 37,
      "L": 38,
      "M": 39,
      "N": 40,
      "O": 41,
      "P": 42,
      "R": 43,
      "S": 44,
      "T": 45,
      "U": 46,
      "V": 47,
      "W": 48,
      "X": 49,
      "Y": 50,
      "Z": 51,
      "^": 52,
      "_": 53,
      "a": 54,
      "b": 55,
      "c": 56,
      "d": 57,
      "e": 58,
      "f": 59,
      "g": 60,
      "h": 61,
      "i": 62,
      "j": 63,
      "k": 64,
      "l": 65,
      "m": 66,
      "n": 67,
      "o": 68,
      "p": 69,
      "q": 70,
      "r": 71,
      "s": 72,
      "t": 73,
      "u": 74,
      "v": 75,
      "w": 76,
      "x": 77,
      "y": 78,
      "z": 79,
      "|": 80,
      "ā": 81,
      "ī": 82,
      "ί": 83,
      "α": 84,
      "δ": 85,
      "ν": 86,
      "ς": 87,
      "ό": 88,
      "ँ": 89,
      "ं": 90,
      "ः": 91,
      "अ": 92,
      "आ": 93,
      "इ": 94,
      "ई": 95,
      "उ": 96,
      "ऊ": 97,
      "ऋ": 98,
      "ए": 99,
      "ऑ": 100,
      "ओ": 101,
      "औ": 102,
      "क": 103,
      "ख": 104,
      "ग": 105,
      "घ": 106,
      "च": 107,
      "छ": 108,
      "ज": 109,
      "झ": 110,
      "ञ": 111,
      "ट": 112,
      "ठ": 113,
      "ड": 114,
      "ढ": 115,
      "ण": 116,
      "त": 117,
      "थ": 118,
      "द": 119,
      "ध": 120,
      "न": 121,
      "प": 122,
      "फ": 123,
      "ब": 124,
      "भ": 125,
      "म": 126,
      "य": 127,
      "र": 128,
      "ऱ": 129,
      "ल": 130,
      "ळ": 131,
      "व": 132,
      "श": 133,
      "ष": 134,
      "स": 135,
      "ह": 136,
      "़": 137,
      "ा": 138,
      "ि": 139,
      "ी": 140,
      "ु": 141,
      "ू": 142,
      "ृ": 143,
      "ॅ": 144,
      "े": 145,
      "ै": 146,
      "ॉ": 147,
      "ो": 148,
      "ौ": 149,
      "्": 150,
      "ॠ": 151,
      "।": 152,
      "०": 153,
      "१": 154,
      "२": 155,
      "३": 156,
      "४": 157,
      "५": 158,
      "६": 159,
      "७": 160,
      "८": 161,
      "९": 162,
      "॰": 163,
      "ॲ": 164,
      "ం": 165,
      "ః": 166,
      "అ": 167,
      "ఆ": 168,
      "ఇ": 169,
      "ఈ": 170,
      "ఉ": 171,
      "ఋ": 172,
      "ఎ": 173,
      "ఏ": 174,
      "ఐ": 175,
      "ఒ": 176,
      "ఓ": 177,
      "ఔ": 178,
      "క": 179,
      "ఖ": 180,
      "గ": 181,
      "ఘ": 182,
      "చ": 183,
      "ఛ": 184,
      "జ": 185,
      "ఞ": 186,
      "ట": 187,
      "ఠ": 188,
      "డ": 189,
      "ఢ": 190,
      "ణ": 191,
      "త": 192,
      "థ": 193,
      "ద": 194,
      "ధ": 195,
      "న": 196,
      "ప": 197,
      "ఫ": 198,
      "బ": 199,
      "భ": 200,
      "మ": 201,
      "య": 202,
      "ర": 203,
      "ల": 204,
      "ళ": 205,
      "వ": 206,
      "శ": 207,
      "ష": 208,
      "స": 209,
      "హ": 210,
      "ా": 211,
      "ి": 212,
      "ీ": 213,
      "ు": 214,
      "ూ": 215,
      "ృ": 216,
      "ె": 217,
      "ే": 218,
      "ై": 219,
      "ొ": 220,
      "ో": 221,
      "ౌ": 222,
      "్": 223,
      "ṇ": 224,
      "ṣ": 225,
      "ṭ": 226,
      "Ἰ": 227,
      "‌": 228,
      "‍": 229,
      "–": 230,
      "—": 231,
      "‘": 232,
      "’": 233,
      "↑": 234,
      "ⓘ": 235,
      "th": 236,
      "an": 237,
      "in": 238,
      "the": 239,
      "re": 240,
      "्र": 241,
      "ार": 242,
      "ें": 243,
      "్ర": 244,
      "ార": 245,
      "లు": 246,
      "లో": 247,
      "స్": 248,
      "్య": 249,
      "న్": 250,
      "्य": 251,
      "्या": 252,
      "ात": 253,
      "र्": 254,
      "ारत": 255,
      "ला": 256,
      "on": 257,
      "er": 258,
      "and": 259,
      "al": 260,
      "en": 261,
      "के": 262,
      "में": 263,
      "या": 264,
      "ది": 265,
      "దే": 266,
      "ప్ర": 267,
      "ిం": 268,
      "దేశ": 269,
      "ాల": 270,
      "ిక": 271,
      "हे": 272,
      "भारत": 273,
      "स्": 274,
      "ाच": 275,
      "आहे": 276,
      "ां": 277,
      "st": 278,
      "ed": 279,
      "ti": 280,
      "di": 281,
      "ar": 282,
      "है": 283,
      "भार": 284,
      "का": 285,
      "ర్": 286,
      "భార": 287,
      "భారత": 288,
      "ాలు": 289,
      "న్న": 290,
      "గా": 291,
      "ది.": 292,
      "ले": 293,
      "ली": 294,
      "ान": 295,
      "रा": 296,
      "ील": 297,
      "प्र": 298,
      "In": 299,
      "or": 300,
      "of": 301,
      "ing": 302,
      "it": 303,
      "की": 304,
      "से": 305,
      "ने": 306,
      "కు": 307,
      "ని": 308,
      "వి": 309,
      "ాత": 310,
      "ాయ": 311,
      "క్": 312,
      "ాన": 313,
      "िक": 314,
      "वा": 315,
      "ती": 316,
      "आहे.": 317,
      "मु": 318,
      "ून": 319,
      "Indi": 320,
      "om": 321,
      "as": 322,
      "es": 323,
      "is": 324,
      "था": 325,
      "ों": 326,
      "ता": 327,
      "దేశం": 328,
      "రా": 329,
      "్ట": 330,
      "ను": 331,
      "ము": 332,
      "ండ": 333,
      "ీయ": 334,
      "वि": 335,
      "दे": 336,
      "ना": 337,
      "सा": 338,
      "च्या": 339,
      "तर": 340,
      "to": 341,
      "ent": 342,
      "at": 343,
      "ic": 344,
      "ou": 345,
      "क्": 346,
      "और": 347,
      "िया": 348,
      "ిన": 349,
      "ద్": 350,
      "త్": 351,
      "ించ": 352,
      "తి": 353,
      "ల్": 354,
      "స్త": 355,
      "ते": 356,
      "मध": 357,
      "ीय": 358,
      "त्": 359,
      "चे": 360,
      "्ष": 361,
      "tion": 362,
      "India": 363,
      "ly": 364,
      "ec": 365,
      "ul": 366,
      "क्ष": 367,
      "कर": 368,
      "मा": 369,
      "ంత": 370,
      "రి": 371,
      "సం": 372,
      "రు": 373,
      "పు": 374,
      "ులు": 375,
      "స్థ": 376,
      "द्": 377,
      "ष्": 378,
      "वी": 379,
      "सं": 380,
      "हो": 381,
      "देश": 382,
      "ur": 383,
      "ol": 384,
      "we": 385,
      "ra": 386,
      "em": 387,
      "्त": 388,
      "पर": 389,
      "है।": 390,
      "ాయి": 391,
      "ంట": 392,
      "ింది.": 393,
      "ంలో": 394,
      "భారతదేశం": 395,
      "భా": 396,
      "ైన": 397,
      "ही": 398,
      "अस": 399,
      "हा": 400,
      "त्या": 401,
      "पा": 402,
      "्ये": 403,
      "ri": 404,
      "si": 405,
      "he": 406,
      "am": 407,
      "du": 408,
      "ड़": 409,
      "को": 410,
      "जा": 411,
      "ంగ": 412,
      "ూడ": 413,
      "ాయి.": 414,
      "ంది.": 415,
      "ంగా": 416,
      "ధిక": 417,
      "పా": 418,
      "हि": 419,
      "्रा": 420,
      "झा": 421,
      "ंद": 422,
      "ची": 423,
      "ाच्या": 424,
      "il": 425,
      "ver": 426,
      "li": 427,
      "ad": 428,
      "ation": 429,
      "ित": 430,
      "तथा": 431,
      "न्": 432,
      "వా": 433,
      "సా": 434,
      "క్ష": 435,
      "ఉన్న": 436,
      "ారు": 437,
      "టి": 438,
      "ార్": 439,
      "राज": 440,
      "ंग": 441,
      "त्र": 442,
      "पू": 443,
      "वर": 444,
      "भारतीय": 445,
      "for": 446,
      "se": 447,
      "ast": 448,
      "ce": 449,
      "ci": 450,
      "हु": 451,
      "ति": 452,
      "कि": 453,
      "ిత": 454,
      "్చ": 455,
      "జాత": 456,
      "ష్ట": 457,
      "కూడ": 458,
      "ప్రా": 459,
      "రాజ": 460,
      "पु": 461,
      "ातील": 462,
      "मी": 463,
      "मान": 464,
      "ल्या": 465,
      "मध्ये": 466,
      "le": 467,
      "The": 468,
      "ag": 469,
      "ch": 470,
      "mo": 471,
      "िण": 472,
      "्व": 473,
      "शा": 474,
      "కో": 475,
      "క్ర": 476,
      "ట్ట": 477,
      "19": 478,
      "కా": 479,
      "చ్చ": 480,
      "నే": 481,
      "कार": 482,
      "भा": 483,
      "वे": 484,
      "ष्ट": 485,
      "मो": 486,
      "ल्": 487,
      "ro": 488,
      "s,": 489,
      "by": 490,
      "con": 491,
      "gh": 492,
      "दक्ष": 493,
      "हैं": 494,
      "दक्षिण": 495,
      "పే": 496,
      "మొ": 497,
      "00": 498,
      "ంచ": 499,
      "దు": 500,
      "మా": 501,
      "యా": 502,
      "चा": 503,
      "स्थ": 504,
      "ाची": 505,
      "पूर्": 506,
      "नी": 507,
      "ये": 508,
      "ist": 509,
      "ve": 510,
      "der": 511,
      "Indian": 512,
      "be": 513,
      "र्व": 514,
      "इस": 515,
      "ीन": 516,
      "లి": 517,
      "వ్య": 518,
      "భారతీయ": 519,
      "తర": 520,
      "నా": 521,
      "రై": 522,
      "వాత": 523,
      "सु": 524,
      "्यां": 525,
      "द्ध": 526,
      "ंड": 527,
      "ळे": 528,
      "काळ": 529,
      "ure": 530,
      "ult": 531,
      "ion": 532,
      "was": 533,
      "ex": 534,
      "उत": 535,
      "एक": 536,
      "भी": 537,
      "సి": 538,
      "్ల": 539,
      "త్వ": 540,
      "జాతీయ": 541,
      "తం": 542,
      "తో": 543,
      "రాష్ట": 544,
      "म्": 545,
      "आहेत": 546,
      "ली.": 547,
      "कृ": 548,
      "तात": 549,
      "र्म": 550,
      "sh": 551,
      "so": 552,
      "ac": 553,
      "id": 554,
      "ire": 555,
      "वर्": 556,
      "िम": 557,
      "दी": 558,
      "ారు.": 559,
      "రాష్ట్ర": 560,
      "ఖ్య": 561,
      "గు": 562,
      "వచ్చ": 563,
      "ికి": 564,
      "భారతదేశ": 565,
      "भारतात": 566,
      "ते.": 567,
      "सि": 568,
      "ाने": 569,
      "णि": 570,
      "णे": 571,
      "op": 572,
      "s.": 573,
      "su": 574,
      "ain": 575,
      "cent": 576,
      "दा": 577,
      "नि": 578,
      "किया": 579,
      "ద్ధ": 580,
      "ల్ల": 581,
      "ంత్ర": 582,
      "అధిక": 583,
      "కొ": 584,
      "డు": 585,
      "పాల": 586,
      "म्रा": 587,
      "ाचे": 588,
      "गे": 589,
      "दि": 590,
      "मि": 591,
      "शिक": 592,
      "gion": 593,
      "ith": 594,
      "ang": 595,
      "ther": 596,
      "com": 597,
      "स्था": 598,
      "्तर": 599,
      "जि": 600,
      "మైన": 601,
      "వే": 602,
      "ఒక": 603,
      "కాల": 604,
      "డి": 605,
      "ణా": 606,
      "ద్ర": 607,
      "ाप": 608,
      "स्त": 609,
      "स्कृ": 610,
      "नाव": 611,
      "्षण": 612,
      "भाग": 613,
      "fr": 614,
      "ir": 615,
      "ne": 616,
      "pire": 617,
      "ts": 618,
      "धर्म": 619,
      "शास": 620,
      "हैं।": 621,
      "మార్": 622,
      "ండి": 623,
      "ఉంది.": 624,
      "చే": 625,
      "టు": 626,
      "ధ్య": 627,
      "శా": 628,
      "शिक्षण": 629,
      "ंत": 630,
      "ठा": 631,
      "द्या": 632,
      "री": 633,
      "श्": 634,
      "with": 635,
      "ally": 636,
      "outh": 637,
      "nor": 638,
      "pl": 639,
      "अन": 640,
      "ढ़": 641,
      "साम": 642,
      "్‌": 643,
      "ింద": 644,
      "దేశాల": 645,
      "వ్యవ": 646,
      "ంది": 647,
      "ఎన్న": 648,
      "కి": 649,
      "भारताच्या": 650,
      "मुळे": 651,
      "संस्कृ": 652,
      "नेक": 653,
      "आहेत.": 654,
      "ंतर": 655,
      "ter": 656,
      "un": 657,
      "ans": 658,
      "inc": 659,
      "ate": 660,
      "पूर्व": 661,
      "तक": 662,
      "बा": 663,
      "పార": 664,
      "పంచ": 665,
      "ాబ": 666,
      "ాన్": 667,
      "ర్వ": 668,
      "న్ని": 669,
      "భారతదేశంలో": 670,
      "अनेक": 671,
      "ण्या": 672,
      "त्तर": 673,
      "संस्कृती": 674,
      "जात": 675,
      "टि": 676,
      "ay": 677,
      "de": 678,
      "wh": 679,
      "ism": 680,
      "econ": 681,
      "रू": 682,
      "क्षे": 683,
      "न्द": 684,
      "ఉన్నాయి.": 685,
      "చె": 686,
      "డ్": 687,
      "ధాన": 688,
      "పె": 689,
      "ిన్న": 690,
      "ెండ": 691,
      "१९": 692,
      "ाचा": 693,
      "असे": 694,
      "आणि": 695,
      "इंड": 696,
      "कड": 697,
      "'s": 698,
      "Asi": 699,
      "ab": 700,
      "rul": 701,
      "sed": 702,
      "उत्तर": 703,
      "जो": 704,
      "दिया": 705,
      "ాలు,": 706,
      "మార్గ": 707,
      "వ్యవస్థ": 708,
      "ంబ": 709,
      "కృ": 710,
      "కే": 711,
      "కార": 712,
      "क्र": 713,
      "त्य": 714,
      "द्र": 715,
      "रो": 716,
      "सर": 717,
      "ारा": 718,
      "res": 719,
      "region": 720,
      "ary": 721,
      "its": 722,
      "were": 723,
      "यु": 724,
      "ीं": 725,
      "स्व": 726,
      "తు": 727,
      "దా": 728,
      "హింద": 729,
      "ానికి": 730,
      "స్తు": 731,
      "కూడా": 732,
      "పేరు": 733,
      "र्थ": 734,
      "ले.": 735,
      "साम्रा": 736,
      "ष्ट्र": 737,
      "स्थाप": 738,
      "म्ह": 739,
      "centur": 740,
      "from": 741,
      "CE": 742,
      "Em": 743,
      "fe": 744,
      "काल": 745,
      "क्षेत्र": 746,
      "द्व": 747,
      "మొద": 748,
      "అధికార": 749,
      "ndi": 750,
      "కర": 751,
      "ట్": 752,
      "త్ర": 753,
      "త్య": 754,
      "तात.": 755,
      "वर्ष": 756,
      "साम्राज": 757,
      "ब्र": 758,
      "रु": 759,
      "प्रदेश": 760,
      "ow": 761,
      "ud": 762,
      "um": 763,
      "y,": 764,
      "any": 765,
      "महा": 766,
      "यह": 767,
      "प्रा": 768,
      "దక్ష": 769,
      "పర": 770,
      "పరి": 771,
      "మత": 772,
      "మీ": 773,
      "మే": 774,
      "మధ్య": 775,
      "विद्या": 776,
      "मधील": 777,
      "पास": 778,
      "पूर्वी": 779,
      "येथ": 780,
      "मिळ": 781,
      "ong": 782,
      "es,": 783,
      "ame": 784,
      "cont": 785,
      "ak": 786,
      "नाम": 787,
      "शासन": 788,
      "आध": 789,
      "వర": 790,
      "సు": 791,
      "ప్రపంచ": 792,
      "ప్రధాన": 793,
      "ాత్ర": 794,
      "ద్ద": 795,
      "స్థాన": 796,
      "ंध": 797,
      "णी": 798,
      "यां": 799,
      "ला.": 800,
      "काही": 801,
      "होता": 802,
      "mil": 803,
      "soci": 804,
      "econom": 805,
      "Empire": 806,
      "South": 807,
      "गया": 808,
      "चीन": 809,
      "चिम": 810,
      "భాష": 811,
      "ప్రాంత": 812,
      "రాజ్య": 813,
      "రైలు": 814,
      "దాయ": 815,
      "ప్": 816,
      "వార": 817,
      "झाले": 818,
      "म्हण": 819,
      "पासून": 820,
      "घे": 821,
      "चि": 822,
      "जी": 823,
      "co": 824,
      "ear": 825,
      "had": 826,
      "im": 827,
      "indu": 828,
      "ज्य": 829,
      "पश्": 830,
      "मै": 831,
      "వర్": 832,
      "సభ": 833,
      "క్కు": 834,
      "దేశంలో": 835,
      "్టీ": 836,
      "క్రీ": 837,
      "పార్టీ": 838,
      "णा": 839,
      "भू": 840,
      "लय": 841,
      "लो": 842,
      "समु": 843,
      "सर्व": 844,
      "ence": 845,
      "tic": 846,
      "ity": 847,
      "ich": 848,
      "thern": 849,
      "रे": 850,
      "लग": 851,
      "्राज्य": 852,
      "దక్షి": 853,
      "అయ": 854,
      "ఆర్": 855,
      "గి": 856,
      "జనా": 857,
      "నాలు": 858,
      "పూ": 859,
      "हर": 860,
      "िटि": 861,
      "राष्ट्र": 862,
      "ष्ठ": 863,
      "हिमा": 864,
      "ाचीन": 865,
      "Bri": 866,
      "BCE": 867,
      "Mu": 868,
      "bec": 869,
      "et": 870,
      "साम्राज्य": 871,
      "पश्चिम": 872,
      "जल": 873,
      "పో": 874,
      "భు": 875,
      "మన": 876,
      "మి": 877,
      "రో": 878,
      "రెండ": 879,
      "లం": 880,
      "ब्रिटि": 881,
      "ब्रिटिश": 882,
      "),": 883,
      "इति": 884,
      "गर": 885,
      "जे": 886,
      "ig": 887,
      "ment": 888,
      "over": 889,
      "ted": 890,
      "ut": 891,
      "थी": 892,
      "ब्": 893,
      "सम": 894,
      "లా": 895,
      "వు": 896,
      "వె": 897,
      "్యం": 898,
      "ప్రజ": 899,
      "ప్రభు": 900,
      "ముఖ్య": 901,
      "पृ": 902,
      "बां": 903,
      "भर": 904,
      "मह": 905,
      "मार": 906,
      "वै": 907,
      "into": 908,
      "tish": 909,
      "oun": 910,
      "west": 911,
      "Asia": 912,
      "ंगा": 913,
      "रूप": 914,
      "मैदा": 915,
      "ించిన": 916,
      "ించింది.": 917,
      "హిందూ": 918,
      "ంద్ర": 919,
      "ఇతర": 920,
      "గీ": 921,
      "తా": 922,
      "शि": 923,
      "ो.": 924,
      "प्रकार": 925,
      "प्राचीन": 926,
      "हिंद": 927,
      "सिंध": 928,
      "British": 929,
      "Hindu": 930,
      "av": 931,
      "lang": 932,
      "pe": 933,
      "वं": 934,
      "ोल": 935,
      "्रे": 936,
      "తరు": 937,
      "లకు": 938,
      "వీ": 939,
      "శ్ర": 940,
      "ష్": 941,
      "ీన": 942,
      "స్కృ": 943,
      "इंडिया": 944,
      "होता.": 945,
      "इतिहा": 946,
      "दक्षि": 947,
      "इंग": 948,
      "उप": 949,
      "per": 950,
      "pro": 951,
      "uag": 952,
      "all": 953,
      "ated": 954,
      "ड़ा": 955,
      "हुआ": 956,
      "राज्य": 957,
      "ాల్": 958,
      "స్త్ర": 959,
      "సాం": 960,
      "వచ్చింది.": 961,
      "పెద్ద": 962,
      "క్కువ": 963,
      ",2": 964,
      "दल": 965,
      "धार": 966,
      "पड": 967,
      "पद": 968,
      "मू": 969,
      "ऱ्या": 970,
      "ough": 971,
      "uring": 972,
      "dern": 973,
      "ulture": 974,
      "sub": 975,
      "बसे": 976,
      "लि": 977,
      "व्य": 978,
      "gu": 979,
      "nt": 980,
      "ం,": 981,
      "అతి": 982,
      "ఉత్": 983,
      "ఉంట": 984,
      "కలి": 985,
      "शी": 986,
      "सी": 987,
      "स्त्र": 988,
      "मुख": 989,
      "विध": 990,
      "द्वी": 991,
      "comp": 992,
      "which": 993,
      "languag": 994,
      "By": 995,
      "dh": 996,
      "सबसे": 997,
      "ोड़": 998,
      "जाता": 999,
      "గర": 1000,
      "జన": 1001,
      "జరి": 1002,
      "పట్ట": 1003,
      "బడ": 1004,
      "బా": 1005,
      "బె": 1006,
      "ल्ली": 1007,
      "किल्": 1008,
      "लोक": 1009,
      "सिंधू": 1010,
      "nd": 1011,
      "आज": 1012,
      "ies": 1013,
      "lit": 1014,
      "mar": 1015,
      "ry": 1016,
      "rit": 1017,
      "हिन्द": 1018,
      "ँच": 1019,
      "ंत्र": 1020,
      "బ్ర": 1021,
      "మహ": 1022,
      "లలో": 1023,
      "వంట": 1024,
      "ుకు": 1025,
      "విధ": 1026,
      "భాగ": 1027,
      "इ.": 1028,
      "ठी": 1029,
      "दिक": 1030,
      "बन": 1031,
      "मे": 1032,
      "ळव": 1033,
      "sy": 1034,
      "this": 1035,
      "red": 1036,
      "ren": 1037,
      "ern": 1038,
      "ओं": 1039,
      "चल": 1040,
      "ध्य": 1041,
      "వాణా": 1042,
      "మార్గాలు": 1043,
      "కేంద్ర": 1044,
      "ప్ప": 1045,
      "క్రీడ": 1046,
      "అయిన": 1047,
      "జనాభా": 1048,
      "ळू": 1049,
      "वार": 1050,
      "स.": 1051,
      "हवा": 1052,
      "्यंत": 1053,
      "लाग": 1054,
      "tive": 1055,
      "Ind": 1056,
      "duc": 1057,
      "form": 1058,
      "new": 1059,
      "प्त": 1060,
      "मध्य": 1061,
      "शता": 1062,
      "ప్రభుత్వ": 1063,
      "తరువాత": 1064,
      "అనే": 1065,
      "ఇది": 1066,
      "ఎక్కువ": 1067,
      "ఏర్": 1068,
      "కీయ": 1069,
      "ांत": 1070,
      "होती": 1071,
      "पर्यंत": 1072,
      "दिल्ली": 1073,
      "विद्यार्थ": 1074,
      "येथील": 1075,
      "northern": 1076,
      "rule": 1077,
      "became": 1078,
      "ap": 1079,
      "est": 1080,
      "था।": 1081,
      "निर्": 1082,
      "जिस": 1083,
      "గో": 1084,
      "గ్": 1085,
      "గిన": 1086,
      "టిక": 1087,
      "ణం": 1088,
      "బహ": 1089,
      "మాన": 1090,
      "हिमालय": 1091,
      "पृष्ठ": 1092,
      "बांध": 1093,
      "वैदिक": 1094,
      "इतिहास": 1095,
      "द्वीप": 1096,
      "land": 1097,
      "non": 1098,
      "od": 1099,
      "par": 1100,
      "ris": 1101,
      "ब्दी": 1102,
      "शताब्दी": 1103,
      "ईसा": 1104,
      "మంత్ర": 1105,
      "రవాణా": 1106,
      "లే": 1107,
      "లను": 1108,
      "సిం": 1109,
      "సరి": 1110,
      "ిల్ల": 1111,
      "हवामान": 1112,
      "ंप": 1113,
      "ंब": 1114,
      "अज": 1115,
      "इम": 1116,
      "ओळ": 1117,
      "vi": 1118,
      "stem": 1119,
      "ical": 1120,
      "set": 1121,
      "modern": 1122,
      "गंगा": 1123,
      "जन": 1124,
      "टे": 1125,
      "్రా": 1126,
      "్రె": 1127,
      "ప్రస్తు": 1128,
      "ప్రదాయ": 1129,
      "క్క": 1130,
      "స్తాన్": 1131,
      "ంగ్రె": 1132,
      "गा": 1133,
      "ग्": 1134,
      "टी": 1135,
      "तील": 1136,
      "धिक": 1137,
      "नदी": 1138,
      "beg": 1139,
      "exp": 1140,
      "incre": 1141,
      "economic": 1142,
      "system": 1143,
      "तिक": 1144,
      "धी": 1145,
      "न्त": 1146,
      "పాకి": 1147,
      "సాధ": 1148,
      "రాజకీయ": 1149,
      "కాంగ్రె": 1150,
      "కాలంలో": 1151,
      "are": 1152,
      "ందిన": 1153,
      "नंतर": 1154,
      "प्": 1155,
      "बंगा": 1156,
      "वन": 1157,
      "शत": 1158,
      "हळू": 1159,
      "18": 1160,
      "Ch": 1161,
      "cre": 1162,
      "culture": 1163,
      "dom": 1164,
      "बना": 1165,
      "बढ़": 1166,
      "शिया": 1167,
      "ఎన్నో": 1168,
      "ాబ్": 1169,
      "మొదటి": 1170,
      "దక్షిణ": 1171,
      "200": 1172,
      "ge": 1173,
      "అత్య": 1174,
      "ैन": 1175,
      "००": 1176,
      "लाल": 1177,
      "विविध": 1178,
      "होते.": 1179,
      "असते.": 1180,
      "ev": 1181,
      "gra": 1182,
      "hi": 1183,
      "has": 1184,
      "lo": 1185,
      "स्ता": 1186,
      "साथ": 1187,
      "माल": 1188,
      "ఇండి": 1189,
      "ఉప": 1190,
      "క్య": 1191,
      "గణ": 1192,
      "గల": 1193,
      "చిన్న": 1194,
      "దం": 1195,
      "झाली.": 1196,
      "वरून": 1197,
      "शास्त्र": 1198,
      "काळात": 1199,
      "ण्यात": 1200,
      "जातो.": 1201,
      "led": 1202,
      "lar": 1203,
      "me": 1204,
      "ni": 1205,
      "o-": 1206,
      "हुई": 1207,
      "समय": 1208,
      "मैदान": 1209,
      "పై": 1210,
      "పతి": 1211,
      "భూ": 1212,
      "మై": 1213,
      "యు": 1214,
      "యో": 1215,
      "రం": 1216,
      "क्रम": 1217,
      "समुद्र": 1218,
      "इमारत": 1219,
      "ओळख": 1220,
      "बंगाल": 1221,
      "आक्रम": 1222,
      "ok": 1223,
      "ot": 1224,
      "pol": 1225,
      "ral": 1226,
      "rough": 1227,
      "स्थित": 1228,
      "स्तान": 1229,
      "गु": 1230,
      "రంగ": 1231,
      "లతో": 1232,
      "వల": 1233,
      "శ్": 1234,
      "షు": 1235,
      "సము": 1236,
      "ావర": 1237,
      "इस्": 1238,
      "खा": 1239,
      "गण": 1240,
      "गी": 1241,
      "गातील": 1242,
      "घल": 1243,
      "sc": 1244,
      "ta": 1245,
      "ub": 1246,
      "used": 1247,
      "that": 1248,
      "बी": 1249,
      "बे": 1250,
      "ीप": 1251,
      "ుకో": 1252,
      "ెలు": 1253,
      "్మ": 1254,
      "ప్రము": 1255,
      "ప్రతి": 1256,
      "ాలలో": 1257,
      "ాలను": 1258,
      "ज्": 1259,
      "ज्या": 1260,
      "तो": 1261,
      "दो": 1262,
      "नृ": 1263,
      "बौ": 1264,
      "erg": 1265,
      "diver": 1266,
      "ass": 1267,
      "ater": 1268,
      "ous": 1269,
      "ुन": 1270,
      "माण": 1271,
      "विश": 1272,
      "విస్త": 1273,
      "ండు": 1274,
      "ించి": 1275,
      "సంగీ": 1276,
      "సంస్కృ": 1277,
      "ంగ్ల": 1278,
      "ిత్ర": 1279,
      "व्या": 1280,
      "वली": 1281,
      "ुस": 1282,
      "ैकी": 1283,
      "्छ": 1284,
      "भारता": 1285,
      "India's": 1286,
      "emerg": 1287,
      "river": 1288,
      "istan": 1289,
      "ultan": 1290,
      "ड़ी": 1291,
      "न्ह": 1292,
      "हुए": 1293,
      "ప్రాచ": 1294,
      "క్రమ": 1295,
      "సిని": 1296,
      "సియా": 1297,
      "ద్ధి": 1298,
      "శాస్త్ర": 1299,
      "ఆర్ధిక": 1300,
      "ांच्या": 1301,
      "लीन": 1302,
      "ानंतर": 1303,
      "कालीन": 1304,
      "मुघल": 1305,
      "असले": 1306,
      "increas": 1307,
      "Bud": 1308,
      "Com": 1309,
      "Sans": 1310,
      "but": 1311,
      "ंग्रे": 1312,
      "हिमाल": 1313,
      "किया।": 1314,
      "సరిహ": 1315,
      "అత్యధిక": 1316,
      "ఇండియా": 1317,
      "ప్రముఖ": 1318,
      "20": 1319,
      "50": 1320,
      "ct": 1321,
      "ंदि": 1322,
      "ंद्र": 1323,
      "स्थान": 1324,
      "सुरू": 1325,
      "गेट": 1326,
      "साम्राज्या": 1327,
      "during": 1328,
      "fl": 1329,
      "fter": 1330,
      "ied": 1331,
      "krit": 1332,
      "लेट": 1333,
      "म्भ": 1334,
      "मिल": 1335,
      "lis": 1336,
      "ం.": 1337,
      "ం:": 1338,
      "ంధ": 1339,
      "ఆధ": 1340,
      "కాలు": 1341,
      "గలు": 1342,
      "रुव": 1343,
      "इंग्र": 1344,
      "मुख्य": 1345,
      "किल्ला": 1346,
      "इस्ला": 1347,
      "पश्चि": 1348,
      "ll": 1349,
      "long": 1350,
      "ma": 1351,
      "mer": 1352,
      "og": 1353,
      "स्वत": 1354,
      "धीरे": 1355,
      "प्लेट": 1356,
      "జాబ": 1357,
      "ట్ల": 1358,
      "ఢిల్ల": 1359,
      "ణి": 1360,
      "తిక": 1361,
      "తంత్ర": 1362,
      "దార": 1363,
      "बौद्ध": 1364,
      "(पूर्वी": 1365,
      "ia": 1366,
      "कर्": 1367,
      "ख्": 1368,
      "गड": 1369,
      "pany": 1370,
      "rol": 1371,
      "sl": 1372,
      "tw": 1373,
      "ty": 1374,
      "अध": 1375,
      "अप": 1376,
      "अव": 1377,
      "ధి": 1378,
      "నీ": 1379,
      "నె": 1380,
      "నడి": 1381,
      "భిన్న": 1382,
      "మె": 1383,
      "మూడ": 1384,
      "गो": 1385,
      "च्छ": 1386,
      "जव": 1387,
      "तु": 1388,
      "द्रा": 1389,
      "द्यां": 1390,
      "tec": 1391,
      "tra": 1392,
      "ture": 1393,
      "up": 1394,
      "through": 1395,
      "अंग्रे": 1396,
      "उन": 1397,
      "ऊँच": 1398,
      "మాత్ర": 1399,
      "రహ": 1400,
      "వహ": 1401,
      "వై": 1402,
      "సౌ": 1403,
      "సింది.": 1404,
      "సమా": 1405,
      "न्या": 1406,
      "पठ": 1407,
      "भवन": 1408,
      "ळी": 1409,
      "शै": 1410,
      "सो": 1411,
      "inent": 1412,
      "Indu": 1413,
      "itary": 1414,
      "ome": 1415,
      "ised": 1416,
      "एशिया": 1417,
      "ओर": 1418,
      "कह": 1419,
      "హార": 1420,
      "ీ;": 1421,
      "ీర్": 1422,
      "స్య": 1423,
      "స్వ": 1424,
      "స్వా": 1425,
      "స్వాత": 1426,
      "सात": 1427,
      "हज": 1428,
      "ह्या": 1429,
      "ातंत्र": 1430,
      "भारताचे": 1431,
      "ांमध्ये": 1432,
      "India,": 1433,
      "olog": 1434,
      "ement": 1435,
      "life": 1436,
      "ghal": 1437,
      "कु": 1438,
      "पहा": 1439,
      "पर्व": 1440,
      "్యాయ": 1441,
      "భారత్": 1442,
      "వివిధ": 1443,
      "ద్దు": 1444,
      "ంతో": 1445,
      "ులు,": 1446,
      "సామ": 1447,
      "ांनी": 1448,
      "वाह": 1449,
      "असून": 1450,
      "त्यां": 1451,
      "झाला": 1452,
      "राज्यां": 1453,
      "000": 1454,
      "north": 1455,
      "incl": 1456,
      "control": 1457,
      "continent": 1458,
      "यों": 1459,
      "वस्था": 1460,
      "वीं": 1461,
      "కోర్": 1462,
      "పేర్": 1463,
      "రాష్ట్రపతి": 1464,
      "శాఖ": 1465,
      "డ్డ": 1466,
      "మొదల": 1467,
      "కర్య": 1468,
      "केली": 1469,
      "वेग": 1470,
      "मोठा": 1471,
      "सुरुव": 1472,
      "करून": 1473,
      "कडे": 1474,
      "social": 1475,
      "Mughal": 1476,
      "western": 1477,
      "peri": 1478,
      "subcontinent": 1479,
      "ेष": 1480,
      "ारम्भ": 1481,
      "प्रारम्भ": 1482,
      "ప్రాంతాలు": 1483,
      "దేశంలోని": 1484,
      "రెండు": 1485,
      "ాల్లో": 1486,
      "ఉత్తర": 1487,
      "పట్టణ": 1488,
      "బెంగ": 1489,
      "वर्षां": 1490,
      "स्वातंत्र": 1491,
      "भूमी": 1492,
      "युद्ध": 1493,
      "भरत": 1494,
      "महारा": 1495,
      "non-": 1496,
      "began": 1497,
      "larg": 1498,
      "ultanate": 1499,
      "Buddh": 1500,
      "राष्ट": 1501,
      "करना": 1502,
      "इसी": 1503,
      "బ్రి": 1504,
      "ప్పటిక": 1505,
      "ఏర్ప": 1506,
      "బహు": 1507,
      "మంత్రి": 1508,
      "సింధ": 1509,
      "సరిహద్దు": 1510,
      "विद्यार्थ्यां": 1511,
      "इस्लामी": 1512,
      "सुरुवात": 1513,
      "%;": 1514,
      "ंच": 1515,
      "ंट": 1516,
      "Company": 1517,
      "Sanskrit": 1518,
      "Indus": 1519,
      ",000": 1520,
      "Bh": 1521,
      "ष्ण": 1522,
      "युग": 1523,
      "आधुन": 1524,
      "ఢిల్లీ": 1525,
      "నడిప": 1526,
      "సౌకర్య": 1527,
      "స్వాతంత్ర": 1528,
      "(1": 1529,
      ").": 1530,
      "..": 1531,
      "आर्": 1532,
      "उदा": 1533,
      "ऋष": 1534,
      "ऑफ": 1535,
      "खन": 1536,
      "खो": 1537,
      "Eur": 1538,
      "East": 1539,
      "Pak": 1540,
      "bo": 1541,
      "cl": 1542,
      "गया।": 1543,
      "वंश": 1544,
      "हुआ।": 1545,
      "14": 1546,
      "Con": 1547,
      "no": 1548,
      "ంద": 1549,
      "ందు": 1550,
      "అభ": 1551,
      "అను": 1552,
      "गंग": 1553,
      "जगातील": 1554,
      "तसे": 1555,
      "दृ": 1556,
      "दख्": 1557,
      "नद्यां": 1558,
      "eth": 1559,
      "east": 1560,
      "ff": 1561,
      "fac": 1562,
      "ga": 1563,
      "लिए": 1564,
      "व्यवस्था": 1565,
      "पर्वत": 1566,
      "కళ": 1567,
      "కల్": 1568,
      "గే": 1569,
      "గంగా": 1570,
      "చార": 1571,
      "చరి": 1572,
      "చైన": 1573,
      "पे": 1574,
      "पती": 1575,
      "पैकी": 1576,
      "बर": 1577,
      "बहु": 1578,
      "मत": 1579,
      "gre": 1580,
      "hn": 1581,
      "hum": 1582,
      "king": 1583,
      "ld": 1584,
      "आधुनिक": 1585,
      "आक": 1586,
      "गति": 1587,
      "జ్య": 1588,
      "టీ": 1589,
      "టె": 1590,
      "తన": 1591,
      "తూ": 1592,
      "తమి": 1593,
      "తాబ్": 1594,
      "मर": 1595,
      "मरा": 1596,
      "मंदि": 1597,
      "यी": 1598,
      "व्": 1599,
      "शक": 1600,
      "lin": 1601,
      "len": 1602,
      "ning": 1603,
      "pop": 1604,
      "qu": 1605,
      "ज़": 1606,
      "पह": 1607,
      "बो": 1608,
      "థిక": 1609,
      "నగర": 1610,
      "పత": 1611,
      "పొ": 1612,
      "పద్ధ": 1613,
      "పాత్ర": 1614,
      "పండు": 1615,
      "शो": 1616,
      "शहर": 1617,
      "सम्रा": 1618,
      "भारताने": 1619,
      "स्ट": 1620,
      "स्मार": 1621,
      "sol": 1622,
      "south": 1623,
      "ting": 1624,
      "uc": 1625,
      "ved": 1626,
      "रों": 1627,
      "लिया": 1628,
      "शह": 1629,
      "మలు": 1630,
      "మ్య": 1631,
      "రూ": 1632,
      "ళం": 1633,
      "ళ్ల": 1634,
      "వడ": 1635,
      "వృ": 1636,
      "वाळव": 1637,
      "सागर": 1638,
      "साठी": 1639,
      "त्व": 1640,
      "द्दल": 1641,
      "संगी": 1642,
      "ince": 1643,
      "their": 1644,
      "reli": 1645,
      "time": 1646,
      "arch": 1647,
      "शु": 1648,
      "सार": 1649,
      "ोढ़": 1650,
      "వత్": 1651,
      "శతాబ్": 1652,
      "సమ": 1653,
      "సై": 1654,
      "సార": 1655,
      "సర్వ": 1656,
      "ిమ": 1657,
      "त्याचे": 1658,
      "पाकि": 1659,
      "झाला.": 1660,
      "राज्ये": 1661,
      "वरील": 1662,
      "केले": 1663,
      "isation": 1664,
      "India.": 1665,
      "lim": 1666,
      "lion": 1667,
      "cial": 1668,
      "र्ण": 1669,
      "र्ष": 1670,
      "है,": 1671,
      "ుంది.": 1672,
      "ాలతో": 1673,
      "న్నాయి.": 1674,
      "గా,": 1675,
      "నిర్వ": 1676,
      "నుక": 1677,
      "నుండి": 1678,
      "केली.": 1679,
      "क्षा": 1680,
      "पुरा": 1681,
      "पुत्र": 1682,
      "मानवी": 1683,
      "ष्ट्या": 1684,
      "citi": 1685,
      "most": 1686,
      "istor": 1687,
      "ext": 1688,
      "ope": 1689,
      "प्रमुख": 1690,
      "करण": 1691,
      "करने": 1692,
      "త్తం": 1693,
      "ించే": 1694,
      "ల్వే": 1695,
      "సంఖ్య": 1696,
      "పుట్ట": 1697,
      "ితా": 1698,
      "కూడిన": 1699,
      "पूर्ण": 1700,
      "परंत": 1701,
      "सित": 1702,
      "ण्यास": 1703,
      "स्थापत्य": 1704,
      "म्हणून": 1705,
      "anges": 1706,
      "century,": 1707,
      "military": 1708,
      "millen": 1709,
      "tical": 1710,
      "विस्त": 1711,
      "ड़े": 1712,
      "जाना": 1713,
      "197": 1714,
      "మొత్తం": 1715,
      "రైల్వే": 1716,
      "వాతావర": 1717,
      "angu": 1718,
      "భారతదేశానికి": 1719,
      "పాలన": 1720,
      "म्हणजे": 1721,
      "सर्वांत": 1722,
      "राष्ट्रीय": 1723,
      "हिंदू": 1724,
      "दक्षिणे": 1725,
      "धारण": 1726,
      "ound": 1727,
      "languages": 1728,
      "Indo-": 1729,
      "nium": 1730,
      "emerged": 1731,
      "हाँ": 1732,
      "वायु": 1733,
      "देख": 1734,
      "ఒకటి": 1735,
      "చేయ": 1736,
      "దేశాలలో": 1737,
      "తున్న": 1738,
      "అధికారిక": 1739,
      "ట్లు": 1740,
      "ప్రపంచంలో": 1741,
      "पडले": 1742,
      "पदवी": 1743,
      "सीमा": 1744,
      "इ.स.": 1745,
      "व्यु": 1746,
      "होती.": 1747,
      "includ": 1748,
      "Europe": 1749,
      "Pakistan": 1750,
      "hnolog": 1751,
      "popul": 1752,
      "किस्तान": 1753,
      "पाकिस्तान": 1754,
      "संघ": 1755,
      "భాషలు": 1756,
      "వెబ": 1757,
      "ప్రజా": 1758,
      ",26": 1759,
      "కలిగి": 1760,
      "జరిగిన": 1761,
      "వంటి": 1762,
      "बंगालच्या": 1763,
      "ज्ञ": 1764,
      "नृत्य": 1765,
      "ुसार": 1766,
      "भारताला": 1767,
      "सोयी": 1768,
      "millennium": 1769,
      "Cent": 1770,
      "It": 1771,
      "Isl": 1772,
      "Ma": 1773,
      "इसके": 1774,
      "अन्य": 1775,
      "बाद": 1776,
      "అనేక": 1777,
      "ఎక్కువగా": 1778,
      "ప్రస్తుతం": 1779,
      "కాంగ్రెసు": 1780,
      "సముద్ర": 1781,
      "ప్రాచీన": 1782,
      "జాబితా": 1783,
      "वर्षांपूर्वी": 1784,
      "उदाहर": 1785,
      "गंगे": 1786,
      "तसेच": 1787,
      "दृष्ट्या": 1788,
      "सम्राट": 1789,
      "ative": 1790,
      "bas": 1791,
      "ep": 1792,
      "elit": 1793,
      "fied": 1794,
      "दिया।": 1795,
      "द्वारा": 1796,
      "जलोढ़": 1797,
      "రహదార": 1798,
      "అభి": 1799,
      "చరిత్ర": 1800,
      "శతాబ్దం": 1801,
      "నిర్వహ": 1802,
      "వాతావరణం": 1803,
      "angua": 1804,
      "वाळवंट": 1805,
      "परंतु": 1806,
      "(इंग्र": 1807,
      "अति": 1808,
      "अधिक": 1809,
      "आण": 1810,
      "gen": 1811,
      "histor": 1812,
      "iv": 1813,
      "jor": 1814,
      "ks": 1815,
      "जलवायु": 1816,
      "ोलन": 1817,
      "न्तु": 1818,
      "%),": 1819,
      ",9": 1820,
      "1-": 1821,
      "10": 1822,
      "23": 1823,
      "3,": 1824,
      "47": 1825,
      "आप": 1826,
      "आर": 1827,
      "आर्थ": 1828,
      "इतर": 1829,
      "इत्या": 1830,
      "कथ": 1831,
      "ling": 1832,
      "lic": 1833,
      "mid": 1834,
      "many": 1835,
      "not": 1836,
      "स्थापना": 1837,
      "ब्रि": 1838,
      "स्वतंत्र": 1839,
      "CI": 1840,
      "fi": 1841,
      "km": 1842,
      "langua": 1843,
      "mi": 1844,
      "sq": 1845,
      "tal": 1846,
      "कात": 1847,
      "कच्छ": 1848,
      "गती": 1849,
      "ग्रा": 1850,
      "घड": 1851,
      "घात": 1852,
      "oc": 1853,
      "os": 1854,
      "ose": 1855,
      "pp": 1856,
      "pr": 1857,
      "21": 1858,
      "आं": 1859,
      "आन्द": 1860,
      "అని": 1861,
      "ఆఫ": 1862,
      "ఇవ": 1863,
      "కం": 1864,
      "కల": 1865,
      "ఖండ": 1866,
      "చి": 1867,
      "चळव": 1868,
      "जु": 1869,
      "जैन": 1870,
      "डू": 1871,
      "तत्": 1872,
      "तमिळ": 1873,
      "pen": 1874,
      "sultanate": 1875,
      "since": 1876,
      "slim": 1877,
      "t,": 1878,
      "ई।": 1879,
      "एवं": 1880,
      "कटि": 1881,
      "జి": 1882,
      "జన్": 1883,
      "టం": 1884,
      "టా": 1885,
      "డే": 1886,
      "ణంగా": 1887,
      "దన": 1888,
      "थार": 1889,
      "दु": 1890,
      "दार": 1891,
      "दर्": 1892,
      "ध्या": 1893,
      "नद्या": 1894,
      "te": 1895,
      "var": 1896,
      "way": 1897,
      "year": 1898,
      "there": 1899,
      "घा": 1900,
      "छोड़": 1901,
      "जब": 1902,
      "దీ": 1903,
      "ద్య": 1904,
      "నాయ": 1905,
      "న్యాయ": 1906,
      "పం": 1907,
      "పద": 1908,
      "పశ": 1909,
      "नुसार": 1910,
      "पार": 1911,
      "पत्": 1912,
      "पद्ध": 1913,
      "पणे": 1914,
      "बद्दल": 1915,
      "theast": 1916,
      "arm": 1917,
      "ating": 1918,
      "out": 1919,
      "outheast": 1920,
      "जै": 1921,
      "थे": 1922,
      "नत": 1923,
      "పక్ష": 1924,
      "మల": 1925,
      "మాలు": 1926,
      "మ్మ": 1927,
      "యాలు": 1928,
      "రే": 1929,
      "ర్య": 1930,
      "भि": 1931,
      "भदे": 1932,
      "यं": 1933,
      "यन": 1934,
      "यातील": 1935,
      "रि": 1936,
      "ween": 1937,
      "empire": 1938,
      "sion": 1939,
      "ago": 1940,
      "mov": 1941,
      "नदिया": 1942,
      "पत": 1943,
      "बंध": 1944,
      "రకాల": 1945,
      "లక్ష": 1946,
      "వరి": 1947,
      "సర": 1948,
      "సూ": 1949,
      "హా": 1950,
      "ా,": 1951,
      "ळा": 1952,
      "शय": 1953,
      "सद": 1954,
      "सन": 1955,
      "सर्": 1956,
      "समू": 1957,
      "more": 1958,
      "commer": 1959,
      "plain": 1960,
      "own": 1961,
      "ower": 1962,
      "बड़े": 1963,
      "भग": 1964,
      "ल्त": 1965,
      "ిల్": 1966,
      "ిస్త": 1967,
      "ీ,": 1968,
      "ీలు": 1969,
      "ు.": 1970,
      "ుల": 1971,
      "ెల": 1972,
      "सैन": 1973,
      "ूर": 1974,
      "ृत": 1975,
      "ौर": 1976,
      "१६": 1977,
      "१८": 1978,
      "early": 1979,
      "Muslim": 1980,
      "Hinduism": 1981,
      "language": 1982,
      "duced": 1983,
      "लिम": 1984,
      "षा": 1985,
      "संग": 1986,
      "ోర": 1987,
      "లోక్": 1988,
      "స్లా": 1989,
      "ప్రకార": 1990,
      "ాలకు": 1991,
      "ిక,": 1992,
      "ికత": 1993,
      "ातून": 1994,
      "लां": 1995,
      "स्वी": 1996,
      "ांचे": 1997,
      "ांचा": 1998,
      "लेय": 1999,
      "rise": 2000,
      "ublic": 2001,
      "diverse": 2002,
      "major": 2003,
      "two": 2004,
      "सम्": 2005,
      "सल्त": 2006,
      "्री": 2007,
      "ిక్": 2008,
      "కుల": 2009,
      "కుంట": 2010,
      "కుటు": 2011,
      "నిర్": 2012,
      "వి.": 2013,
      "ాయు": 2014,
      "लेला": 2015,
      "लेल्या": 2016,
      "लेणी": 2017,
      "वाद": 2018,
      "वाधिक": 2019,
      "विष": 2020,
      "technolog": 2021,
      "large": 2022,
      "kingdom": 2023,
      "including": 2024,
      "European": 2025,
      "में,": 2026,
      "स्लिम": 2027,
      "की।": 2028,
      "రాస్య": 2029,
      "ములో": 2030,
      "ముంబ": 2031,
      "ద్వీ": 2032,
      "ల్లో": 2033,
      "సంఘ": 2034,
      "సంప్రదాయ": 2035,
      "नाडू": 2036,
      "साग": 2037,
      "संसद": 2038,
      "होत": 2039,
      "होत्या": 2040,
      "त्यात": 2041,
      "Islam": 2042,
      "lish": 2043,
      "years": 2044,
      "An": 2045,
      "Dra": 2046,
      "्यों": 2047,
      "ियाँ": 2048,
      "िकार": 2049,
      "సంవత్": 2050,
      "స్థాన్": 2051,
      "ంటే": 2052,
      "పాక్": 2053,
      "పాటు": 2054,
      "క్షరాస్య": 2055,
      "టిలో": 2056,
      "राजक": 2057,
      "पूर": 2058,
      "केंद्र": 2059,
      "पुत": 2060,
      "मोठ": 2061,
      "ल्प": 2062,
      "During": 2063,
      "Its": 2064,
      "Southeast": 2065,
      "ace": 2066,
      "after": 2067,
      "माज": 2068,
      "जाति": 2069,
      "न्न": 2070,
      "199": 2071,
      "1950": 2072,
      "ంచి": 2073,
      "వ్యా": 2074,
      "రైళ్ల": 2075,
      "రాష్ట్రాల": 2076,
      "రాష్ట్రాలు": 2077,
      "किन": 2078,
      "शालेय": 2079,
      "सिद्ध": 2080,
      "गेली.": 2081,
      "ाप्": 2082,
      "नावाने": 2083,
      "ban": 2084,
      "bor": 2085,
      "ca": 2086,
      "ced": 2087,
      "ces": 2088,
      "किये": 2089,
      "किन्तु": 2090,
      "राजनी": 2091,
      "వచ్చిన": 2092,
      "భారతదేశపు": 2093,
      "కొన్ని": 2094,
      "పాలిత": 2095,
      "వేగంగా": 2096,
      "ణాసియా": 2097,
      "భారతదేశంలోని": 2098,
      "नावाचा": 2099,
      "भागात": 2100,
      "श्च": 2101,
      "१९९": 2102,
      "कडील": 2103,
      "सरकार": 2104,
      "cur": 2105,
      "cast": 2106,
      "dec": 2107,
      "day": 2108,
      "far": 2109,
      "हैं,": 2110,
      "उत्": 2111,
      "वर्ग": 2112,
      "చెందిన": 2113,
      "డ్డు": 2114,
      "వ్యవస్థలో": 2115,
      "కార్య": 2116,
      "కరణ": 2117,
      "పరంగా": 2118,
      "పరిశ్ర": 2119,
      "येथे": 2120,
      "यांच्या": 2121,
      "जी:": 2122,
      "राष्ट्रपती": 2123,
      "उत्तरे": 2124,
      "हिंदी": 2125,
      "fic": 2126,
      "fir": 2127,
      "ha": 2128,
      "ies,": 2129,
      "itical": 2130,
      "अनु": 2131,
      "अन्त": 2132,
      "कारण": 2133,
      "మేన": 2134,
      "ప్రధానమంత్రి": 2135,
      "స్థానంలో": 2136,
      "రాజ్యాలు": 2137,
      "వారస": 2138,
      "సభ్య": 2139,
      "ఆర్థిక": 2140,
      "पदव्यु": 2141,
      "वारे": 2142,
      "लागले.": 2143,
      "द्वीपसमू": 2144,
      "हळूहळू": 2145,
      "ओळखले": 2146,
      "ked": 2147,
      "later": 2148,
      "min": 2149,
      "main": 2150,
      "ns": 2151,
      "मुस्लिम": 2152,
      "महाद्वीप": 2153,
      "पश्चिमी": 2154,
      "పూ.": 2155,
      "పూర్వ": 2156,
      "రోడ్డు": 2157,
      "ముఖ్యమైన": 2158,
      "సాంప్రదాయ": 2159,
      "ఉంటాయి.": 2160,
      "జనగణ": 2161,
      "खाली": 2162,
      "गणला": 2163,
      "दोन": 2164,
      "(पूर्वीचे": 2165,
      "गोल": 2166,
      "जवळ": 2167,
      "ood": 2168,
      "pa": 2169,
      "po": 2170,
      "pre": 2171,
      "pec": 2172,
      "टिश": 2173,
      "थी।": 2174,
      "हिन्दू": 2175,
      "బాద్": 2176,
      "భాగం": 2177,
      "కేంద్రపాలిత": 2178,
      "పాకిస్తాన్": 2179,
      "పాకిస్థాన్": 2180,
      "area": 2181,
      "దక్షిణాన": 2182,
      "पठार": 2183,
      "शैली": 2184,
      "वेगळे": 2185,
      "स्वातंत्र्य": 2186,
      "युद्धात": 2187,
      "दख्खन": 2188,
      "power": 2189,
      "public": 2190,
      "ran": 2191,
      "ric": 2192,
      "ss": 2193,
      "निर्माण": 2194,
      "गुप्त": 2195,
      "विश्व": 2196,
      "2004": 2197,
      "పైగా": 2198,
      "ించి,": 2199,
      "సంగీతం": 2200,
      "సంస్కృతి": 2201,
      "సినిమా": 2202,
      "శాస్త్రం": 2203,
      "पेक्षा": 2204,
      "मंदिरे": 2205,
      "संगीत": 2206,
      "उदाहरण": 2207,
      "(इंग्रजी:": 2208,
      "अतिशय": 2209,
      "some": 2210,
      "tween": 2211,
      "uch": 2212,
      "wor": 2213,
      "y.": 2214,
      "संस्कृति": 2215,
      "उपमहाद्वीप": 2216,
      "ज़ी": 2217,
      "list": 2218,
      "total": 2219,
      "ఆధార": 2220,
      "మూడు": 2221,
      "మాత్రం": 2222,
      "స్వతంత్ర": 2223,
      "స్వామ్య": 2224,
      "आर्थिक": 2225,
      "इत्यादी": 2226,
      "तमिळनाडू": 2227,
      "थारचे": 2228,
      "पद्धती": 2229,
      "सर्वाधिक": 2230,
      "ya": 2231,
      "ant": 2232,
      "anim": 2233,
      "ine": 2234,
      "ins": 2235,
      "आन्दोलन": 2236,
      "नदियाँ": 2237,
      "सल्तनत": 2238,
      "సామ్రా": 2239,
      "బెంగాల": 2240,
      "బ్రిటి": 2241,
      "నడిపించ": 2242,
      "స్వాతంత్ర్య": 2243,
      "వృద్ధి": 2244,
      "సర్వీ": 2245,
      "पदव्युत्तर": 2246,
      "द्वीपसमूह": 2247,
      "eter": 2248,
      "kil": 2249,
      "ंनी": 2250,
      "ंजा": 2251,
      "int": 2252,
      "them": 2253,
      "ers": 2254,
      "als": 2255,
      "alle": 2256,
      "राजनीतिक": 2257,
      "अने": 2258,
      "अलग": 2259,
      "రహదారులు": 2260,
      "అభివృద్ధి": 2261,
      "ఆఫ్": 2262,
      "పశ్చ": 2263,
      "కుటుంబ": 2264,
      "క్షరాస్యత": 2265,
      "(వె": 2266,
      "अण": 2267,
      "अथ": 2268,
      "अर": 2269,
      "अरा": 2270,
      "अग्": 2271,
      "अशिया": 2272,
      "also": 2273,
      "eng": 2274,
      "state": 2275,
      "edi": 2276,
      "dian": 2277,
      "आग": 2278,
      "उष्ण": 2279,
      "क्यों": 2280,
      ".పూ.": 2281,
      "12": 2282,
      "17": 2283,
      "22": 2284,
      "26": 2285,
      "40": 2286,
      "46": 2287,
      "आकर्": 2288,
      "उर्": 2289,
      "उठा": 2290,
      "ऊन": 2291,
      "ओड": 2292,
      "ओघात": 2293,
      "ord": 2294,
      "ited": 2295,
      "itec": 2296,
      "as,": 2297,
      "ently": 2298,
      "छो": 2299,
      "जहाँ": 2300,
      "ण्": 2301,
      "7,26": 2302,
      "87,26": 2303,
      "BN": 2304,
      "IS": 2305,
      "act": 2306,
      "gr": 2307,
      "ng": 2308,
      "कू": 2309,
      "कला": 2310,
      "कमी": 2311,
      "कमान": 2312,
      "काने": 2313,
      "कल्प": 2314,
      "our": 2315,
      "tional": 2316,
      "ural": 2317,
      "urban": 2318,
      "olved": 2319,
      "तः": 2320,
      "तम": 2321,
      "तृ": 2322,
      "sti": 2323,
      "tu": 2324,
      "wi": 2325,
      "ంభ": 2326,
      "అహ": 2327,
      "అవి": 2328,
      "ఆక్రమ": 2329,
      "गत": 2330,
      "ग्र": 2331,
      "जांनी": 2332,
      "टो": 2333,
      "ट्": 2334,
      "टक्": 2335,
      "well": 2336,
      "ration": 2337,
      "rip": 2338,
      "sive": 2339,
      "here": 2340,
      "दर": 2341,
      "नह": 2342,
      "फ़": 2343,
      "ఆహార": 2344,
      "ఇవి": 2345,
      "ఇంగ్ల": 2346,
      "ఇస్లా": 2347,
      "ఉండ": 2348,
      "కథ": 2349,
      "కూ": 2350,
      "डे": 2351,
      "ड्रा": 2352,
      "णार": 2353,
      "णिक": 2354,
      "तन": 2355,
      "तय": 2356,
      "dually": 2357,
      "ild": 2358,
      "ade": 2359,
      "admin": 2360,
      "ation,": 2361,
      "फै": 2362,
      "भ्य": 2363,
      "मन": 2364,
      "కన్న": 2365,
      "కత్వ": 2366,
      "కింద": 2367,
      "కీర్": 2368,
      "చన": 2369,
      "చు": 2370,
      "చాల": 2371,
      "तां": 2372,
      "त्ये": 2373,
      "तो.": 2374,
      "दह": 2375,
      "दली": 2376,
      "दगड": 2377,
      "agric": 2378,
      "row": 2379,
      "consol": 2380,
      "istic": 2381,
      "vere": 2382,
      "मौ": 2383,
      "यू": 2384,
      "रह": 2385,
      "చిత్ర": 2386,
      "జీ": 2387,
      "జాలు": 2388,
      "జరు": 2389,
      "జంబ": 2390,
      "టే": 2391,
      "టై": 2392,
      "दलां": 2393,
      "निक": 2394,
      "नवी": 2395,
      "पी": 2396,
      "पो": 2397,
      "पात": 2398,
      "ders": 2399,
      "been": 2400,
      "between": 2401,
      "plan": 2402,
      "dev": 2403,
      "रहा": 2404,
      "लं": 2405,
      "लु": 2406,
      "టర్": 2407,
      "డిన": 2408,
      "తల": 2409,
      "తె": 2410,
      "తే": 2411,
      "తము": 2412,
      "తులు": 2413,
      "पाच": 2414,
      "पंजा": 2415,
      "बळ": 2416,
      "बि": 2417,
      "बार": 2418,
      "बंद": 2419,
      "regional": 2420,
      "peop": 2421,
      "liter": 2422,
      "rule.": 2423,
      "viol": 2424,
      "सभ्य": 2425,
      "ीकरण": 2426,
      "ोग": 2427,
      "తంలో": 2428,
      "తెలు": 2429,
      "దర": 2430,
      "నది": 2431,
      "పీ": 2432,
      "పార్": 2433,
      "బి": 2434,
      "बरो": 2435,
      "बदलां": 2436,
      "मिक": 2437,
      "महि": 2438,
      "मौर": 2439,
      "रच": 2440,
      "vidian": 2441,
      "high": 2442,
      "political": 2443,
      "scrip": 2444,
      "tax": 2445,
      "ोह": 2446,
      "र्य": 2447,
      "नेतृ": 2448,
      "బంగ్ల": 2449,
      "బంధ": 2450,
      "బడ్డ": 2451,
      "భర": 2452,
      "భౌ": 2453,
      "మర": 2454,
      "మూ": 2455,
      "रात": 2456,
      "ल)": 2457,
      "लग्": 2458,
      "वृ": 2459,
      "शन": 2460,
      "शे": 2461,
      "increased": 2462,
      "period": 2463,
      "Buddhism": 2464,
      "both": 2465,
      "religion": 2466,
      "प्रभा": 2467,
      "करोड़": 2468,
      "माता": 2469,
      "మౌ": 2470,
      "మాత": 2471,
      "మతి": 2472,
      "మారు": 2473,
      "మంది": 2474,
      "లీ": 2475,
      "లె": 2476,
      "सां": 2477,
      "सत्": 2478,
      "समी": 2479,
      "सह्या": 2480,
      "सध्या": 2481,
      "हात": 2482,
      "architec": 2483,
      "Central": 2484,
      "mid-": 2485,
      "movement": 2486,
      "commercial": 2487,
      "जाती": 2488,
      "हास": 2489,
      "वादी": 2490,
      "లిం": 2491,
      "ళ్": 2492,
      "ళిక": 2493,
      "వం": 2494,
      "వులు": 2495,
      "వల్ల": 2496,
      "వలం": 2497,
      "हान": 2498,
      "ावर": 2499,
      "िका": 2500,
      "ीला": 2501,
      "ुव": 2502,
      "े.": 2503,
      "technology": 2504,
      "kingdoms": 2505,
      "Dravidian": 2506,
      "caste": 2507,
      "first": 2508,
      "देव": 2509,
      "पाल": 2510,
      "पाया": 2511,
      "శెల": 2512,
      "సహ": 2513,
      "సే": 2514,
      "స్ర": 2515,
      "సులు": 2516,
      "సైన": 2517,
      "సార్": 2518,
      "्मिक": 2519,
      "११": 2520,
      "१७": 2521,
      "२६": 2522,
      "५०": 2523,
      "५००": 2524,
      "administ": 2525,
      "consolid": 2526,
      "0,000": 2527,
      "1200": 2528,
      "400": 2529,
      "राजवंश": 2530,
      "वर्ण": 2531,
      "वर्त": 2532,
      "హై": 2533,
      "హిమ": 2534,
      "ాదేశ": 2535,
      "ాంగ": 2536,
      "ిగా": 2537,
      "ుకొ": 2538,
      "ూప": 2539,
      "‍नी": 2540,
      "स्वर": 2541,
      "आहे,": 2542,
      "लेले": 2543,
      "काम": 2544,
      "काश्": 2545,
      "Ash": 2546,
      "Afr": 2547,
      "Ary": 2548,
      "After": 2549,
      "Beng": 2550,
      "जिन": 2551,
      "जिन्ह": 2552,
      "उत्तर-": 2553,
      "ూరు": 2554,
      "ెట్": 2555,
      "ే,": 2556,
      "్వ": 2557,
      "ారంభ": 2558,
      "లు.": 2559,
      "లోయ": 2560,
      "राला": 2561,
      "प्रगती": 2562,
      "प्रसिद्ध": 2563,
      "प्राप्": 2564,
      "यास": 2565,
      "वाढ": 2566,
      "En": 2567,
      "Ear": 2568,
      "Gre": 2569,
      "Gup": 2570,
      "Ganges": 2571,
      "लगभग": 2572,
      "ंधु": 2573,
      "मैदानी": 2574,
      "్యా": 2575,
      "దిన": 2576,
      "దినాలు": 2577,
      "ప్రారంభ": 2578,
      "దేశపు": 2579,
      "దేశానికి": 2580,
      "ాలనే": 2581,
      "तीय": 2582,
      "मुंब": 2583,
      "विले": 2584,
      "विभाग": 2585,
      "नाही": 2586,
      "साली": 2587,
      "Jain": 2588,
      "Mo": 2589,
      "My": 2590,
      "Per": 2591,
      "Pun": 2592,
      "राज्यों": 2593,
      "शिक्षा": 2594,
      "सिंधु": 2595,
      "ాలెండ": 2596,
      "ికా": 2597,
      "ర్,": 2598,
      "ర్త": 2599,
      "ర్ష": 2600,
      "ర్‌": 2601,
      "ాలు.": 2602,
      "साधारण": 2603,
      "तरी": 2604,
      "त्त्व": 2605,
      "संपूर्ण": 2606,
      "संलग्": 2607,
      "देशा": 2608,
      "Vi": 2609,
      "a,": 2610,
      "ati": 2611,
      "bi": 2612,
      "bar": 2613,
      "जिसका": 2614,
      "बढ़कर": 2615,
      "भूमि": 2616,
      "న్నది.": 2617,
      "న్నారు.": 2618,
      "గాంధ": 2619,
      "కులు": 2620,
      "నిస్తాన్": 2621,
      "విధ్య": 2622,
      "విభిన్న": 2623,
      "त्यामुळे": 2624,
      "हिं": 2625,
      "झाली": 2626,
      "ंदी": 2627,
      "राजव": 2628,
      "राज्या": 2629,
      "col": 2630,
      "coun": 2631,
      "cord": 2632,
      "dent": 2633,
      "dem": 2634,
      "बीच": 2635,
      "अधि": 2636,
      "ऊँची": 2637,
      "విద్య": 2638,
      "ాతో": 2639,
      "క్తి": 2640,
      "దేశంగా": 2641,
      "నులు": 2642,
      "నుంచి": 2643,
      "ము.": 2644,
      "पुढ": 2645,
      "मान्य": 2646,
      "ल्याची": 2647,
      "मोठी": 2648,
      "मोसमी": 2649,
      "शाहज": 2650,
      "dle": 2651,
      "ef": 2652,
      "ft": 2653,
      "fin": 2654,
      "fam": 2655,
      "पहले": 2656,
      "शहरी": 2657,
      "विस्तार": 2658,
      "ద్వార": 2659,
      "త్వా": 2660,
      "త్తా": 2661,
      "సంకీర్": 2662,
      "సంబంధ": 2663,
      "పురు": 2664,
      "స్థి": 2665,
      "शासित": 2666,
      "काळाच्या": 2667,
      "काळातील": 2668,
      "परदेश": 2669,
      "करणे": 2670,
      "गेले.": 2671,
      "found": 2672,
      "gain": 2673,
      "gover": 2674,
      "glish": 2675,
      "grow": 2676,
      "स्वतंत्रता": 2677,
      "कटिबंध": 2678,
      "अनुसार": 2679,
      "ంటు": 2680,
      "పాదన": 2681,
      "వాహ": 2682,
      "వాణి": 2683,
      "ఉన్నారు.": 2684,
      "జాతి": 2685,
      "కూడుకు": 2686,
      "दिव": 2687,
      "स्तरा": 2688,
      "शिक्षणपद्धती": 2689,
      "धर्माचा": 2690,
      "ण्याची": 2691,
      "जाते.": 2692,
      "hub": 2693,
      "ial": 2694,
      "igh": 2695,
      "ially": 2696,
      "jab": 2697,
      "छोटे": 2698,
      "नहीं": 2699,
      "मौर्य": 2700,
      "కోల్": 2701,
      "ట్టమొదటి": 2702,
      "1947": 2703,
      "కాశ్": 2704,
      "నేపాల": 2705,
      "మొట్టమొదటి": 2706,
      "మాబాద్": 2707,
      "१९२": 2708,
      "इंडो": 2709,
      "द्री": 2710,
      "रोप": 2711,
      "रोजी": 2712,
      "सरस्व": 2713,
      "kn": 2714,
      "lf": 2715,
      "les,": 2716,
      "llion": 2717,
      "man": 2718,
      "सभ्यता": 2719,
      "कटिबंधीय": 2720,
      ");": 2721,
      "లిచ": 2722,
      "తరాలు": 2723,
      "నాగర": 2724,
      "గువ": 2725,
      "గుర్త": 2726,
      "వచ్చు.": 2727,
      "ద్ధం": 2728,
      "प्रदेशातील": 2729,
      "विद्यापी": 2730,
      "मिळतात.": 2731,
      "यांनी": 2732,
      "घेण्यास": 2733,
      "निध": 2734,
      "men": 2735,
      "mig": 2736,
      "much": 2737,
      "medi": 2738,
      "made": 2739,
      "4%": 2740,
      "ंस": 2741,
      "अफ": 2742,
      "పాలించ": 2743,
      "మైనది.": 2744,
      "ఒకే": 2745,
      "చేసింది.": 2746,
      "్‌సై": 2747,
      "offi": 2748,
      "ఎన్నిక": 2749,
      "भूभाग": 2750,
      "युरोप": 2751,
      "समुद्रा": 2752,
      "प्रकारचे": 2753,
      "इंग्": 2754,
      "उपसाग": 2755,
      "ned": 2756,
      "num": 2757,
      "name": 2758,
      "owe": 2759,
      "other": 2760,
      "अर्": 2761,
      "अहि": 2762,
      "अभी": 2763,
      "పెనీ": 2764,
      "కేవలం": 2765,
      "కారణంగా": 2766,
      "తుంది.": 2767,
      "దాపు": 2768,
      "దాదాపు": 2769,
      "త్రి": 2770,
      "कोटी": 2771,
      "धार्मिक": 2772,
      "बनविले": 2773,
      "महासागर": 2774,
      "विद्यार्थी": 2775,
      "पृष्ठीय": 2776,
      "osed": 2777,
      "por": 2778,
      "pres": 2779,
      "ru": 2780,
      "ron": 2781,
      "इन": 2782,
      "उठ": 2783,
      "उसे": 2784,
      "రాజ్యాంగ": 2785,
      "వర్గ": 2786,
      "వర్ణ": 2787,
      "దక్షిణాసియా": 2788,
      "నాలుగు": 2789,
      "ప్రజల": 2790,
      "హిందూదేశం": 2791,
      "द्वीपकल्प": 2792,
      "अजून": 2793,
      "शतकात": 2794,
      "शास्त्रीय": 2795,
      "इमारती": 2796,
      "आक्रमण": 2797,
      "rans": 2798,
      "sou": 2799,
      "secon": 2800,
      "sity": 2801,
      "tor": 2802,
      "उन्ह": 2803,
      "ऊपर": 2804,
      "एव": 2805,
      "వీటిలో": 2806,
      "శ్రీ": 2807,
      "ష్ణ": 2808,
      "స్కృతిక": 2809,
      "సాంస్కృతిక": 2810,
      "ntry": 2811,
      "ఉంటుంది.": 2812,
      "आक्रमणे": 2813,
      "गुज": 2814,
      "ज्याचा": 2815,
      "असलेली": 2816,
      "पश्चिमे": 2817,
      "mother": 2818,
      "ty,": 2819,
      "try": 2820,
      "trans": 2821,
      "us": 2822,
      "ually": 2823,
      "कं": 2824,
      "कई": 2825,
      "कें": 2826,
      "కలిసి": 2827,
      "బడత": 2828,
      "బడిన": 2829,
      "మహా": 2830,
      "ుకుంట": 2831,
      "క్రీడలు": 2832,
      "ప్రభుత్వం": 2833,
      "महाराष्ट्र": 2834,
      "सुरुवातीला": 2835,
      "ऋषभदे": 2836,
      "बहुतां": 2837,
      "मैल)": 2838,
      "मराठा": 2839,
      "ving": 2840,
      "vid": 2841,
      "ym": 2842,
      "than": 2843,
      "though": 2844,
      "गई।": 2845,
      "चु": 2846,
      "च्": 2847,
      "తరువాతి": 2848,
      "లేదా": 2849,
      "సాధించ": 2850,
      "ఉపఖండ": 2851,
      "క్యాలెండ": 2852,
      "లతో,": 2853,
      "ుకోవడ": 2854,
      "व्हा": 2855,
      "शोध": 2856,
      "शहरे": 2857,
      "स्मारक": 2858,
      "गंगेच्या": 2859,
      "ometer": 2860,
      "ance": 2861,
      "anmar": 2862,
      "ini": 2863,
      "inv": 2864,
      "inion": 2865,
      "चना": 2866,
      "जों": 2867,
      "जमा": 2868,
      "ప్రతిపాదన": 2869,
      "ిత్రక": 2870,
      "సినిమాలు": 2871,
      "శాస్త్రీయ": 2872,
      "ountry": 2873,
      "వైవిధ్య": 2874,
      "సమాఖ్య": 2875,
      "आरक्ष": 2876,
      "चळवळी": 2877,
      "तत्कालीन": 2878,
      "पत्‍नी": 2879,
      "सैनिक": 2880,
      "राजकीय": 2881,
      "rest": 2882,
      "reform": 2883,
      "ond": 2884,
      "ert": 2885,
      "ers,": 2886,
      "जित": 2887,
      "ठार": 2888,
      "तल": 2889,
      "కోర్ట": 2890,
      "కోర్టు": 2891,
      "పేర్లు": 2892,
      "పేర్కొ": 2893,
      "మొదలైన": 2894,
      "ఏర్పడ్డ": 2895,
      "బహుళ": 2896,
      "केंद्रशासित": 2897,
      "kilometer": 2898,
      "अरबी": 2899,
      "अरावली": 2900,
      "अग्निध": 2901,
      "अशियाई": 2902,
      "anding": 2903,
      "along": 2904,
      "enti": 2905,
      "ste": 2906,
      "str": 2907,
      "तपु": 2908,
      "धान": 2909,
      "नम": 2910,
      "సింధు": 2911,
      "Consti": 2912,
      "చారిత్రక": 2913,
      "తమిళం": 2914,
      "పతకాలు": 2915,
      "పొందిన": 2916,
      "పద్ధతి": 2917,
      "आकर्ष": 2918,
      "उठाव": 2919,
      "ओडि": 2920,
      "टक्के": 2921,
      "तयार": 2922,
      "दहशत": 2923,
      "sty": 2924,
      "stat": 2925,
      "ed,": 2926,
      "educ": 2927,
      "dis": 2928,
      "नव": 2929,
      "नों": 2930,
      "नीय": 2931,
      "పండుగలు": 2932,
      "నుకటి": 2933,
      "వెబ్‌సై": 2934,
      "ప్రజాస్వామ్య": 2935,
      "సముద్రం": 2936,
      "నిర్వహణ": 2937,
      "ile": 2938,
      "पंजाब": 2939,
      "बंदर": 2940,
      "बरोबर": 2941,
      "सह्याद्री": 2942,
      "स्वरू": 2943,
      "मुंबई": 2944,
      "ara": 2945,
      "arti": 2946,
      "arat": 2947,
      "art,": 2948,
      "oral": 2949,
      "नदि": 2950,
      "पड़ा": 2951,
      "फल": 2952,
      "mi)": 2953,
      "కంపెనీ": 2954,
      "జన్మ": 2955,
      "ప్రకారం": 2956,
      "ముంబై": 2957,
      "ద్వీప": 2958,
      "సంప్రదాయాలు": 2959,
      "साधारणपणे": 2960,
      "संलग्न": 2961,
      "शाहजहान": 2962,
      "सरस्वती": 2963,
      "उपसागराला": 2964,
      "बहुतांशी": 2965,
      "orted": 2966,
      "ing,": 2967,
      "ite": 2968,
      "took": 2969,
      "enter": 2970,
      "फा": 2971,
      "बड़ा": 2972,
      "बदल": 2973,
      "వ్యాపార": 2974,
      "రైళ్లను": 2975,
      "కార్యక్రమ": 2976,
      "పరిశ్రమలు": 2977,
      "వారసత్వ": 2978,
      "సాంప్రదాయిక": 2979,
      "lists": 2980,
      "kilometers": 2981,
      ",३": 2982,
      ".५": 2983,
      ".मी": 2984,
      "Ar": 2985,
      "hu": 2986,
      "ature": 2987,
      "ica": 2988,
      "ically": 2989,
      "ly,": 2990,
      "ular": 2991,
      "भरा": 2992,
      "लै": 2993,
      "लों": 2994,
      "బెంగాలీ": 2995,
      "సర్వీసులు": 2996,
      "ఆఫ్ఘ": 2997,
      "(వెనుకటి": 2998,
      "ISBN": 2999,
      "ffer": 3000,
      "ఇస్లామాబాద్": 3001,
      "ंश": 3002,
      "ंची": 3003,
      "ंठा": 3004,
      "ंजो": 3005,
      "असा": 3006,
      "अंद": 3007,
      "urya": 3008,
      "rac": 3009,
      "empl": 3010,
      "sian": 3011,
      "ament": 3012,
      "वरी": 3013,
      "श्रे": 3014,
      "शेष": 3015,
      "కన్నడ": 3016,
      "చాలా": 3017,
      "జరుపు": 3018,
      "జంబూ": 3019,
      "తెలుగు": 3020,
      "పీఠ": 3021,
      "బంగ్లాదేశ": 3022,
      "अर्थ": 3023,
      "अशी": 3024,
      "अमे": 3025,
      "अशो": 3026,
      "अभि": 3027,
      "आढ": 3028,
      "ver,": 3029,
      "liament": 3030,
      "ading": 3031,
      "ations": 3032,
      "ational": 3033,
      "षण": 3034,
      "सू": 3035,
      "सों": 3036,
      "ళ్ళ": 3037,
      "శెలవు": 3038,
      "హిమాల": 3039,
      "గాంధీ": 3040,
      "ద్వారా": 3041,
      "త్వాన్ని": 3042,
      "వాణిజ్య": 3043,
      "आले": 3044,
      "आली": 3045,
      "आसा": 3046,
      "आली.": 3047,
      "आशि": 3048,
      "आधार": 3049,
      "sequ": 3050,
      "cient": 3051,
      "leading": 3052,
      "age": 3053,
      "char": 3054,
      "सतपु": 3055,
      "हित": 3056,
      "ाई": 3057,
      "కాశ్మీ": 3058,
      "నాగరికత": 3059,
      "official": 3060,
      "క్యాలెండర్": 3061,
      "Constitu": 3062,
      "వెబ్‌సైటు": 3063,
      "\"(": 3064,
      "इट": 3065,
      "इत": 3066,
      "इंद्र": 3067,
      "इव्": 3068,
      "ईश": 3069,
      "ईस्ट": 3070,
      "changes": 3071,
      "vel": 3072,
      "bellion": 3073,
      "ulting": 3074,
      "sovere": 3075,
      "्म": 3076,
      "१५": 3077,
      "४७": 3078,
      "\",": 3079,
      "%,": 3080,
      "(0": 3081,
      ",5": 3082,
      ",7": 3083,
      ",14": 3084,
      "-0": 3085,
      "उद": 3086,
      "उम": 3087,
      "ऋत्य": 3088,
      "एका": 3089,
      "ऑस्ट": 3090,
      "कल": 3091,
      "supp": 3092,
      "central": 3093,
      "near": 3094,
      "under": 3095,
      "depen": 3096,
      "सेना": 3097,
      "थान": 3098,
      "प्रचल": 3099,
      ".3": 3100,
      ".7": 3101,
      "0%),": 3102,
      "16": 3103,
      "1లో": 3104,
      "29": 3105,
      "3,2": 3106,
      "कले": 3107,
      "कंप": 3108,
      "कांच्या": 3109,
      "कन्या": 3110,
      "खु": 3111,
      "ख्य": 3112,
      "ressed": 3113,
      "resulting": 3114,
      "century": 3115,
      "centuries": 3116,
      "centuries,": 3117,
      "क्त": 3118,
      "क्ति": 3119,
      "राजा": 3120,
      "56": 3121,
      "59": 3122,
      "5-0": 3123,
      "60": 3124,
      "62": 3125,
      "7/": 3126,
      "7లో": 3127,
      "खून": 3128,
      "गला": 3129,
      "ग्रे": 3130,
      "गपूर": 3131,
      "घट": 3132,
      "घो": 3133,
      "feren": 3134,
      "societ": 3135,
      "economy": 3136,
      "coast": 3137,
      "ign": 3138,
      "करवा": 3139,
      "करती": 3140,
      "सामाज": 3141,
      "8లో": 3142,
      "9,2": 3143,
      "As": 3144,
      "Country": 3145,
      "EF": 3146,
      "ER": 3147,
      "Eth": 3148,
      "घरा": 3149,
      "चो": 3150,
      "छा": 3151,
      "जड": 3152,
      "जम": 3153,
      "जॉ": 3154,
      "Asia,": 3155,
      "compan": 3156,
      "composed": 3157,
      "lands": 3158,
      "parliament": 3159,
      "माना": 3160,
      "्ति": 3161,
      "विज": 3162,
      "Eng": 3163,
      "Fact": 3164,
      "Hi": 3165,
      "Li": 3166,
      "Pr": 3167,
      "SI": 3168,
      "TER": 3169,
      "जवा": 3170,
      "जम्": 3171,
      "जाने": 3172,
      "जमहा": 3173,
      "जंब": 3174,
      "टर": 3175,
      "sett": 3176,
      "185": 3177,
      "Chin": 3178,
      "dominion": 3179,
      "eval": 3180,
      "विशा": 3181,
      "विभा": 3182,
      "विद्र": 3183,
      "Uni": 3184,
      "_of": 3185,
      "br": 3186,
      "bly": 3187,
      "ect": 3188,
      "har": 3189,
      "lp": 3190,
      "टा": 3191,
      "ठिका": 3192,
      "डी": 3193,
      "त.": 3194,
      "तान": 3195,
      "तच्या": 3196,
      "gradually": 3197,
      "loose": 3198,
      "oka": 3199,
      "diversity": 3200,
      "assical": 3201,
      "विवाद": 3202,
      "परंप": 3203,
      "जाते": 3204,
      "mbly": 3205,
      "ror": 3206,
      "t:": 3207,
      "tar": 3208,
      "ంక": 3209,
      "ంకా": 3210,
      "అణ": 3211,
      "तद्": 3212,
      "त्रा": 3213,
      "तज्ञ": 3214,
      "थंड": 3215,
      "धड": 3216,
      "धर": 3217,
      "assert": 3218,
      "increasing": 3219,
      "tradi": 3220,
      "Bharat": 3221,
      "eastern": 3222,
      "हिस्": 3223,
      "इसमें": 3224,
      "इसकी": 3225,
      "అవ": 3226,
      "అంత": 3227,
      "అంట": 3228,
      "అన్ని": 3229,
      "అప్ప": 3230,
      "అమె": 3231,
      "అక్షరాస్యత": 3232,
      "नै": 3233,
      "नां": 3234,
      "नमु": 3235,
      "नष्ट": 3236,
      "नगर": 3237,
      "नमार": 3238,
      "ffec": 3239,
      "factor": 3240,
      "gave": 3241,
      "grew": 3242,
      "greater": 3243,
      "र्मण": 3244,
      "भाषा": 3245,
      "तीस": 3246,
      "ఆసియా": 3247,
      "ఇదే": 3248,
      "ఇండ": 3249,
      "ఇక్క": 3250,
      "ఇటీ": 3251,
      "ఈశ": 3252,
      "ఈస్": 3253,
      "पर्": 3254,
      "पां": 3255,
      "परा": 3256,
      "पहि": 3257,
      "पतन": 3258,
      "पहात": 3259,
      "human": 3260,
      "nings": 3261,
      "time,": 3262,
      "exten": 3263,
      "Indo-Ary": 3264,
      "किया,": 3265,
      "देशों": 3266,
      "मिला": 3267,
      "ఎడ": 3268,
      "ఎల": 3269,
      "ఏప్ర": 3270,
      "ఐరో": 3271,
      "ఐక్య": 3272,
      "ఒలం": 3273,
      "కీ": 3274,
      "फे": 3275,
      "फ्रे": 3276,
      "बती": 3277,
      "भे": 3278,
      "भौ": 3279,
      "भवर्ष": 3280,
      "Maurya": 3281,
      "basin": 3282,
      "notab": 3283,
      "armies": 3284,
      "ago.": 3285,
      "स्वरूप": 3286,
      "प्राप्त": 3287,
      "आधिकार": 3288,
      "కలు": 3289,
      "కాత": 3290,
      "కను": 3291,
      "కనుక": 3292,
      "కంటే": 3293,
      "కబడ్డ": 3294,
      "ఖో": 3295,
      "म्या": 3296,
      "मणि": 3297,
      "मरी": 3298,
      "मारा": 3299,
      "मंच": 3300,
      "ममाण": 3301,
      "Islamic": 3302,
      "Ancient": 3303,
      "caused": 3304,
      "intro": 3305,
      "agriculture": 3306,
      "साम्राज्यों": 3307,
      "१९७": 3308,
      "मानव": 3309,
      "ఖని": 3310,
      "గత": 3311,
      "గమ": 3312,
      "గ్ర": 3313,
      "గంగ": 3314,
      "గమన": 3315,
      "గ్రా": 3316,
      "यक": 3317,
      "यश": 3318,
      "यात": 3319,
      "याच": 3320,
      "यमु": 3321,
      "यत्": 3322,
      "devo": 3323,
      "people": 3324,
      "architecture": 3325,
      "Ashoka": 3326,
      "Africa": 3327,
      "हिन्दु": 3328,
      "प्राचीनतम": 3329,
      "हुई।": 3330,
      "గెలు": 3331,
      "చద": 3332,
      "చయ": 3333,
      "చవి": 3334,
      "చూడ": 3335,
      "చించిన": 3336,
      "చుకోవడ": 3337,
      "यानंतर": 3338,
      "रण": 3339,
      "रत": 3340,
      "रां": 3341,
      "रंग": 3342,
      "रणा": 3343,
      "Bengal": 3344,
      "English": 3345,
      "Early": 3346,
      "Gree": 3347,
      "Jainism": 3348,
      "विशेष": 3349,
      "संस्कृत": 3350,
      "अपने": 3351,
      "జల": 3352,
      "జో": 3353,
      "జ్": 3354,
      "జ్యం": 3355,
      "జమ్మ": 3356,
      "జిక,": 3357,
      "టక": 3358,
      "रडे": 3359,
      "रममाण": 3360,
      "लू": 3361,
      "लया": 3362,
      "लक्ष": 3363,
      "लंड": 3364,
      "Myanmar": 3365,
      "Persian": 3366,
      "Punjab": 3367,
      "country": 3368,
      "fined": 3369,
      "अवशेष": 3370,
      "अंग्रेज़ी": 3371,
      "ऊँचाई": 3372,
      "ట్ర": 3373,
      "టలు": 3374,
      "టన్": 3375,
      "టంలో": 3376,
      "ట్‌": 3377,
      "టాన్": 3378,
      "టోర": 3379,
      "लगा": 3380,
      "लब्": 3381,
      "ळ्या": 3382,
      "ळून": 3383,
      "ळची": 3384,
      "ळकार": 3385,
      "owever,": 3386,
      "southern": 3387,
      "second": 3388,
      "sovereign": 3389,
      "Indo-Aryan": 3390,
      "कहते": 3391,
      "कुछ": 3392,
      "जीवन": 3393,
      "డైన": 3394,
      "ఢా": 3395,
      "ణులు": 3396,
      "తీ": 3397,
      "తర్": 3398,
      "తను": 3399,
      "తంగా": 3400,
      "ळाने": 3401,
      "विक": 3402,
      "श्र": 3403,
      "साच": 3404,
      "सिक": 3405,
      "समा": 3406,
      "(including": 3407,
      "-di": 3408,
      "-sc": 3409,
      "-ga": 3410,
      "-major": 3411,
      "पहाड़": 3412,
      "पहाड़ी": 3413,
      "प्रारम्भिक": 3414,
      "తత్వ": 3415,
      "తక్కువ": 3416,
      "థ్యం": 3417,
      "దర్": 3418,
      "దగా": 3419,
      "దరా": 3420,
      "దండ": 3421,
      "सचि": 3422,
      "सऱ्या": 3423,
      "हड": 3424,
      "ह्य": 3425,
      "हंप": 3426,
      "िप": 3427,
      "-day": 3428,
      "-kn": 3429,
      "-sty": 3430,
      "1.": 3431,
      "13": 3432,
      "आकर्मण": 3433,
      "तरिक": 3434,
      "शुरू": 3435,
      "దులు": 3436,
      "ధీన": 3437,
      "నం": 3438,
      "నూ": 3439,
      "నిక": 3440,
      "పలు": 3441,
      "పిక": 3442,
      "िय": 3443,
      "िंठा": 3444,
      "ीक": 3445,
      "ुस्थान": 3446,
      "ुनिक": 3447,
      "्क": 3448,
      "1st": 3449,
      "55": 3450,
      "500": 3451,
      "Ach": 3452,
      "Cl": 3453,
      "संघर्ष": 3454,
      "आंतरिक": 3455,
      "घाटी": 3456,
      "పవి": 3457,
      "ప్ల": 3458,
      "పల్ల": 3459,
      "పడు": 3460,
      "పర్వ": 3461,
      "పతా": 3462,
      "పక్క": 3463,
      "्थ": 3464,
      "्की": 3465,
      "१२": 3466,
      "३८": 3467,
      "४८": 3468,
      "५७": 3469,
      "Civ": 3470,
      "De": 3471,
      "However,": 3472,
      "Mal": 3473,
      "Mid": 3474,
      "छोड़कर": 3475,
      "थे।": 3476,
      "पत्ति": 3477,
      "పడిన": 3478,
      "ఫల": 3479,
      "బు": 3480,
      "బౌ": 3481,
      "బంగ": 3482,
      "భవ": 3483,
      "భాతో": 3484,
      "७१": 3485,
      "्याचे": 3486,
      "्याने": 3487,
      "ारी": 3488,
      "र्ज": 3489,
      "र्माण": 3490,
      "No": 3491,
      "Nor": 3492,
      "Oce": 3493,
      "Pall": 3494,
      "S$": 3495,
      "व्यापार": 3496,
      "अन्ततः": 3497,
      "गणराज्य": 3498,
      "భక్తి": 3499,
      "మ్": 3500,
      "మించ": 3501,
      "మిత": 3502,
      "మరో": 3503,
      "యం": 3504,
      "యింది.": 3505,
      "लाभ": 3506,
      "हेंजो": 3507,
      "भारताची": 3508,
      "भारताचा": 3509,
      "भारतभर": 3510,
      "स्वा": 3511,
      "Si": 3512,
      "Sultanate": 3513,
      "Tam": 3514,
      "Tha": 3515,
      "US$": 3516,
      "ण्ड": 3517,
      "दर्श": 3518,
      "रहे": 3519,
      "యాత్ర": 3520,
      "యమించ": 3521,
      "రీ": 3522,
      "రకాలు": 3523,
      "రికా": 3524,
      "రచయ": 3525,
      "లౌ": 3526,
      "ांवि": 3527,
      "ांतात": 3528,
      "ांपासून": 3529,
      "ांपैकी": 3530,
      "ांचल": 3531,
      "लेली": 3532,
      "Valle": 3533,
      "West": 3534,
      "aw": 3535,
      "aic": 3536,
      "aem": 3537,
      "लंबे": 3538,
      "प्रभाव": 3539,
      "नदियों": 3540,
      "లకొ": 3541,
      "లమె": 3542,
      "లస్య": 3543,
      "ళా": 3544,
      "ళి": 3545,
      "విం": 3546,
      "వంత": 3547,
      "कावे": 3548,
      "कावरून": 3549,
      "काबी": 3550,
      "प्रमा": 3551,
      "प्रवे": 3552,
      "प्रशा": 3553,
      "ach": 3554,
      "air": 3555,
      "aim": 3556,
      "bu": 3557,
      "bal": 3558,
      "शील": 3559,
      "सतपुड़ा": 3560,
      "सामाजिक": 3561,
      "వరు": 3562,
      "వైన": 3563,
      "వార్": 3564,
      "వత్ర": 3565,
      "వనాలు": 3566,
      "వాయు": 3567,
      "శక": 3568,
      "प्रश्": 3569,
      "प्रत्ये": 3570,
      "प्रांतात": 3571,
      "यामुळे": 3572,
      "वास्त": 3573,
      "वामुळे": 3574,
      "bil": 3575,
      "bac": 3576,
      "can": 3577,
      "cal": 3578,
      "came": 3579,
      "विशाल": 3580,
      "विद्रोह": 3581,
      "परंपरा": 3582,
      "శి": 3583,
      "శీ": 3584,
      "శై": 3585,
      "శో": 3586,
      "శకు": 3587,
      "షయాలు": 3588,
      "సన": 3589,
      "वाजी": 3590,
      "वालय": 3591,
      "तीनंतर": 3592,
      "मुद्": 3593,
      "मुलगा": 3594,
      "नाट": 3595,
      "call": 3596,
      "cap": 3597,
      "cup": 3598,
      "dre": 3599,
      "dat": 3600,
      "आधिकारिक": 3601,
      "-आ": 3602,
      "-पूर्व": 3603,
      "సీ": 3604,
      "సె": 3605,
      "సాల": 3606,
      "సిక్": 3607,
      "హో": 3608,
      "హ్ర": 3609,
      "ామ": 3610,
      "नाऱ्या": 3611,
      "नाइट": 3612,
      "नागपूर": 3613,
      "नाभवर्ष": 3614,
      "साद": 3615,
      "साह": 3616,
      "ew": 3617,
      "effec": 3618,
      "fo": 3619,
      "fer": 3620,
      "fra": 3621,
      "-गंगा": 3622,
      "-धीरे": 3623,
      "./": 3624,
      "ాన్ని": 3625,
      "ాడే": 3626,
      "ిమాన": 3627,
      "ీం": 3628,
      "ీక్ష": 3629,
      "ీషు": 3630,
      "ుత్": 3631,
      "साहि": 3632,
      "मधे": 3633,
      "ष्ठा": 3634,
      "संविध": 3635,
      "संशोध": 3636,
      "देश्य": 3637,
      "fire": 3638,
      "fferen": 3639,
      "gth": 3640,
      "gni": 3641,
      "good": 3642,
      ".1": 3643,
      "1,": 3644,
      "ंह": 3645,
      "ుపూర్వ": 3646,
      "ూనది": 3647,
      "ే.": 3648,
      "ోత్": 3649,
      "ౌర": 3650,
      "్మా": 3651,
      "‌సభ": 3652,
      "देशाचे": 3653,
      "देशांमध्ये": 3654,
      "नेशिया": 3655,
      "असली": 3656,
      "त्याला": 3657,
      "त्याने": 3658,
      "gins": 3659,
      "hā": 3660,
      "his": 3661,
      "hun": 3662,
      "hav": 3663,
      "ंसा": 3664,
      "ंति": 3665,
      "ंस्कृ": 3666,
      "‌కాత": 3667,
      "ారి": 3668,
      "లుగా": 3669,
      "లోమీ": 3670,
      "స్వీ": 3671,
      "స్కరణ": 3672,
      "స్లిం": 3673,
      "त्याची": 3674,
      "त्यासाठी": 3675,
      "पाट": 3676,
      "पाठ": 3677,
      "पाव": 3678,
      "पावली": 3679,
      "hym": 3680,
      "ian": 3681,
      "ira": 3682,
      "ians": 3683,
      "ious": 3684,
      "अल्": 3685,
      "आए": 3686,
      "आया": 3687,
      "దేమాత": 3688,
      "ప్రదేశ": 3689,
      "ప్రాయ": 3690,
      "ప్రసి": 3691,
      "ప్రత్య": 3692,
      "ప్రయో": 3693,
      "ప్రీం": 3694,
      "हिम": 3695,
      "हिनी": 3696,
      "झाले.": 3697,
      "राजस्थान": 3698,
      "त्रि": 3699,
      "त्रे": 3700,
      "jec": 3701,
      "jay": 3702,
      "kh": 3703,
      "ks,": 3704,
      "ket": 3705,
      "आते": 3706,
      "आदि": 3707,
      "आदर्श": 3708,
      "ింది": 3709,
      "దేశీ": 3710,
      "ర్తి": 3711,
      "ర్పు": 3712,
      "ర్జాతీయ": 3713,
      "ర్చు": 3714,
      "ర్థ్యం": 3715,
      "वरित": 3716,
      "केल्या": 3717,
      "केले.": 3718,
      "केला.": 3719,
      "क्षणिक": 3720,
      "ताजमहा": 3721,
      "low": 3722,
      "lhi": 3723,
      "lative": 3724,
      "mes": 3725,
      "mis": 3726,
      "उस": 3727,
      "ओस": 3728,
      "कम": 3729,
      "భారత్‌": 3730,
      "న్నీ": 3731,
      "న్నై": 3732,
      "గాన్ని": 3733,
      "కు,": 3734,
      "నిపు": 3735,
      "నిడి": 3736,
      "पुर": 3737,
      "पुरी": 3738,
      "पुन्": 3739,
      "मीण": 3740,
      "मीर": 3741,
      "मानला": 3742,
      "mul": 3743,
      "mary": 3744,
      "mak": 3745,
      "mall": 3746,
      "na": 3747,
      "कों": 3748,
      "कता": 3749,
      "क्रा": 3750,
      "నియమించ": 3751,
      "విలు": 3752,
      "విమాన": 3753,
      "విశ్": 3754,
      "విషయాలు": 3755,
      "విదేశీ": 3756,
      "ాతం": 3757,
      "ल्याचे": 3758,
      "कारभार": 3759,
      "भाव": 3760,
      "वेढ": 3761,
      "वेरू": 3762,
      "ष्ट्य": 3763,
      "nom": 3764,
      "nic": 3765,
      "national": 3766,
      "oy": 3767,
      "och": 3768,
      "कश्": 3769,
      "ख्या": 3770,
      "गई": 3771,
      "ాతి": 3772,
      "ాత్మా": 3773,
      "క్టోర": 3774,
      "ానీ": 3775,
      "ాను": 3776,
      "ాన్య": 3777,
      "దేశం.": 3778,
      "मोग": 3779,
      "मोहेंजो": 3780,
      "चाल": 3781,
      "तिसऱ्या": 3782,
      "येते.": 3783,
      "येतात.": 3784,
      "ph": 3785,
      "ped": 3786,
      "pat": 3787,
      "ption": 3788,
      "past": 3789,
      "गए": 3790,
      "गध": 3791,
      "ग़": 3792,
      "ముడి": 3793,
      "ముస్లిం": 3794,
      "ండ్": 3795,
      "ినీ": 3796,
      "తిరు": 3797,
      "స్తులు": 3798,
      "స్తారు": 3799,
      "सुधारण": 3800,
      "सुमारा": 3801,
      "्यांमध्ये": 3802,
      "कि.मी": 3803,
      "किनाऱ्या": 3804,
      "कृष्ट": 3805,
      "pplan": 3806,
      "rat": 3807,
      "rs,": 3808,
      "rate": 3809,
      "rich": 3810,
      "गये": 3811,
      "चर": 3812,
      "चौ": 3813,
      "సంస్కరణ": 3814,
      "పుకో": 3815,
      "పుతూ": 3816,
      "స్థాయి": 3817,
      "స్థావర": 3818,
      "ంటి": 3819,
      "ంలో,": 3820,
      "करत": 3821,
      "करतात.": 3822,
      "करण्यात": 3823,
      "वर्तु": 3824,
      "गेल्या": 3825,
      "दिला": 3826,
      "sw": 3827,
      "ser": 3828,
      "sci": 3829,
      "sans": 3830,
      "spe": 3831,
      "चार": 3832,
      "चला": 3833,
      "चोल": 3834,
      "భారతదేశం.": 3835,
      "భావిస్త": 3836,
      "భాగాన్ని": 3837,
      "ంగా,": 3838,
      "పావ": 3839,
      "పాంత": 3840,
      "పాడు": 3841,
      "नावाची": 3842,
      "शिक्षणाच्या": 3843,
      "संस्कृती,": 3844,
      "संस्कृतीची": 3845,
      "टिळ": 3846,
      "१९५०": 3847,
      "small": 3848,
      "tri": 3849,
      "tle": 3850,
      "tex": 3851,
      "ual": 3852,
      "छह": 3853,
      "जं": 3854,
      "जार": 3855,
      "వాదం": 3856,
      "సాహ": 3857,
      "సామా": 3858,
      "ార్థ": 3859,
      "కూడి": 3860,
      "కూడుకొ": 3861,
      "రాజు": 3862,
      "१९४७": 3863,
      "असेही": 3864,
      "कडून": 3865,
      "जाऊ": 3866,
      "जास्त": 3867,
      "द्रे": 3868,
      "ution": 3869,
      "uence": 3870,
      "ven": 3871,
      "vast": 3872,
      "vity": 3873,
      "जंग": 3874,
      "टों": 3875,
      "टान": 3876,
      "కోట్ల": 3877,
      "క్రి": 3878,
      "కాహార": 3879,
      "కాపాడు": 3880,
      "చ్చే": 3881,
      "నేరే": 3882,
      "మొగలు": 3883,
      "रूकू": 3884,
      "रोवली": 3885,
      "रोखून": 3886,
      "सरे": 3887,
      "ाराला": 3888,
      "स्थापन": 3889,
      "valle": 3890,
      "war": 3891,
      "wom": 3892,
      "writ": 3893,
      "wns": 3894,
      "तरा": 3895,
      "तमिल": 3896,
      "तटों": 3897,
      "ంచిన": 3898,
      "దుగా": 3899,
      "మాట్ల": 3900,
      "యాళం": 3901,
      "నాథ": 3902,
      "రాష్ట్రాలు,": 3903,
      "గుబా": 3904,
      "स्थापत्याचे": 3905,
      "वर्षे": 3906,
      "वर्षात": 3907,
      "साम्राज्ये": 3908,
      "रुद्ध": 3909,
      "प्रदेशात": 3910,
      "wild": 3911,
      "yal": 3912,
      "ze": 3913,
      "zen": 3914,
      "νδ": 3915,
      "थम": 3916,
      "दू": 3917,
      "दों": 3918,
      "వచ్చని": 3919,
      "differ": 3920,
      "వే.": 3921,
      "వేద": 3922,
      "వేల": 3923,
      "help": 3924,
      "కాలే": 3925,
      "प्रदेशांत": 3926,
      "पूर्वीच्या": 3927,
      "मिळा": 3928,
      "मिळते.": 3929,
      "यांचा": 3930,
      "झालेले": 3931,
      "Ἰνδ": 3932,
      "ann": 3933,
      "anag": 3934,
      "ansion": 3935,
      "anced": 3936,
      "द्य": 3937,
      "धि": 3938,
      "धु": 3939,
      "డిస్": 3940,
      "ద్రా": 3941,
      "శాసన": 3942,
      "దేశాలను": 3943,
      "ofile": 3944,
      "ందింది.": 3945,
      "ఎన్నుకో": 3946,
      "म्हणतात.": 3947,
      "घेऊ": 3948,
      "घेत": 3949,
      "घेण्यात": 3950,
      "णामुळे": 3951,
      "युगातील": 3952,
      "ining": 3953,
      "ines": 3954,
      "inter": 3955,
      "infl": 3956,
      "indepen": 3957,
      "धित": 3958,
      "नार": 3959,
      "नर्म": 3960,
      "ఎన్నుకుంట": 3961,
      "కిలోమీ": 3962,
      "చెప్": 3963,
      "చెంద": 3964,
      "చెందు": 3965,
      "చెన్నై": 3966,
      "కేతిక": 3967,
      "ब्रिटिशकालीन": 3968,
      "ब्रिटिशांवि": 3969,
      "उत्तरांचल": 3970,
      "गरजे": 3971,
      "पृष्ठा": 3972,
      "बांगला": 3973,
      "innings": 3974,
      "these": 3975,
      "reg": 3976,
      "repe": 3977,
      "renew": 3978,
      "पि": 3979,
      "पै": 3980,
      "पहु": 3981,
      "తులతో": 3982,
      "హిందీ": 3983,
      "పేరు,": 3984,
      "అధికారం": 3985,
      "పర్యాయ": 3986,
      "పరీక్ష": 3987,
      "పరిపాలన": 3988,
      "महत्त्व": 3989,
      "वैशि": 3990,
      "शिख": 3991,
      "शिवाजी": 3992,
      "प्रकारात": 3993,
      "हिंदुस्थान": 3994,
      "reduced": 3995,
      "record": 3996,
      "rebellion": 3997,
      "refer": 3998,
      "relative": 3999,
      "फि": 4000,
      "फु": 4001,
      "बद": 4002,
      "మతాలు": 4003,
      "మతము": 4004,
      "మీదగా": 4005,
      "మే.": 4006,
      "వరీ": 4007,
      "సుప్రీం": 4008,
      "ప్రపంచములో": 4009,
      "इतिहासा": 4010,
      "उपप्रकार": 4011,
      "उपसागर": 4012,
      "उपलब्": 4013,
      "कोरडे": 4014,
      "दलदली": 4015,
      "ones": 4016,
      "onial": 4017,
      "era": 4018,
      "eral": 4019,
      "eration": 4020,
      "बह": 4021,
      "बू": 4022,
      "बड़ी": 4023,
      "స్థానం": 4024,
      "స్థానాలను": 4025,
      "భాషా": 4026,
      "భాషలను": 4027,
      "ప్రాంతీయ": 4028,
      "ప్రాంతాల్లో": 4029,
      "రాజ్యంగా": 4030,
      "न्स": 4031,
      "न्ही": 4032,
      "बाबती": 4033,
      "सीम": 4034,
      "लोकनृ": 4035,
      "ndmother": 4036,
      "and,": 4037,
      "andar": 4038,
      "ale": 4039,
      "ality": 4040,
      "enab": 4041,
      "भु": 4042,
      "भक्ति": 4043,
      "मस्वरूप": 4044,
      "దాయంలో": 4045,
      "వారి": 4046,
      "వర్ష": 4047,
      "వర్తి": 4048,
      "సభను": 4049,
      "క్రీ.పూ.": 4050,
      "పార్టీ,": 4051,
      "बनला": 4052,
      "बनली": 4053,
      "महाविद्या": 4054,
      "वारी": 4055,
      "लागू": 4056,
      "दिल्लीतील": 4057,
      "stan": 4058,
      "stre": 4059,
      "stit": 4060,
      "stri": 4061,
      "stren": 4062,
      "मगध": 4063,
      "यहा": 4064,
      "यदा": 4065,
      "orld": 4066,
      "జనాభాతో": 4067,
      "పూర్తి": 4068,
      "పోరా": 4069,
      "పోయింది.": 4070,
      "మనదేశం": 4071,
      "మిస్తు": 4072,
      "हिमालयीन": 4073,
      "पृष्ठाचा": 4074,
      "बांधले": 4075,
      "बांधली": 4076,
      "बांधून": 4077,
      "बांधणी": 4078,
      "standar": 4079,
      "edic": 4080,
      "tition": 4081,
      "tified": 4082,
      "times": 4083,
      "यंत्र": 4084,
      "यद्वीप": 4085,
      "यहाँ": 4086,
      "రెండవ": 4087,
      "రెండో": 4088,
      "లంక": 4089,
      "లాహో": 4090,
      "వుతుంది.": 4091,
      "వెల్ల": 4092,
      "ప్రజలు": 4093,
      "इतिहासातील": 4094,
      "इतिहासकार": 4095,
      "ंपैकी": 4096,
      "अजिंठा": 4097,
      "अजनाभवर्ष": 4098,
      "प्पा": 4099,
      "dised": 4100,
      "diff": 4101,
      "dified": 4102,
      "differen": 4103,
      "aris": 4104,
      "रख": 4105,
      "रपे": 4106,
      "रचना": 4107,
      "ప్రభుత్వాన్ని": 4108,
      "ముఖ్యంగా": 4109,
      "error": 4110,
      "గీతం": 4111,
      "స్త్రీలు": 4112,
      "సాంకేతిక": 4113,
      "gue": 4114,
      "०००": 4115,
      "शास्त्रातील": 4116,
      "काळातच": 4117,
      "ओळखला": 4118,
      "खास": 4119,
      "गुरूकू": 4120,
      "arsh": 4121,
      "around": 4122,
      "ity,": 4123,
      "itated": 4124,
      "es.": 4125,
      "लड़ा": 4126,
      "लोग": 4127,
      "श्री": 4128,
      "అతిపెద్ద": 4129,
      "జనతా": 4130,
      "జనవరి": 4131,
      "జరిగే": 4132,
      "బడింది.": 4133,
      "మహి": 4134,
      "మహాత్మా": 4135,
      "दोन्ही": 4136,
      "असलेला": 4137,
      "असलेल्या": 4138,
      "राज्यकर्": 4139,
      "गेटवे": 4140,
      "साम्राज्याच्या": 4141,
      "espec": 4142,
      "isol": 4143,
      "today": 4144,
      "towns": 4145,
      "entually": 4146,
      "सभी": 4147,
      "सदी": 4148,
      "सतर": 4149,
      "క్రీడా": 4150,
      "క్రీడలలో": 4151,
      "అయినప్పటిక": 4152,
      "అయినా,": 4153,
      "ess": 4154,
      "గోదా": 4155,
      "గోళిక": 4156,
      "साम्राज्याची": 4157,
      "इंग्रजांनी": 4158,
      "गडा": 4159,
      "शैक्षणिक": 4160,
      "समज": 4161,
      "हजार": 4162,
      "ics,": 4163,
      "ouris": 4164,
      "ould": 4165,
      "urther": 4166,
      "ollow": 4167,
      "सवी": 4168,
      "समाज": 4169,
      "हत्या": 4170,
      "గినది.": 4171,
      "మానం:": 4172,
      "లేదు": 4173,
      "ప్రస్తుతము": 4174,
      "క్కను": 4175,
      "సాధించిన": 4176,
      "కాంగ్రెస్": 4177,
      "मध्यप्रदेशातील": 4178,
      "त्यांची": 4179,
      "त्यांनी": 4180,
      "राज्यांच्या": 4181,
      "विद्यार्थ्यांची": 4182,
      "rad": 4183,
      "rail": 4184,
      "righ": 4185,
      "sil": 4186,
      "sist": 4187,
      "ill": 4188,
      "ह्म": 4189,
      "ाया": 4190,
      "ामस्वरूप": 4191,
      "కాలంలో,": 4192,
      "ాబ్ది": 4193,
      "2003": 4194,
      "get:": 4195,
      "ఉపయో": 4196,
      "గణతంత్ర": 4197,
      "భూభాగం": 4198,
      "stor": 4199,
      "आर्क": 4200,
      "आर्द्र": 4201,
      "खोऱ्या": 4202,
      "खोरे": 4203,
      "नद्यांमध्ये": 4204,
      "iland": 4205,
      "ilisation": 4206,
      "liest": 4207,
      "ades": 4208,
      "adop": 4209,
      "िकी": 4210,
      "ियों": 4211,
      "ीक्ष": 4212,
      "భూటాన్": 4213,
      "యుగ": 4214,
      "రంగంలో": 4215,
      "వలన": 4216,
      "వలస": 4217,
      "ప్రతిపక్ష": 4218,
      "విస్తీర్": 4219,
      "स्मारकावरून": 4220,
      "पुराण": 4221,
      "स्थापत्यशास्त्रातील": 4222,
      "दक्षिणेकडील": 4223,
      "ज्ञान": 4224,
      "नृत्यप्रकार": 4225,
      "fortified": 4226,
      "self": 4227,
      "leg": 4228,
      "lear": 4229,
      "left": 4230,
      "ेद": 4231,
      "ोने": 4232,
      "ौद्य": 4233,
      "ప్రముఖమైన": 4234,
      "నెలకొ": 4235,
      "మాత్రమే": 4236,
      "సమాజ": 4237,
      "స్వతం": 4238,
      "భారత్,": 4239,
      "సామర్థ్యం": 4240,
      "गंगेचे": 4241,
      "rea": 4242,
      "अधिकृत": 4243,
      "आपले": 4244,
      "आपल्या": 4245,
      "कथा": 4246,
      "Their": 4247,
      "ages": 4248,
      "again": 4249,
      "roc": 4250,
      "ross": 4251,
      "्ञ": 4252,
      "०६": 4253,
      "‍व": 4254,
      "ఉత్తరాన": 4255,
      "పట్టణాలు,": 4256,
      "బ్రిటీ": 4257,
      "ప్పటికీ": 4258,
      "సింధూనది": 4259,
      "సరిహద్దుగా": 4260,
      "సౌకర్యాలు": 4261,
      "ग्रामीण": 4262,
      "जुन्या": 4263,
      "१६३८": 4264,
      "१६४८": 4265,
      "स्वीकार": 4266,
      "विषुव": 4267,
      "conduc": 4268,
      "isting": 4269,
      "deriv": 4270,
      "Indians": 4271,
      "ultural": 4272,
      "्रम": 4273,
      "्रता": 4274,
      "काश": 4275,
      "సౌకర్యాలలో": 4276,
      "స్వాతంత్ర్యం": 4277,
      "(1,26": 4278,
      "Congr": 4279,
      "nolo": 4280,
      "కళలు": 4281,
      "చైనా": 4282,
      "होत्या.": 4283,
      "क्षेत्रा": 4284,
      "पुतळा": 4285,
      "मोठे": 4286,
      "मोठ्या": 4287,
      "गोलिक": 4288,
      "existing": 4289,
      "acy": 4290,
      "acter": 4291,
      "across": 4292,
      "ide": 4293,
      "कास": 4294,
      "सेमी": 4295,
      "नेपाल": 4296,
      "చైనాను": 4297,
      "తూర్పు": 4298,
      "తమిళ": 4299,
      "నగరాలు": 4300,
      "రూపాంత": 4301,
      "సమరం": 4302,
      "సారస్వతం": 4303,
      "स्वातंत्र्यप्राप्": 4304,
      "दख्खनच्या": 4305,
      "दख्खनचे": 4306,
      "अणु": 4307,
      "अथवा": 4308,
      "उर्वरित": 4309,
      "opment": 4310,
      "sum": 4311,
      "such": 4312,
      "supplan": 4313,
      "iron": 4314,
      "था,": 4315,
      "ोंने": 4316,
      "प्रति": 4317,
      "సంఖ్యా": 4318,
      "పుట్టుపూర్వ": 4319,
      "రైల్వేశాఖ": 4320,
      "పాలనలో": 4321,
      "ఒకటిగా": 4322,
      "ప్రపంచంలోని": 4323,
      "వెబ్": 4324,
      "उत्कृष्ट": 4325,
      "ग्रीक": 4326,
      "ड्राइव्": 4327,
      "बदलांमुळे": 4328,
      "लुप्त": 4329,
      "वृतीय": 4330,
      "netw": 4331,
      "within": 4332,
      "plac": 4333,
      "place": 4334,
      "ter-ga": 4335,
      "प्रशासन": 4336,
      "प्रणा": 4337,
      "प्रथम": 4338,
      "ప్రజాదర": 4339,
      "సముద్రతీ": 4340,
      "నిర్వహించింది.": 4341,
      "3,0": 4342,
      "CIA": 4343,
      "CITER": 4344,
      "చిరు": 4345,
      "सत्ता": 4346,
      "काश्मीर": 4347,
      "हिंसाच": 4348,
      "राजवट": 4349,
      "राज्यात": 4350,
      "पुढार": 4351,
      "united": 4352,
      "devel": 4353,
      "defined": 4354,
      "what": 4355,
      "Asian": 4356,
      "प्रभु": 4357,
      "प्रौद्य": 4358,
      "प्रयास": 4359,
      "నాయకత్వ": 4360,
      "మలయాళం": 4361,
      "సూచించిన": 4362,
      "హాకీ": 4363,
      "ిస్తారు.": 4364,
      "లోక్‌సభ": 4365,
      "కులాలు,": 4366,
      "स्तरावर": 4367,
      "१९२०": 4368,
      "इंडोनेशिया": 4369,
      "विद्यापीठ": 4370,
      "युरोपीय": 4371,
      "इंग्लंड": 4372,
      "Asians": 4373,
      "ablish": 4374,
      "ruling": 4375,
      "regions": 4376,
      "regions.": 4377,
      "प्रकाश": 4378,
      "रान": 4379,
      "करते": 4380,
      "కుంటూ": 4381,
      "కుంటారు.": 4382,
      "నిర్మ": 4383,
      "ాయుత": 4384,
      "సంవత్సర": 4385,
      "మేనని": 4386,
      "రాజ్యాలుగా": 4387,
      "अजूनही": 4388,
      "गुजरात": 4389,
      "पश्चिमेकडे": 4390,
      "ऋषभदेव": 4391,
      "आरक्षणामुळे": 4392,
      "अग्निध्र": 4393,
      "aken": 4394,
      "aking": 4395,
      "million": 4396,
      "cost": 4397,
      "earliest": 4398,
      "साहित": 4399,
      "सांस्कृ": 4400,
      "माला": 4401,
      "సభ్యు": 4402,
      "సభ్యులు": 4403,
      "జనగణన": 4404,
      "జనగణమన": 4405,
      "ఆధారపడిన": 4406,
      "సామ్రాజ్య": 4407,
      "సామ్రాజ్యం": 4408,
      "आकर्षित": 4409,
      "ओडिशा": 4410,
      "दहशतवाद": 4411,
      "शाहजहानने": 4412,
      "grandmother": 4413,
      "अशोकाने": 4414,
      "ence.": 4415,
      "ticular": 4416,
      "become": 4417,
      "ett": 4418,
      "mental": 4419,
      "विंध": 4420,
      "विरो": 4421,
      "विकास": 4422,
      "బ్రిటిష్": 4423,
      "బ్రిటిషు": 4424,
      "పశ్చిమ": 4425,
      "పశ్చిమాన": 4426,
      "26న": 4427,
      "87,263": 4428,
      "sembly": 4429,
      "आसाम": 4430,
      "आशियातील": 4431,
      "इतका": 4432,
      "इसवी": 4433,
      "ईशान": 4434,
      "उदयास": 4435,
      "overran": 4436,
      "west.": 4437,
      "British-sty": 4438,
      "Hindustan": 4439,
      "aved": 4440,
      "परि": 4441,
      "परिण": 4442,
      "परमाण": 4443,
      "wide": 4444,
      "ఆహారం": 4445,
      "ఇంగ్లీషు": 4446,
      "కిందకు": 4447,
      "టైటి": 4448,
      "టర్లకు": 4449,
      "పార్లమె": 4450,
      "उमट": 4451,
      "ऑस्ट्रे": 4452,
      "कंपनी": 4453,
      "घटना": 4454,
      "जॉर्ज": 4455,
      "जम्मू": 4456,
      "peace": 4457,
      "prov": 4458,
      "produc": 4459,
      "protec": 4460,
      "atedly": 4461,
      "परीक्ष": 4462,
      "ड़ो": 4463,
      "कोई": 4464,
      "భరత": 4465,
      "భౌగోళిక": 4466,
      "మూల": 4467,
      "మౌర్య": 4468,
      "వందేమాత": 4469,
      "సహస్ర": 4470,
      "సైనిక": 4471,
      "जानेवारी": 4472,
      "जंबू": 4473,
      "ठिकाणी": 4474,
      "धरतो": 4475,
      "नैऋत्य": 4476,
      "नमुने": 4477,
      "subsequ": 4478,
      "company": 4479,
      "marked": 4480,
      "margins": 4481,
      "market": 4482,
      "कोपे": 4483,
      "जातीय": 4484,
      "हाला": 4485,
      "సార్వత్ర": 4486,
      "హైదరా": 4487,
      "ప్రారంభించ": 4488,
      "ర్షణ": 4489,
      "ర్‌ల": 4490,
      "విద్యుత్": 4491,
      "సంకీర్ణ": 4492,
      "पहाता": 4493,
      "फ्रेंच": 4494,
      "भौगोलिक": 4495,
      "म्यानमार": 4496,
      "मरीन": 4497,
      "यशस्वी": 4498,
      "renc": 4499,
      "Indones": 4500,
      "rule,": 4501,
      "app": 4502,
      "establish": 4503,
      "न्धु": 4504,
      "वाँ": 4505,
      "वाल": 4506,
      "పురుషు": 4507,
      "స్థితి": 4508,
      "కూడుకుని": 4509,
      "కోల్‌కాత": 4510,
      "నేపాల్": 4511,
      "పాలించారు.": 4512,
      "ఎన్నికల్లో": 4513,
      "यमुना": 4514,
      "रंगमंच": 4515,
      "विकसित": 4516,
      "सिक्की": 4517,
      "सचिवालय": 4518,
      "हंपी": 4519,
      "nonviol": 4520,
      "partition": 4521,
      "particular": 4522,
      "setting": 4523,
      "beginnings": 4524,
      "वास": 4525,
      "वाली": 4526,
      "किनार": 4527,
      "రాజ్యాంగం": 4528,
      "బడతారు.": 4529,
      "మహాసముద్రం": 4530,
      "ప్రతిపాదనకు": 4531,
      "కోర్టులు": 4532,
      "ఏర్పడ్డాయి.": 4533,
      "కార్యక్రమాలు": 4534,
      "काबीज": 4535,
      "प्रमाणा": 4536,
      "प्रवेश": 4537,
      "प्रश्न": 4538,
      "प्रत्येक": 4539,
      "संविधान": 4540,
      "expanding": 4541,
      "exported": 4542,
      "expansion": 4543,
      "systems": 4544,
      "18th": 4545,
      "पांड": 4546,
      "पाइन": 4547,
      "पूरे": 4548,
      "ఆఫ్ఘనిస్తాన్": 4549,
      "జరుపుకుంటారు.": 4550,
      "పీఠభూ": 4551,
      "బంగ్లాదేశ్‌": 4552,
      "శెలవుదినాలు": 4553,
      "హిమాలయ": 4554,
      "Constituent": 4555,
      "ताजमहाल": 4556,
      "पुन्हा": 4557,
      "सुधारणांचा": 4558,
      "सुमारास": 4559,
      "कि.मी.": 4560,
      "वर्तुळकार": 4561,
      "195": 4562,
      "19th": 4563,
      "created": 4564,
      "creating": 4565,
      "creati": 4566,
      "दक्षिण-पूर्व": 4567,
      "संबो": 4568,
      "संख्या": 4569,
      "59-": 4570,
      "Assembly": 4571,
      "CEE": 4572,
      "Ethnolo": 4573,
      "Factbo": 4574,
      "Hindi": 4575,
      "Libr": 4576,
      "ब्रिटिशांविरुद्ध": 4577,
      "गरजेचे": 4578,
      "वैशिष्ट्य": 4579,
      "उपलब्ध": 4580,
      "बाबतीत": 4581,
      "गुरूकूल": 4582,
      "culture.": 4583,
      "cultures": 4584,
      "eventually": 4585,
      "graph": 4586,
      "loss": 4587,
      "भाई": 4588,
      "भाबर": 4589,
      "तेज़ी": 4590,
      "Profile": 4591,
      "_of_": 4592,
      "evan": 4593,
      "harv": 4594,
      "target:": 4595,
      "అంతర్జాతీయ": 4596,
      "అమెరికా": 4597,
      "१६३८ला": 4598,
      "क्षेत्रामध्ये": 4599,
      "स्वातंत्र्यप्राप्तीनंतर": 4600,
      "ड्राइव्ह": 4601,
      "हिंसाचार": 4602,
      "history": 4603,
      "local": 4604,
      "polic": 4605,
      "river,": 4606,
      "flouris": 4607,
      "ty.": 4608,
      "नियंत्र": 4609,
      "निरपे": 4610,
      "निवास": 4611,
      "ఇండో": 4612,
      "ఈశాన్య": 4613,
      "ఈస్ట్": 4614,
      "ఎలక్టోర": 4615,
      "ఏప్రిల్": 4616,
      "ఐరోపా": 4617,
      "కనుమలు": 4618,
      "सिक्कीम": 4619,
      "\".": 4620,
      "%.": 4621,
      "'भारत": 4622,
      "'भा": 4623,
      "'रत": 4624,
      "northwest.": 4625,
      "subcontinent,": 4626,
      "non-viol": 4627,
      "Buddha": 4628,
      "bodi": 4629,
      "ष्क": 4630,
      "ष्टि": 4631,
      "होने": 4632,
      "కబడ్డీ": 4633,
      "ఖనిజాలు": 4634,
      "గెలుచుకోవడ": 4635,
      "చూడండి": 4636,
      "జమ్మూ": 4637,
      "ట్రో": 4638,
      "ఢాకా": 4639,
      "(आ": 4640,
      "(१": 4641,
      "(३": 4642,
      "(४": 4643,
      "(सर्व": 4644,
      "(नंतर": 4645,
      "claim": 4646,
      "ethical": 4647,
      "ethnic": 4648,
      "humans": 4649,
      "line": 4650,
      "होते": 4651,
      "्राट": 4652,
      "्राम": 4653,
      "తర్వాత": 4654,
      "పిక్‌": 4655,
      "పవిత్ర": 4656,
      "పతాక": 4657,
      "పక్కన": 4658,
      "బౌద్ధ": 4659,
      "బంగారు": 4660,
      "(इ.स.": 4661,
      "(फ्रेंच": 4662,
      "):": 4663,
      ",०": 4664,
      ",४": 4665,
      ",५": 4666,
      "quality": 4667,
      "archaic": 4668,
      "cities": 4669,
      "cities,": 4670,
      "citizen": 4671,
      "लेख": 4672,
      "लेकर": 4673,
      "स्थानीय": 4674,
      "రచయిత": 4675,
      "లౌక": 4676,
      "ోత్తరాలు": 4677,
      "ప్రసిద్ధి": 4678,
      "భారత్‌లో": 4679,
      "నిపుణులు": 4680,
      "నిడివి": 4681,
      ",६": 4682,
      ",ज्या": 4683,
      ",०००": 4684,
      "-अ": 4685,
      "-७": 4686,
      "-गुज": 4687,
      "Indo-European": 4688,
      "population": 4689,
      "populous": 4690,
      "based": 4691,
      "elites": 4692,
      "धर्मों": 4693,
      "सामने": 4694,
      "बाल": 4695,
      "తిరుగుబా": 4696,
      "స్థావరాలు": 4697,
      "సామాజిక,": 4698,
      "కూడుకొని": 4699,
      "కాపాడుకుంటూ": 4700,
      "నేరేడు": 4701,
      "మాట్లాడే": 4702,
      "-वेरू": 4703,
      "-grandmother": 4704,
      "-ऑस्ट्रे": 4705,
      "Al": 4706,
      "For": 4707,
      "Me": 4708,
      "elites,": 4709,
      "historical": 4710,
      "historians": 4711,
      "occup": 4712,
      "prom": 4713,
      "बाढ़": 4714,
      "उत्तरी": 4715,
      "कृष": 4716,
      "ఎన్నుకోబడతారు.": 4717,
      "కిలోమీటర్లకు": 4718,
      "చెప్పుకో": 4719,
      "చెందాయి.": 4720,
      "చెందుతున్న": 4721,
      "పర్యాయాలు": 4722,
      "పూర్తిగా": 4723,
      "Ou": 4724,
      "Re": 4725,
      "Tr": 4726,
      "Tit": 4727,
      "Wa": 4728,
      "crad": 4729,
      "princ": 4730,
      "penins": 4731,
      "varna": 4732,
      "therers,": 4733,
      "ago,": 4734,
      "कारी": 4735,
      "युक्त": 4736,
      "्याचल": 4737,
      "error:": 4738,
      "ఉపయోగి": 4739,
      "(1,269,2": 4740,
      "Congress": 4741,
      "పుట్టుపూర్వోత్తరాలు": 4742,
      "ప్రజాదరణ": 4743,
      "CITEREF": 4744,
      "ee": 4745,
      "end": 4746,
      "grea": 4747,
      "gend": 4748,
      "hp": 4749,
      "iom": 4750,
      "plains,": 4751,
      "large-sc": 4752,
      "borders": 4753,
      "cess": 4754,
      "currenc": 4755,
      "स्वरु": 4756,
      "क्षेत्रों": 4757,
      "क्षेत्रीय": 4758,
      "సూచించినట్లు": 4759,
      "వందేమాతరం": 4760,
      "సహస్రాబ్ది": 4761,
      "సార్వత్రిక": 4762,
      "కోల్‌కాతా": 4763,
      "Ethnologue": 4764,
      "Factbook": 4765,
      "lace": 4766,
      "phe": 4767,
      "pee": 4768,
      "rt": 4769,
      "rial": 4770,
      "spee": 4771,
      "declin": 4772,
      "mainly": 4773,
      "world": 4774,
      "animal": 4775,
      "animals": 4776,
      "पुन": 4777,
      "महात्": 4778,
      "प्रायद्वीप": 4779,
      "Library": 4780,
      "ఎలక్టోరల్": 4781,
      "గెలుచుకోవడం": 4782,
      "తిరుగుబాటు": 4783,
      "\"భారతదేశం": 4784,
      "\"di": 4785,
      "\"language": 4786,
      "trad": 4787,
      "trea": 4788,
      "t-grandmother": 4789,
      "uab": 4790,
      "val": 4791,
      "ँग्रे": 4792,
      "inequality": 4793,
      "urbanisation": 4794,
      "well-": 4795,
      "heredi": 4796,
      "literature": 4797,
      "रेशि": 4798,
      "लगात": 4799,
      "ंधी": 4800,
      "\"The": 4801,
      "\"భరత": 4802,
      "%)": 4803,
      "%).": 4804,
      "(3": 4805,
      "(5": 4806,
      "(8": 4807,
      "ंभ": 4808,
      "ंम": 4809,
      "ंका": 4810,
      "ंवा": 4811,
      "ंवर": 4812,
      "ंता": 4813,
      "highly": 4814,
      "religions": 4815,
      "administration": 4816,
      "17th": 4817,
      "Gupta": 4818,
      "थी,": 4819,
      "रीबी": 4820,
      "स्तर": 4821,
      "(ఆ": 4822,
      "(ఉ": 4823,
      "(ట": 4824,
      "(భారత": 4825,
      "(సా": 4826,
      "(గి": 4827,
      "(తా": 4828,
      "ंभी": 4829,
      "ःख": 4830,
      "ःसीमा": 4831,
      "अग": 4832,
      "अभ": 4833,
      "अम": 4834,
      "Modern": 4835,
      "Vijay": 4836,
      "colonial": 4837,
      "democ": 4838,
      "gained": 4839,
      "१९६": 4840,
      "चलने": 4841,
      "त्पत्ति": 4842,
      "(బ్ర": 4843,
      "(ou": 4844,
      "(ఇదే": 4845,
      "(శక": 4846,
      "(CEE": 4847,
      ",0": 4848,
      ",18": 4849,
      "अल": 4850,
      "अह": 4851,
      "अ‍": 4852,
      "अस्": 4853,
      "अले": 4854,
      "अंग": 4855,
      "growing": 4856,
      "hubs": 4857,
      "ight": 4858,
      "migration": 4859,
      "medieval": 4860,
      "त्‍व": 4861,
      "दिल्": 4862,
      "मध्यकालीन": 4863,
      ",87,263": 4864,
      "-7": 4865,
      "-ఆ": 4866,
      "-ఇ": 4867,
      "-దేశ": 4868,
      "-19": 4869,
      "-ఢిల్లీ": 4870,
      "अक्ष": 4871,
      "अरु": 4872,
      "अशि": 4873,
      "अन्": 4874,
      "अप्": 4875,
      "अलि": 4876,
      "numb": 4877,
      "portion": 4878,
      "initi": 4879,
      "involved": 4880,
      "stead": 4881,
      "सिन्धु": 4882,
      "निर्माता": 4883,
      "जिसमें": 4884,
      "-టె": 4885,
      "-56": 4886,
      "-ఖో": 4887,
      "-దండ": 4888,
      "-లాహో": 4889,
      ".8": 4890,
      ".9": 4891,
      "अन्या": 4892,
      "अमर": 4893,
      "अमरा": 4894,
      "अध्या": 4895,
      "अट्": 4896,
      "अपो": 4897,
      "struc": 4898,
      "statu": 4899,
      "education": 4900,
      "artisans": 4901,
      "employ": 4902,
      "जिसने": 4903,
      "जनता": 4904,
      "जनसंख्या": 4905,
      ".ఇ": 4906,
      ".ఈ": 4907,
      ".ఏ": 4908,
      ".కి": 4909,
      ".మీ": 4910,
      ".).": 4911,
      ".23": 4912,
      "अहिं": 4913,
      "अयशस्वी": 4914,
      "अंम": 4915,
      "आख": 4916,
      "आठ": 4917,
      "आफ": 4918,
      "character": 4919,
      "society": 4920,
      "companies": 4921,
      "parliamentary": 4922,
      "1858": 4923,
      "न्त्रता": 4924,
      "बना।": 4925,
      "बढ़ने": 4926,
      "/G": 4927,
      "0%": 4928,
      "0-19": 4929,
      "11": 4930,
      "15": 4931,
      "100": 4932,
      "1000": 4933,
      "आपा": 4934,
      "आल्या": 4935,
      "आकार": 4936,
      "आंतर": 4937,
      "आले.": 4938,
      "आंध": 4939,
      "China": 4940,
      "loose-kn": 4941,
      "increasingly": 4942,
      "tradition": 4943,
      "extensive": 4944,
      "बढ़ती": 4945,
      "भू-आ": 4946,
      "स्थापित": 4947,
      "1,9": 4948,
      "1,7": 4949,
      "1,0": 4950,
      "2%": 4951,
      "25": 4952,
      "2%),": 4953,
      "2,9": 4954,
      "आला.": 4955,
      "आंब": 4956,
      "आग्": 4957,
      "आशिया": 4958,
      "आकडे": 4959,
      "आलेल्या": 4960,
      "notably": 4961,
      "introduced": 4962,
      "devotion": 4963,
      "architecture,": 4964,
      "Greek": 4965,
      "मैदानों": 4966,
      "स्तान,": 4967,
      "ब्रह्म": 4968,
      "21-": 4969,
      "2,14": 4970,
      "2,87,263": 4971,
      "30": 4972,
      "3.8": 4973,
      "32,87,263": 4974,
      "4లో": 4975,
      "आश्च": 4976,
      "इरा": 4977,
      "इच्छ": 4978,
      "उग": 4979,
      "उद्": 4980,
      "उभा": 4981,
      "sovereignty": 4982,
      "-majority": 4983,
      "13th": 4984,
      "55,000": 4985,
      "Achaem": 4986,
      "हुए,": 4987,
      "हुए।": 4988,
      "स्वतन्त्रता": 4989,
      "447": 4990,
      "422": 4991,
      "4%,": 4992,
      "48లో": 4993,
      "421-": 4994,
      "52": 4995,
      "546": 4996,
      "उंच": 4997,
      "उभार": 4998,
      "उदेश्य": 4999,
      "ऊस": 5000,
      "ऊर्": 5001,
      "एड": 5002,
      "Classical": 5003,
      "Civilisation": 5004,
      "Delhi": 5005,
      "Middle": 5006,
      "North": 5007,
      "धीरे-धीरे": 5008,
      "अपना": 5009,
      "अवसा": 5010,
      "5,7": 5011,
      "65": 5012,
      "6%),": 5013,
      "6,9": 5014,
      "7000": 5015,
      "7,9": 5016,
      "73,": 5017,
      "एतद्": 5018,
      "ऑग": 5019,
      "ऑल": 5020,
      "ऑक्": 5021,
      "ओसा": 5022,
      "कळ": 5023,
      "Ocean": 5024,
      "Pallav": 5025,
      "Sikh": 5026,
      "Tamil": 5027,
      "Thailand": 5028,
      "अवधि": 5029,
      "अंग्रेजी": 5030,
      "अंग्रेजों": 5031,
      "740": 5032,
      "7,5": 5033,
      "7.23": 5034,
      "75,7": 5035,
      "81-": 5036,
      "83,0": 5037,
      "8-7": 5038,
      "क़": 5039,
      "कॅ": 5040,
      "कौ": 5041,
      "कान": 5042,
      "कत्": 5043,
      "काच्या": 5044,
      "Valley": 5045,
      "capit": 5046,
      "drew": 5047,
      "forest": 5048,
      "hunter-ga": 5049,
      "उनके": 5050,
      "उनका": 5051,
      "उनकी": 5052,
      "82,14": 5053,
      "83.8": 5054,
      "900": 5055,
      "9,000": 5056,
      "AL": 5057,
      "Ac": 5058,
      "BB": 5059,
      "कनि": 5060,
      "कसे": 5061,
      "कल्ली": 5062,
      "कलि": 5063,
      "कांचे": 5064,
      "कट्": 5065,
      "hymns": 5066,
      "mission": 5067,
      "multi": 5068,
      "make": 5069,
      "nationalist": 5070,
      "कहला": 5071,
      "कहीं": 5072,
      "कुलीन": 5073,
      "BS": 5074,
      "B/G": 5075,
      "C,": 5076,
      "Di": 5077,
      "Date": 5078,
      "Devan": 5079,
      "HZ": 5080,
      "कांपैकी": 5081,
      "खक": 5082,
      "खड": 5083,
      "खी": 5084,
      "खू": 5085,
      "ख्र": 5086,
      "patron": 5087,
      "pastoral": 5088,
      "speaking": 5089,
      "women": 5090,
      "anagara": 5091,
      "मील": 5092,
      "वेश": 5093,
      "पर्वतश्रे": 5094,
      "II": 5095,
      "IN": 5096,
      "Int": 5097,
      "Langua": 5098,
      "Nation": 5099,
      "Par": 5100,
      "PAL": 5101,
      "खील": 5102,
      "ख्ये": 5103,
      "खंड": 5104,
      "खजु": 5105,
      "गझ": 5106,
      "गट": 5107,
      "influence": 5108,
      "repeatedly": 5109,
      "recorded": 5110,
      "strength": 5111,
      "standardised": 5112,
      "पर्वतमाला": 5113,
      "राष्ट्रों": 5114,
      "गांधी": 5115,
      "PIN": 5116,
      "Se": 5117,
      "St": 5118,
      "Ty": 5119,
      "V;": 5120,
      "VII": 5121,
      "World": 5122,
      "गढ": 5123,
      "गळ": 5124,
      "गव": 5125,
      "गि": 5126,
      "गां": 5127,
      "गील": 5128,
      "edicts": 5129,
      "diffused": 5130,
      "arisen": 5131,
      "especially": 5132,
      "isolation": 5133,
      "दोनों": 5134,
      "बोला": 5135,
      "शहरों": 5136,
      "XVII": 5137,
      "_Assembly": 5138,
      "au": 5139,
      "bj": 5140,
      "bate": 5141,
      "cor": 5142,
      "cri": 5143,
      "गाच्या": 5144,
      "गता": 5145,
      "गंड": 5146,
      "गणि": 5147,
      "गरी": 5148,
      "गण्यात": 5149,
      "railway": 5150,
      "rights": 5151,
      "supplanted": 5152,
      "networ": 5153,
      "development": 5154,
      "शुष्क": 5155,
      "विस्तृत": 5156,
      "देखा": 5157,
      "cau": 5158,
      "go": 5159,
      "gan": 5160,
      "ges": 5161,
      "giv": 5162,
      "how": 5163,
      "iz": 5164,
      "गच्छ": 5165,
      "गमर": 5166,
      "गृत": 5167,
      "गंभी": 5168,
      "घू": 5169,
      "घकाल": 5170,
      "British-style": 5171,
      "protected": 5172,
      "markets.": 5173,
      "Indonesia": 5174,
      "nonviolent": 5175,
      "देखते": 5176,
      "194": 5177,
      "घाट": 5178,
      "liv": 5179,
      "ms": 5180,
      "nct": 5181,
      "othe": 5182,
      "odu": 5183,
      "pt": 5184,
      "pu": 5185,
      "चाच": 5186,
      "चिक": 5187,
      "चक्र": 5188,
      "चस्व": 5189,
      "चंद्र": 5190,
      "चतु": 5191,
      "1947,": 5192,
      "creativity": 5193,
      "flourish": 5194,
      "non-violence": 5195,
      "claiming": 5196,
      "चालु": 5197,
      "जैसे": 5198,
      "त्वपूर्ण": 5199,
      "pri": 5200,
      "rces": 5201,
      "rep": 5202,
      "scri": 5203,
      "siz": 5204,
      "spu": 5205,
      "ton": 5206,
      "चंदी": 5207,
      "छत्र": 5208,
      "जू": 5209,
      "जिक": 5210,
      "जून": 5211,
      "ज्ये": 5212,
      "occupation,": 5213,
      "large-scale": 5214,
      "Vijayanagara": 5215,
      "characteristic": 5216,
      "loose-knit": 5217,
      "थे,": 5218,
      "यनगर": 5219,
      "षाण": 5220,
      "tation": 5221,
      "uni": 5222,
      "vern": 5223,
      "ybac": 5224,
      "ంజ": 5225,
      "ంథ": 5226,
      "ంతి": 5227,
      "जर्म": 5228,
      "जव्य": 5229,
      "जगा": 5230,
      "जयं": 5231,
      "जयन": 5232,
      "जारी": 5233,
      "Achaemen": 5234,
      "hunter-gatherers,": 5235,
      "\"India": 5236,
      "\"river,": 5237,
      "')": 5238,
      "संगम": 5239,
      "संग्राम": 5240,
      "सम्पूर्ण": 5241,
      "ం\",": 5242,
      "అర": 5243,
      "అల": 5244,
      "అస్": 5245,
      "అది": 5246,
      "అన్న": 5247,
      "అల్": 5248,
      "जांपासून": 5249,
      "जगाच्या": 5250,
      "झां": 5251,
      "झिक": 5252,
      "झगड": 5253,
      "झपाट": 5254,
      "'.": 5255,
      "'E": 5256,
      "'the": 5257,
      "(an": 5258,
      "(ca": 5259,
      "्रीका": 5260,
      "न्नति": 5261,
      "उत्थान": 5262,
      "అరు": 5263,
      "అక్ష": 5264,
      "అంది": 5265,
      "అవర": 5266,
      "అద్ద": 5267,
      "అలం": 5268,
      "అధి": 5269,
      "टत": 5270,
      "टस": 5271,
      "टका": 5272,
      "टून": 5273,
      "ट्रा": 5274,
      "टवे": 5275,
      "(pres": 5276,
      "('E": 5277,
      ",6": 5278,
      "-h": 5279,
      "-l": 5280,
      "वर्गीकरण": 5281,
      "अन्तर्": 5282,
      "पुराने": 5283,
      "అంద": 5284,
      "అఖండ": 5285,
      "అమల": 5286,
      "అరే": 5287,
      "అంటే": 5288,
      "అంక": 5289,
      "అధీన": 5290,
      "टये": 5291,
      "टम्": 5292,
      "टचाल": 5293,
      "ठर": 5294,
      "ठसा": 5295,
      "ठची": 5296,
      "-we": 5297,
      "-op": 5298,
      "-fl": 5299,
      "-western": 5300,
      "-larg": 5301,
      "पुराना": 5302,
      "आगे": 5303,
      "आगमन": 5304,
      "అశో": 5305,
      "ఆగ": 5306,
      "ఆలో": 5307,
      "ఆదేశ": 5308,
      "ఆవి": 5309,
      "ఆతి": 5310,
      "ఆక్ర": 5311,
      "ठला.": 5312,
      "ठ्याचे": 5313,
      "डच": 5314,
      "डर": 5315,
      "डा": 5316,
      "डॅ": 5317,
      "-own": 5318,
      "-existing": 5319,
      "-defined": 5320,
      "-produc": 5321,
      "-rule,": 5322,
      "आपके": 5323,
      "क्योंकि": 5324,
      "फैला": 5325,
      "ఆయా": 5326,
      "ఆనా": 5327,
      "ఆడు": 5328,
      "ఆధ్య": 5329,
      "ఆదాయ": 5330,
      "ఆగ్": 5331,
      "ఆవల": 5332,
      "डॉ": 5333,
      "डो": 5334,
      "डारत": 5335,
      "डान": 5336,
      "डया": 5337,
      "डल्या": 5338,
      "-ethnic": 5339,
      "-growing": 5340,
      "-speaking": 5341,
      ".6": 5342,
      "0,": 5343,
      "फैली": 5344,
      "बहुत": 5345,
      "मनु": 5346,
      "ఆణి": 5347,
      "ఆచార": 5348,
      "ఆక్షరాస్యత": 5349,
      "ఆటలు": 5350,
      "ఆనం": 5351,
      "ఆలస్య": 5352,
      "ఇ-": 5353,
      "ड्यां": 5354,
      "डकर": 5355,
      "डण्यात": 5356,
      "ढो": 5357,
      "ढां": 5358,
      "णय": 5359,
      "01": 5360,
      "0th": 5361,
      "120": 5362,
      "1500": 5363,
      "10th": 5364,
      "यूरेशि": 5365,
      "ोगिकी": 5366,
      "१८५": 5367,
      "ఇయ": 5368,
      "ఇన్": 5369,
      "ఇను": 5370,
      "ఇము": 5371,
      "ఇతి": 5372,
      "ఇంది": 5373,
      "ఇతరు": 5374,
      "णाच": 5375,
      "णाच्या": 5376,
      "ण्यां": 5377,
      "णकाळ": 5378,
      "णारा": 5379,
      "णमधील": 5380,
      "2n": 5381,
      "2500": 5382,
      "2,6": 5383,
      "36": 5384,
      "300": 5385,
      "नेतृत्व": 5386,
      "नेतृत्‍व": 5387,
      "वर्णित": 5388,
      "ఇందు": 5389,
      "ఇంకా": 5390,
      "ఇతను": 5391,
      "ఇంటి": 5392,
      "ఇచ్చే": 5393,
      "ఇప్పటికీ": 5394,
      "ఉర్": 5395,
      "णयुगातील": 5396,
      "तू": 5397,
      "तै": 5398,
      "तती": 5399,
      "तून": 5400,
      "तही": 5401,
      "30,000": 5402,
      "48": 5403,
      "4th": 5404,
      "4%.": 5405,
      "5.": 5406,
      "वर्तमान": 5407,
      "जिनके": 5408,
      "जिन्हें": 5409,
      "ఉద్": 5410,
      "ఉపా": 5411,
      "ఉండి": 5412,
      "ఉండు": 5413,
      "ఉష్ణ": 5414,
      "ఉనిక": 5415,
      "ఋతు": 5416,
      "ताच्या": 5417,
      "तति": 5418,
      "तमे": 5419,
      "तंत्र": 5420,
      "ततच्या": 5421,
      "दश": 5422,
      "5th": 5423,
      "50,000": 5424,
      "6.": 5425,
      "64": 5426,
      "6th": 5427,
      "उत्तर-पश्चिम": 5428,
      "अधिराज्य": 5429,
      "शहरीकरण": 5430,
      "ఎమ": 5431,
      "ఎదు": 5432,
      "ఎగు": 5433,
      "ఎల్ల": 5434,
      "ఎంతో": 5435,
      "ఎగువ": 5436,
      "ఏక": 5437,
      "दान": 5438,
      "दंत": 5439,
      "दुस": 5440,
      "दकालीन": 5441,
      "दूर": 5442,
      "दडो": 5443,
      "600": 5444,
      "7th": 5445,
      "74%.": 5446,
      "8–": 5447,
      "8th": 5448,
      "अफ्रीका": 5449,
      "अहिंसा": 5450,
      "उठाया": 5451,
      "ఏడ": 5452,
      "ఏడు": 5453,
      "ఏటా": 5454,
      "ఏకత్వ": 5455,
      "ఏళ్ళ": 5456,
      "ఐదు": 5457,
      "ఒక్": 5458,
      "धा": 5459,
      "धो": 5460,
      "धातील": 5461,
      "नई": 5462,
      "नन": 5463,
      "नॅ": 5464,
      "80,000": 5465,
      "85.": 5466,
      "9th": 5467,
      "Af": 5468,
      "Ak": 5469,
      "उन्हें": 5470,
      "एवम": 5471,
      "कंकड": 5472,
      "ఒరి": 5473,
      "ఒలిం": 5474,
      "ఒడిస్": 5475,
      "ఓడ": 5476,
      "ఓటర్": 5477,
      "ఔట్‌": 5478,
      "క,": 5479,
      "नो": 5480,
      "नौ": 5481,
      "न‍": 5482,
      "न’": 5483,
      "नात": 5484,
      "नर्": 5485,
      "Am": 5486,
      "Aṣ": 5487,
      "Ara": 5488,
      "Bo": 5489,
      "Bal": 5490,
      "चुकी": 5491,
      "दृष्टि": 5492,
      "नवीन": 5493,
      "కిం": 5494,
      "కర్": 5495,
      "కని": 5496,
      "కాయ": 5497,
      "కరా": 5498,
      "కంట": 5499,
      "కార్": 5500,
      "नका": 5501,
      "नक्ष": 5502,
      "नंत": 5503,
      "नमू": 5504,
      "नव्या": 5505,
      "नंदि": 5506,
      "Bas": 5507,
      "Bra": 5508,
      "Bang": 5509,
      "Bay": 5510,
      "Bet": 5511,
      "फायदा": 5512,
      "प्रचलित": 5513,
      "राजाओं": 5514,
      "కిత": 5515,
      "కష్ట": 5516,
      "కట్ట": 5517,
      "కమైన": 5518,
      "కమీ": 5519,
      "క్యం": 5520,
      "కమల": 5521,
      "नातून": 5522,
      "न्यांमध्ये": 5523,
      "पच": 5524,
      "पथ": 5525,
      "पॅ": 5526,
      "पौ": 5527,
      "Bound": 5528,
      "Bru": 5529,
      "Cam": 5530,
      "Cong": 5531,
      "Crow": 5532,
      "करवाने": 5533,
      "विजयनगर": 5534,
      "विभाजित": 5535,
      "కమేన": 5536,
      "కెట్": 5537,
      "కర్‌": 5538,
      "కత్తా": 5539,
      "కానీ": 5540,
      "కవరీ": 5541,
      "ఖిక": 5542,
      "पला": 5543,
      "पान": 5544,
      "पून": 5545,
      "पसं": 5546,
      "पमान": 5547,
      "पंड": 5548,
      "DN": 5549,
      "Dh": 5550,
      "Dal": 5551,
      "Dom": 5552,
      "Dis": 5553,
      "हिस्सों": 5554,
      "तीसरी": 5555,
      "प्राप्ति": 5556,
      "ఖగో": 5557,
      "ఖర్చు": 5558,
      "ఖాతం": 5559,
      "గృ": 5560,
      "గె": 5561,
      "గర్": 5562,
      "గించ": 5563,
      "पसर": 5564,
      "पणा": 5565,
      "पगडा": 5566,
      "फॉ": 5567,
      "फो": 5568,
      "फ्": 5569,
      "Dic": 5570,
      "Ep": 5571,
      "Ex": 5572,
      "Esc": 5573,
      "Ety": 5574,
      "आधारित": 5575,
      "पहाड़ियाँ": 5576,
      "अर्थव्यवस्था": 5577,
      "గతి": 5578,
      "గల్": 5579,
      "గులు": 5580,
      "గింది.": 5581,
      "గలి": 5582,
      "గిన్న": 5583,
      "గర్,": 5584,
      "फिक": 5585,
      "फगा": 5586,
      "फळाने": 5587,
      "बट": 5588,
      "बध": 5589,
      "बस": 5590,
      "Evid": 5591,
      "Fed": 5592,
      "Further": 5593,
      "Follow": 5594,
      "Gan": 5595,
      "इस्लाम": 5596,
      "./वर्ष": 5597,
      "अरब": 5598,
      "గనులు": 5599,
      "గౌర": 5600,
      "ఘన": 5601,
      "ఘు": 5602,
      "ఘట్ట": 5603,
      "ఘోర": 5604,
      "ఘిక,": 5605,
      "बंग": 5606,
      "बद्ध": 5607,
      "बरी": 5608,
      "बदा": 5609,
      "बऱ्या": 5610,
      "बदार": 5611,
      "Gand": 5612,
      "Gen": 5613,
      "Gra": 5614,
      "Gover": 5615,
      "He": 5616,
      "अल्पाइन": 5617,
      "कश्मीर": 5618,
      "ग़रीबी": 5619,
      "ఘర్షణ": 5620,
      "చా": 5621,
      "చీ": 5622,
      "చూ": 5623,
      "చో": 5624,
      "చ్": 5625,
      "చము": 5626,
      "भव": 5627,
      "भ्र": 5628,
      "भात": 5629,
      "भां": 5630,
      "भवा": 5631,
      "भारा": 5632,
      "Har": 5633,
      "Hom": 5634,
      "Histor": 5635,
      "Is": 5636,
      "Jud": 5637,
      "चला,": 5638,
      "जंगलों": 5639,
      "तराई": 5640,
      "చిన": 5641,
      "చింది.": 5642,
      "చిత": 5643,
      "చక్ర": 5644,
      "చట్ట": 5645,
      "చులు,": 5646,
      "చీ,": 5647,
      "भव्य": 5648,
      "भद्रा": 5649,
      "भपुत्र": 5650,
      "भुव": 5651,
      "भगव": 5652,
      "म)": 5653,
      "Ka": 5654,
      "Kal": 5655,
      "Kas": 5656,
      "La": 5657,
      "Lan": 5658,
      "नर्मदा": 5659,
      "पहुँच": 5660,
      "फुट": 5661,
      "చూప": 5662,
      "చర్,": 5663,
      "చ.కి": 5664,
      "ఛాయుత": 5665,
      "జా": 5666,
      "జె": 5667,
      "జై": 5668,
      "मद": 5669,
      "मृ": 5670,
      "म्य": 5671,
      "मात": 5672,
      "मती": 5673,
      "मते": 5674,
      "Lat": 5675,
      "Lord": 5676,
      "Mit": 5677,
      "Many": 5678,
      "Mong": 5679,
      "बहती": 5680,
      "महत्वपूर्ण": 5681,
      "यहां": 5682,
      "జౌ": 5683,
      "జ్ర": 5684,
      "జాన": 5685,
      "జిన": 5686,
      "జంత": 5687,
      "జైన": 5688,
      "జపా": 5689,
      "मची": 5690,
      "मंड": 5691,
      "मदा": 5692,
      "मलि": 5693,
      "मद्रा": 5694,
      "मंदी": 5695,
      "Medi": 5696,
      "Mara": 5697,
      "Nic": 5698,
      "Net": 5699,
      "Nep": 5700,
      "लोगों": 5701,
      "प्रणाली": 5702,
      "प्रौद्योगिकी": 5703,
      "జిత": 5704,
      "జ్‌": 5705,
      "జెండ": 5706,
      "జనాలు": 5707,
      "జిల్ల": 5708,
      "జవహ": 5709,
      "జెట్": 5710,
      "मबे": 5711,
      "मजल": 5712,
      "य.": 5713,
      "याच्या": 5714,
      "यत्र": 5715,
      "यम्": 5716,
      "National": 5717,
      "New": 5718,
      "Ox": 5719,
      "Old": 5720,
      "Ph": 5721,
      "साहित्य": 5722,
      "सांस्कृतिक": 5723,
      "विंध्याचल": 5724,
      "ఞాన": 5725,
      "టన": 5726,
      "టో": 5727,
      "టస్": 5728,
      "టిన": 5729,
      "టాయి": 5730,
      "టచే": 5731,
      "याचे": 5732,
      "याचा": 5733,
      "याचीन": 5734,
      "यसी": 5735,
      "यव्य": 5736,
      "यातून": 5737,
      "Pl": 5738,
      "Pā": 5739,
      "Pand": 5740,
      "Pro": 5741,
      "Ra": 5742,
      "विरोध": 5743,
      "परिणामस्वरूप": 5744,
      "परमाणु": 5745,
      "ట్యం": 5746,
      "టం,": 5747,
      "ట్రా": 5748,
      "టంతో": 5749,
      "టమూ": 5750,
      "ఠీ;": 5751,
      "డ్ర": 5752,
      "यटस": 5753,
      "रल": 5754,
      "रळ": 5755,
      "रका": 5756,
      "रील": 5757,
      "रिक": 5758,
      "Ri": 5759,
      "Rā": 5760,
      "Rom": 5761,
      "Rak": 5762,
      "Rig": 5763,
      "परीक्षण": 5764,
      "कोपेन": 5765,
      "किनारे": 5766,
      "డ్య": 5767,
      "డాల": 5768,
      "డింది.": 5769,
      "డ్చ": 5770,
      "డ్ల": 5771,
      "డ్‌": 5772,
      "డాలు,": 5773,
      "रत्": 5774,
      "रक्षा": 5775,
      "र्यांमध्ये": 5776,
      "रधा": 5777,
      "ऱ्यां": 5778,
      "ल्य": 5779,
      "Rep": 5780,
      "Sin": 5781,
      "Sri": 5782,
      "Sang": 5783,
      "Sim": 5784,
      "संबोधित": 5785,
      "निरपेक्ष": 5786,
      "स्वरुप": 5787,
      "డానికి": 5788,
      "డించింది.": 5789,
      "డబు": 5790,
      "డమ్": 5791,
      "ఢవి": 5792,
      "ణే": 5793,
      "ణిక": 5794,
      "लात": 5795,
      "लवा": 5796,
      "लवि": 5797,
      "लद्": 5798,
      "लयां": 5799,
      "लंब": 5800,
      "Sha": 5801,
      "Sett": 5802,
      "Th": 5803,
      "Tec": 5804,
      "Tem": 5805,
      "महात्मा": 5806,
      "लगातार": 5807,
      "सिन्धु-गंगा": 5808,
      "ణాలు": 5809,
      "ణించ": 5810,
      "ణదార": 5811,
      "ణంతో": 5812,
      "ణుల": 5813,
      "త,": 5814,
      "తార": 5815,
      "लकात": 5816,
      "लूर": 5817,
      "लवाद": 5818,
      "लगत": 5819,
      "लतान": 5820,
      "ळु": 5821,
      "Un": 5822,
      "Va": 5823,
      "Ved": 5824,
      "War": 5825,
      "Wor": 5826,
      "भू-आकृ": 5827,
      "ब्रह्मपुत्र": 5828,
      "पर्वतश्रेणी": 5829,
      "తాయ": 5830,
      "తాన": 5831,
      "తరా": 5832,
      "తాయి.": 5833,
      "తదు": 5834,
      "తక్కు": 5835,
      "తలం": 5836,
      "ळ्यां": 5837,
      "ळतात.": 5838,
      "ळणी": 5839,
      "वस": 5840,
      "वॉ": 5841,
      "व्र": 5842,
      "Zor": 5843,
      "ai": 5844,
      "athe": 5845,
      "adi": 5846,
      "aism": 5847,
      "चालुक्यों": 5848,
      "यूरेशियन": 5849,
      "अहिंसावादी": 5850,
      "తగ్": 5851,
      "తమై": 5852,
      "తమ్య": 5853,
      "తాలతో": 5854,
      "తీ,": 5855,
      "తదేశపు": 5856,
      "థమ": 5857,
      "वला": 5858,
      "वस्": 5859,
      "वां": 5860,
      "वती": 5861,
      "वाच्या": 5862,
      "वस्थ": 5863,
      "ares": 5864,
      "afe": 5865,
      "atic": 5866,
      "aut": 5867,
      "ared": 5868,
      "\"इंड": 5869,
      "$2": 5870,
      "$6": 5871,
      "థి": 5872,
      "థాత": 5873,
      "థాన": 5874,
      "థార్": 5875,
      "దశ": 5876,
      "దస": 5877,
      "దూ": 5878,
      "व्यां": 5879,
      "वते.": 5880,
      "वाने": 5881,
      "वजा": 5882,
      "वतात.": 5883,
      "वणी": 5884,
      "aren": 5885,
      "aff": 5886,
      "away": 5887,
      "affec": 5888,
      "bl": 5889,
      "$21": 5890,
      "$1,": 5891,
      "'राष्ट्र": 5892,
      "దృ": 5893,
      "దాన": 5894,
      "దీయ": 5895,
      "దైన": 5896,
      "దారు": 5897,
      "దాబ": 5898,
      "దీన": 5899,
      "वला.": 5900,
      "वटी": 5901,
      "वण्याची": 5902,
      "वसाह": 5903,
      "शतर": 5904,
      "शही": 5905,
      "band": 5906,
      "bes": 5907,
      "bri": 5908,
      "bro": 5909,
      "bir": 5910,
      "(ध": 5911,
      "(भा": 5912,
      "(शि": 5913,
      "దగ్": 5914,
      "దీర్": 5915,
      "దగినది.": 5916,
      "దక్కను": 5917,
      "ధం": 5918,
      "ధర": 5919,
      "ధు": 5920,
      "शस्त": 5921,
      "शांत": 5922,
      "शब्": 5923,
      "शल्य": 5924,
      "शवतात.": 5925,
      "ष्य": 5926,
      "big": 5927,
      "bour": 5928,
      "bade": 5929,
      "bond": 5930,
      "brac": 5931,
      "(आधिकारिक": 5932,
      ")।": 5933,
      ",००": 5934,
      "ధాల": 5935,
      "ధిన": 5936,
      "ధరి": 5937,
      "ధనా": 5938,
      "ధిల్ల": 5939,
      "నృ": 5940,
      "నై": 5941,
      "षणा": 5942,
      "षभदे": 5943,
      "स)": 5944,
      "सॉ": 5945,
      "स्य": 5946,
      "स्या": 5947,
      "bhā": 5948,
      "cu": 5949,
      "cat": 5950,
      "cra": 5951,
      "cation": 5952,
      ",500": 5953,
      "-A": 5954,
      "-फ": 5955,
      "నో": 5956,
      "నలు": 5957,
      "న్య": 5958,
      "నాల": 5959,
      "నర్": 5960,
      "నవి": 5961,
      "నంలో": 5962,
      "सरा": 5963,
      "सदे": 5964,
      "सना": 5965,
      "सने": 5966,
      "सत्र": 5967,
      "सभा": 5968,
      "cle": 5969,
      "cro": 5970,
      "ces,": 5971,
      "cence": 5972,
      "cav": 5973,
      "-पा": 5974,
      "-चीन": 5975,
      "-रूप": 5976,
      "నసా": 5977,
      "నికి": 5978,
      "నడు": 5979,
      "నలలో": 5980,
      "ననీ": 5981,
      "నప్పటిక": 5982,
      "నాలతో": 5983,
      "समो": 5984,
      "सल्": 5985,
      "साचे": 5986,
      "सरी": 5987,
      "सत्तर": 5988,
      "सक्र": 5989,
      "ctive": 5990,
      "cru": 5991,
      "could": 5992,
      "cultural": 5993,
      "ded": 5994,
      "-साथ": 5995,
      "-समय": 5996,
      "-मुस्लिम": 5997,
      "నవచ్చు.": 5998,
      "నబడిన": 5999,
      "నదులు": 6000,
      "పక": 6001,
      "పబ": 6002,
      "పి": 6003,
      "పస్": 6004,
      "सन्": 6005,
      "सस्थान": 6006,
      "सूर": 6007,
      "सळून": 6008,
      "सह्य": 6009,
      "सपाट": 6010,
      "dar": 6011,
      "ding": 6012,
      "des": 6013,
      "dri": 6014,
      "dam": 6015,
      "-अलग": 6016,
      "-आर्": 6017,
      "-छोटे": 6018,
      "పది": 6019,
      "పిన": 6020,
      "పంలో": 6021,
      "పూడ": 6022,
      "పిత": 6023,
      "పరాజ": 6024,
      "పచ్చ": 6025,
      "सततच्या": 6026,
      "हू": 6027,
      "हार": 6028,
      "हर्": 6029,
      "हल्": 6030,
      "हळे": 6031,
      "dro": 6032,
      "ds.": 6033,
      "date": 6034,
      "dence": 6035,
      "dated": 6036,
      "-वैदिक": 6037,
      ".0": 6038,
      ".4%": 6039,
      "పలి": 6040,
      "పట్": 6041,
      "పత్య": 6042,
      "పించింది.": 6043,
      "పం:": 6044,
      "పకళ": 6045,
      "పించే": 6046,
      "हम्": 6047,
      "हस्त": 6048,
      "हरू": 6049,
      "हलवि": 6050,
      "ा)": 6051,
      "ादेश": 6052,
      "daw": 6053,
      "e,": 6054,
      "e;": 6055,
      "eo": 6056,
      "eti": 6057,
      "0.7": 6058,
      "121": 6059,
      "2-": 6060,
      "పటం": 6061,
      "పిక్": 6062,
      "పస్ర": 6063,
      "పర్ష": 6064,
      "పటంలో": 6065,
      "పవనాలు": 6066,
      "పౌర": 6067,
      "ामो": 6068,
      "ादि": 6069,
      "ाजे": 6070,
      "ावरून": 6071,
      "ाबद्दल": 6072,
      "िला": 6073,
      "eing": 6074,
      "ever": 6075,
      "eli": 6076,
      "etic": 6077,
      "eous": 6078,
      "22-": 6079,
      "49": 6080,
      "450": 6081,
      "పండ్": 6082,
      "ఫు": 6083,
      "ఫ్ర": 6084,
      "ఫర్": 6085,
      "ఫరా": 6086,
      "ఫ్ట": 6087,
      "ఫలం": 6088,
      "िती": 6089,
      "ित्य": 6090,
      "ियन": 6091,
      "िश्च": 6092,
      "िन्स": 6093,
      "ीण": 6094,
      "fed": 6095,
      "fast": 6096,
      "fle": 6097,
      "fts": 6098,
      "fig": 6099,
      "4.0": 6100,
      "51": 6101,
      "64%": 6102,
      "ఫిక్": 6103,
      "బల": 6104,
      "బై": 6105,
      "బొ": 6106,
      "బాల": 6107,
      "బండ": 6108,
      "బంగా": 6109,
      "ीस": 6110,
      "ीया": 6111,
      "ीपासून": 6112,
      "ींब": 6113,
      "ीदृष्ट्या": 6114,
      "ीनुसार": 6115,
      "fut": 6116,
      "foun": 6117,
      "fav": 6118,
      "fos": 6119,
      "food": 6120,
      "6,500": 6121,
      "74.0": 6122,
      "8,": 6123,
      "బడ్": 6124,
      "బిన్న": 6125,
      "బాబ్": 6126,
      "బ్యా": 6127,
      "బద్ధం": 6128,
      "భ్య": 6129,
      "భిం": 6130,
      "ींची": 6131,
      "ीडारत": 6132,
      "ुक": 6133,
      "ुण": 6134,
      "ुकार": 6135,
      "ुति": 6136,
      "four": 6137,
      "further": 6138,
      "follow": 6139,
      "gar": 6140,
      "gent": 6141,
      "9000": 6142,
      "Aw": 6143,
      "Cw": 6144,
      "భంగ": 6145,
      "భదాయ": 6146,
      "భజిత": 6147,
      "మ.": 6148,
      "మయ": 6149,
      "మో": 6150,
      "మార": 6151,
      "ुंत": 6152,
      "ुमार": 6153,
      "ुनंतर": 6154,
      "ुझिक": 6155,
      "ूण": 6156,
      "ूपा": 6157,
      "gence": 6158,
      "gment": 6159,
      "god": 6160,
      "gran": 6161,
      "gious": 6162,
      "ET": 6163,
      "o-A": 6164,
      "ust": 6165,
      "మస్": 6166,
      "మిం": 6167,
      "మాల": 6168,
      "మాయ": 6169,
      "మరా": 6170,
      "మిన": 6171,
      "మంత": 6172,
      "ूची": 6173,
      "ॅम्": 6174,
      "ॅनाइट": 6175,
      "ॅकॅ": 6176,
      "ेकर": 6177,
      "ेशन": 6178,
      "geo": 6179,
      "hm": 6180,
      "ho": 6181,
      "hr": 6182,
      "hal": 6183,
      "ँकि": 6184,
      "ँधी": 6185,
      "ँगर": 6186,
      "మంలో": 6187,
      "మలి": 6188,
      "మతం": 6189,
      "మికి": 6190,
      "మ్‌": 6191,
      "మాల్": 6192,
      "మిత్ర": 6193,
      "ेरणा": 6194,
      "ेडकर": 6195,
      "ैव": 6196,
      "ैसूर": 6197,
      "ोती": 6198,
      "ोचे": 6199,
      "hen": 6200,
      "hou": 6201,
      "hab": 6202,
      "hig": 6203,
      "hood": 6204,
      "ंथ": 6205,
      "ंर": 6206,
      "ंकि": 6207,
      "మణి": 6208,
      "మంచి": 6209,
      "మసాల": 6210,
      "మద్రా": 6211,
      "మంజ": 6212,
      "యి": 6213,
      "యూ": 6214,
      "ोची": 6215,
      "ोत्तर": 6216,
      "ोबार": 6217,
      "ोजड": 6218,
      "ोपाठ": 6219,
      "ौघात": 6220,
      "hman": 6221,
      "however,": 6222,
      "harsh": 6223,
      "iw": 6224,
      "ien": 6225,
      "ंटे": 6226,
      "ंतिक": 6227,
      "ंदर": 6228,
      "యస్": 6229,
      "యము": 6230,
      "యిన": 6231,
      "యులు": 6232,
      "యం:": 6233,
      "యంతో": 6234,
      "యనులు": 6235,
      "्ग": 6236,
      "्स": 6237,
      "्हि": 6238,
      "्मा": 6239,
      "्लो": 6240,
      "्त्व": 6241,
      "ily": 6242,
      "ive": 6243,
      "iform": 6244,
      "itime": 6245,
      "ipp": 6246,
      "अत": 6247,
      "अशा": 6248,
      "अराज": 6249,
      "యింది": 6250,
      "యంలో,": 6251,
      "యథాత": 6252,
      "రొ": 6253,
      "ర‌": 6254,
      "రలో": 6255,
      "రాయ": 6256,
      "्धातील": 6257,
      "ॠग्": 6258,
      "ॠषभदे": 6259,
      "।।": 6260,
      "०१": 6261,
      "०वी": 6262,
      "ific": 6263,
      "iders": 6264,
      "ift": 6265,
      "iations": 6266,
      "idified": 6267,
      "असं": 6268,
      "अस्त": 6269,
      "अद्": 6270,
      "రము": 6271,
      "రద్": 6272,
      "రత్": 6273,
      "రంగా": 6274,
      "రక్ష": 6275,
      "రమైన": 6276,
      "రవే": 6277,
      "०.५": 6278,
      "०,०००": 6279,
      "१)": 6280,
      "१३": 6281,
      "१४": 6282,
      "१००": 6283,
      "jo": 6284,
      "jp": 6285,
      "jure": 6286,
      "jo-": 6287,
      "jour": 6288,
      "अस्थ": 6289,
      "अत्या": 6290,
      "अंट": 6291,
      "రించిన": 6292,
      "రవీ": 6293,
      "రీ;": 6294,
      "రక్షరాస్యత": 6295,
      "రాలు.": 6296,
      "రారి": 6297,
      "రకు,": 6298,
      "१५००": 6299,
      "१०वी": 6300,
      "२)": 6301,
      "२३": 6302,
      "२८": 6303,
      "२%;": 6304,
      "ka": 6305,
      "kdro": 6306,
      "keli": 6307,
      "lt": 6308,
      "ler": 6309,
      "अजं": 6310,
      "अच्छ": 6311,
      "अ-वैदिक": 6312,
      "రాతి": 6313,
      "రమే.": 6314,
      "రతాయ": 6315,
      "రబద్ధం": 6316,
      "ల,": 6317,
      "లిక": 6318,
      "లిన": 6319,
      "२.५": 6320,
      "२५७": 6321,
      "२,०": 6322,
      "३)": 6323,
      "३१": 6324,
      "३४": 6325,
      "lation": 6326,
      "late": 6327,
      "lay": 6328,
      "lab": 6329,
      "lement": 6330,
      "अंदर": 6331,
      "आत": 6332,
      "आय": 6333,
      "లైన": 6334,
      "లకాల": 6335,
      "లబె": 6336,
      "లపై": 6337,
      "లహా": 6338,
      "లమానం:": 6339,
      "లఘు": 6340,
      "३५००": 6341,
      "४)": 6342,
      "४३": 6343,
      "४६": 6344,
      "५)": 6345,
      "५,४": 6346,
      "lating": 6347,
      "law": 6348,
      "lped": 6349,
      "lution": 6350,
      "lades": 6351,
      "आस": 6352,
      "आता": 6353,
      "आजा": 6354,
      "లబై": 6355,
      "లభ్య": 6356,
      "ళల": 6357,
      "ళు": 6358,
      "ళులు": 6359,
      "ళూరు": 6360,
      "ళవిం": 6361,
      "५-७": 6362,
      "६)": 6363,
      "६५": 6364,
      "६%;": 6365,
      "७०": 6366,
      "७४": 6367,
      "my": 6368,
      "mā": 6369,
      "mand": 6370,
      "mal": 6371,
      "mor": 6372,
      "आवा": 6373,
      "आती": 6374,
      "आस्ट": 6375,
      "వత": 6376,
      "వ‌": 6377,
      "వలి": 6378,
      "వస్తు": 6379,
      "వద్ద": 6380,
      "వమి": 6381,
      "వలను": 6382,
      "७वा": 6383,
      "७,५": 6384,
      "७५-७": 6385,
      "९४": 6386,
      "९%;": 6387,
      "९०००": 6388,
      "mit": 6389,
      "may": 6390,
      "mater": 6391,
      "mma": 6392,
      "molog": 6393,
      "आपात": 6394,
      "इया": 6395,
      "इसे": 6396,
      "వస్థానంలో": 6397,
      "వూప": 6398,
      "వనాథ": 6399,
      "వజ్ర": 6400,
      "వన్య": 6401,
      "శే": 6402,
      "శాల": 6403,
      "९०,०००": 6404,
      "ॲंग": 6405,
      "ॲण्": 6406,
      "‌(": 6407,
      "‍स्थापन": 6408,
      "–१३": 6409,
      "nal": 6410,
      "nas": 6411,
      "nam": 6412,
      "nment": 6413,
      "nut": 6414,
      "इन्ह": 6415,
      "इण्ड": 6416,
      "इंदि": 6417,
      "శక్": 6418,
      "శంలో": 6419,
      "శించే": 6420,
      "శిల్": 6421,
      "శక్తి": 6422,
      "శాతం": 6423,
      "శరద్": 6424,
      "्यता": 6425,
      "्यम्": 6426,
      "्यदल": 6427,
      "्यछा": 6428,
      "्यानंतर": 6429,
      "्यासक्र": 6430,
      "noun": 6431,
      "ncre": 6432,
      "nuc": 6433,
      "next": 6434,
      "native": 6435,
      "इओस": 6436,
      "ई;": 6437,
      "ईस्व": 6438,
      "షే": 6439,
      "షన్": 6440,
      "షులు": 6441,
      "షం.": 6442,
      "షకాహార": 6443,
      "సొ": 6444,
      "సాలు": 6445,
      "ारे": 6446,
      "ारात": 6447,
      "ारिक": 6448,
      "ार्धातील": 6449,
      "्रिका": 6450,
      "ात,": 6451,
      "oi": 6452,
      "oast": 6453,
      "os.": 6454,
      "ook": 6455,
      "obar": 6456,
      "ईलै": 6457,
      "ईसवी": 6458,
      "ईरान": 6459,
      "సగా": 6460,
      "సాయ": 6461,
      "సిన": 6462,
      "సల్": 6463,
      "సభా": 6464,
      "సవా": 6465,
      "సత్య": 6466,
      "ात.": 6467,
      "ातच": 6468,
      "ात्य": 6469,
      "ातला": 6470,
      "ातींब": 6471,
      "ात्मा": 6472,
      "odiversity": 6473,
      "ps": 6474,
      "pul": 6475,
      "pil": 6476,
      "ple": 6477,
      "उल्": 6478,
      "उद्ध": 6479,
      "उच्": 6480,
      "సమి": 6481,
      "సమాన": 6482,
      "సరం": 6483,
      "సీలు": 6484,
      "సత్తా": 6485,
      "సాయుత": 6486,
      "సలహా": 6487,
      "र्ती": 6488,
      "र्तु": 6489,
      "र्फे": 6490,
      "र्घकाल": 6491,
      "र्तमे": 6492,
      "र्न‍": 6493,
      "pain": 6494,
      "pay": 6495,
      "pover": 6496,
      "put": 6497,
      "pred": 6498,
      "उभरा": 6499,
      "उंट": 6500,
      "उन्नति": 6501,
      "హె": 6502,
      "హొ": 6503,
      "హ్": 6504,
      "హిం": 6505,
      "హర్": 6506,
      "హాయ": 6507,
      "హస్త": 6508,
      "लामुख": 6509,
      "लांपैकी": 6510,
      "लावणी": 6511,
      "हेब": 6512,
      "भारत.": 6513,
      "भारतं": 6514,
      "pok": 6515,
      "pot": 6516,
      "prise": 6517,
      "panding": 6518,
      "pite": 6519,
      "ऊंची": 6520,
      "ऋग": 6521,
      "एँ": 6522,
      "హపు": 6523,
      "హాలు,": 6524,
      "హక్కు": 6525,
      "హ్మ": 6526,
      "హ్వ": 6527,
      "ా)": 6528,
      "ాలో": 6529,
      "भारती": 6530,
      "भारतील": 6531,
      "भारतभूमी": 6532,
      "भारतरत्": 6533,
      "स्कार": 6534,
      "स्लि": 6535,
      "prac": 6536,
      "paved": 6537,
      "ring": 6538,
      "rom": 6539,
      "rang": 6540,
      "ऑफ़": 6541,
      "औप": 6542,
      "कट": 6543,
      "ాదు": 6544,
      "ాంబ": 6545,
      "ాశ్ర": 6546,
      "ాలోయ": 6547,
      "ానిస్తాన్": 6548,
      "ాము.": 6549,
      "ాదాయంలో": 6550,
      "स्मर": 6551,
      "स्फो": 6552,
      "ाचित": 6553,
      "ाच्छ": 6554,
      "ांका": 6555,
      "ांती": 6556,
      "rup": 6557,
      "rating": 6558,
      "son": 6559,
      "sing": 6560,
      "sur": 6561,
      "करा": 6562,
      "कम्": 6563,
      "कड़ी": 6564,
      "ాంతి": 6565,
      "ాడ్‌": 6566,
      "ాధిన": 6567,
      "ాపక": 6568,
      "ి,": 6569,
      "ి:": 6570,
      "ిని": 6571,
      "ांना": 6572,
      "ांतर": 6573,
      "ांसाठी": 6574,
      "ांनुसार": 6575,
      "ांबद्दल": 6576,
      "लेस": 6577,
      "sem": 6578,
      "sch": 6579,
      "smo": 6580,
      "sac": 6581,
      "sap": 6582,
      "क्री": 6583,
      "कन्न": 6584,
      "क-रूप": 6585,
      "ిచె": 6586,
      "ిశ్ర": 6587,
      "ిలే": 6588,
      "ిరంగ": 6589,
      "ిద్ధి": 6590,
      "ిళ్ళ": 6591,
      "ిటన్": 6592,
      "लेखक": 6593,
      "लेण्यां": 6594,
      "ानदी": 6595,
      "कापा": 6596,
      "कापासून": 6597,
      "काठी": 6598,
      "southeast": 6599,
      "spec": 6600,
      "senti": 6601,
      "sity,": 6602,
      "saved": 6603,
      "खर": 6604,
      "खे": 6605,
      "खित": 6606,
      "ియనులు": 6607,
      "ీకృ": 6608,
      "ీకరణ": 6609,
      "ీకులు": 6610,
      "ీ-దండ": 6611,
      "ుని": 6612,
      "ును": 6613,
      "कासीम": 6614,
      "काँग्रे": 6615,
      "काठची": 6616,
      "राहो": 6617,
      "राहि": 6618,
      "राणिक": 6619,
      "s')": 6620,
      "safe": 6621,
      "spok": 6622,
      "tre": 6623,
      "ten": 6624,
      "खदेव": 6625,
      "खगोल": 6626,
      "खण्ड": 6627,
      "ుల్": 6628,
      "ువు": 6629,
      "ుర్య": 6630,
      "ుడైన": 6631,
      "ునిక": 6632,
      "ుళూరు": 6633,
      "ూ,": 6634,
      "राथी": 6635,
      "रायसी": 6636,
      "ीलंका": 6637,
      "प्रजा": 6638,
      "प्रस्थाप": 6639,
      "प्रांत": 6640,
      "tur": 6641,
      "tch": 6642,
      "tain": 6643,
      "tary": 6644,
      "tta": 6645,
      "गह": 6646,
      "गै": 6647,
      "गौ": 6648,
      "ూలా": 6649,
      "ృతంగా": 6650,
      "ెస్": 6651,
      "ెర్": 6652,
      "ెన్న": 6653,
      "ెనే": 6654,
      "ెడ్": 6655,
      "प्रवाह": 6656,
      "प्रमाण": 6657,
      "प्रबळ": 6658,
      "प्रयत्": 6659,
      "प्रिय": 6660,
      "प्रणय": 6661,
      "text": 6662,
      "tas,": 6663,
      "tently": 6664,
      "tural": 6665,
      "templ": 6666,
      "गों": 6667,
      "गढ़": 6668,
      "घि": 6669,
      "ెల్లో": 6670,
      "ెక్కను": 6671,
      "ేత": 6672,
      "ేకా": 6673,
      "ేష్": 6674,
      "ే..": 6675,
      "ేకమైన": 6676,
      "प्रसार": 6677,
      "प्रादेश": 6678,
      "प्रिन्स": 6679,
      "प्रेरणा": 6680,
      "प्रस्तर": 6681,
      "यामध्ये": 6682,
      "taken": 6683,
      "ues": 6684,
      "uts": 6685,
      "ufac": 6686,
      "utional": 6687,
      "घु": 6688,
      "घोड़": 6689,
      "घरों": 6690,
      "ేననీ": 6691,
      "ేయులు": 6692,
      "ైక": 6693,
      "ైస్త": 6694,
      "ైపో": 6695,
      "ైవరు": 6696,
      "ోంది.": 6697,
      "यादी": 6698,
      "यावरून": 6699,
      "यापाठ": 6700,
      "याबद्ध": 6701,
      "िकच": 6702,
      "िकल्प": 6703,
      "usive": 6704,
      "ves": 6705,
      "vis": 6706,
      "vary": 6707,
      "vative": 6708,
      "घरान": 6709,
      "चट": 6710,
      "चू": 6711,
      "ోక్ష": 6712,
      "ోద్య": 6713,
      "ోత్రి": 6714,
      "ోధాల": 6715,
      "్;": 6716,
      "్లో": 6717,
      "్తదేశపు": 6718,
      "िकीनुसार": 6719,
      "वाज": 6720,
      "वापर": 6721,
      "वाणि": 6722,
      "वामि": 6723,
      "वाळू": 6724,
      "vine": 6725,
      "vanced": 6726,
      "vill": 6727,
      "viron": 6728,
      "wer": 6729,
      "चले": 6730,
      "चन्द": 6731,
      "चुन": 6732,
      "‌కు": 6733,
      "‌టిక": 6734,
      "‌తంలో": 6735,
      "‌ఫర్": 6736,
      "‌వ‌": 6737,
      "–2004": 6738,
      "్రిచె": 6739,
      "वावरून": 6740,
      "वाद्यां": 6741,
      "वाखाली": 6742,
      "वाळ्या": 6743,
      "वाहिनी": 6744,
      "वाटचाल": 6745,
      "wing": 6746,
      "went": 6747,
      "where": 6748,
      "would": 6749,
      "xth": 6750,
      "छट": 6751,
      "जड़": 6752,
      "जन्": 6753,
      "ారణంగా": 6754,
      "ారమ్‌": 6755,
      "లు,": 6756,
      "లుపలి": 6757,
      "లోన్": 6758,
      "లోని": 6759,
      "లోను": 6760,
      "वाडया": 6761,
      "वायव्य": 6762,
      "वाऱ्यां": 6763,
      "वासस्थान": 6764,
      "वालामुख": 6765,
      "तीचि": 6766,
      "xed": 6767,
      "yā": 6768,
      "yī": 6769,
      "yas": 6770,
      "yte": 6771,
      "जटि": 6772,
      "जगह": 6773,
      "झे": 6774,
      "లోకాల": 6775,
      "లోపం": 6776,
      "స్లో": 6777,
      "స్వే": 6778,
      "స్వర": 6779,
      "స్లే": 6780,
      "స్టా": 6781,
      "तीरि": 6782,
      "मुत्": 6783,
      "मुहू": 6784,
      "मुलांपैकी": 6785,
      "मुस्लि": 6786,
      "वित": 6787,
      "yond": 6788,
      "ywhere": 6789,
      "zes": 6790,
      "ādh": 6791,
      "ārat": 6792,
      "टल": 6793,
      "टना": 6794,
      "टियाँ": 6795,
      "స్టే": 6796,
      "స్వర్ణ": 6797,
      "స్టలు": 6798,
      "్యులు": 6799,
      "్యంలో": 6800,
      "న్మార్": 6801,
      "న్సీ": 6802,
      "विन": 6803,
      "विका": 6804,
      "विसा": 6805,
      "विष्ट": 6806,
      "विश्": 6807,
      "विले.": 6808,
      "ία": 6809,
      "ός": 6810,
      "ṇa": 6811,
      "ṇini": 6812,
      "ṭādh": 6813,
      "टनिरपेक्ष": 6814,
      "टकरा": 6815,
      "ठित": 6816,
      "న్లుగా": 6817,
      "ది,": 6818,
      "దిర్": 6819,
      "దిరి": 6820,
      "దికి": 6821,
      "దిగ్": 6822,
      "దిభాగం": 6823,
      "विवाह": 6824,
      "विष्ण": 6825,
      "विजयन": 6826,
      "देड": 6827,
      "देवी": 6828,
      "देतो.": 6829,
      "–19": 6830,
      "—the": 6831,
      "—to": 6832,
      "—am": 6833,
      "—were": 6834,
      "डिया": 6835,
      "डवा": 6836,
      "डियाँ": 6837,
      "దిగువ": 6838,
      "దే.": 6839,
      "ప్రమా": 6840,
      "ప్రయా": 6841,
      "ప్రఖ్య": 6842,
      "ప్రణా": 6843,
      "ప్రదేశాల": 6844,
      "देसू": 6845,
      "देखील": 6846,
      "नाल्या": 6847,
      "नागर": 6848,
      "नाभि": 6849,
      "नावावरून": 6850,
      "—which": 6851,
      "—exp": 6852,
      "—sol": 6853,
      "—notably": 6854,
      "thy": 6855,
      "ढा": 6856,
      "ढलु": 6857,
      "णियों": 6858,
      "ప్రార్థ": 6859,
      "ప్రగతి": 6860,
      "ప్రథమ": 6861,
      "ింపు": 6862,
      "ింసాయుత": 6863,
      "దేశిక": 6864,
      "దేశము": 6865,
      "सामा": 6866,
      "साहज": 6867,
      "सापडले": 6868,
      "साडे": 6869,
      "सामान्य": 6870,
      "साहेब": 6871,
      "thor": 6872,
      "thas": 6873,
      "thir": 6874,
      "those": 6875,
      "th-larg": 6876,
      "त)": 6877,
      "त:": 6878,
      "तब": 6879,
      "దేశరాజకీయ": 6880,
      "దేశాన్ని": 6881,
      "దేశమంత": 6882,
      "దేశాధిన": 6883,
      "ాలని": 6884,
      "ాలే.": 6885,
      "ాలన్నీ": 6886,
      "च्यामधील": 6887,
      "ते,": 6888,
      "तेक": 6889,
      "तेज": 6890,
      "तेत": 6891,
      "तेवर": 6892,
      "aning": 6893,
      "anat": 6894,
      "ans,": 6895,
      "ants": 6896,
      "anism": 6897,
      "तभ": 6898,
      "तौ": 6899,
      "तकर": 6900,
      "ాలెక్కను": 6901,
      "ాలేకా": 6902,
      "ికలు": 6903,
      "ికులు": 6904,
      "ికూడ": 6905,
      "ికం,": 6906,
      "ర్టి": 6907,
      "तेजात": 6908,
      "तेखाली": 6909,
      "तेपेक्षा": 6910,
      "तेव्हा": 6911,
      "तेढां": 6912,
      "मधून": 6913,
      "anistan": 6914,
      "another": 6915,
      "inal": 6916,
      "indi": 6917,
      "inar": 6918,
      "तीन": 6919,
      "तनाम": 6920,
      "तव्य": 6921,
      "ర్కొ": 6922,
      "ర్తా": 6923,
      "ర్సిం": 6924,
      "ర్జాలు": 6925,
      "ర్లు.": 6926,
      "ర్భవ": 6927,
      "ర్జె": 6928,
      "ीयांचे": 6929,
      "त्त": 6930,
      "त्म": 6931,
      "त्वे": 6932,
      "त्पत्": 6933,
      "त्तीय": 6934,
      "incom": 6935,
      "inally": 6936,
      "inform": 6937,
      "incial": 6938,
      "inant": 6939,
      "तगा": 6940,
      "तियाँ": 6941,
      "तदु": 6942,
      "భార్తదేశపు": 6943,
      "భార‌తంలో": 6944,
      "భారత,": 6945,
      "భారతం": 6946,
      "భారతం,": 6947,
      "భారతంలో,": 6948,
      "ాలున్నాయి.": 6949,
      "त्वाखाली": 6950,
      "त्तीचि": 6951,
      "चेरी": 6952,
      "चेन्": 6953,
      "द्वार": 6954,
      "द्दु": 6955,
      "inscrip": 6956,
      "infra": 6957,
      "instit": 6958,
      "instead": 6959,
      "in-produc": 6960,
      "तवाँ": 6961,
      "थर": 6962,
      "थिक": 6963,
      "న్నత": 6964,
      "న్నా,": 6965,
      "గాంచిన": 6966,
      "గాయి": 6967,
      "కుండ": 6968,
      "కునే": 6969,
      "కుడు": 6970,
      "द्वारे": 6971,
      "ष्प": 6972,
      "ष्णा": 6973,
      "ष्मती": 6974,
      "वीन’": 6975,
      "संस्थ": 6976,
      "then": 6977,
      "they": 6978,
      "real": 6979,
      "reve": 6980,
      "reco": 6981,
      "दन": 6982,
      "दस्": 6983,
      "दक्": 6984,
      "కుడి": 6985,
      "కుమార్": 6986,
      "కులం": 6987,
      "కులను": 6988,
      "కుమారు": 6989,
      "కుడ్య": 6990,
      "కుదిర్": 6991,
      "संदर्": 6992,
      "संबळ": 6993,
      "संख्य": 6994,
      "संधी": 6995,
      "संख्ये": 6996,
      "संगमर": 6997,
      "refl": 6998,
      "republic": 6999,
      "repres": 7000,
      "referen": 7001,
      "refined": 7002,
      "दंगा": 7003,
      "दोलन": 7004,
      "दशक": 7005,
      "కుర్తా": 7006,
      "నివా": 7007,
      "నిచ్చ": 7008,
      "నియా": 7009,
      "నివార": 7010,
      "నియో": 7011,
      "నిధి": 7012,
      "संतती": 7013,
      "संबध": 7014,
      "होऊ": 7015,
      "होंद": 7016,
      "होऊन": 7017,
      "होणार": 7018,
      "reach": 7019,
      "rejec": 7020,
      "reven": 7021,
      "resist": 7022,
      "replac": 7023,
      "दड़ो": 7024,
      "धे": 7025,
      "धता": 7026,
      "నివి.": 7027,
      "నివల్ల": 7028,
      "నిలిచ": 7029,
      "నిరక్షరాస్యత": 7030,
      "నిలబె": 7031,
      "నిషే": 7032,
      "విడ": 7033,
      "होउन": 7034,
      "होचला": 7035,
      "होय.": 7036,
      "देशात": 7037,
      "देशाच्या": 7038,
      "देशातील": 7039,
      "rety.": 7040,
      "rect": 7041,
      "repul": 7042,
      "ons": 7043,
      "onom": 7044,
      "धक्": 7045,
      "धम्": 7046,
      "धिकार": 7047,
      "విడి": 7048,
      "విధాన": 7049,
      "విస్తు": 7050,
      "వివర": 7051,
      "విశాఖ": 7052,
      "విజన్": 7053,
      "వినాయ": 7054,
      "देशाची": 7055,
      "देशाने": 7056,
      "देशांच्या": 7057,
      "देशांनी": 7058,
      "देशीयांचे": 7059,
      "नेय": 7060,
      "only": 7061,
      "onoun": 7062,
      "onset": 7063,
      "eras": 7064,
      "erated": 7065,
      "नए": 7066,
      "न्य": 7067,
      "निम": 7068,
      "వితంలో": 7069,
      "విజ్": 7070,
      "విఫల": 7071,
      "విశి": 7072,
      "వివాదం": 7073,
      "విభజిత": 7074,
      "విశే": 7075,
      "नेचे": 7076,
      "नेपा": 7077,
      "नेमधील": 7078,
      "नेऊन": 7079,
      "नेशन": 7080,
      "नेहरू": 7081,
      "erous": 7082,
      "era,": 7083,
      "andson": 7084,
      "ala": 7085,
      "ales": 7086,
      "न्तर": 7087,
      "नजो": 7088,
      "नये": 7089,
      "విసభా": 7090,
      "ాత్మ": 7091,
      "ాయతి": 7092,
      "ాయకార": 7093,
      "ాయీలు": 7094,
      "క్త": 7095,
      "క్నాల": 7096,
      "हीतात": 7097,
      "असते": 7098,
      "असणे": 7099,
      "असतात.": 7100,
      "असल्याची": 7101,
      "असत.": 7102,
      "als,": 7103,
      "alry": 7104,
      "althy": 7105,
      "ene": 7106,
      "endi": 7107,
      "नलि": 7108,
      "नकल": 7109,
      "नकारी": 7110,
      "క్‌టిక": 7111,
      "ానెట్": 7112,
      "రామన": 7113,
      "రాణించ": 7114,
      "రామాయ": 7115,
      "రాసిన": 7116,
      "ను,": 7117,
      "त्यास": 7118,
      "त्यामधील": 7119,
      "त्यातील": 7120,
      "त्यावरून": 7121,
      "त्याखाली": 7122,
      "पाला": 7123,
      "encomp": 7124,
      "ensl": 7125,
      "enistic": 7126,
      "ending": 7127,
      "environ": 7128,
      "पक": 7129,
      "प्य": 7130,
      "पीय": 7131,
      "నున్న": 7132,
      "ము,": 7133,
      "ముద్ర": 7134,
      "ముత్య": 7135,
      "ముందు": 7136,
      "ములు.": 7137,
      "ండర్": 7138,
      "पाश्च": 7139,
      "पाषा": 7140,
      "पाण्याची": 7141,
      "पाउस": 7142,
      "पाऊस": 7143,
      "पाडण्यात": 7144,
      "stom": 7145,
      "stam": 7146,
      "sts,": 7147,
      "sts.": 7148,
      "stry": 7149,
      "पराज": 7150,
      "पदा": 7151,
      "पनी": 7152,
      "ండ్రా": 7153,
      "ండమస్": 7154,
      "ండ్యులు": 7155,
      "ద్వై": 7156,
      "ద్దిభాగం": 7157,
      "ద్విసభా": 7158,
      "త్త": 7159,
      "पालवा": 7160,
      "्येकडील": 7161,
      "हिवाळ्या": 7162,
      "्राला": 7163,
      "्रामधील": 7164,
      "्रास्त्र": 7165,
      "stage": 7166,
      "stressed": 7167,
      "stian": 7168,
      "stics,": 7169,
      "tiation": 7170,
      "पीं": 7171,
      "पब्": 7172,
      "पल्": 7173,
      "త్తల": 7174,
      "ించుకు": 7175,
      "ించవచ్చు.": 7176,
      "ించుకోవడ": 7177,
      "ించబడింది.": 7178,
      "తిరి": 7179,
      "ల్స్": 7180,
      "झाल्याची": 7181,
      "राजकार": 7182,
      "राजवाडया": 7183,
      "ंगने": 7184,
      "ंगाच्या": 7185,
      "ंगभद्रा": 7186,
      "tiles,": 7187,
      "did": 7188,
      "diers,": 7189,
      "dives": 7190,
      "direct": 7191,
      "पन्न": 7192,
      "पड़ो": 7193,
      "पटल": 7194,
      "ల్తాన": 7195,
      "స్తాయి.": 7196,
      "స్తానీ": 7197,
      "స్తాంబ": 7198,
      "స్తూ,": 7199,
      "ంతల": 7200,
      "ంతై": 7201,
      "पूरी": 7202,
      "वरळी": 7203,
      "भारतीयांच्या": 7204,
      "भारतीयांनी": 7205,
      "केला": 7206,
      "केरळ": 7207,
      "ard": 7208,
      "arri": 7209,
      "ars,": 7210,
      "arts": 7211,
      "arter": 7212,
      "फ्रा": 7213,
      "फले": 7214,
      "बत": 7215,
      "రి.": 7216,
      "రిట్ల": 7217,
      "రిట్లు": 7218,
      "సం.": 7219,
      "సంస్థ": 7220,
      "సంక్ర": 7221,
      "సంధి": 7222,
      "क्षीण": 7223,
      "ता)": 7224,
      "तावर": 7225,
      "तामध्ये": 7226,
      "तामुळे": 7227,
      "तावादी": 7228,
      "arhi": 7229,
      "arcation": 7230,
      "Instead": 7231,
      "oration": 7232,
      "orse": 7233,
      "बम": 7234,
      "बु": 7235,
      "बस्": 7236,
      "సంగమ": 7237,
      "సందర్": 7238,
      "రు,": 7239,
      "రుగా": 7240,
      "రుష్": 7241,
      "రుచులు,": 7242,
      "పులి": 7243,
      "तापमान": 7244,
      "पुणे": 7245,
      "पुरुव": 7246,
      "पुरात": 7247,
      "पुडी": 7248,
      "पुडा": 7249,
      "ors.": 7250,
      "orig": 7251,
      "orting": 7252,
      "orders": 7253,
      "organ": 7254,
      "बहा": 7255,
      "बनी": 7256,
      "बल्": 7257,
      "పుతో": 7258,
      "పుత్ర": 7259,
      "పులా": 7260,
      "పుష్": 7261,
      "పునర్": 7262,
      "పురి.": 7263,
      "స్థ‌": 7264,
      "पुनर्": 7265,
      "पुर्न‍": 7266,
      "पुद्दु": 7267,
      "मागील": 7268,
      "मीमधील": 7269,
      "मीटर": 7270,
      "off": 7271,
      "offic": 7272,
      "inga": 7273,
      "ings": 7274,
      "itan": 7275,
      "भो": 7276,
      "भजन": 7277,
      "भदेव": 7278,
      "స్థాపక": 7279,
      "స్థూలా": 7280,
      "ంటో": 7281,
      "ంటుంది.": 7282,
      "ంటరీ": 7283,
      "భారతదేశం,": 7284,
      "భాజపా": 7285,
      "मानाने": 7286,
      "मानाचे": 7287,
      "मानचि": 7288,
      "मानुसार": 7289,
      "मानवाने": 7290,
      "ल्याने": 7291,
      "itat": 7292,
      "itself": 7293,
      "omically": 7294,
      "ominant": 7295,
      "ass.": 7296,
      "मठ": 7297,
      "म्र": 7298,
      "मया": 7299,
      "భావిస్తు": 7300,
      "ైనెర్": 7301,
      "ంగల": 7302,
      "పాద": 7303,
      "పాక్ష": 7304,
      "పాండి": 7305,
      "పాండ్యులు": 7306,
      "ल्यावरून": 7307,
      "कारभारा": 7308,
      "वेन": 7309,
      "वेळ": 7310,
      "वेस": 7311,
      "वेल्": 7312,
      "associ": 7313,
      "asive": 7314,
      "asants": 7315,
      "ese": 7316,
      "essenti": 7317,
      "मंग": 7318,
      "मिम": 7319,
      "मले": 7320,
      "వాద": 7321,
      "వాటి": 7322,
      "వాదన": 7323,
      "వాటిలో": 7324,
      "వామిత్ర": 7325,
      "సామీ": 7326,
      "సాఫ్ట": 7327,
      "वेरु": 7328,
      "वेळा": 7329,
      "वेदकालीन": 7330,
      "वेलूर": 7331,
      "ष्ट्रामधील": 7332,
      "मोहिमा": 7333,
      "ising": 7334,
      "islation": 7335,
      "touch": 7336,
      "toler": 7337,
      "ented": 7338,
      "मद्": 7339,
      "मोड़": 7340,
      "मंत्र": 7341,
      "సానియా": 7342,
      "క్షంగా": 7343,
      "క్షం:": 7344,
      "ఉన్నాయి": 7345,
      "ఉన్నారు": 7346,
      "ఉన్నట్లు": 7347,
      "ఉన్నతంగా": 7348,
      "मोरि": 7349,
      "मोहिनी": 7350,
      "मोहम्": 7351,
      "मोहोंद": 7352,
      "तिच्या": 7353,
      "तिचे": 7354,
      "entment": 7355,
      "entral": 7356,
      "ent-day": 7357,
      "atment": 7358,
      "attra": 7359,
      "मसि": 7360,
      "मज़": 7361,
      "मन्तु": 7362,
      "ారు,": 7363,
      "ార్క్‌టిక": 7364,
      "ితం": 7365,
      "ితంగా": 7366,
      "ిత్యం": 7367,
      "ితే,": 7368,
      "జాతులు": 7369,
      "तिचा": 7370,
      "तित्त्व": 7371,
      "तिथे": 7372,
      "तिसरे": 7373,
      "स्थित्य": 7374,
      "पूर्वेस": 7375,
      "ication": 7376,
      "icling": 7377,
      "oured": 7378,
      "oups": 7379,
      "tions": 7380,
      "मजब": 7381,
      "मोह": 7382,
      "मतल": 7383,
      "జాతులు,": 7384,
      "ష్టి": 7385,
      "ష్టు": 7386,
      "ష్టమైన": 7387,
      "ష్ట్యా": 7388,
      "ప్రాముఖ్య": 7389,
      "ప్రాసె": 7390,
      "येतात": 7391,
      "येमुळे": 7392,
      "येणा": 7393,
      "येणार": 7394,
      "येतो.": 7395,
      "येण्याची": 7396,
      "tioned": 7397,
      "tions,": 7398,
      "tionary": 7399,
      "lying": 7400,
      "ly-defined": 7401,
      "मतभ": 7402,
      "यड": 7403,
      "यस": 7404,
      "ప్రాజా": 7405,
      "ప్రాణుల": 7406,
      "ప్రాబల": 7407,
      "ప్రాదేశిక": 7408,
      "రాజధాన": 7409,
      "రాజు.": 7410,
      "కోసం": 7411,
      "सुन": 7412,
      "सुद्ध": 7413,
      "सुवर्": 7414,
      "सुरत": 7415,
      "सुत्रे": 7416,
      "सुरक्षा": 7417,
      "ected": 7418,
      "ula": 7419,
      "ulated": 7420,
      "urred": 7421,
      "urgence": 7422,
      "यि": 7423,
      "यें": 7424,
      "यता": 7425,
      "కోటి": 7426,
      "కోడు": 7427,
      "కోవార": 7428,
      "కోవడ": 7429,
      "క్రైస్త": 7430,
      "ట్టు": 7431,
      "ట్టూ": 7432,
      "सुलतान": 7433,
      "सुसह्य": 7434,
      "ंडवन": 7435,
      "किंवा": 7436,
      "शाही": 7437,
      "आहेत,": 7438,
      "olas": 7439,
      "olith": 7440,
      "olde": 7441,
      "olav": 7442,
      "olving": 7443,
      "यिक": 7444,
      "यंस": 7445,
      "यतनाम": 7446,
      "ట్టారు.": 7447,
      "ట్టుకు": 7448,
      "ట్టెల": 7449,
      "190": 7450,
      "1956": 7451,
      "1962": 7452,
      "1948లో": 7453,
      "आहेत;": 7454,
      "ली.\"": 7455,
      "कृष्णा": 7456,
      "र्मिती": 7457,
      "र्मेशन": 7458,
      "भारतातून": 7459,
      "olars,": 7460,
      "welf": 7461,
      "weaken": 7462,
      "weight": 7463,
      "wealthy": 7464,
      "रता": 7465,
      "रक्ष": 7466,
      "रचा": 7467,
      "1965": 7468,
      "కావడ": 7469,
      "కాగా,": 7470,
      "కాకుండ": 7471,
      "నేయ": 7472,
      "నేసియా": 7473,
      "నేరుగా": 7474,
      "परिकल्प": 7475,
      "सियाचीन": 7476,
      "करता": 7477,
      "करणारा": 7478,
      "करते,": 7479,
      "णिय": 7480,
      "raw": 7481,
      "raid": 7482,
      "rather": 7483,
      "raco": 7484,
      "ratic": 7485,
      "रदार": 7486,
      "रवरी": 7487,
      "र-मुस्लिम": 7488,
      "పే,": 7489,
      "పేస్": 7490,
      "పేదర": 7491,
      "ంచే": 7492,
      "దువు": 7493,
      "దుస్తులు": 7494,
      "మామి": 7495,
      "वर्ती": 7496,
      "वर्चस्व": 7497,
      "गेले": 7498,
      "गेली": 7499,
      "गेला.": 7500,
      "दिले": 7501,
      "rative": 7502,
      "raiders": 7503,
      "raising": 7504,
      "emper": 7505,
      "empor": 7506,
      "रत)": 7507,
      "लत": 7508,
      "लौ": 7509,
      "మాదిరి": 7510,
      "మాండమస్": 7511,
      "యా;": 7512,
      "యావత్": 7513,
      "యాండర్": 7514,
      "లి;": 7515,
      "లిసింది.": 7516,
      "दिशे": 7517,
      "दिलेले": 7518,
      "दीर्घकाल": 7519,
      "मिण": 7520,
      "मिर": 7521,
      "मिसळून": 7522,
      "embodi": 7523,
      "rition": 7524,
      "rific": 7525,
      "rianism": 7526,
      "ristian": 7527,
      "लना": 7528,
      "ल्व": 7529,
      "लम्": 7530,
      "లిథిక": 7531,
      "లియం": 7532,
      "లివిజన్": 7533,
      "లియాండర్": 7534,
      "వ్యయంతో": 7535,
      "వ్య‌వ‌": 7536,
      "భారతీయులు": 7537,
      "मित्त": 7538,
      "स्तंभ": 7539,
      "स्कृतिक": 7540,
      "भाग,": 7541,
      "भागातील": 7542,
      "भागावर": 7543,
      "riors.": 7544,
      "sia": 7545,
      "sie": 7546,
      "sider": 7547,
      "side": 7548,
      "लीं": 7549,
      "लझे": 7550,
      "वत": 7551,
      "భారతీయుల": 7552,
      "భారతీయుడైన": 7553,
      "తరించింది.": 7554,
      "తరతరాలు": 7555,
      "నాటి": 7556,
      "నాడు": 7557,
      "నామాలు": 7558,
      "शिक्षणात": 7559,
      "शिक्षणही": 7560,
      "शिक्षणानंतर": 7561,
      "शिक्षणावर": 7562,
      "शिक्षणतज्ञ": 7563,
      "शिक्षणाबद्दल": 7564,
      "signi": 7565,
      "size": 7566,
      "sixth": 7567,
      "sizes": 7568,
      "hered": 7569,
      "वल": 7570,
      "वीय": 7571,
      "श्व": 7572,
      "నాట్యం": 7573,
      "సిద్ధ": 7574,
      "సిగ్": 7575,
      "సిద్ధం": 7576,
      "్లను": 7577,
      "త్వం": 7578,
      "త్వాలు": 7579,
      "शिक्षणसंस्थ": 7580,
      "ंतत्र": 7581,
      "एकच": 7582,
      "एकता": 7583,
      "एकाचे": 7584,
      "एकूण": 7585,
      "heren": 7586,
      "helped": 7587,
      "hewing": 7588,
      "amma": 7589,
      "ambi": 7590,
      "शिकार": 7591,
      "शस्त्र": 7592,
      "शकारी": 7593,
      "త్వంలో": 7594,
      "త్వరలో": 7595,
      "జాతీయవాదం": 7596,
      "జాతీయగీతం": 7597,
      "జాతీయాదాయంలో": 7598,
      "తోంది.": 7599,
      "తోష్ణ": 7600,
      "ठाणे": 7601,
      "ठाशी": 7602,
      "धर्माची": 7603,
      "धर्मनि": 7604,
      "धर्मसम": 7605,
      "धर्मांचा": 7606,
      "due": 7607,
      "dual": 7608,
      "iled": 7609,
      "ility": 7610,
      "ilitated": 7611,
      "षों": 7612,
      "स\"": 7613,
      "सह": 7614,
      "రాష్ట్రపు": 7615,
      "రాష్ట్రానికి": 7616,
      "రాష్ట్రపత": 7617,
      "గుప్": 7618,
      "గుత్తా": 7619,
      "గుతాయి.": 7620,
      "గునవి": 7621,
      "धर्मांपैकी": 7622,
      "री,": 7623,
      "रीव": 7624,
      "रीस": 7625,
      "रीसे": 7626,
      "श्लोक": 7627,
      "ilipp": 7628,
      "veri": 7629,
      "versity,": 7630,
      "lied": 7631,
      "lief": 7632,
      "सृ": 7633,
      "सै": 7634,
      "सक्ष": 7635,
      "గుతోంది.": 7636,
      "వచ్చి,": 7637,
      "భారతదేశము": 7638,
      "భారతదేశమే.": 7639,
      "ద్ధాలు": 7640,
      "ద్ధలతో,": 7641,
      "ల్లింది.": 7642,
      "नेकलेस": 7643,
      "आहेत.सर्व": 7644,
      "ंतरे": 7645,
      "अनेकांचे": 7646,
      "ण्याने": 7647,
      "र्वाचित": 7648,
      "living": 7649,
      "likeli": 7650,
      "adjo": 7651,
      "advanced": 7652,
      "adversity,": 7653,
      "सहा": 7654,
      "सहि": 7655,
      "सवीं": 7656,
      "ల్లాయి.": 7657,
      "ల్లయిన": 7658,
      "ల్లీ-దండ": 7659,
      "dition": 7660,
      "dispu": 7661,
      "on,": 7662,
      "కొక్క": 7663,
      "संस्कृतीला": 7664,
      "संस्कृतीचे": 7665,
      "संस्कृतीमध्ये": 7666,
      "संस्कृतीचा": 7667,
      "संस्कृतींपैकी": 7668,
      "जातात.": 7669,
      "ford": 7670,
      "foray": 7671,
      "forces": 7672,
      "forbade": 7673,
      "seen": 7674,
      "सकें": 7675,
      "सफल": 7676,
      "सहित": 7677,
      "కొంక": 7678,
      "కొనసా": 7679,
      "కొలమానం:": 7680,
      "కొద్దిభాగం": 7681,
      "కొత్త": 7682,
      "డు.": 7683,
      "డుంబ": 7684,
      "टिपू": 7685,
      "१९१२": 7686,
      "१९७१": 7687,
      "१९३१": 7688,
      "१९६५": 7689,
      "१९७४": 7690,
      "seals": 7691,
      "seas,": 7692,
      "severe": 7693,
      "seven": 7694,
      "asting": 7695,
      "सकता": 7696,
      "सोने": 7697,
      "सन्नति": 7698,
      "పాలకులు": 7699,
      "పాలయింది": 7700,
      "పాలిటన్": 7701,
      "పాలకులను": 7702,
      "మైనవి.": 7703,
      "వేర్,": 7704,
      "వేత్తల": 7705,
      "असे.": 7706,
      "असेल": 7707,
      "इंडियन": 7708,
      "कडक": 7709,
      "कडा": 7710,
      "कडी": 7711,
      "astation": 7712,
      "ception": 7713,
      "cept": 7714,
      "cified": 7715,
      "lex": 7716,
      "सदस्": 7717,
      "सरदार": 7718,
      "हद": 7719,
      "ఒకటో": 7720,
      "కాలపరి": 7721,
      "కాలాల్లో": 7722,
      "డిగించ": 7723,
      "ణాన్ని": 7724,
      "ణాటక": 7725,
      "ణాదికి": 7726,
      "क्रमी": 7727,
      "क्रूर": 7728,
      "क्रौर": 7729,
      "क्रीडारत": 7730,
      "क्रांती": 7731,
      "जाट": 7732,
      "ley": 7733,
      "level": 7734,
      "legraph": 7735,
      "They": 7736,
      "There": 7737,
      "हरा": 7738,
      "हड़": 7739,
      "हते": 7740,
      "మార్కెట్": 7741,
      "ari": 7742,
      "చేర": 7743,
      "చేసు": 7744,
      "చేసే": 7745,
      "చేత,": 7746,
      "టువంటి": 7747,
      "जागा": 7748,
      "जाऊन": 7749,
      "जाउन": 7750,
      "जागृत": 7751,
      "त्युनंतर": 7752,
      "रूपां": 7753,
      "agro": 7754,
      "agement": 7755,
      "chall": 7756,
      "chap": 7757,
      "chant": 7758,
      "हद्": 7759,
      "हमान": 7760,
      "हटी": 7761,
      "శాశ్": 7762,
      "శాకాహార": 7763,
      "్‌వేర్,": 7764,
      "దేశాలకు": 7765,
      "దేశాలతో": 7766,
      "దేశాలకూ": 7767,
      "దేశాల్లో": 7768,
      "रोमन": 7769,
      "रोनेशन": 7770,
      "सरते": 7771,
      "सरकू": 7772,
      "सरमिसळून": 7773,
      "ारावरील": 7774,
      "child": 7775,
      "mode": 7776,
      "mobil": 7777,
      "modated": 7778,
      "root": 7779,
      "हर्ष": 7780,
      "ाचार": 7781,
      "िक्ष": 7782,
      "వ్యవహార": 7783,
      "వ్యవసాయ": 7784,
      "ఎన్నుకొ": 7785,
      "కిమీ": 7786,
      "పారిశ్ర": 7787,
      "పంచె": 7788,
      "పంచుకుంట": 7789,
      "ाराबरोबर": 7790,
      "स्थापल्या": 7791,
      "स्थापत्ये": 7792,
      "स्थापत्यांची": 7793,
      "स्थापत्यामधील": 7794,
      "म्हपुत": 7795,
      "royal": 7796,
      "conqu": 7797,
      "consequ": 7798,
      "conser": 7799,
      "consci": 7800,
      "िल्": 7801,
      "ीत": 7802,
      "ी।": 7803,
      "పంచాయతి": 7804,
      "ాబుని": 7805,
      "ాన్స్": 7806,
      "ాన్-ఇ": 7807,
      "న్నిస్లో": 7808,
      "చెంది": 7809,
      "చెందింది.": 7810,
      "म्हैसूर": 7811,
      "वर्षं": 7812,
      "वर्षाचे": 7813,
      "वर्षभर": 7814,
      "दाख": 7815,
      "दायां": 7816,
      "consist": 7817,
      "consum": 7818,
      "consider": 7819,
      "ghanistan": 7820,
      "isters": 7821,
      "ीबन": 7822,
      "ीबंगा": 7823,
      "ी./वर्ष": 7824,
      "డ్స్": 7825,
      "డ్మిం": 7826,
      "పెట్రో": 7827,
      "పెట్టారు.": 7828,
      "మార్గం": 7829,
      "మార్గము": 7830,
      "మార్గంలో": 7831,
      "दायक": 7832,
      "दावरी": 7833,
      "ब्रेकर": 7834,
      "ब्रम्हपुत": 7835,
      "रुंद": 7836,
      "रुंदी": 7837,
      "veill": 7838,
      "dering": 7839,
      "ders,": 7840,
      "der's": 7841,
      "Indians.": 7842,
      "ुता": 7843,
      "ुद्र": 7844,
      "ुण्": 7845,
      "మార్గాలలో": 7846,
      "మార్గాలను": 7847,
      "మార్గాలే.": 7848,
      "వ్యవస్థ)": 7849,
      "వ్యవస్థ,": 7850,
      "వ్యవస్థల": 7851,
      "వ్యవస్థగా": 7852,
      "रुदेवी": 7853,
      "स्वस्त": 7854,
      "स्वराज्य": 7855,
      "स्वतः": 7856,
      "स्वंतत्र": 7857,
      "पूर्वीचे": 7858,
      "Indian-own": 7859,
      "being": 7860,
      "beyond": 7861,
      "belief": 7862,
      "ures": 7863,
      "ुत्पत्ति": 7864,
      "ुवीय": 7865,
      "ूत": 7866,
      "వ్యవస్థకు": 7867,
      "వ్యవస్థకు,": 7868,
      "వ్యవస్థీకరణ": 7869,
      "ంబే": 7870,
      "కృష్": 7871,
      "కృష్ణ": 7872,
      "కృష్టమైన": 7873,
      "येथपासून": 7874,
      "मिळू": 7875,
      "मिळते": 7876,
      "मिळवण्याची": 7877,
      "यांचे": 7878,
      "यांमुळे": 7879,
      "exe": 7880,
      "experi": 7881,
      "except": 7882,
      "show": 7883,
      "share": 7884,
      "ूदी": 7885,
      "ूले": 7886,
      "ृद्ध": 7887,
      "కారం": 7888,
      "తుడు": 7889,
      "తులకాల": 7890,
      "తురుష్": 7891,
      "దా:": 7892,
      "దాటే": 7893,
      "దాటిన": 7894,
      "काहीच्या": 7895,
      "झालेला": 7896,
      "झालेली": 7897,
      "झालेल्या": 7898,
      "झालेला.": 7899,
      "म्हणले": 7900,
      "shares": 7901,
      "shook": 7902,
      "sojour": 7903,
      "accom": 7904,
      "actional": 7905,
      "े।": 7906,
      "ेक्षा": 7907,
      "ोण": 7908,
      "హిందీ;": 7909,
      "ానికి,": 7910,
      "స్తుంది.": 7911,
      "స్తున్నారు.": 7912,
      "పేరుతో": 7913,
      "పేరుమీ": 7914,
      "అధికారక": 7915,
      "घेही": 7916,
      "घेतात": 7917,
      "घेणे": 7918,
      "चिपुडी": 7919,
      "णाबरोबर": 7920,
      "णावते.": 7921,
      "accompan": 7922,
      "access": 7923,
      "idence": 7924,
      "identi": 7925,
      "superi": 7926,
      "ोहि": 7927,
      "ोष्ण": 7928,
      "ोणी": 7929,
      "అధికారి": 7930,
      "అధికారాలు": 7931,
      "అధికారంలో": 7932,
      "అధికారాన్ని": 7933,
      "కరించింది.": 7934,
      "కరమేనని": 7935,
      "కరంతై": 7936,
      "नियु": 7937,
      "निवासस्थान": 7938,
      "निर्मिती": 7939,
      "निमित्त": 7940,
      "निर्वाचित": 7941,
      "भूगोल": 7942,
      "ain;": 7943,
      "commission": 7944,
      "nei": 7945,
      "neigh": 7946,
      "neolith": 7947,
      "ोत्पत्ति": 7948,
      "ौज": 7949,
      "ौतियाँ": 7950,
      "ట్కా": 7951,
      "దక్షణాసియా": 7952,
      "పరమైన": 7953,
      "పర్యా": 7954,
      "పరచింది.": 7955,
      "పరమో": 7956,
      "పరోక్ష": 7957,
      "भूतान": 7958,
      "भूप्रस्तर": 7959,
      "लयात": 7960,
      "समुदायां": 7961,
      "सर्वात": 7962,
      "सर्वश्रे": 7963,
      "tspo": 7964,
      "plement": 7965,
      "plural": 7966,
      "term": 7967,
      "tery": 7968,
      "ौलत": 7969,
      "्ला": 7970,
      "्थी": 7971,
      "పరిధి": 7972,
      "పరిపాలించ": 7973,
      "పరిశో": 7974,
      "పరిస్థితి": 7975,
      "పరిఢవి": 7976,
      "మతాల": 7977,
      "మతాలు,": 7978,
      "सर्वधर्मसम": 7979,
      "हरलाल": 7980,
      "हरप्पा": 7981,
      "हिमालया": 7982,
      "हिमाद्रे": 7983,
      "ब्रिटिशांच्या": 7984,
      "ters')": 7985,
      "terraco": 7986,
      "ung": 7987,
      "unres": 7988,
      "unitary": 7989,
      "्कटि": 7990,
      "्टान": 7991,
      "्नलि": 7992,
      "మతాలతో": 7993,
      "మతాలకు": 7994,
      "మతస్తులు": 7995,
      "మీర్జాలు": 7996,
      "మేరో": 7997,
      "మేరకు,": 7998,
      "మేళవిం": 7999,
      "उत्तरं": 8000,
      "गरचे": 8001,
      "जेदार": 8002,
      "जेव्हा": 8003,
      "भरलेला": 8004,
      "भरतामुळे": 8005,
      "unlin": 8006,
      "unpre": 8007,
      "unrest": 8008,
      "uniform": 8009,
      "untouch": 8010,
      "१०": 8011,
      "१,५": 8012,
      "२४": 8013,
      "మేషన్": 8014,
      "మధ్య,": 8015,
      "మధ్యకాలంలో": 8016,
      "మధ్యవర్తి": 8017,
      "మధ్యల,": 8018,
      "వరకూ": 8019,
      "సును": 8020,
      "मह्त्व": 8021,
      "महानदी": 8022,
      "मार्क": 8023,
      "मार्ग": 8024,
      "मारली.\"": 8025,
      "शियन": 8026,
      "ately": 8027,
      "aysia": 8028,
      "deep": 8029,
      "destruc": 8030,
      "deforest": 8031,
      "२९": 8032,
      "२००": 8033,
      "४०": 8034,
      "సుమారు": 8035,
      "సుదీర్": 8036,
      "సుల్తాన": 8037,
      "ప్రపంచదేశాలలో": 8038,
      "ప్రధానమంత్ర": 8039,
      "ద్దులు": 8040,
      "స్థానిక": 8041,
      "शिरका": 8042,
      "प्राचीनकाळातील": 8043,
      "उपनद्यांमध्ये": 8044,
      "कोसी": 8045,
      "कोचीन": 8046,
      "कोलकात": 8047,
      "who": 8048,
      "when": 8049,
      "whim": 8050,
      "whose": 8051,
      "able": 8052,
      "५,": 8053,
      "६००": 8054,
      "६४७": 8055,
      "స్థానాలు": 8056,
      "స్థానమైన": 8057,
      "స్థానం.": 8058,
      "స్థానే..": 8059,
      "భాష,": 8060,
      "భాషలలో": 8061,
      "భాషా,": 8062,
      "कोरीव": 8063,
      "कोरोनेशन": 8064,
      "दलदल": 8065,
      "न्हे": 8066,
      "पडत": 8067,
      "पडतात.": 8068,
      "about": 8069,
      "abjure": 8070,
      "ability": 8071,
      "ruler": 8072,
      "ruled": 8073,
      "६०६": 8074,
      "८५": 8075,
      "‘सं": 8076,
      "భాషలతో,": 8077,
      "ప్రాంతాల": 8078,
      "ప్రాంతాలతో": 8079,
      "ప్రాంతాలకు": 8080,
      "రాజ్యాలను": 8081,
      "రాజ్యసమి": 8082,
      "రైలు.": 8083,
      "पडतो": 8084,
      "पडण्यास": 8085,
      "पडसाद": 8086,
      "पदविका": 8087,
      "बाबा": 8088,
      "बाह्य": 8089,
      "rulers": 8090,
      "rulers,": 8091,
      "ress": 8092,
      "respec": 8093,
      "resour": 8094,
      "‘आधुनिक": 8095,
      "‘दल": 8096,
      "’,": 8097,
      "tian": 8098,
      "tinct": 8099,
      "వారిగా": 8100,
      "వర్గీ": 8101,
      "వర్ధిల్ల": 8102,
      "క్రీ.": 8103,
      "పార్టీల": 8104,
      "बाजू": 8105,
      "बाॅम्": 8106,
      "बाष्प": 8107,
      "मूळ": 8108,
      "मूरल": 8109,
      "मूर्ती": 8110,
      "resentment": 8111,
      "resurgence": 8112,
      "region.": 8113,
      "century.": 8114,
      "CE,": 8115,
      "्रुवीय": 8116,
      "ार्कटि": 8117,
      "केवल": 8118,
      "పార్టీలు": 8119,
      "పార్టీగా": 8120,
      "పార్టీకి": 8121,
      "పార్టీలతో": 8122,
      "దక్షిణాదికి": 8123,
      "al,": 8124,
      "alect": 8125,
      "ऱ्यापाण्याची": 8126,
      "शीख": 8127,
      "सेचा": 8128,
      "सेंदि": 8129,
      "सेनेमधील": 8130,
      "द्वीपाला": 8131,
      "Embrac": 8132,
      "feud": 8133,
      "fell": 8134,
      "feature": 8135,
      "felt": 8136,
      "में‌": 8137,
      "या।": 8138,
      "यान्": 8139,
      "ort": 8140,
      "అయింది.": 8141,
      "అయితే,": 8142,
      "గిపోయింది.": 8143,
      "గిలిన": 8144,
      "పూణే": 8145,
      "పోలో": 8146,
      "किल्ल्याची": 8147,
      "किल्ल्याचे": 8148,
      "किल्ल्यावरून": 8149,
      "लोक,": 8150,
      "लोकांच्या": 8151,
      "लोकसंगीत": 8152,
      "owing": 8153,
      "owly,": 8154,
      "contempor": 8155,
      "akti": 8156,
      "socially": 8157,
      "यावर्त": 8158,
      "यायि": 8159,
      "र्तगा": 8160,
      "పోటీ": 8161,
      "పోతూ": 8162,
      "పోర్చు": 8163,
      "పోషకాహార": 8164,
      "పోస్టలు": 8165,
      "మనమే": 8166,
      "మనదేశంలో": 8167,
      "लोकमान्य": 8168,
      "लोकसंख्ये": 8169,
      "लोकशाही": 8170,
      "लोकजीवन": 8171,
      "आजच्या": 8172,
      "आजही": 8173,
      "socio-": 8174,
      "societi": 8175,
      "economy,": 8176,
      "economy.": 8177,
      "Empires": 8178,
      "स्म": 8179,
      "स्वर्ण": 8180,
      "भारतवर्ष": 8181,
      "మనోర": 8182,
      "మిగిలిన": 8183,
      "రోడ్ల": 8184,
      "రెండుకో": 8185,
      "లాంటి": 8186,
      "లాగృ": 8187,
      "లాభదాయ": 8188,
      "आजचा": 8189,
      "क्ती": 8190,
      "क्काने": 8191,
      "क्झां": 8192,
      "क्वीन’": 8193,
      "बनले": 8194,
      "core": 8195,
      "codified": 8196,
      "co-op": 8197,
      "cosmo": 8198,
      "coales": 8199,
      "भारत-चीन": 8200,
      "काव्य": 8201,
      "कांग्रे": 8202,
      "వుని": 8203,
      "వుంది.": 8204,
      "వున్నా,": 8205,
      "వుంటుంది.": 8206,
      "వెలుపలి": 8207,
      "ప్రజలకు": 8208,
      "ించినందు": 8209,
      "बनवला.": 8210,
      "मेनका": 8211,
      "मेमोरि": 8212,
      "मेरुदेवी": 8213,
      "महायुद्धात": 8214,
      "महाखंड": 8215,
      "coheren": 8216,
      "had,": 8217,
      "imperi": 8218,
      "immen": 8219,
      "immedi": 8220,
      "काफ़": 8221,
      "कायां": 8222,
      "कांश": 8223,
      "ించినవే.": 8224,
      "హిందూస్తాన్": 8225,
      "హిందూస్తానీ": 8226,
      "ంద్రనాథ": 8227,
      "ఇతరదేశాలను": 8228,
      "ఇతరదేశాలకు": 8229,
      "తాజ్‌": 8230,
      "व्यक्ती": 8231,
      "वारसा": 8232,
      "वारसाह": 8233,
      "लागली": 8234,
      "लागतात": 8235,
      "लागते.": 8236,
      "imitated": 8237,
      "implement": 8238,
      "industri": 8239,
      "industry": 8240,
      "tices": 8241,
      "कामया": 8242,
      "कीय": 8243,
      "कीर्ण": 8244,
      "శ్రద్ధలతో,": 8245,
      "ీనములో": 8246,
      "ీనోద్య": 8247,
      "సాంఘిక,": 8248,
      "పెద్దగా": 8249,
      "పెద్దపులి": 8250,
      "India1950": 8251,
      "होती,": 8252,
      "दिल्लीला": 8253,
      "हिमालयाची": 8254,
      "हिमालयातून": 8255,
      "बांधकाम": 8256,
      "इतिहासाची": 8257,
      "BCE.": 8258,
      "BCE),": 8259,
      "etry": 8260,
      "etym": 8261,
      "etnam": 8262,
      "सेवा": 8263,
      "सेपि": 8264,
      "नेता": 8265,
      "gues": 8266,
      "gures": 8267,
      "అతివేగంగా": 8268,
      "అతిముఖ్యమైన": 8269,
      "అతిశీ": 8270,
      "ఉత్సాహ": 8271,
      "ఉత్తరా": 8272,
      "इतिहासातच": 8273,
      "हवामान.": 8274,
      "ंपारिक": 8275,
      "अजस्त्र": 8276,
      "गाजव": 8277,
      "गाळाने": 8278,
      "igai": 8279,
      "utan": 8280,
      "west,": 8281,
      "west;": 8282,
      "Asia's": 8283,
      "नेदार": 8284,
      "थाईलै": 8285,
      "्यजी": 8286,
      "ఉత్కృష్టమైన": 8287,
      "ఉంటూ": 8288,
      "ఉంటాయి": 8289,
      "కలిగిన": 8290,
      "గరలో": 8291,
      "జనకరమేనని": 8292,
      "జరిగింది.": 8293,
      "गाठला.": 8294,
      "टीत": 8295,
      "टीला": 8296,
      "टीच्या": 8297,
      "टीचे": 8298,
      "नदीच्या": 8299,
      "Hindu-majority": 8300,
      "aving": 8301,
      "avarsh": 8302,
      "peasants": 8303,
      "perception": 8304,
      "्यत:": 8305,
      "प्रथा": 8306,
      "प्रपा": 8307,
      "జరిగాయి": 8308,
      "పట్టాలు": 8309,
      "పట్టును": 8310,
      "పట్టాలెక్కను": 8311,
      "బడింది": 8312,
      "బాగా": 8313,
      "బాదు": 8314,
      "नदीचा": 8315,
      "नदीपासून": 8316,
      "रेटत": 8317,
      "शतकाच्या": 8318,
      "शतकापासून": 8319,
      "विविधतेत": 8320,
      "proper": 8321,
      "produced": 8322,
      "provid": 8323,
      "process": 8324,
      "proclaiming": 8325,
      "प्रदा": 8326,
      "प्रगति": 8327,
      "प्रधान": 8328,
      "బాంబే": 8329,
      "బెల్": 8330,
      "బెట్కా": 8331,
      "బ్రహ్మ": 8332,
      "బ్రాడ్‌": 8333,
      "మహల్": 8334,
      "మహేష్": 8335,
      "शास्त्रिय": 8336,
      "क्रमांका": 8337,
      "समुद्री": 8338,
      "समुद्रातील": 8339,
      "समुद्रकिन": 8340,
      "समुद्रकिनाऱ्या": 8341,
      "alled": 8342,
      "allowing": 8343,
      "subjec": 8344,
      "subdue": 8345,
      "compos": 8346,
      "प्रदू": 8347,
      "प्रकट": 8348,
      "प्रशस्त": 8349,
      "వంటలు": 8350,
      "వంటలకు": 8351,
      "వంటకాలు": 8352,
      "ుకుంది.": 8353,
      "విధి": 8354,
      "విధంగా": 8355,
      "విధించిన": 8356,
      "समुद्रस्य": 8357,
      "इमारत,": 8358,
      "बंगालपासून": 8359,
      "आक्रमणाबरोबर": 8360,
      "खाऱ्यापाण्याची": 8361,
      "गणले": 8362,
      "complex": 8363,
      "which,": 8364,
      "dhu": 8365,
      "dhamma": 8366,
      "little": 8367,
      "ता'": 8368,
      "ता,": 8369,
      "ता।": 8370,
      "భాగం,": 8371,
      "భాగం.": 8372,
      "భాగస్వా": 8373,
      "భాగే,": 8374,
      "భాగమేనని": 8375,
      "కేంద్రాల్లో": 8376,
      "కేంద్రీకృ": 8377,
      "गणली": 8378,
      "गणतंत्र": 8379,
      "गीज": 8380,
      "गीरी,": 8381,
      "ज्ज": 8382,
      "ज्वालामुख": 8383,
      "maritime": 8384,
      "ritual": 8385,
      "syncre": 8386,
      "rendering": 8387,
      "tively": 8388,
      "ताकि": 8389,
      "ताम्र": 8390,
      "तायें": 8391,
      "ప్పించుకోవడ": 8392,
      "క్రీడ:": 8393,
      "క్రీడల": 8394,
      "జనాభాలో": 8395,
      "ప్రభుత్వంలో": 8396,
      "ప్రభుత్వం,": 8397,
      "ప్రభుత్వాలన్నీ": 8398,
      "ज्याला": 8399,
      "दोघेही": 8400,
      "बीड": 8401,
      "बीमुळे": 8402,
      "लिश": 8403,
      "लियन": 8404,
      "tively,": 8405,
      "Indos": 8406,
      "Indoi": 8407,
      "duction": 8408,
      "forms": 8409,
      "क्न": 8410,
      "नानी": 8411,
      "नालै": 8412,
      "ప్రభుత్వంచే": 8413,
      "తరువాత,": 8414,
      "ఎక్కువైపో": 8415,
      "ఏర్పాటు": 8416,
      "ఏర్పరచింది.": 8417,
      "గోర్": 8418,
      "గోధు": 8419,
      "लिहीतात": 8420,
      "व्यातून": 8421,
      "ुसज्ज": 8422,
      "भारतास": 8423,
      "भारताबद्दल": 8424,
      "मुघलकालीन": 8425,
      "forms,": 8426,
      "newly": 8427,
      "apon": 8428,
      "appa": 8429,
      "appo": 8430,
      "नाशकारी": 8431,
      "राधिकार": 8432,
      "क्षरता": 8433,
      "గోడుంబ": 8434,
      "గ్గులు": 8435,
      "గ్డమ్": 8436,
      "టికంటే": 8437,
      "బహిరంగ": 8438,
      "బహాయీలు": 8439,
      "మానవుని": 8440,
      "राज्यकारभार": 8441,
      "राज्यघटना": 8442,
      "गेटसमो": 8443,
      "साम्राज्याने": 8444,
      "साम्राज्याचा": 8445,
      "साम्राज्यातील": 8446,
      "estication": 8447,
      "landed": 8448,
      "landown": 8449,
      "part": 8450,
      "parts": 8451,
      "साम्": 8452,
      "सामान": 8453,
      "सातवाँ": 8454,
      "మంత్రుల": 8455,
      "లేనివి.": 8456,
      "సింహపు": 8457,
      "సరిస్తూ,": 8458,
      "ప్రస్తుత": 8459,
      "క్కలు": 8460,
      "సాధించింది.": 8461,
      "इंग्रजांपासून": 8462,
      "मुख्यभूमी": 8463,
      "मुख्यत्वे": 8464,
      "(पूर्वीची": 8465,
      "(पूर्वीचा": 8466,
      "morial": 8467,
      "rising": 8468,
      "risks": 8469,
      "view": 8470,
      "setbac": 8471,
      "modern-day": 8472,
      "साहे": 8473,
      "साक्षरता": 8474,
      "िक)": 8475,
      "సాధించి": 8476,
      "సాధారణంగా": 8477,
      "రాజకీయాలు": 8478,
      "కాంగ్రెసే": 8479,
      "మొదటిది": 8480,
      "మొదటిసార": 8481,
      "దక్షిణదిగ్": 8482,
      "कर्नाट": 8483,
      "ख्नन": 8484,
      "गोंडवन": 8485,
      "गोदावरी": 8486,
      "जवान": 8487,
      "तुंगभद्रा": 8488,
      "expendi": 8489,
      "exporting": 8490,
      "incremental": 8491,
      "system,": 8492,
      "system's": 8493,
      "िकोण": 8494,
      "िकता,": 8495,
      "माने": 8496,
      "2005-0": 8497,
      "gelist": 8498,
      "ఉపయు": 8499,
      "ఉపరాష్ట్రపత": 8500,
      "క్యులు": 8501,
      "క్యారమ్‌": 8502,
      "గణితం": 8503,
      "तुकडा": 8504,
      "द्राबाद": 8505,
      "न्यातही": 8506,
      "पठाराला": 8507,
      "पठारावरील": 8508,
      "ळीवर": 8509,
      "systematic": 8510,
      "1820": 8511,
      "1848": 8512,
      "1885.": 8513,
      "1920": 8514,
      "माउंट": 8515,
      "्तराधिकार": 8516,
      "विवि": 8517,
      "భూపతి": 8518,
      "మైంది.": 8519,
      "మైతే": 8520,
      "మైత్రి": 8521,
      "మైథి": 8522,
      "మైదాన": 8523,
      "యుద్ధం": 8524,
      "समविषुव": 8525,
      "समस्या": 8526,
      "समांतर": 8527,
      "सोळा": 8528,
      "सातवाह": 8529,
      "सातत्याने": 8530,
      "Chron": 8531,
      "Chrom": 8532,
      "Cheras": 8533,
      "Cholas": 8534,
      "Christian": 8535,
      "विदे": 8536,
      "विद्व": 8537,
      "विशि": 8538,
      "యు.ఏ": 8539,
      "యునై": 8540,
      "యుద్ధాలు": 8541,
      "యోచన": 8542,
      "యోరారి": 8543,
      "రంగం": 8544,
      "రంగాల": 8545,
      "सातपुडा": 8546,
      "वाहत": 8547,
      "वाहू": 8548,
      "वाहतात.": 8549,
      "त्यांना": 8550,
      "त्यांचा": 8551,
      "create": 8552,
      "culture—to": 8553,
      "evolved": 8554,
      "evolving": 8555,
      "evidence": 8556,
      "विरु": 8557,
      "विलु": 8558,
      "वितीय": 8559,
      "రంగము": 8560,
      "రంగాల్లో": 8561,
      "వలెనే": 8562,
      "శ్లోకాల": 8563,
      "సము:": 8564,
      "సముచిత": 8565,
      "ుకోవచ్చని": 8566,
      "राज्यांत": 8567,
      "राज्यांना": 8568,
      "राज्यांमध्ये": 8569,
      "राज्यांपेक्षा": 8570,
      "वेगवेगळे": 8571,
      "वेगळ्या": 8572,
      "gramma": 8573,
      "grain-produc": 8574,
      "gradual": 8575,
      "hian": 8576,
      "loyal": 8577,
      "विधान": 8578,
      "विघट": 8579,
      "विभि": 8580,
      "ెలు.": 8581,
      "్మదీయ": 8582,
      "ప్రతినిధి": 8583,
      "ాలలోను": 8584,
      "ాలనుండి": 8585,
      "విస్తారు.": 8586,
      "విస్తరించిన": 8587,
      "पूर्वोत्तर": 8588,
      "वर्षांपेक्षा": 8589,
      "साम्राज्यवादी": 8590,
      "साम्राज्यवाद्यां": 8591,
      "स्वातंत्र्याचे": 8592,
      "भूमीत": 8593,
      "mega": 8594,
      "meaning": 8595,
      "ote": 8596,
      "pollution": 8597,
      "politan": 8598,
      "वियतनाम": 8599,
      "विसर्": 8600,
      "विनाशकारी": 8601,
      "విస్తృతంగా": 8602,
      "సంగీత": 8603,
      "సంగీతము": 8604,
      "సంగీతంలో": 8605,
      "సంస్కృతం": 8606,
      "సంస్కృతులతో": 8607,
      "సంస్కృతీ,": 8608,
      "भूमीपासून": 8609,
      "भूमीगत": 8610,
      "युद्धे": 8611,
      "युद्धकौ": 8612,
      "भरतनाट": 8613,
      "महाराज": 8614,
      "roughly": 8615,
      "scene": 8616,
      "tailed": 8617,
      "that,": 8618,
      "assing": 8619,
      "ड़िया": 8620,
      "कोशि": 8621,
      "जावा": 8622,
      "ంగ్లేయులు": 8623,
      "ప్రాచ్య": 8624,
      "ప్రాచుర్య": 8625,
      "క్రమంగా": 8626,
      "సరిహద్దులు": 8627,
      "అత్యధికంగా": 8628,
      "ఇండియా,": 8629,
      "महाराजांनी": 8630,
      "महाराष्ट्रामधील": 8631,
      "दक्षिणम्": 8632,
      "विद्यार्थ्यांच्या": 8633,
      "विद्यार्थ्यांचा": 8634,
      "विद्यार्थ्यांपेक्षा": 8635,
      "asses.": 8636,
      "ously": 8637,
      "emerge": 8638,
      "emergence": 8639,
      "istan,": 8640,
      "जानी": 8641,
      "जानव": 8642,
      "हा’": 8643,
      "ఇండియాలో": 8644,
      "2014": 8645,
      "2023": 8646,
      "2022": 8647,
      "2011": 8648,
      "ouped": 8649,
      "ఆధునిక": 8650,
      "विद्यार्थ्यांनाही": 8651,
      "race": 8652,
      "stru": 8653,
      "आर्मीमधील": 8654,
      "ऋषभपुत्र": 8655,
      "ऋषींची": 8656,
      "ultaneous": 8657,
      "increase": 8658,
      "flower": 8659,
      "ied,": 8660,
      "lling": 8661,
      "ितों": 8662,
      "ित्व": 8663,
      "न्दी": 8664,
      "ఆధీనములో": 8665,
      "గలుపు": 8666,
      "జాబీ;": 8667,
      "ట్లకు": 8668,
      "ణి;": 8669,
      "తిక,": 8670,
      "ధిపత్య": 8671,
      "खननात": 8672,
      "खोल्या": 8673,
      "दख्ख्नन": 8674,
      "नद्यांना": 8675,
      "नद्यांच्या": 8676,
      "नद्यांनी": 8677,
      "llenistic": 8678,
      "longer": 8679,
      "long-l": 8680,
      "mers": 8681,
      "merchant": 8682,
      "त्रिम": 8683,
      "त्रीकरण": 8684,
      "त्रपात": 8685,
      "నీ,": 8686,
      "నీతి": 8687,
      "నెహ్ర": 8688,
      "నెమలి": 8689,
      "నెరవే": 8690,
      "నెహ్వ": 8691,
      "భిన్నత్వాలు": 8692,
      "बराच": 8693,
      "बहुतेक": 8694,
      "बहुसंख्य": 8695,
      "मतभे": 8696,
      "मतप्रवाह": 8697,
      "मरण": 8698,
      "slowly,": 8699,
      "ty—exp": 8700,
      "training": 8701,
      "traded": 8702,
      "traders,": 8703,
      "वाला": 8704,
      "वाजों": 8705,
      "वालों": 8706,
      "మెట్రో": 8707,
      "మెహర్": 8708,
      "మూడవ": 8709,
      "మూడే.": 8710,
      "రహదారు": 8711,
      "వహించిన": 8712,
      "వహించింది.": 8713,
      "मैसुरू": 8714,
      "मराठ्याचे": 8715,
      "मंदिरां": 8716,
      "शकते": 8717,
      "शकतात": 8718,
      "शकतात.": 8719,
      "tured": 8720,
      "upon": 8721,
      "throughout": 8722,
      "ised,": 8723,
      "life,": 8724,
      "तिब्": 8725,
      "तियों": 8726,
      "तिरि": 8727,
      "వహించి": 8728,
      "వహించే": 8729,
      "వహిస్త": 8730,
      "వైశాల": 8731,
      "వైపులా": 8732,
      "సమాచార": 8733,
      "స్వాధీన": 8734,
      "शकुंत": 8735,
      "शक्यता": 8736,
      "शहरात": 8737,
      "शहराच्या": 8738,
      "त्वज्ञान": 8739,
      "द्दलच्या": 8740,
      "north,": 8741,
      "north.": 8742,
      "north;": 8743,
      "north-western": 8744,
      "inclusive": 8745,
      "देते": 8746,
      "ंगिक": 8747,
      "ंग्ला": 8748,
      "రాష్ట్రపతి,": 8749,
      "రాష్ట్రపతిచే": 8750,
      "మొదలగువ": 8751,
      "మొదలవుతుంది.": 8752,
      "మొదలగునవి": 8753,
      "రెండువైపులా": 8754,
      "ఉత్తర,": 8755,
      "संगीतावर": 8756,
      "त्याचेच": 8757,
      "केलेले": 8758,
      "पुराव्यां": 8759,
      "पुराव्यातून": 8760,
      "पुत्राचे": 8761,
      "controlled": 8762,
      "Mughals": 8763,
      "non-economic": 8764,
      "non-Muslim": 8765,
      "non-European": 8766,
      "किए": 8767,
      "किस्म": 8768,
      "हिन्दी": 8769,
      "పట్టణాల": 8770,
      "పట్టణాలు": 8771,
      "పట్టణాలను": 8772,
      "బెంగాల్": 8773,
      "బెంగుళూరు": 8774,
      "ప్పటికీ,": 8775,
      "ఏర్పడే": 8776,
      "म्हणून्": 8777,
      "म्हणजेच": 8778,
      "हिंदू,": 8779,
      "दक्षिणेला": 8780,
      "दक्षिणेमधील": 8781,
      "दक्षिणेतील": 8782,
      "non-tradi": 8783,
      "non-co-op": 8784,
      "began.": 8785,
      "larger": 8786,
      "Buddhist": 8787,
      "्वेद": 8788,
      "पाए": 8789,
      "पाषाण": 8790,
      "ఏర్పడిన": 8791,
      "ఏర్పడింది.": 8792,
      "బహుమతి": 8793,
      "బహుభాషా,": 8794,
      "మంత్రిత్వ": 8795,
      "మంత్రివర్గ": 8796,
      "సింధ్;": 8797,
      "पदवीसाठी": 8798,
      "व्युत्पत्": 8799,
      "प्ततावादी": 8800,
      "ज्ञात": 8801,
      "सोयींवर": 8802,
      "सोयीकरता": 8803,
      "Company's": 8804,
      "Sanskrit.": 8805,
      "Indus'.": 8806,
      "Bhārat": 8807,
      "Bhakti": 8808,
      "पादन": 8809,
      "पाता।": 8810,
      "शाली": 8811,
      "సరిహద్దున": 8812,
      "సరిహద్దులలో": 8813,
      "సరిహద్దులను": 8814,
      "నడిపిస్త": 8815,
      "నడిపించి,": 8816,
      "సౌకర్యము.": 8817,
      "సౌకర్యవంత": 8818,
      "वर्षांपूर्वीपर्यंत": 8819,
      "उदाहरणे": 8820,
      "वाळवंटाने": 8821,
      "पाकिस्ताना": 8822,
      "पाकिस्तानात": 8823,
      "पाकिस्तानची": 8824,
      "Bhutan": 8825,
      "classical": 8826,
      "clans,": 8827,
      "class.": 8828,
      "classes.": 8829,
      "शामिल": 8830,
      "राजगु": 8831,
      "राजघरान": 8832,
      "(1,14": 8833,
      "(1,18": 8834,
      "(17.23": 8835,
      ").\"(": 8836,
      "....": 8837,
      "142": 8838,
      "notation": 8839,
      "अधिकारात": 8840,
      "आणली": 8841,
      "आणली.": 8842,
      "आणलेल्या": 8843,
      "आणखी": 8844,
      "आर्य": 8845,
      "ethically": 8846,
      "ethos.": 8847,
      "east.": 8848,
      "faces": 8849,
      "facilitated": 8850,
      "राजधा": 8851,
      "राजशाही": 8852,
      "पूरा": 8853,
      "ందని": 8854,
      "ందరో": 8855,
      "అనునది": 8856,
      "అనుమతి": 8857,
      "అనువైన": 8858,
      "అనుసరిస్తూ,": 8859,
      "కళి": 8860,
      "कथ्थ": 8861,
      "कथकल्ली": 8862,
      "कच्छच्या": 8863,
      "कच्छचे": 8864,
      "गतीने": 8865,
      "ग्राम)": 8866,
      "humped": 8867,
      "kingly": 8868,
      "lines": 8869,
      "ning,": 8870,
      "soldiers,": 8871,
      "लाओं": 8872,
      "लावी": 8873,
      "लाओस": 8874,
      "కల్పే": 8875,
      "కల్గి": 8876,
      "కల్పం": 8877,
      "కల్పుతూ": 8878,
      "కల్పించే": 8879,
      "గేజి": 8880,
      "గేయం:": 8881,
      "ग्रामिण": 8882,
      "घडला": 8883,
      "घडल्या": 8884,
      "घडल्याचे": 8885,
      "घडामो": 8886,
      "चळवळ": 8887,
      "south,": 8888,
      "south.": 8889,
      "southwest,": 8890,
      "relief": 8891,
      "religious": 8892,
      "लायक": 8893,
      "हैं-": 8894,
      "हैं:": 8895,
      "చైనాతో": 8896,
      "టెడ్": 8897,
      "టెక్నాల": 8898,
      "టెలివిజన్": 8899,
      "టెన్నిస్లో": 8900,
      "తనలో": 8901,
      "నగరాలు,": 8902,
      "जुना": 8903,
      "तत्त्वज्ञान": 8904,
      "दुमत": 8905,
      "दुःख": 8906,
      "दुष्य": 8907,
      "दारुण": 8908,
      "isation,": 8909,
      "limited": 8910,
      "extant": 8911,
      "languages.": 8912,
      "Indo-Islamic": 8913,
      "दक्षिणी": 8914,
      "संस्थाप": 8915,
      "संसार": 8916,
      "నగరాలనే": 8917,
      "నగరాలనుండి": 8918,
      "పతకం": 8919,
      "పొందింది.": 8920,
      "పొడిగించ": 8921,
      "పద్ధతులు": 8922,
      "పద్ధతులతో": 8923,
      "दारोचे": 8924,
      "दर्जा": 8925,
      "दर्शवतात.": 8926,
      "दर्जेदार": 8927,
      "पार्क": 8928,
      "पारंपारिक": 8929,
      "emerged,": 8930,
      "emerged.": 8931,
      "included": 8932,
      "hnological": 8933,
      "popular": 8934,
      "संबंध": 8935,
      "संयुक्त": 8936,
      "संरक्ष": 8937,
      "రూపంలో": 8938,
      "రూపొందింది.": 8939,
      "ళ్లను": 8940,
      "వృక్షం:": 8941,
      "సమశీ": 8942,
      "సమయంలో,": 8943,
      "సమష్టి": 8944,
      "पर्वतामध्ये": 8945,
      "बद्दलही": 8946,
      "भित्तीचि": 8947,
      "भीमा": 8948,
      "भीडल्या": 8949,
      "भीमबे": 8950,
      "population,": 8951,
      "millennium,": 8952,
      "20th": 8953,
      "Centred": 8954,
      "Mahā": 8955,
      "संकीर्ण": 8956,
      "र्वोत्तर": 8957,
      "इसने": 8958,
      "సైతం": 8959,
      "సైట్లు": 8960,
      "సారాల": 8961,
      "సారవంత": 8962,
      "సర్వసత్తా": 8963,
      "నుండి,": 8964,
      "ించేది": 8965,
      "यंते": 8966,
      "यंभुव": 8967,
      "यंच्यामधील": 8968,
      "रिका": 8969,
      "रितीरि": 8970,
      "सनाच्या": 8971,
      "Mahav": 8972,
      "are.": 8973,
      "are:": 8974,
      "epic": 8975,
      "epics,": 8976,
      "उतर": 8977,
      "उत्तराधिकार": 8978,
      "एकत्रीकरण": 8979,
      "సంఖ్యలో": 8980,
      "పుట్టాయి.": 8981,
      "పుట్టిల్": 8982,
      "పుట్టిని": 8983,
      "కూడినది.": 8984,
      "1975": 8985,
      "1977": 8986,
      "सैन्यदल": 8987,
      "ृतसर": 8988,
      "१८१८": 8989,
      "१८५०": 8990,
      "१८५७": 8991,
      "लांपर्यंत": 8992,
      "elite;": 8993,
      "gender": 8994,
      "genous": 8995,
      "generation": 8996,
      "genetic": 8997,
      "भाष": 8998,
      "भाती": 8999,
      "भाली": 9000,
      "1971లో": 9001,
      "1977లో": 9002,
      "1974లో": 9003,
      "ఒకటిగా,": 9004,
      "చేయబడింది.": 9005,
      "చేయలేదు": 9006,
      "చేయిస్తారు.": 9007,
      "लेणी,": 9008,
      "विषयक": 9009,
      "विषवृतीय": 9010,
      "सागरीसे": 9011,
      "त्यातून": 9012,
      "चीनला": 9013,
      "generated": 9014,
      "ivite": 9015,
      "lingual": 9016,
      "middle": 9017,
      "occur": 9018,
      "दीव": 9019,
      "दानेदार": 9020,
      "निक्षे": 9021,
      "చేయటంతో": 9022,
      "చేయడానికి": 9023,
      "తున్నారు.": 9024,
      "తున్నవార్": 9025,
      "తున్నప్పటికీ,": 9026,
      "అధికారికంగా": 9027,
      "ప్రపంచంలోనే": 9028,
      "चीनची": 9029,
      "राजकुमार": 9030,
      "पुतळे": 9031,
      "किनारी": 9032,
      "किनाराला": 9033,
      "गेली.ही": 9034,
      "osome": 9035,
      "pping,": 9036,
      "pronoun": 9037,
      "sultanate,": 9038,
      "sultanate's": 9039,
      "निरूप": 9040,
      "निस्तान,": 9041,
      "निवेश": 9042,
      "భాషలు,": 9043,
      "కలిగి,": 9044,
      "కలిగివుంది.": 9045,
      "కాంగ్రెసును": 9046,
      "జాబితాలో": 9047,
      "రహదారులు,": 9048,
      "అభిప్రాయ": 9049,
      "ाप्पा": 9050,
      "श्चैव": 9051,
      "१९९०": 9052,
      "१९९१": 9053,
      "१९९८": 9054,
      "१९९९": 9055,
      "tered": 9056,
      "teach": 9057,
      "telegraph": 9058,
      "various": 9059,
      "variations": 9060,
      "निभाती": 9061,
      "होना": 9062,
      "होकर": 9063,
      "చరిత్రలో": 9064,
      ",000,000": 9065,
      "1-740": 9066,
      "1-8-7": 9067,
      "1010": 9068,
      "10,000,000": 9069,
      "230": 9070,
      "सरकारे": 9071,
      "सरकारकडे": 9072,
      "यांच्यात": 9073,
      "राष्ट्रपतीचे": 9074,
      "राष्ट्रपतीभवन": 9075,
      "उत्तरेला": 9076,
      "varied,": 9077,
      "thereby": 9078,
      "army": 9079,
      "outpo": 9080,
      "empire's": 9081,
      "होमो": 9082,
      "किया;": 9083,
      "नीक": 9084,
      "2359-": 9085,
      "3,422": 9086,
      "ates": 9087,
      "ational,": 9088,
      "debate": 9089,
      "defin": 9090,
      "figures": 9091,
      "उत्तरेकडे": 9092,
      "उत्तरेकडील": 9093,
      "उत्तरेकडून": 9094,
      "गोलार्धातील": 9095,
      "जवळील": 9096,
      "जवळपास": 9097,
      "moving": 9098,
      "commerce": 9099,
      "plain.": 9100,
      "plains.": 9101,
      "Muslim-majority": 9102,
      "नीव": 9103,
      "नीची": 9104,
      "स्थाई": 9105,
      "mi).\"(": 9106,
      "అని,": 9107,
      "ఇవ్వ": 9108,
      "ఇవికా": 9109,
      "ఇవన్నీ": 9110,
      "ఇవికూడ": 9111,
      "కలదు": 9112,
      "शैलीबरोबर": 9113,
      "शैलींची": 9114,
      "वेगळेपणा": 9115,
      "मंदिरे,": 9116,
      "India)": 9117,
      "तमिळनाडूच्या": 9118,
      "Hinduism,": 9119,
      "diverse,": 9120,
      "diverse.": 9121,
      "technological": 9122,
      "largely": 9123,
      "भारतीयों": 9124,
      "भारतीय-आर्": 9125,
      "्तरिक्ष": 9126,
      "కలకత్తా": 9127,
      "కలగలుపు": 9128,
      "చిపూడ": 9129,
      "చిహ్": 9130,
      "జిత్": 9131,
      "జిస్లే": 9132,
      "టాగోర్": 9133,
      "तमिळनाडूतील": 9134,
      "पद्धतीवरून": 9135,
      "द्वीपसमूहांमध्ये": 9136,
      "instru": 9137,
      "legend": 9138,
      "अणुसज्ज": 9139,
      "kingdoms.": 9140,
      "Andam": 9141,
      "afterwar": 9142,
      "border": 9143,
      "borne": 9144,
      "जिसे": 9145,
      "धर्मनिरपेक्ष": 9146,
      "म्यां": 9147,
      "దీన్ని": 9148,
      "దీవులు": 9149,
      "దీపావ": 9150,
      "దీనివల్ల": 9151,
      "నాయకుల": 9152,
      "న్యాయవ్యవస్థలో": 9153,
      "న్యాయవ్యవస్థ,": 9154,
      "अथक": 9155,
      "उर्मी": 9156,
      "उत्खननात": 9157,
      "कमानी": 9158,
      "कमानवजा": 9159,
      "ग्रॅनाइट": 9160,
      "cedented": 9161,
      "ces.": 9162,
      "curtailed": 9163,
      "decades": 9164,
      "decentral": 9165,
      "म्यान्": 9166,
      "शासक": 9167,
      "शासकों": 9168,
      "న్యాయస్థానమైన": 9169,
      "పంపిన": 9170,
      "పంజాబీ;": 9171,
      "పదవి": 9172,
      "పదవి.": 9173,
      "పదార్థ": 9174,
      "పక్షం": 9175,
      "जनपथ": 9176,
      "जन्यछा": 9177,
      "जनतेवर": 9178,
      "टोळी": 9179,
      "टोबर": 9180,
      "टोळ्यां": 9181,
      "farther": 9182,
      "far-fl": 9183,
      "faraway": 9184,
      "farmers": 9185,
      "ficant": 9186,
      "शासकीय": 9187,
      "हैं।लगभग": 9188,
      "अनसु": 9189,
      "పక్షి:": 9190,
      "మ్మదాబ": 9191,
      "ర్యన్": 9192,
      "లక్షల": 9193,
      "లక్షణాలు": 9194,
      "లక్షణాన్ని": 9195,
      "సరఫరా": 9196,
      "ट्वेन": 9197,
      "ड्रामात": 9198,
      "णार्थ": 9199,
      "तनत": 9200,
      "दलीय": 9201,
      "दगडांचे": 9202,
      "have": 9203,
      "mainstre": 9204,
      "maintain": 9205,
      "paid": 9206,
      "pared": 9207,
      "अन्तरिक्ष": 9208,
      "सामना": 9209,
      "सामुद्र": 9210,
      "సరమైతే": 9211,
      "సూచన": 9212,
      "సూరత్": 9213,
      "హాసాల": 9214,
      "స్లామ్": 9215,
      "ప్రకారం,": 9216,
      "నిర్వాహ": 9217,
      "दगडांपासून": 9218,
      "दगडावरून": 9219,
      "निकोबार": 9220,
      "पोर्तु": 9221,
      "पोहोचला": 9222,
      "पातळीवर": 9223,
      "pacified": 9224,
      "poetry": 9225,
      "preexisting": 9226,
      "pre-existing": 9227,
      "prepared": 9228,
      "तकनीक": 9229,
      "बाहर": 9230,
      "बाजार": 9231,
      "నిర్మిస్తు": 9232,
      "ముంబాయి": 9233,
      "ద్వీపే,": 9234,
      "సంఘం": 9235,
      "సంఘము.": 9236,
      "సంఘర్షణ": 9237,
      "సంప్రదాయాలను": 9238,
      "पाचवा": 9239,
      "पाचवे": 9240,
      "बळमानाने": 9241,
      "बिन": 9242,
      "बिहु": 9243,
      "बिहार": 9244,
      "power.": 9245,
      "ranks": 9246,
      "sometimes": 9247,
      "works": 9248,
      "works,": 9249,
      "बाँगर": 9250,
      "बांटे": 9251,
      "बांग्ला": 9252,
      "సంవత్సరం": 9253,
      "సంవత్సారాల": 9254,
      "పాక్,": 9255,
      "1991": 9256,
      "1996": 9257,
      "1991లో": 9258,
      "1998లో": 9259,
      "बारकावे": 9260,
      "बार्हि": 9261,
      "बदलांमध्ये": 9262,
      "महिने": 9263,
      "महिन्यांमध्ये": 9264,
      "महिन्यातही": 9265,
      "yaṇa": 9266,
      "intment": 9267,
      "them,": 9268,
      "them.": 9269,
      "enges": 9270,
      "कृत": 9271,
      "कृष्ण": 9272,
      "कारक": 9273,
      "వ్యాసము:": 9274,
      "రాష్ట్రాలు:": 9275,
      "రాష్ట్రాలుగా,": 9276,
      "వచ్చినవారి": 9277,
      "వచ్చినది,": 9278,
      "కొన్ని:": 9279,
      "వ్యవస్థలోని": 9280,
      "मौर्याने": 9281,
      "रचनेचे": 9282,
      "लुटये": 9283,
      "वृत्तीय": 9284,
      "शनल": 9285,
      "शेजारी": 9286,
      "state:": 9287,
      "state's": 9288,
      "well,": 9289,
      "well.": 9290,
      "here.": 9291,
      "कारों": 9292,
      "जोर": 9293,
      "दिया,": 9294,
      "కార్యనిర్వాహ": 9295,
      "కరణలో": 9296,
      "పరిశ్రమ.": 9297,
      "మేనకల": 9298,
      "ప్రధానమంత్రిని": 9299,
      "స్థానంలో,": 9300,
      "వారసత్వాన్ని": 9301,
      "शेवटी": 9302,
      "सांख्य": 9303,
      "सांगण्यात": 9304,
      "सत्तेखाली": 9305,
      "सध्याची": 9306,
      "हाती": 9307,
      "ilding": 9308,
      "agricultural": 9309,
      "plants": 9310,
      "planning,": 9311,
      "devastation": 9312,
      "मिश्र": 9313,
      "्यात्": 9314,
      "स्वयं": 9315,
      "ఆర్థిక,": 9316,
      "పూర్వం": 9317,
      "పూర్వపు": 9318,
      "రోడ్డుకు": 9319,
      "బాద్,": 9320,
      "పాకిస్తాన్తో": 9321,
      "పాకిస్థాన్,": 9322,
      "५००)": 9323,
      "कामगि": 9324,
      "कालौघात": 9325,
      "काश्मिर": 9326,
      "प्रगतीनुसार": 9327,
      "वाढला": 9328,
      "peoples,": 9329,
      "literary": 9330,
      "literacy": 9331,
      "scripts": 9332,
      "scripture": 9333,
      "स्वशासित": 9334,
      "कालीबंगा": 9335,
      "पुरु": 9336,
      "పాకిస్థాన్కు": 9337,
      "దక్షిణాన,": 9338,
      "సంస్కృతిలో": 9339,
      "ఆధారిత": 9340,
      "ఆధారాలు.": 9341,
      "స్వతంత్రం": 9342,
      "బెంగాలీ;": 9343,
      "वाढत्या": 9344,
      "वाढल्याने": 9345,
      "विस्ताराबरोबर": 9346,
      "नाही.": 9347,
      "तरी,": 9348,
      "देशास": 9349,
      "script,": 9350,
      "taxes": 9351,
      "taxation": 9352,
      "taxes,": 9353,
      "taxpay": 9354,
      "पुर्तगा": 9355,
      "पुर्वोत्तर": 9356,
      "मुक्त": 9357,
      "నడిపించటం": 9358,
      "నడిపించాలనే": 9359,
      "నడిపించవచ్చని": 9360,
      "నడిపించటమూ": 9361,
      "స్వాతంత్ర్యానికి": 9362,
      "సర్వీసును": 9363,
      "అభివృద్ధి,": 9364,
      "देशाला": 9365,
      "देशापर्यंत": 9366,
      "झालीत.": 9367,
      "राजवटीत": 9368,
      "राज्यातील": 9369,
      "पुढे": 9370,
      "period.": 9371,
      "religion.": 9372,
      "religions.": 9373,
      "architectural": 9374,
      "mid-millennium": 9375,
      "मुंह": 9376,
      "महाभारत": 9377,
      "महाजन": 9378,
      "language.": 9379,
      "కుటుంబాలు": 9380,
      "కుటుంబాలకు": 9381,
      "1250": 9382,
      "121,0": 9383,
      "17;": 9384,
      "40%": 9385,
      "मान्यतेपेक्षा": 9386,
      "परदेशी": 9387,
      "परदेशात": 9388,
      "परदेशातील": 9389,
      "दिवसात": 9390,
      "दिवसाचे": 9391,
      "mid-1st": 9392,
      "mid-19th": 9393,
      "mid-20th": 9394,
      "movements.": 9395,
      "commercialisation": 9396,
      "महावी": 9397,
      "महापुरा": 9398,
      "महादेव": 9399,
      "461": 9400,
      "461-8-7": 9401,
      "87,260": 9402,
      "chiv": 9403,
      "chine": 9404,
      "grouped": 9405,
      "ritor": 9406,
      "दिवसेंदि": 9407,
      "स्तरावरील": 9408,
      "शिक्षणपद्धतीचा": 9409,
      "१९२९": 9410,
      "इंडो-ऑस्ट्रे": 9411,
      "विद्यापीठाशी": 9412,
      "administer": 9413,
      "administrative": 9414,
      "consolidation": 9415,
      "consolidate": 9416,
      "consolidated": 9417,
      "महाकाव्य": 9418,
      "यहूदी": 9419,
      "नाम:": 9420,
      "అహింసాయుత": 9421,
      "అహ్మదీయ": 9422,
      "అహమ్మదాబ": 9423,
      "అవి,": 9424,
      "అవినీతి": 9425,
      "ఆక్రమించిన": 9426,
      "ఆక్రమణదార": 9427,
      "भूभाग,": 9428,
      "भूभागावर": 9429,
      "समुद्राला": 9430,
      "समुद्रापासून": 9431,
      "समुद्रापर्यंत": 9432,
      "इंग्लिश": 9433,
      "consolidations": 9434,
      "1765": 9435,
      "Guptas,": 9436,
      "Mohen": 9437,
      "Vietnam": 9438,
      "नामक": 9439,
      "नामों": 9440,
      "नामोत्पत्ति": 9441,
      "ఆక్రమించుకు": 9442,
      "ఆహార్యం": 9443,
      "ఇంగ్లండు": 9444,
      "ఉండగా,": 9445,
      "ఉండటం": 9446,
      "ఉండటం,": 9447,
      "కథక్": 9448,
      "महासागरात": 9449,
      "महासागरातून": 9450,
      "द्वीपकल्पीय": 9451,
      "इमारतीत": 9452,
      "इमारतीचे": 9453,
      "इमारतीची": 9454,
      "atite": 9455,
      "bian": 9456,
      "biodiversity": 9457,
      "barley": 9458,
      "collab": 9459,
      "शासनकाल": 9460,
      "आध्यात्": 9461,
      "गया,": 9462,
      "కథనాలతో": 9463,
      "కథకళి": 9464,
      "కూచిపూడ": 9465,
      "కిందట": 9466,
      "చుట్టూ": 9467,
      "చిత్రాలు": 9468,
      "చిత్రకళ": 9469,
      "आक्रमणानंतर": 9470,
      "आक्रमणात,": 9471,
      "पश्चिमेला": 9472,
      "महाराष्ट्रातील": 9473,
      "ऋषभदेवामुळे": 9474,
      "व्हावे": 9475,
      "cording": 9476,
      "demarcation": 9477,
      "efly": 9478,
      "famine": 9479,
      "famines": 9480,
      "मैकाल": 9481,
      "रेस्ट": 9482,
      "लगी": 9483,
      "చిత్రమాల": 9484,
      "జీవితంలో": 9485,
      "టైగర్": 9486,
      "తలల": 9487,
      "తెలిసింది.": 9488,
      "తెప్పించుకోవడ": 9489,
      "తేది": 9490,
      "शोधात": 9491,
      "शहरे,": 9492,
      "स्मारकाची": 9493,
      "आरक्षणाच्या": 9494,
      "चळवळीच्या": 9495,
      "चळवळीची": 9496,
      "family": 9497,
      "founding": 9498,
      "foundations": 9499,
      "governing": 9500,
      "governed": 9501,
      "लगती": 9502,
      "लगे।": 9503,
      "थीस": 9504,
      "తేలిక": 9505,
      "తులు;": 9506,
      "పార్సీలు": 9507,
      "బియా": 9508,
      "బిజిన": 9509,
      "బియస్": 9510,
      "భరతుడు": 9511,
      "पर्वताची": 9512,
      "सैनिकांच्या": 9513,
      "सैनिकांनी": 9514,
      "सैनिकांसाठी": 9515,
      "राजकीयदृष्ट्या": 9516,
      "अरावलीच्या": 9517,
      "government": 9518,
      "grown": 9519,
      "ials.": 9520,
      "known": 9521,
      "manufac": 9522,
      "थी-पा": 9523,
      "रीतिरि": 9524,
      "लीपीं": 9525,
      "భౌతిక,": 9526,
      "మర)": 9527,
      "మరెన్న": 9528,
      "మర్రిచె": 9529,
      "మౌఖిక": 9530,
      "మాతృ": 9531,
      "మారుమూల": 9532,
      "अग्निध्राला": 9533,
      "अशियाई,": 9534,
      "आकर्षण": 9535,
      "उठावानंतर": 9536,
      "ओडिसी": 9537,
      "दहशतवादी": 9538,
      "management": 9539,
      "men,": 9540,
      "mentioned": 9541,
      "migrating": 9542,
      "numerous": 9543,
      "लीभाली": 9544,
      "समग्र": 9545,
      "समृद्ध": 9546,
      "లెక్కలు": 9547,
      "లెందరో": 9548,
      "లెజిస్లే": 9549,
      "ళికలు": 9550,
      "వంశంలో": 9551,
      "సహాయకార": 9552,
      "సేవ": 9553,
      "पंजाबमधील": 9554,
      "बंदर)": 9555,
      "बंदराच्या": 9556,
      "स्वरूपात": 9557,
      "स्वरूपां": 9558,
      ",३०१": 9559,
      "presence": 9560,
      "rush": 9561,
      "transmission": 9562,
      "translating": 9563,
      "transactional": 9564,
      "स्तरों": 9565,
      "ोलों": 9566,
      "्रेलिया": 9567,
      "సైనా": 9568,
      "సార్క్": 9569,
      "హైకోర్టులు": 9570,
      "ూపం,": 9571,
      "్వస్త్ర": 9572,
      "దినాలు,": 9573,
      "దినాలకు": 9574,
      ",३७०": 9575,
      "Arc": 9576,
      "Arch": 9577,
      "ch,": 9578,
      "ition": 9579,
      "ंशीय": 9580,
      "using": 9581,
      "ushered": 9582,
      "vide,": 9583,
      "thought": 9584,
      "invasive": 9585,
      "ड़ाई": 9586,
      "हुआ,": 9587,
      "लिक्": 9588,
      "ప్రారంభమైన": 9589,
      "విద్యను": 9590,
      "సంకీర్ణం": 9591,
      "సంబంధాలు": 9592,
      "సంబంధించిన": 9593,
      "పురుషులు": 9594,
      "స్థిరమైన": 9595,
      "अंदमान": 9596,
      "अंदाजे": 9597,
      "अर्थात": 9598,
      "अमेरिक": 9599,
      "अमेरिका": 9600,
      "अभिव्यक्ती": 9601,
      "reform,": 9602,
      "reforms": 9603,
      "reforms,": 9604,
      "ondrial": 9605,
      "entirety.": 9606,
      "लिये": 9607,
      "लिप्य": 9608,
      "व्यक्ति": 9609,
      "ంటున్నది.": 9610,
      "ంటున్నారు.": 9611,
      "వాహనాలు": 9612,
      "వాహనంలో": 9613,
      "జాతిపిత": 9614,
      "కూడుకున్నది.": 9615,
      "కోల్పోతూ": 9616,
      "अभियंते": 9617,
      "आढळून": 9618,
      "आढळतात.": 9619,
      "आले,ज्या": 9620,
      "इंद्रकन्या": 9621,
      "इंद्रपूरी": 9622,
      "steatite": 9623,
      "strong": 9624,
      "styles,": 9625,
      "status": 9626,
      "education,": 9627,
      "व्युत्पत्ति": 9628,
      "शिल्": 9629,
      "शियस": 9630,
      "నేపాలీ;": 9631,
      "లిచిన": 9632,
      "లిచారు.": 9633,
      "గుర్తించింది.": 9634,
      "గుర్తింపు": 9635,
      "గుర్తించవచ్చు.": 9636,
      "ఒకేఒక": 9637,
      "कलकत्": 9638,
      "कलेतील": 9639,
      "खुल्या": 9640,
      "खुपच": 9641,
      "ग्रेनाइट": 9642,
      "घोड्यां": 9643,
      "disband": 9644,
      "disput": 9645,
      "disrup": 9646,
      "artists,": 9647,
      "enterprise": 9648,
      "स्थल": 9649,
      "मानों": 9650,
      "मानता": 9651,
      "ఒకేమాదిరి": 9652,
      "చేసింది.ఢాకా": 9653,
      "ఎన్నికలలో": 9654,
      "కారణంగా,": 9655,
      "దాదాపుగా": 9656,
      "త్రివర్ణ": 9657,
      "వర్గాలు": 9658,
      "घोषणा": 9659,
      "घराणी": 9660,
      "घराण्याने": 9661,
      "छाऊ": 9662,
      "जडभरत": 9663,
      "जमलेले": 9664,
      "racy.": 9665,
      "age,": 9666,
      "chartered": 9667,
      "changes—am": 9668,
      "supported": 9669,
      "मानना": 9670,
      "हिन्द,": 9671,
      "ँचवी": 9672,
      "వర్గాలలోను": 9673,
      "వర్ణించబడింది.": 9674,
      "ప్రజలచే": 9675,
      "హిందూదేశం,": 9676,
      "శ్రీశై": 9677,
      "శ్రీలంక": 9678,
      "శ్రీరామన": 9679,
      "जमातींब": 9680,
      "ज्योती": 9681,
      "जवाबदार": 9682,
      "जवाहरलाल": 9683,
      "टायटस": 9684,
      "तद्भारतं": 9685,
      "suppressed": 9686,
      "supplying": 9687,
      "centralised,": 9688,
      "near-di": 9689,
      "underwent": 9690,
      "ंत्रिकता,": 9691,
      "चलते": 9692,
      "त्थान": 9693,
      "కలిసివస్తు": 9694,
      "బడతాయి.": 9695,
      "మహాభారతం": 9696,
      "సాధించగా,": 9697,
      "సాధించగలి": 9698,
      "సాధించాము.": 9699,
[...]
