{
  "version": "1.0",
  "truncation": null,
  "padding": null,
  "added_tokens": [
    {
      "id": 0,
      "content": "<unk>",
      "single_word": false,
      "lstrip": false,
      "rstrip": false,
      "normalized": false,
      "special": true
    }
  ],
  "normalizer": {
    "type": "NFC"
  },
  "pre_tokenizer": {
    "type": "WhitespaceSplit"
  },
  "post_processor": null,
  "decoder": null,
  "model": {
    "type": "BPE",
    "dropout": null,
    "unk_token": "<unk>",
    "continuing_subword_prefix": null,
    "end_of_word_suffix": null,
    "fuse_unk": false,
    "byte_fallback": false,
    "ignore_merges": false,
    "vocab": {
      "<unk>": 0,
      " ": 1,
      "\"": 2,
      "%": 3,
      "'": 4,
      "(": 5,
      ")": 6,
      ",": 7,
      "-": 8,
      ".": 9,
      ":": 10,
      ";": 11,
      "A": 12,
      "F": 13,
      "I": 14,
      "M": 15,
      "O": 16,
      "R": 17,
      "T": 18,
      "W": 19,
      "a": 20,
      "b": 21,
      "c": 22,
      "d": 23,
      "e": 24,
      "f": 25,
      "g": 26,
      "h": 27,
      "i": 28,
      "k": 29,
      "l": 30,
      "m": 31,
      "n": 32,
      "o": 33,
      "p": 34,
      "r": 35,
      "s": 36,
      "t": 37,
      "u": 38,
      "v": 39,
      "y": 40,
      "ँ": 41,
      "ं": 42,
      "ः": 43,
      "अ": 44,
      "आ": 45,
      "इ": 46,
      "ई": 47,
      "उ": 48,
      "ऊ": 49,
      "ऋ": 50,
      "ए": 51,
      "ऑ": 52,
      "ओ": 53,
      "क": 54,
      "ख": 55,
      "ग": 56,
      "घ": 57,
      "च": 58,
      "छ": 59,
      "ज": 60,
      "झ": 61,
      "ञ": 62,
      "ट": 63,
      "ठ": 64,
      "ड": 65,
      "ढ": 66,
      "ण": 67,
      "त": 68,
      "थ": 69,
      "द": 70,
      "ध": 71,
      "न": 72,
      "प": 73,
      "फ": 74,
      "ब": 75,
      "भ": 76,
      "म": 77,
      "य": 78,
      "र": 79,
      "ऱ": 80,
      "ल": 81,
      "ळ": 82,
      "व": 83,
      "श": 84,
      "ष": 85,
      "स": 86,
      "ह": 87,
      "़": 88,
      "ा": 89,
      "ि": 90,
      "ी": 91,
      "ु": 92,
      "ू": 93,
      "ृ": 94,
      "ॅ": 95,
      "े": 96,
      "ै": 97,
      "ॉ": 98,
      "ो": 99,
      "ौ": 100,
      "्": 101,
      "ॠ": 102,
      "।": 103,
      "०": 104,
      "१": 105,
      "२": 106,
      "३": 107,
      "४": 108,
      "५": 109,
      "६": 110,
      "७": 111,
      "८": 112,
      "९": 113,
      "ॲ": 114,
      "‌": 115,
      "‍": 116,
      "–": 117,
      "’": 118,
      "्य": 119,
      "्या": 120,
      "ार": 121,
      "्र": 122,
      "ात": 123,
      "र्": 124,
      "ारत": 125,
      "ला": 126,
      "हे": 127,
      "भारत": 128,
      "स्": 129,
      "ाच": 130,
      "आहे": 131,
      "ां": 132,
      "ले": 133,
      "ली": 134,
      "ान": 135,
      "का": 136,
      "रा": 137,
      "ील": 138,
      "प्र": 139,
      "या": 140,
      "िक": 141,
      "वा": 142,
      "ती": 143,
      "आहे.": 144,
      "मु": 145,
      "ून": 146,
      "वि": 147,
      "दे": 148,
      "ना": 149,
      "सा": 150,
      "च्या": 151,
      "तर": 152,
      "ते": 153,
      "मध": 154,
      "ीय": 155,
      "त्": 156,
      "चे": 157,
      "्ष": 158,
      "द्": 159,
      "ष्": 160,
      "वी": 161,
      "सं": 162,
      "हो": 163,
      "देश": 164,
      "ने": 165,
      "ही": 166,
      "अस": 167,
      "हा": 168,
      "त्या": 169,
      "पा": 170,
      "्ये": 171,
      "हि": 172,
      "्रा": 173,
      "झा": 174,
      "ंद": 175,
      "ची": 176,
      "ाच्या": 177,
      "राज": 178,
      "ंग": 179,
      "त्र": 180,
      "पू": 181,
      "वर": 182,
      "भारतीय": 183,
      "के": 184,
      "क्ष": 185,
      "ता": 186,
      "पु": 187,
      "मा": 188,
      "ातील": 189,
      "मी": 190,
      "मान": 191,
      "ल्या": 192,
      "मध्ये": 193,
      "कार": 194,
      "भा": 195,
      "वे": 196,
      "ष्ट": 197,
      "मो": 198,
      "ल्": 199,
      "चा": 200,
      "ति": 201,
      "स्थ": 202,
      "ाची": 203,
      "पूर्": 204,
      "नी": 205,
      "ये": 206,
      "सु": 207,
      "्यां": 208,
      "द्ध": 209,
      "ंड": 210,
      "कि": 211,
      "ळे": 212,
      "शा": 213,
      "काळ": 214,
      "म्": 215,
      "आहेत": 216,
      "ली.": 217,
      "कृ": 218,
      "तात": 219,
      "र्म": 220,
      "भारतात": 221,
      "ते.": 222,
      "पर": 223,
      "सि": 224,
      "ाने": 225,
      "कर": 226,
      "णि": 227,
      "णे": 228,
      "म्रा": 229,
      "वर्": 230,
      "ाचे": 231,
      "गे": 232,
      "दि": 233,
      "दी": 234,
      "मि": 235,
      "शिक": 236,
      "ाप": 237,
      "स्त": 238,
      "स्कृ": 239,
      "नाव": 240,
      "्षण": 241,
      "भाग": 242,
      "शिक्षण": 243,
      "ंत": 244,
      "एक": 245,
      "ठा": 246,
      "द्या": 247,
      "धर्म": 248,
      "री": 249,
      "श्": 250,
      "िया": 251,
      "भारताच्या": 252,
      "मुळे": 253,
      "संस्कृ": 254,
      "नेक": 255,
      "आहेत.": 256,
      "ंतर": 257,
      "अनेक": 258,
      "ण्या": 259,
      "र्व": 260,
      "त्तर": 261,
      "संस्कृती": 262,
      "जात": 263,
      "टि": 264,
      "१९": 265,
      "ाचा": 266,
      "असे": 267,
      "आणि": 268,
      "इंड": 269,
      "कड": 270,
      "क्र": 271,
      "जा": 272,
      "त्य": 273,
      "द्र": 274,
      "रू": 275,
      "रो": 276,
      "सर": 277,
      "ारा": 278,
      "र्थ": 279,
      "ले.": 280,
      "साम्रा": 281,
      "ष्ट्र": 282,
      "स्थाप": 283,
      "म्ह": 284,
      "तात.": 285,
      "वर्ष": 286,
      "साम्राज": 287,
      "दा": 288,
      "ब्र": 289,
      "रु": 290,
      "स्व": 291,
      "प्रदेश": 292,
      "विद्या": 293,
      "मधील": 294,
      "पास": 295,
      "पूर्वी": 296,
      "येथ": 297,
      "मिळ": 298,
      "ंध": 299,
      "णी": 300,
      "यां": 301,
      "ला.": 302,
      "काही": 303,
      "होता": 304,
      "झाले": 305,
      "म्हण": 306,
      "पासून": 307,
      "he": 308,
      "घे": 309,
      "चि": 310,
      "जी": 311,
      "णा": 312,
      "नि": 313,
      "भू": 314,
      "यु": 315,
      "लय": 316,
      "लो": 317,
      "समु": 318,
      "सर्व": 319,
      "हर": 320,
      "िटि": 321,
      "राष्ट्र": 322,
      "ष्ठ": 323,
      "हिमा": 324,
      "ाचीन": 325,
      "ब्रिटि": 326,
      "ब्रिटिश": 327,
      "),": 328,
      "इति": 329,
      "उत्तर": 330,
      "की": 331,
      "गर": 332,
      "जे": 333,
      "दक्ष": 334,
      "पृ": 335,
      "बां": 336,
      "भर": 337,
      "मह": 338,
      "मार": 339,
      "वै": 340,
      "शि": 341,
      "ो.": 342,
      "प्रकार": 343,
      "प्राचीन": 344,
      "हिंद": 345,
      "सिंध": 346,
      "इंडिया": 347,
      "होता.": 348,
      "इतिहा": 349,
      "दक्षि": 350,
      "the": 351,
      "इंग": 352,
      "उप": 353,
      "को": 354,
      "दल": 355,
      "धार": 356,
      "न्": 357,
      "पड": 358,
      "पद": 359,
      "बा": 360,
      "मू": 361,
      "ऱ्या": 362,
      "शी": 363,
      "सी": 364,
      "से": 365,
      "स्त्र": 366,
      "मुख": 367,
      "विध": 368,
      "द्वी": 369,
      "ंगा": 370,
      "ल्ली": 371,
      "किल्": 372,
      "लोक": 373,
      "सिंधू": 374,
      "nd": 375,
      "आज": 376,
      "इ.": 377,
      "क्": 378,
      "ठी": 379,
      "दिक": 380,
      "बन": 381,
      "मे": 382,
      "महा": 383,
      "ळव": 384,
      "ळू": 385,
      "व्य": 386,
      "वार": 387,
      "स.": 388,
      "हवा": 389,
      "्यंत": 390,
      "लाग": 391,
      "ांत": 392,
      "होती": 393,
      "पर्यंत": 394,
      "दिल्ली": 395,
      "विद्यार्थ": 396,
      "येथील": 397,
      "हिमालय": 398,
      "पृष्ठ": 399,
      "बांध": 400,
      "वैदिक": 401,
      "इतिहास": 402,
      "द्वीप": 403,
      "हवामान": 404,
      "ंप": 405,
      "ंब": 406,
      "अज": 407,
      "इम": 408,
      "ओळ": 409,
      "गा": 410,
      "ग्": 411,
      "टी": 412,
      "तील": 413,
      "धिक": 414,
      "नदी": 415,
      "नंतर": 416,
      "प्": 417,
      "बंगा": 418,
      "रे": 419,
      "वन": 420,
      "शत": 421,
      "हळू": 422,
      "ित": 423,
      "ैन": 424,
      "००": 425,
      "लाल": 426,
      "विविध": 427,
      "होते.": 428,
      "असते.": 429,
      "झाली.": 430,
      "वरून": 431,
      "शास्त्र": 432,
      "काळात": 433,
      "ण्यात": 434,
      "जातो.": 435,
      "क्रम": 436,
      "समुद्र": 437,
      "इमारत": 438,
      "ओळख": 439,
      "बंगाल": 440,
      "of": 441,
      "ंत्र": 442,
      "आक्रम": 443,
      "इस्": 444,
      "खा": 445,
      "गण": 446,
      "गी": 447,
      "गु": 448,
      "गातील": 449,
      "घल": 450,
      "ज्": 451,
      "ज्या": 452,
      "तो": 453,
      "दो": 454,
      "नृ": 455,
      "पश्": 456,
      "बी": 457,
      "बौ": 458,
      "लि": 459,
      "व्या": 460,
      "वली": 461,
      "ुस": 462,
      "ैकी": 463,
      "्छ": 464,
      "्रे": 465,
      "भारता": 466,
      "ांच्या": 467,
      "लीन": 468,
      "ानंतर": 469,
      "कालीन": 470,
      "मुघल": 471,
      "असले": 472,
      "ंदि": 473,
      "ंद्र": 474,
      "राज्य": 475,
      "स्थान": 476,
      "सुरू": 477,
      "गेट": 478,
      "साम्राज्या": 479,
      "रुव": 480,
      "इंग्र": 481,
      "मुख्य": 482,
      "किल्ला": 483,
      "इस्ला": 484,
      "पश्चि": 485,
      "बौद्ध": 486,
      "(पूर्वी": 487,
      "ia": 488,
      "mo": 489,
      "कर्": 490,
      "ख्": 491,
      "गड": 492,
      "गो": 493,
      "च्छ": 494,
      "जव": 495,
      "तु": 496,
      "द्रा": 497,
      "द्यां": 498,
      "न्या": 499,
      "पठ": 500,
      "भवन": 501,
      "ळी": 502,
      "शै": 503,
      "शिया": 504,
      "सम": 505,
      "सो": 506,
      "सात": 507,
      "हज": 508,
      "हु": 509,
      "ह्या": 510,
      "ातंत्र": 511,
      "भारताचे": 512,
      "ांमध्ये": 513,
      "ांनी": 514,
      "वाह": 515,
      "मध्य": 516,
      "असून": 517,
      "त्यां": 518,
      "झाला": 519,
      "राज्यां": 520,
      "केली": 521,
      "वेग": 522,
      "मोठा": 523,
      "पूर्व": 524,
      "सुरुव": 525,
      "करून": 526,
      "कडे": 527,
      "वर्षां": 528,
      "साम्राज्य": 529,
      "स्वातंत्र": 530,
      "भूमी": 531,
      "युद्ध": 532,
      "भरत": 533,
      "महारा": 534,
      "दक्षिण": 535,
      "विद्यार्थ्यां": 536,
      "इस्लामी": 537,
      "सुरुवात": 538,
      "%;": 539,
      "ra": 540,
      "st": 541,
      "ंच": 542,
      "ंट": 543,
      "आर्": 544,
      "उदा": 545,
      "ऋष": 546,
      "ऑफ": 547,
      "खन": 548,
      "खो": 549,
      "गंग": 550,
      "जगातील": 551,
      "तसे": 552,
      "दृ": 553,
      "दख्": 554,
      "नद्यां": 555,
      "पे": 556,
      "पती": 557,
      "पैकी": 558,
      "बर": 559,
      "बहु": 560,
      "मत": 561,
      "मर": 562,
      "मै": 563,
      "मरा": 564,
      "मंदि": 565,
      "यी": 566,
      "व्": 567,
      "शक": 568,
      "शो": 569,
      "शहर": 570,
      "सम्रा": 571,
      "भारताने": 572,
      "स्ट": 573,
      "स्मार": 574,
      "वाळव": 575,
      "सागर": 576,
      "साठी": 577,
      "त्व": 578,
      "द्दल": 579,
      "संगी": 580,
      "त्याचे": 581,
      "पाकि": 582,
      "झाला.": 583,
      "राज्ये": 584,
      "वरील": 585,
      "केले": 586,
      "केली.": 587,
      "क्षा": 588,
      "पुरा": 589,
      "पुत्र": 590,
      "माण": 591,
      "मानवी": 592,
      "ष्ट्या": 593,
      "पूर्ण": 594,
      "परंत": 595,
      "सित": 596,
      "स्तान": 597,
      "ण्यास": 598,
      "स्थापत्य": 599,
      "म्हणून": 600,
      "म्हणजे": 601,
      "सर्वांत": 602,
      "राष्ट्रीय": 603,
      "हिंदू": 604,
      "दक्षिणे": 605,
      "धारण": 606,
      "पडले": 607,
      "पदवी": 608,
      "सीमा": 609,
      "इ.स.": 610,
      "व्यु": 611,
      "होती.": 612,
      "प्त": 613,
      "बंगालच्या": 614,
      "ज्ञ": 615,
      "नृत्य": 616,
      "ुसार": 617,
      "भारताला": 618,
      "सोयी": 619,
      "वर्षांपूर्वी": 620,
      "उदाहर": 621,
      "गंगे": 622,
      "तसेच": 623,
      "दृष्ट्या": 624,
      "सम्राट": 625,
      "वाळवंट": 626,
      "पाकिस्तान": 627,
      "परंतु": 628,
      "(इंग्र": 629,
      "Ind": 630,
      "er": 631,
      "ma": 632,
      "om": 633,
      "re": 634,
      "ter": 635,
      "अति": 636,
      "अधिक": 637,
      "आण": 638,
      "आप": 639,
      "आर": 640,
      "आर्थ": 641,
      "इतर": 642,
      "इत्या": 643,
      "कथ": 644,
      "कात": 645,
      "कच्छ": 646,
      "गती": 647,
      "ग्रा": 648,
      "घड": 649,
      "घात": 650,
      "चळव": 651,
      "जु": 652,
      "जो": 653,
      "जैन": 654,
      "डू": 655,
      "तत्": 656,
      "तमिळ": 657,
      "थार": 658,
      "दु": 659,
      "दार": 660,
      "दर्": 661,
      "ध्या": 662,
      "नद्या": 663,
      "नुसार": 664,
      "पार": 665,
      "पत्": 666,
      "पद्ध": 667,
      "पणे": 668,
      "पर्व": 669,
      "बद्दल": 670,
      "भि": 671,
      "भी": 672,
      "भदे": 673,
      "यं": 674,
      "यन": 675,
      "यातील": 676,
      "रि": 677,
      "ळा": 678,
      "शय": 679,
      "सद": 680,
      "सन": 681,
      "सर्": 682,
      "समू": 683,
      "सैन": 684,
      "ूर": 685,
      "ृत": 686,
      "ौर": 687,
      "१६": 688,
      "१८": 689,
      "ातून": 690,
      "लां": 691,
      "स्वी": 692,
      "ांचे": 693,
      "ांचा": 694,
      "लेय": 695,
      "लेला": 696,
      "लेल्या": 697,
      "लेणी": 698,
      "वाद": 699,
      "वाधिक": 700,
      "विष": 701,
      "नाडू": 702,
      "साग": 703,
      "संसद": 704,
      "होत": 705,
      "होत्या": 706,
      "त्यात": 707,
      "चीन": 708,
      "राजक": 709,
      "पूर": 710,
      "केंद्र": 711,
      "क्षे": 712,
      "पुत": 713,
      "मोठ": 714,
      "ल्प": 715,
      "किन": 716,
      "शालेय": 717,
      "सिद्ध": 718,
      "गेली.": 719,
      "ाप्": 720,
      "नावाने": 721,
      "नावाचा": 722,
      "भागात": 723,
      "श्च": 724,
      "१९९": 725,
      "कडील": 726,
      "सरकार": 727,
      "येथे": 728,
      "यांच्या": 729,
      "जी:": 730,
      "राष्ट्रपती": 731,
      "उत्तरे": 732,
      "हिंदी": 733,
      "पदव्यु": 734,
      "वारे": 735,
      "लागले.": 736,
      "द्वीपसमू": 737,
      "हळूहळू": 738,
      "ओळखले": 739,
      "खाली": 740,
      "गणला": 741,
      "दोन": 742,
      "पश्चिम": 743,
      "(पूर्वीचे": 744,
      "गोल": 745,
      "जवळ": 746,
      "पठार": 747,
      "शैली": 748,
      "वेगळे": 749,
      "स्वातंत्र्य": 750,
      "युद्धात": 751,
      "दख्खन": 752,
      "पेक्षा": 753,
      "मंदिरे": 754,
      "संगीत": 755,
      "उदाहरण": 756,
      "(इंग्रजी:": 757,
      "India": 758,
      "अतिशय": 759,
      "आर्थिक": 760,
      "इत्यादी": 761,
      "तमिळनाडू": 762,
      "थारचे": 763,
      "पद्धती": 764,
      "सर्वाधिक": 765,
      "पदव्युत्तर": 766,
      "द्वीपसमूह": 767,
      "eter": 768,
      "il": 769,
      "in": 770,
      "kil": 771,
      "le": 772,
      "or": 773,
      "ंनी": 774,
      "ंजा": 775,
      "अण": 776,
      "अथ": 777,
      "अर": 778,
      "अरा": 779,
      "अग्": 780,
      "अशिया": 781,
      "आकर्": 782,
      "उर्": 783,
      "उत्": 784,
      "उठा": 785,
      "ऊन": 786,
      "ओड": 787,
      "ओघात": 788,
      "कू": 789,
      "कला": 790,
      "कमी": 791,
      "कमान": 792,
      "काने": 793,
      "कल्प": 794,
      "गत": 795,
      "ग्र": 796,
      "जन": 797,
      "जांनी": 798,
      "टो": 799,
      "ट्": 800,
      "टक्": 801,
      "डे": 802,
      "ड्रा": 803,
      "णार": 804,
      "णिक": 805,
      "तन": 806,
      "तय": 807,
      "तां": 808,
      "त्ये": 809,
      "तो.": 810,
      "दह": 811,
      "दली": 812,
      "दगड": 813,
      "दलां": 814,
      "निक": 815,
      "नवी": 816,
      "पी": 817,
      "पो": 818,
      "पात": 819,
      "पाच": 820,
      "पंजा": 821,
      "बळ": 822,
      "बि": 823,
      "ब्": 824,
      "बार": 825,
      "बंद": 826,
      "बरो": 827,
      "बदलां": 828,
      "भार": 829,
      "मिक": 830,
      "महि": 831,
      "मौर": 832,
      "रच": 833,
      "रात": 834,
      "ल)": 835,
      "लु": 836,
      "लग्": 837,
      "वृ": 838,
      "शन": 839,
      "शह": 840,
      "शे": 841,
      "षा": 842,
      "सां": 843,
      "सत्": 844,
      "समी": 845,
      "सह्या": 846,
      "सध्या": 847,
      "हात": 848,
      "हान": 849,
      "ावर": 850,
      "िका": 851,
      "ीला": 852,
      "ुव": 853,
      "े.": 854,
      "्मिक": 855,
      "११": 856,
      "१७": 857,
      "२६": 858,
      "५०": 859,
      "५००": 860,
      "‍नी": 861,
      "स्वर": 862,
      "आहे,": 863,
      "लेले": 864,
      "काम": 865,
      "काल": 866,
      "काश्": 867,
      "राला": 868,
      "प्रगती": 869,
      "प्रसिद्ध": 870,
      "प्राप्": 871,
      "यास": 872,
      "वाढ": 873,
      "वादी": 874,
      "तीय": 875,
      "मुंब": 876,
      "विले": 877,
      "विस्त": 878,
      "विभाग": 879,
      "नाही": 880,
      "साली": 881,
      "साधारण": 882,
      "तरी": 883,
      "त्त्व": 884,
      "ष्ण": 885,
      "संपूर्ण": 886,
      "संलग्": 887,
      "देशा": 888,
      "त्यामुळे": 889,
      "हिं": 890,
      "झाली": 891,
      "ंदी": 892,
      "राजव": 893,
      "राज्या": 894,
      "पुढ": 895,
      "मान्य": 896,
      "ल्याची": 897,
      "मोठी": 898,
      "मोसमी": 899,
      "शाहज": 900,
      "शासित": 901,
      "काळाच्या": 902,
      "काळातील": 903,
      "परदेश": 904,
      "करणे": 905,
      "गेले.": 906,
      "दिव": 907,
      "स्तरा": 908,
      "शिक्षणपद्धती": 909,
      "धर्माचा": 910,
      "ण्याची": 911,
      "जाते.": 912,
      "१९२": 913,
      "इंडो": 914,
      "द्री": 915,
      "रोप": 916,
      "रोजी": 917,
      "सरस्व": 918,
      "प्रदेशातील": 919,
      "विद्यापी": 920,
      "मिळतात.": 921,
      "यांनी": 922,
      "घेण्यास": 923,
      "निध": 924,
      "भूभाग": 925,
      "युरोप": 926,
      "समुद्रा": 927,
      "प्रकारचे": 928,
      "ther": 929,
      "इंग्": 930,
      "उपसाग": 931,
      "कोटी": 932,
      "धार्मिक": 933,
      "बनविले": 934,
      "महासागर": 935,
      "विद्यार्थी": 936,
      "पृष्ठीय": 937,
      "द्वीपकल्प": 938,
      "अजून": 939,
      "शतकात": 940,
      "शास्त्रीय": 941,
      "इमारती": 942,
      "आक्रमण": 943,
      "आक्रमणे": 944,
      "गुज": 945,
      "ज्याचा": 946,
      "असलेली": 947,
      "पश्चिमे": 948,
      "mother": 949,
      "महाराष्ट्र": 950,
      "सुरुवातीला": 951,
      "ऋषभदे": 952,
      "बहुतां": 953,
      "मैल)": 954,
      "मराठा": 955,
      "व्हा": 956,
      "शोध": 957,
      "शहरे": 958,
      "स्मारक": 959,
      "गंगेच्या": 960,
      "man": 961,
      "ometer": 962,
      "आरक्ष": 963,
      "चळवळी": 964,
      "तत्कालीन": 965,
      "पत्‍नी": 966,
      "पर्वत": 967,
      "सैनिक": 968,
      "राजकीय": 969,
      "केंद्रशासित": 970,
      "kilometer": 971,
      "अरबी": 972,
      "अरावली": 973,
      "अग्निध": 974,
      "अशियाई": 975,
      "आकर्ष": 976,
      "उठाव": 977,
      "ओडि": 978,
      "टक्के": 979,
      "तयार": 980,
      "दहशत": 981,
      "पंजाब": 982,
      "बंदर": 983,
      "बरोबर": 984,
      "शहरी": 985,
      "सह्याद्री": 986,
      "स्वरू": 987,
      "मुंबई": 988,
      "साधारणपणे": 989,
      "संलग्न": 990,
      "शाहजहान": 991,
      "सरस्वती": 992,
      "उपसागराला": 993,
      "बहुतांशी": 994,
      "kilometers": 995,
      ",३": 996,
      ".५": 997,
      ".मी": 998,
      "Ar": 999,
      "and": 1000,
      "ce": 1001,
      "ch": 1002,
      "gra": 1003,
      "hi": 1004,
      "hu": 1005,
      "it": 1006,
      "on": 1007,
      "ंश": 1008,
      "ंची": 1009,
      "ंठा": 1010,
      "ंजो": 1011,
      "अन": 1012,
      "असा": 1013,
      "अंद": 1014,
      "अर्थ": 1015,
      "अशी": 1016,
      "अमे": 1017,
      "अशो": 1018,
      "अभि": 1019,
      "आढ": 1020,
      "आध": 1021,
      "आले": 1022,
      "आली": 1023,
      "आसा": 1024,
      "आली.": 1025,
      "आशि": 1026,
      "आधार": 1027,
      "इट": 1028,
      "इत": 1029,
      "इस": 1030,
      "इंद्र": 1031,
      "इव्": 1032,
      "ईश": 1033,
      "ईस्ट": 1034,
      "उद": 1035,
      "उन": 1036,
      "उम": 1037,
      "उष्ण": 1038,
      "ऋत्य": 1039,
      "एका": 1040,
      "ऑस्ट": 1041,
      "कल": 1042,
      "कले": 1043,
      "कंप": 1044,
      "कांच्या": 1045,
      "कन्या": 1046,
      "खु": 1047,
      "ख्य": 1048,
      "खून": 1049,
      "गला": 1050,
      "गंगा": 1051,
      "ग्रे": 1052,
      "गपूर": 1053,
      "घट": 1054,
      "घो": 1055,
      "घरा": 1056,
      "चल": 1057,
      "चो": 1058,
      "छा": 1059,
      "जड": 1060,
      "जम": 1061,
      "जॉ": 1062,
      "ज्य": 1063,
      "जवा": 1064,
      "जम्": 1065,
      "जाने": 1066,
      "जमहा": 1067,
      "जंब": 1068,
      "टर": 1069,
      "टा": 1070,
      "ठिका": 1071,
      "डी": 1072,
      "त.": 1073,
      "तान": 1074,
      "तच्या": 1075,
      "तद्": 1076,
      "त्रा": 1077,
      "तज्ञ": 1078,
      "थे": 1079,
      "थंड": 1080,
      "धड": 1081,
      "धर": 1082,
      "धी": 1083,
      "नै": 1084,
      "नां": 1085,
      "नमु": 1086,
      "नष्ट": 1087,
      "नगर": 1088,
      "नमार": 1089,
      "पर्": 1090,
      "पां": 1091,
      "परा": 1092,
      "पहि": 1093,
      "पतन": 1094,
      "पहात": 1095,
      "फा": 1096,
      "फे": 1097,
      "फ्रे": 1098,
      "बे": 1099,
      "बती": 1100,
      "भे": 1101,
      "भौ": 1102,
      "भवर्ष": 1103,
      "मन": 1104,
      "म्या": 1105,
      "मणि": 1106,
      "मरी": 1107,
      "मारा": 1108,
      "मंच": 1109,
      "ममाण": 1110,
      "यक": 1111,
      "यश": 1112,
      "यात": 1113,
      "याच": 1114,
      "यमु": 1115,
      "यत्": 1116,
      "यानंतर": 1117,
      "रण": 1118,
      "रत": 1119,
      "रां": 1120,
      "रंग": 1121,
      "रणा": 1122,
      "रडे": 1123,
      "रममाण": 1124,
      "लू": 1125,
      "लया": 1126,
      "लक्ष": 1127,
      "लंड": 1128,
      "लगा": 1129,
      "लब्": 1130,
      "ळ्या": 1131,
      "ळून": 1132,
      "ळची": 1133,
      "ळकार": 1134,
      "ळाने": 1135,
      "विक": 1136,
      "श्र": 1137,
      "सू": 1138,
      "साच": 1139,
      "सिक": 1140,
      "समा": 1141,
      "सचि": 1142,
      "सऱ्या": 1143,
      "हड": 1144,
      "ह्य": 1145,
      "हंप": 1146,
      "िप": 1147,
      "िय": 1148,
      "िंठा": 1149,
      "ीक": 1150,
      "ीन": 1151,
      "ुस्थान": 1152,
      "ुनिक": 1153,
      "्क": 1154,
      "्थ": 1155,
      "्की": 1156,
      "१२": 1157,
      "३८": 1158,
      "४७": 1159,
      "४८": 1160,
      "५७": 1161,
      "७१": 1162,
      "्याचे": 1163,
      "्याने": 1164,
      "ारी": 1165,
      "र्ज": 1166,
      "र्माण": 1167,
      "लाभ": 1168,
      "हेंजो": 1169,
      "भारताची": 1170,
      "भारताचा": 1171,
      "भारतभर": 1172,
      "स्वा": 1173,
      "ांवि": 1174,
      "ांतात": 1175,
      "ांपासून": 1176,
      "ांपैकी": 1177,
      "ांचल": 1178,
      "लेली": 1179,
      "कावे": 1180,
      "कावरून": 1181,
      "काबी": 1182,
      "प्रमा": 1183,
      "प्रभा": 1184,
      "प्रवे": 1185,
      "प्रशा": 1186,
      "प्रश्": 1187,
      "प्रमुख": 1188,
      "प्रत्ये": 1189,
      "प्रांतात": 1190,
      "यामुळे": 1191,
      "वास्त": 1192,
      "वामुळे": 1193,
      "वाजी": 1194,
      "वालय": 1195,
      "तीनंतर": 1196,
      "मुद्": 1197,
      "मुलगा": 1198,
      "नाट": 1199,
      "नाऱ्या": 1200,
      "नाइट": 1201,
      "नागपूर": 1202,
      "नाभवर्ष": 1203,
      "साद": 1204,
      "साह": 1205,
      "साहि": 1206,
      "मधे": 1207,
      "ष्ठा": 1208,
      "संविध": 1209,
      "संशोध": 1210,
      "देश्य": 1211,
      "देशाचे": 1212,
      "देशांमध्ये": 1213,
      "नेशिया": 1214,
      "असली": 1215,
      "त्याला": 1216,
      "त्याने": 1217,
      "त्याची": 1218,
      "त्यासाठी": 1219,
      "पाट": 1220,
      "पाठ": 1221,
      "पाव": 1222,
      "पावली": 1223,
      "हिम": 1224,
      "हिनी": 1225,
      "झाले.": 1226,
      "राजा": 1227,
      "राजस्थान": 1228,
      "त्रि": 1229,
      "त्रे": 1230,
      "वरी": 1231,
      "वरित": 1232,
      "केल्या": 1233,
      "केले.": 1234,
      "केला.": 1235,
      "क्षणिक": 1236,
      "ताजमहा": 1237,
      "पुर": 1238,
      "पुरी": 1239,
      "पुन्": 1240,
      "मीण": 1241,
      "मीर": 1242,
      "मानला": 1243,
      "ल्याचे": 1244,
      "कारभार": 1245,
      "भाव": 1246,
      "भाषा": 1247,
      "वेढ": 1248,
      "वेरू": 1249,
      "ष्ट्य": 1250,
      "मोग": 1251,
      "मोहेंजो": 1252,
      "चाल": 1253,
      "तिसऱ्या": 1254,
      "येते.": 1255,
      "येतात.": 1256,
      "सुधारण": 1257,
      "सुमारा": 1258,
      "्यांमध्ये": 1259,
      "कि.मी": 1260,
      "किनाऱ्या": 1261,
      "कृष्ट": 1262,
      "करत": 1263,
      "करतात.": 1264,
      "करण्यात": 1265,
      "वर्तु": 1266,
      "गेल्या": 1267,
      "दिला": 1268,
      "नावाची": 1269,
      "शिक्षणाच्या": 1270,
      "संस्कृती,": 1271,
      "संस्कृतीची": 1272,
      "टिळ": 1273,
      "१९५०": 1274,
      "१९४७": 1275,
      "असेही": 1276,
      "कडून": 1277,
      "जाऊ": 1278,
      "जास्त": 1279,
      "द्रे": 1280,
      "रूकू": 1281,
      "रोवली": 1282,
      "रोखून": 1283,
      "सरे": 1284,
      "ाराला": 1285,
      "स्थापन": 1286,
      "स्थापत्याचे": 1287,
      "वर्षे": 1288,
      "वर्षात": 1289,
      "साम्राज्ये": 1290,
      "रुद्ध": 1291,
      "प्रदेशात": 1292,
      "प्रदेशांत": 1293,
      "पूर्वीच्या": 1294,
      "मिळा": 1295,
      "मिळते.": 1296,
      "यांचा": 1297,
      "झालेले": 1298,
      "म्हणतात.": 1299,
      "घेऊ": 1300,
      "घेत": 1301,
      "घेण्यात": 1302,
      "णामुळे": 1303,
      "निर्माण": 1304,
      "युगातील": 1305,
      "ब्रिटिशकालीन": 1306,
      "ब्रिटिशांवि": 1307,
      "उत्तरांचल": 1308,
      "गरजे": 1309,
      "पृष्ठा": 1310,
      "बांगला": 1311,
      "महत्त्व": 1312,
      "वैशि": 1313,
      "शिख": 1314,
      "शिवाजी": 1315,
      "प्रकारात": 1316,
      "हिंदुस्थान": 1317,
      "इतिहासा": 1318,
      "उपप्रकार": 1319,
      "उपसागर": 1320,
      "उपलब्": 1321,
      "कोरडे": 1322,
      "दलदली": 1323,
      "न्स": 1324,
      "न्ही": 1325,
      "बाद": 1326,
      "बाबती": 1327,
      "सीम": 1328,
      "लोकनृ": 1329,
      "ndmother": 1330,
      "बनला": 1331,
      "बनली": 1332,
      "महाविद्या": 1333,
      "वारी": 1334,
      "लागू": 1335,
      "दिल्लीतील": 1336,
      "हिमालयीन": 1337,
      "पृष्ठाचा": 1338,
      "बांधले": 1339,
      "बांधली": 1340,
      "बांधून": 1341,
      "बांधणी": 1342,
      "इतिहासातील": 1343,
      "इतिहासकार": 1344,
      "ंपैकी": 1345,
      "अजिंठा": 1346,
      "अजनाभवर्ष": 1347,
      "प्पा": 1348,
      "०००": 1349,
      "शास्त्रातील": 1350,
      "काळातच": 1351,
      "ओळखला": 1352,
      "खास": 1353,
      "गुप्त": 1354,
      "गुरूकू": 1355,
      "दोन्ही": 1356,
      "व्यापार": 1357,
      "असलेला": 1358,
      "असलेल्या": 1359,
      "राज्यकर्": 1360,
      "गेटवे": 1361,
      "साम्राज्याच्या": 1362,
      "साम्राज्याची": 1363,
      "इंग्रजांनी": 1364,
      "ial": 1365,
      "most": 1366,
      "गडा": 1367,
      "शैक्षणिक": 1368,
      "समज": 1369,
      "हजार": 1370,
      "मध्यप्रदेशातील": 1371,
      "त्यांची": 1372,
      "त्यांनी": 1373,
      "राज्यांच्या": 1374,
      "विद्यार्थ्यांची": 1375,
      "rad": 1376,
      "stor": 1377,
      "आर्क": 1378,
      "आर्द्र": 1379,
      "खोऱ्या": 1380,
      "खोरे": 1381,
      "नद्यांमध्ये": 1382,
      "स्मारकावरून": 1383,
      "पुराण": 1384,
      "स्थापत्यशास्त्रातील": 1385,
      "दक्षिणेकडील": 1386,
      "ज्ञान": 1387,
      "नृत्यप्रकार": 1388,
      "गंगेचे": 1389,
      "rea": 1390,
      "अधिकृत": 1391,
      "आपले": 1392,
      "आपल्या": 1393,
      "कथा": 1394,
      "ग्रामीण": 1395,
      "जुन्या": 1396,
      "१६३८": 1397,
      "१६४८": 1398,
      "स्वीकार": 1399,
      "विषुव": 1400,
      "होत्या.": 1401,
      "क्षेत्र": 1402,
      "क्षेत्रा": 1403,
      "पुतळा": 1404,
      "मोठे": 1405,
      "मोठ्या": 1406,
      "गोलिक": 1407,
      "स्वातंत्र्यप्राप्": 1408,
      "दख्खनच्या": 1409,
      "दख्खनचे": 1410,
      "अणु": 1411,
      "अथवा": 1412,
      "उर्वरित": 1413,
      "उत्कृष्ट": 1414,
      "ग्रीक": 1415,
      "ड्राइव्": 1416,
      "बदलांमुळे": 1417,
      "मौर्य": 1418,
      "रचना": 1419,
      "लुप्त": 1420,
      "वृतीय": 1421,
      "सत्ता": 1422,
      "काश्मीर": 1423,
      "विस्तार": 1424,
      "हिंसाच": 1425,
      "राजवट": 1426,
      "राज्यात": 1427,
      "पुढार": 1428,
      "स्तरावर": 1429,
      "१९२०": 1430,
      "इंडोनेशिया": 1431,
      "विद्यापीठ": 1432,
      "युरोपीय": 1433,
      "इंग्लंड": 1434,
      "अजूनही": 1435,
      "गुजरात": 1436,
      "पश्चिमेकडे": 1437,
      "ऋषभदेव": 1438,
      "आरक्षणामुळे": 1439,
      "अग्निध्र": 1440,
      "आकर्षित": 1441,
      "ओडिशा": 1442,
      "दहशतवाद": 1443,
      "शाहजहानने": 1444,
      "grandmother": 1445,
      "histor": 1446,
      "human": 1447,
      "अनु": 1448,
      "अशोकाने": 1449,
      "आधुनिक": 1450,
      "आसाम": 1451,
      "आशियातील": 1452,
      "इतका": 1453,
      "इसवी": 1454,
      "ईशान": 1455,
      "उदयास": 1456,
      "उमट": 1457,
      "ऑस्ट्रे": 1458,
      "कंपनी": 1459,
      "घटना": 1460,
      "चोल": 1461,
      "जॉर्ज": 1462,
      "जम्मू": 1463,
      "जानेवारी": 1464,
      "जंबू": 1465,
      "ठिकाणी": 1466,
      "धरतो": 1467,
      "नैऋत्य": 1468,
      "नमुने": 1469,
      "पहाता": 1470,
      "फ्रेंच": 1471,
      "भौगोलिक": 1472,
      "म्यानमार": 1473,
      "मरीन": 1474,
      "यशस्वी": 1475,
      "यमुना": 1476,
      "रंगमंच": 1477,
      "विकसित": 1478,
      "सिक्की": 1479,
      "सचिवालय": 1480,
      "हंपी": 1481,
      "काबीज": 1482,
      "प्रमाणा": 1483,
      "प्रवेश": 1484,
      "प्रश्न": 1485,
      "प्रत्येक": 1486,
      "संविधान": 1487,
      "ताजमहाल": 1488,
      "पुन्हा": 1489,
      "सुधारणांचा": 1490,
      "सुमारास": 1491,
      "कि.मी.": 1492,
      "वर्तुळकार": 1493,
      "ब्रिटिशांविरुद्ध": 1494,
      "गरजेचे": 1495,
      "वैशिष्ट्य": 1496,
      "उपलब्ध": 1497,
      "बाबतीत": 1498,
      "गुरूकूल": 1499,
      "१६३८ला": 1500,
      "क्षेत्रामध्ये": 1501,
      "स्वातंत्र्यप्राप्तीनंतर": 1502,
      "ड्राइव्ह": 1503,
      "हिंसाचार": 1504,
      "history": 1505,
      "सिक्कीम": 1506,
      "\".": 1507,
      "%.": 1508,
      "'भारत": 1509,
      "'भा": 1510,
      "'रत": 1511,
      "(आ": 1512,
      "(१": 1513,
      "(३": 1514,
      "(४": 1515,
      "(सर्व": 1516,
      "(नंतर": 1517,
      "(इ.स.": 1518,
      "(फ्रेंच": 1519,
      "):": 1520,
      ",०": 1521,
      ",४": 1522,
      ",५": 1523,
      ",६": 1524,
      ",ज्या": 1525,
      ",०००": 1526,
      "-अ": 1527,
      "-७": 1528,
      "-गुज": 1529,
      "-वेरू": 1530,
      "-grandmother": 1531,
      "-ऑस्ट्रे": 1532,
      "Al": 1533,
      "For": 1534,
      "Me": 1535,
      "Ou": 1536,
      "Re": 1537,
      "Tr": 1538,
      "The": 1539,
      "Tit": 1540,
      "Wa": 1541,
      "ab": 1542,
      "al": 1543,
      "are": 1544,
      "ace": 1545,
      "bi": 1546,
      "ct": 1547,
      "crad": 1548,
      "de": 1549,
      "ee": 1550,
      "end": 1551,
      "grea": 1552,
      "gend": 1553,
      "hp": 1554,
      "is": 1555,
      "iv": 1556,
      "iom": 1557,
      "ion": 1558,
      "ly": 1559,
      "lace": 1560,
      "phe": 1561,
      "pee": 1562,
      "rt": 1563,
      "ru": 1564,
      "rial": 1565,
      "su": 1566,
      "spee": 1567,
      "trad": 1568,
      "trea": 1569,
      "t-grandmother": 1570,
      "up": 1571,
      "us": 1572,
      "uab": 1573,
      "val": 1574,
      "ँग्रे": 1575,
      "ंभ": 1576,
      "ंम": 1577,
      "ंका": 1578,
      "ंवा": 1579,
      "ंवर": 1580,
      "ंता": 1581,
      "ंभी": 1582,
      "ःख": 1583,
      "ःसीमा": 1584,
      "अग": 1585,
      "अध": 1586,
      "अप": 1587,
      "अभ": 1588,
      "अम": 1589,
      "अल": 1590,
      "अव": 1591,
      "अह": 1592,
      "अ‍": 1593,
      "अस्": 1594,
      "अले": 1595,
      "अंग": 1596,
      "अक्ष": 1597,
      "अरु": 1598,
      "अशि": 1599,
      "अन्": 1600,
      "अप्": 1601,
      "अलि": 1602,
      "अन्या": 1603,
      "अमर": 1604,
      "अमरा": 1605,
      "अध्या": 1606,
      "अट्": 1607,
      "अपो": 1608,
      "अहिं": 1609,
      "अयशस्वी": 1610,
      "अंम": 1611,
      "आख": 1612,
      "आठ": 1613,
      "आफ": 1614,
      "आपा": 1615,
      "आल्या": 1616,
      "आकार": 1617,
      "आदि": 1618,
      "आंतर": 1619,
      "आले.": 1620,
      "आंध": 1621,
      "आला.": 1622,
      "आंब": 1623,
      "आग्": 1624,
      "आशिया": 1625,
      "आकडे": 1626,
      "आलेल्या": 1627,
      "आश्च": 1628,
      "इरा": 1629,
      "इच्छ": 1630,
      "उग": 1631,
      "उस": 1632,
      "उद्": 1633,
      "उभा": 1634,
      "उंच": 1635,
      "उभार": 1636,
      "उदेश्य": 1637,
      "ऊस": 1638,
      "ऊर्": 1639,
      "एड": 1640,
      "एतद्": 1641,
      "ऑग": 1642,
      "ऑल": 1643,
      "ऑक्": 1644,
      "ओसा": 1645,
      "कळ": 1646,
      "क़": 1647,
      "कु": 1648,
      "कॅ": 1649,
      "कौ": 1650,
      "कान": 1651,
      "कत्": 1652,
      "काच्या": 1653,
      "कटि": 1654,
      "कनि": 1655,
      "कसे": 1656,
      "कल्ली": 1657,
      "कलि": 1658,
      "कांचे": 1659,
      "कट्": 1660,
      "कांपैकी": 1661,
      "खक": 1662,
      "खड": 1663,
      "खी": 1664,
      "खू": 1665,
      "ख्र": 1666,
      "खील": 1667,
      "ख्ये": 1668,
      "खंड": 1669,
      "खजु": 1670,
      "गझ": 1671,
      "गट": 1672,
      "गढ": 1673,
      "गध": 1674,
      "गळ": 1675,
      "गव": 1676,
      "गि": 1677,
      "गां": 1678,
      "गील": 1679,
      "गाच्या": 1680,
      "गता": 1681,
      "गंड": 1682,
      "गणि": 1683,
      "गरी": 1684,
      "गण्यात": 1685,
      "गच्छ": 1686,
      "गमर": 1687,
      "गृत": 1688,
      "गंभी": 1689,
      "घा": 1690,
      "घू": 1691,
      "घकाल": 1692,
      "चार": 1693,
      "चला": 1694,
      "चाच": 1695,
      "चिक": 1696,
      "चक्र": 1697,
      "चस्व": 1698,
      "चंद्र": 1699,
      "चतु": 1700,
      "चंदी": 1701,
      "छो": 1702,
      "छत्र": 1703,
      "जल": 1704,
      "जि": 1705,
      "जू": 1706,
      "जिक": 1707,
      "जून": 1708,
      "ज्ये": 1709,
      "जर्म": 1710,
      "जव्य": 1711,
      "जगा": 1712,
      "जयं": 1713,
      "जयन": 1714,
      "जारी": 1715,
      "जांपासून": 1716,
      "जगाच्या": 1717,
      "झां": 1718,
      "झिक": 1719,
      "झगड": 1720,
      "झपाट": 1721,
      "टत": 1722,
      "टस": 1723,
      "टे": 1724,
      "टका": 1725,
      "टून": 1726,
      "ट्रा": 1727,
      "टवे": 1728,
      "टये": 1729,
      "टम्": 1730,
      "टचाल": 1731,
      "ठर": 1732,
      "ठसा": 1733,
      "ठची": 1734,
      "ठला.": 1735,
      "ठ्याचे": 1736,
      "डच": 1737,
      "डर": 1738,
      "डा": 1739,
      "डॅ": 1740,
      "डॉ": 1741,
      "डो": 1742,
      "डारत": 1743,
      "डान": 1744,
      "डया": 1745,
      "डल्या": 1746,
      "ड्यां": 1747,
      "डकर": 1748,
      "डण्यात": 1749,
      "ढो": 1750,
      "ढां": 1751,
      "णय": 1752,
      "ण्": 1753,
      "णाच": 1754,
      "णाच्या": 1755,
      "ण्यां": 1756,
      "णकाळ": 1757,
      "णारा": 1758,
      "णमधील": 1759,
      "णयुगातील": 1760,
      "तः": 1761,
      "तू": 1762,
      "तृ": 1763,
      "तै": 1764,
      "तिक": 1765,
      "तती": 1766,
      "तून": 1767,
      "तही": 1768,
      "ताच्या": 1769,
      "तति": 1770,
      "तमे": 1771,
      "तंत्र": 1772,
      "ततच्या": 1773,
      "थी": 1774,
      "दश": 1775,
      "दान": 1776,
      "दंत": 1777,
      "दुस": 1778,
      "दकालीन": 1779,
      "दूर": 1780,
      "दडो": 1781,
      "धा": 1782,
      "धो": 1783,
      "धातील": 1784,
      "नई": 1785,
      "नन": 1786,
      "नॅ": 1787,
      "नो": 1788,
      "नौ": 1789,
      "न‍": 1790,
      "न’": 1791,
      "नात": 1792,
      "नर्": 1793,
      "नका": 1794,
      "नक्ष": 1795,
      "नर्म": 1796,
      "नंत": 1797,
      "नमू": 1798,
      "नव्या": 1799,
      "नंदि": 1800,
      "नातून": 1801,
      "न्यांमध्ये": 1802,
      "पच": 1803,
      "पथ": 1804,
      "पॅ": 1805,
      "पौ": 1806,
      "पला": 1807,
      "पान": 1808,
      "पून": 1809,
      "पसं": 1810,
      "पमान": 1811,
      "पंड": 1812,
      "पसर": 1813,
      "पणा": 1814,
      "पगडा": 1815,
      "फु": 1816,
      "फॉ": 1817,
      "फो": 1818,
      "फ्": 1819,
      "फिक": 1820,
      "फगा": 1821,
      "फळाने": 1822,
      "बट": 1823,
      "बध": 1824,
      "बस": 1825,
      "बंग": 1826,
      "बद्ध": 1827,
      "बरी": 1828,
      "बदा": 1829,
      "बंध": 1830,
      "बऱ्या": 1831,
      "बदार": 1832,
      "भव": 1833,
      "भु": 1834,
      "भ्र": 1835,
      "भात": 1836,
      "भां": 1837,
      "भवा": 1838,
      "भारा": 1839,
      "भव्य": 1840,
      "भद्रा": 1841,
      "भपुत्र": 1842,
      "भुव": 1843,
      "भगव": 1844,
      "म)": 1845,
      "मद": 1846,
      "मृ": 1847,
      "म्य": 1848,
      "मात": 1849,
      "मती": 1850,
      "मते": 1851,
      "मची": 1852,
      "मंड": 1853,
      "मदा": 1854,
      "मलि": 1855,
      "मद्रा": 1856,
      "मंदी": 1857,
      "मबे": 1858,
      "मगध": 1859,
      "मजल": 1860,
      "य.": 1861,
      "याच्या": 1862,
      "यत्र": 1863,
      "यम्": 1864,
      "याचे": 1865,
      "याचा": 1866,
      "यदा": 1867,
      "याचीन": 1868,
      "यसी": 1869,
      "यव्य": 1870,
      "यातून": 1871,
      "यटस": 1872,
      "रल": 1873,
      "रळ": 1874,
      "रका": 1875,
      "रील": 1876,
      "रिक": 1877,
      "रत्": 1878,
      "रपे": 1879,
      "रक्षा": 1880,
      "र्यांमध्ये": 1881,
      "रधा": 1882,
      "ऱ्यां": 1883,
      "ल्य": 1884,
      "लात": 1885,
      "लवा": 1886,
      "लवि": 1887,
      "लद्": 1888,
      "लिया": 1889,
      "लयां": 1890,
      "लंब": 1891,
      "लकात": 1892,
      "लूर": 1893,
      "लवाद": 1894,
      "लगत": 1895,
      "लतान": 1896,
      "ळु": 1897,
      "ळ्यां": 1898,
      "ळतात.": 1899,
      "ळणी": 1900,
      "वस": 1901,
      "वॉ": 1902,
      "व्र": 1903,
      "वला": 1904,
      "वस्": 1905,
      "वां": 1906,
      "वती": 1907,
      "वाच्या": 1908,
      "वस्थ": 1909,
      "व्यां": 1910,
      "वते.": 1911,
      "वाने": 1912,
      "वजा": 1913,
      "वतात.": 1914,
      "वणी": 1915,
      "वला.": 1916,
      "वटी": 1917,
      "वण्याची": 1918,
      "वसाह": 1919,
      "शु": 1920,
      "शतर": 1921,
      "शही": 1922,
      "शस्त": 1923,
      "शांत": 1924,
      "श्रे": 1925,
      "शब्": 1926,
      "शल्य": 1927,
      "शवतात.": 1928,
      "ष्य": 1929,
      "षणा": 1930,
      "षभदे": 1931,
      "स)": 1932,
      "सॉ": 1933,
      "स्य": 1934,
      "स्या": 1935,
      "सार": 1936,
      "सरा": 1937,
      "सदे": 1938,
      "सना": 1939,
      "सने": 1940,
      "सत्र": 1941,
      "सभा": 1942,
      "समो": 1943,
      "सल्": 1944,
      "साचे": 1945,
      "सरी": 1946,
      "सत्तर": 1947,
      "सक्र": 1948,
      "सन्": 1949,
      "सस्थान": 1950,
      "सूर": 1951,
      "सळून": 1952,
      "सह्य": 1953,
      "सपाट": 1954,
      "सततच्या": 1955,
      "हू": 1956,
      "है": 1957,
      "हार": 1958,
      "हर्": 1959,
      "हल्": 1960,
      "हळे": 1961,
      "हम्": 1962,
      "हस्त": 1963,
      "हरू": 1964,
      "हलवि": 1965,
      "ा)": 1966,
      "ादेश": 1967,
      "ामो": 1968,
      "ादि": 1969,
      "ाजे": 1970,
      "ावरून": 1971,
      "ाबद्दल": 1972,
      "िला": 1973,
      "िती": 1974,
      "ित्य": 1975,
      "ियन": 1976,
      "िश्च": 1977,
      "िन्स": 1978,
      "ीण": 1979,
      "ीस": 1980,
      "ीया": 1981,
      "ीपासून": 1982,
      "ींब": 1983,
      "ीदृष्ट्या": 1984,
      "ीनुसार": 1985,
      "ींची": 1986,
      "ीडारत": 1987,
      "ुक": 1988,
      "ुण": 1989,
      "ुकार": 1990,
      "ुति": 1991,
      "ुंत": 1992,
      "ुमार": 1993,
      "ुनंतर": 1994,
      "ुझिक": 1995,
      "ूण": 1996,
      "ूपा": 1997,
      "ूची": 1998,
      "ॅम्": 1999,
      "ॅनाइट": 2000,
      "ॅकॅ": 2001,
      "ेकर": 2002,
      "ेशन": 2003,
      "ेरणा": 2004,
      "ेडकर": 2005,
      "ैव": 2006,
      "ैसूर": 2007,
      "ोती": 2008,
      "ोचे": 2009,
      "ोची": 2010,
      "ोत्तर": 2011,
      "ोबार": 2012,
      "ोजड": 2013,
      "ोपाठ": 2014,
      "ौघात": 2015,
      "्ग": 2016,
      "्स": 2017,
      "्हि": 2018,
      "्मा": 2019,
      "्लो": 2020,
      "्त्व": 2021,
      "्धातील": 2022,
      "ॠग्": 2023,
      "ॠषभदे": 2024,
      "।।": 2025,
      "०१": 2026,
      "०वी": 2027,
      "०.५": 2028,
      "०,०००": 2029,
      "१)": 2030,
      "१३": 2031,
      "१४": 2032,
      "१५": 2033,
      "१००": 2034,
      "१५००": 2035,
      "१०वी": 2036,
      "२)": 2037,
      "२३": 2038,
      "२८": 2039,
      "२%;": 2040,
      "२.५": 2041,
      "२५७": 2042,
      "२,०": 2043,
      "३)": 2044,
      "३१": 2045,
      "३४": 2046,
      "३५००": 2047,
      "४)": 2048,
      "४३": 2049,
      "४६": 2050,
      "५)": 2051,
      "५,४": 2052,
      "५-७": 2053,
      "६)": 2054,
      "६५": 2055,
      "६%;": 2056,
      "७०": 2057,
      "७४": 2058,
      "७वा": 2059,
      "७,५": 2060,
      "७५-७": 2061,
      "९४": 2062,
      "९%;": 2063,
      "९०००": 2064,
      "९०,०००": 2065,
      "ॲंग": 2066,
      "ॲण्": 2067,
      "‌(": 2068,
      "‍स्थापन": 2069,
      "–१३": 2070,
      "्यता": 2071,
      "्यम्": 2072,
      "्यदल": 2073,
      "्यछा": 2074,
      "्यानंतर": 2075,
      "्यासक्र": 2076,
      "ारे": 2077,
      "ारात": 2078,
      "ारिक": 2079,
      "ार्धातील": 2080,
      "्रिका": 2081,
      "ात,": 2082,
      "ात.": 2083,
      "ातच": 2084,
      "ात्य": 2085,
      "ातला": 2086,
      "ातींब": 2087,
      "ात्मा": 2088,
      "र्ती": 2089,
      "र्तु": 2090,
      "र्फे": 2091,
      "र्घकाल": 2092,
      "र्तमे": 2093,
      "र्न‍": 2094,
      "लामुख": 2095,
      "लांपैकी": 2096,
      "लावणी": 2097,
      "हेब": 2098,
      "भारत.": 2099,
      "भारतं": 2100,
      "भारती": 2101,
      "भारतील": 2102,
      "भारतभूमी": 2103,
      "भारतरत्": 2104,
      "स्तर": 2105,
      "स्कार": 2106,
      "स्लि": 2107,
      "स्मर": 2108,
      "स्फो": 2109,
      "ाचित": 2110,
      "ाच्छ": 2111,
      "ांका": 2112,
      "ांती": 2113,
      "ांना": 2114,
      "ांतर": 2115,
      "ांसाठी": 2116,
      "ांनुसार": 2117,
      "ांबद्दल": 2118,
      "लेस": 2119,
      "लेखक": 2120,
      "लेण्यां": 2121,
      "ानदी": 2122,
      "कापा": 2123,
      "कापासून": 2124,
      "काठी": 2125,
      "कासीम": 2126,
      "काँग्रे": 2127,
      "काठची": 2128,
      "राहो": 2129,
      "राहि": 2130,
      "राणिक": 2131,
      "राथी": 2132,
      "रायसी": 2133,
      "ीलंका": 2134,
      "प्रति": 2135,
      "प्रजा": 2136,
      "प्रस्थाप": 2137,
      "प्रांत": 2138,
      "प्रवाह": 2139,
      "प्रमाण": 2140,
      "प्रबळ": 2141,
      "प्रयत्": 2142,
      "प्रिय": 2143,
      "प्रणय": 2144,
      "प्रसार": 2145,
      "प्रादेश": 2146,
      "प्रिन्स": 2147,
      "प्रेरणा": 2148,
      "प्रस्तर": 2149,
      "यामध्ये": 2150,
      "यादी": 2151,
      "यावरून": 2152,
      "यापाठ": 2153,
      "याबद्ध": 2154,
      "िकच": 2155,
      "िकार": 2156,
      "िकल्प": 2157,
      "िकीनुसार": 2158,
      "वाज": 2159,
      "वापर": 2160,
      "वाणि": 2161,
      "वामि": 2162,
      "वाळू": 2163,
      "वावरून": 2164,
      "वाद्यां": 2165,
      "वाखाली": 2166,
      "वाळ्या": 2167,
      "वाहिनी": 2168,
      "वाटचाल": 2169,
      "वाडया": 2170,
      "वायव्य": 2171,
      "वाऱ्यां": 2172,
      "वासस्थान": 2173,
      "वालामुख": 2174,
      "तीचि": 2175,
      "तीरि": 2176,
      "मुत्": 2177,
      "मुहू": 2178,
      "मुलांपैकी": 2179,
      "मुस्लि": 2180,
      "वित": 2181,
      "विन": 2182,
      "विका": 2183,
      "विसा": 2184,
      "विष्ट": 2185,
      "विश्": 2186,
      "विले.": 2187,
      "विवाह": 2188,
      "विष्ण": 2189,
      "विजयन": 2190,
      "देड": 2191,
      "देवी": 2192,
      "देतो.": 2193,
      "देसू": 2194,
      "देखील": 2195,
      "नाम": 2196,
      "नाल्या": 2197,
      "नागर": 2198,
      "नाभि": 2199,
      "नावावरून": 2200,
      "सामा": 2201,
      "साहज": 2202,
      "सापडले": 2203,
      "साडे": 2204,
      "सामान्य": 2205,
      "साहेब": 2206,
      "च्यामधील": 2207,
      "ते,": 2208,
      "तेक": 2209,
      "तेज": 2210,
      "तेत": 2211,
      "तेवर": 2212,
      "तेजात": 2213,
      "तेखाली": 2214,
      "तेपेक्षा": 2215,
      "तेव्हा": 2216,
      "तेढां": 2217,
      "मधून": 2218,
      "ीयांचे": 2219,
      "त्त": 2220,
      "त्म": 2221,
      "त्वे": 2222,
      "त्पत्": 2223,
      "त्तीय": 2224,
      "त्वाखाली": 2225,
      "त्तीचि": 2226,
      "चेरी": 2227,
      "चेन्": 2228,
      "द्वार": 2229,
      "द्दु": 2230,
      "द्वारे": 2231,
      "ष्क": 2232,
      "ष्प": 2233,
      "ष्णा": 2234,
      "ष्मती": 2235,
      "वीन’": 2236,
      "संस्थ": 2237,
      "संदर्": 2238,
      "संबळ": 2239,
      "संख्य": 2240,
      "संधी": 2241,
      "संख्ये": 2242,
      "संगमर": 2243,
      "संतती": 2244,
      "संबध": 2245,
      "होऊ": 2246,
      "होंद": 2247,
      "होऊन": 2248,
      "होणार": 2249,
      "होउन": 2250,
      "होचला": 2251,
      "होय.": 2252,
      "देशात": 2253,
      "देशाच्या": 2254,
      "देशातील": 2255,
      "देशाची": 2256,
      "देशाने": 2257,
      "देशांच्या": 2258,
      "देशांनी": 2259,
      "देशीयांचे": 2260,
      "नेय": 2261,
      "नेचे": 2262,
      "नेपा": 2263,
      "नेमधील": 2264,
      "नेऊन": 2265,
      "नेशन": 2266,
      "नेतृ": 2267,
      "नेहरू": 2268,
      "हीतात": 2269,
      "असते": 2270,
      "असणे": 2271,
      "असतात.": 2272,
      "असल्याची": 2273,
      "असत.": 2274,
      "त्यास": 2275,
      "त्यामधील": 2276,
      "त्यातील": 2277,
      "त्यावरून": 2278,
      "त्याखाली": 2279,
      "पाला": 2280,
      "पाश्च": 2281,
      "पाषा": 2282,
      "पाण्याची": 2283,
      "पाउस": 2284,
      "पाऊस": 2285,
      "पाडण्यात": 2286,
      "पालवा": 2287,
      "्येकडील": 2288,
      "हिवाळ्या": 2289,
      "्राला": 2290,
      "्रामधील": 2291,
      "्रास्त्र": 2292,
      "झाल्याची": 2293,
      "राजकार": 2294,
      "राजवाडया": 2295,
      "ंगने": 2296,
      "ंगाच्या": 2297,
      "ंगभद्रा": 2298,
      "पूरी": 2299,
      "वरळी": 2300,
      "भारतीयांच्या": 2301,
      "भारतीयांनी": 2302,
      "केला": 2303,
      "केरळ": 2304,
      "क्षीण": 2305,
      "ता)": 2306,
      "तावर": 2307,
      "तामध्ये": 2308,
      "तामुळे": 2309,
      "तावादी": 2310,
      "तापमान": 2311,
      "पुणे": 2312,
      "पुरुव": 2313,
      "पुरात": 2314,
      "पुडी": 2315,
      "पुडा": 2316,
      "पुनर्": 2317,
      "पुर्न‍": 2318,
      "पुद्दु": 2319,
      "मागील": 2320,
      "मीमधील": 2321,
      "मीटर": 2322,
      "मानाने": 2323,
      "मानाचे": 2324,
      "मानचि": 2325,
      "मानुसार": 2326,
      "मानवाने": 2327,
      "ल्याने": 2328,
      "ल्यावरून": 2329,
      "कारभारा": 2330,
      "वेन": 2331,
      "वेळ": 2332,
      "वेस": 2333,
      "वेल्": 2334,
      "वेरु": 2335,
      "वेळा": 2336,
      "वेदकालीन": 2337,
      "वेलूर": 2338,
      "ष्ट्रामधील": 2339,
      "मोहिमा": 2340,
      "मोरि": 2341,
      "मोहिनी": 2342,
      "मोहम्": 2343,
      "मोहोंद": 2344,
      "तिच्या": 2345,
      "तिचे": 2346,
      "तिचा": 2347,
      "तित्त्व": 2348,
      "तिथे": 2349,
      "तिसरे": 2350,
      "स्थित": 2351,
      "स्थित्य": 2352,
      "पूर्वेस": 2353,
      "येतात": 2354,
      "येमुळे": 2355,
      "येणा": 2356,
      "येणार": 2357,
      "येतो.": 2358,
      "येण्याची": 2359,
      "सुन": 2360,
      "सुद्ध": 2361,
      "सुवर्": 2362,
      "सुरत": 2363,
      "सुत्रे": 2364,
      "सुरक्षा": 2365,
      "सुलतान": 2366,
      "सुसह्य": 2367,
      "ंडवन": 2368,
      "किंवा": 2369,
      "शाही": 2370,
      "शासन": 2371,
      "आहेत,": 2372,
      "आहेत;": 2373,
      "ली.\"": 2374,
      "कृष्णा": 2375,
      "र्मिती": 2376,
      "र्मेशन": 2377,
      "भारतातून": 2378,
      "परंप": 2379,
      "परिकल्प": 2380,
      "सियाचीन": 2381,
      "करता": 2382,
      "करणारा": 2383,
      "करते,": 2384,
      "णिय": 2385,
      "वर्ती": 2386,
      "वर्चस्व": 2387,
      "गेले": 2388,
      "गेली": 2389,
      "गेला.": 2390,
      "दिले": 2391,
      "दिशे": 2392,
      "दिलेले": 2393,
      "दीर्घकाल": 2394,
      "मिण": 2395,
      "मिर": 2396,
      "मिसळून": 2397,
      "मित्त": 2398,
      "स्तंभ": 2399,
      "स्कृतिक": 2400,
      "भाग,": 2401,
      "भागातील": 2402,
      "भागावर": 2403,
      "शिक्षणात": 2404,
      "शिक्षणही": 2405,
      "शिक्षणानंतर": 2406,
      "शिक्षणावर": 2407,
      "शिक्षणतज्ञ": 2408,
      "शिक्षणाबद्दल": 2409,
      "शिक्षणसंस्थ": 2410,
      "ंतत्र": 2411,
      "एकच": 2412,
      "एकता": 2413,
      "एकाचे": 2414,
      "एकूण": 2415,
      "ठाणे": 2416,
      "ठाशी": 2417,
      "धर्माची": 2418,
      "धर्मनि": 2419,
      "धर्मसम": 2420,
      "धर्मांचा": 2421,
      "धर्मांपैकी": 2422,
      "री,": 2423,
      "रीव": 2424,
      "रीस": 2425,
      "रीसे": 2426,
      "श्लोक": 2427,
      "संस्कृत": 2428,
      "नेकलेस": 2429,
      "आहेत.सर्व": 2430,
      "ंतरे": 2431,
      "अनेकांचे": 2432,
      "ण्याने": 2433,
      "र्वाचित": 2434,
      "संस्कृतीला": 2435,
      "संस्कृतीचे": 2436,
      "संस्कृतीमध्ये": 2437,
      "संस्कृतीचा": 2438,
      "संस्कृतींपैकी": 2439,
      "जाती": 2440,
      "जातीय": 2441,
      "जातात.": 2442,
      "टिपू": 2443,
      "१९१२": 2444,
      "१९७१": 2445,
      "१९३१": 2446,
      "१९६५": 2447,
      "१९७४": 2448,
      "असे.": 2449,
      "असेल": 2450,
      "इंडियन": 2451,
      "कडक": 2452,
      "कडा": 2453,
      "कडी": 2454,
      "क्रमी": 2455,
      "क्रूर": 2456,
      "क्रौर": 2457,
      "क्रीडारत": 2458,
      "क्रांती": 2459,
      "जाट": 2460,
      "जागा": 2461,
      "जाऊन": 2462,
      "जाउन": 2463,
      "जागृत": 2464,
      "त्युनंतर": 2465,
      "रूपां": 2466,
      "रोमन": 2467,
      "रोनेशन": 2468,
      "सरते": 2469,
      "सरकू": 2470,
      "सरमिसळून": 2471,
      "ारावरील": 2472,
      "ाराबरोबर": 2473,
      "स्थापना": 2474,
      "स्थापल्या": 2475,
      "स्थापत्ये": 2476,
      "स्थापत्यांची": 2477,
      "स्थापत्यामधील": 2478,
      "म्हपुत": 2479,
      "म्हैसूर": 2480,
      "वर्षं": 2481,
      "वर्षाचे": 2482,
      "वर्षभर": 2483,
      "दाख": 2484,
      "दायां": 2485,
      "दायक": 2486,
      "दावरी": 2487,
      "ब्रेकर": 2488,
      "ब्रम्हपुत": 2489,
      "रुंद": 2490,
      "रुंदी": 2491,
      "रुदेवी": 2492,
      "स्वस्त": 2493,
      "स्वराज्य": 2494,
      "स्वतः": 2495,
      "स्वंतत्र": 2496,
      "पूर्वीचे": 2497,
      "येथपासून": 2498,
      "मिळू": 2499,
      "मिळते": 2500,
      "मिळवण्याची": 2501,
      "यांचे": 2502,
      "यांमुळे": 2503,
      "काहीच्या": 2504,
      "झालेला": 2505,
      "झालेली": 2506,
      "झालेल्या": 2507,
      "झालेला.": 2508,
      "म्हणले": 2509,
      "घेही": 2510,
      "घेतात": 2511,
      "घेणे": 2512,
      "चिपुडी": 2513,
      "जीवन": 2514,
      "णाबरोबर": 2515,
      "णावते.": 2516,
      "नियु": 2517,
      "निवासस्थान": 2518,
      "निर्मिती": 2519,
      "निमित्त": 2520,
      "निर्वाचित": 2521,
      "भूगोल": 2522,
      "भूतान": 2523,
      "भूप्रस्तर": 2524,
      "लयात": 2525,
      "समुदायां": 2526,
      "सर्वात": 2527,
      "सर्वश्रे": 2528,
      "सर्वधर्मसम": 2529,
      "हरलाल": 2530,
      "हरप्पा": 2531,
      "हिमालया": 2532,
      "हिमाद्रे": 2533,
      "ब्रिटिशांच्या": 2534,
      "उत्तरं": 2535,
      "गरचे": 2536,
      "जेदार": 2537,
      "जेव्हा": 2538,
      "भरलेला": 2539,
      "भरतामुळे": 2540,
      "मह्त्व": 2541,
      "महात्मा": 2542,
      "महानदी": 2543,
      "मार्क": 2544,
      "मार्ग": 2545,
      "मारली.\"": 2546,
      "शियन": 2547,
      "शिरका": 2548,
      "प्राचीनकाळातील": 2549,
      "उपनद्यांमध्ये": 2550,
      "कोसी": 2551,
      "कोचीन": 2552,
      "कोलकात": 2553,
      "कोरीव": 2554,
      "कोरोनेशन": 2555,
      "दलदल": 2556,
      "न्हे": 2557,
      "पडत": 2558,
      "पडतात.": 2559,
      "पडतो": 2560,
      "पडण्यास": 2561,
      "पडसाद": 2562,
      "पदविका": 2563,
      "बाबा": 2564,
      "बाह्य": 2565,
      "बाजू": 2566,
      "बाॅम्": 2567,
      "बाष्प": 2568,
      "मूळ": 2569,
      "मूरल": 2570,
      "मूर्ती": 2571,
      "ऱ्यापाण्याची": 2572,
      "शीख": 2573,
      "सेचा": 2574,
      "सेंदि": 2575,
      "सेनेमधील": 2576,
      "द्वीपाला": 2577,
      "किल्ल्याची": 2578,
      "किल्ल्याचे": 2579,
      "किल्ल्यावरून": 2580,
      "लोक,": 2581,
      "लोकांच्या": 2582,
      "लोकसंगीत": 2583,
      "लोकमान्य": 2584,
      "लोकसंख्ये": 2585,
      "लोकशाही": 2586,
      "लोकजीवन": 2587,
      "आजच्या": 2588,
      "आजही": 2589,
      "आजचा": 2590,
      "क्त": 2591,
      "क्ती": 2592,
      "क्काने": 2593,
      "क्झां": 2594,
      "क्वीन’": 2595,
      "बनले": 2596,
      "बनवला.": 2597,
      "मेनका": 2598,
      "मेमोरि": 2599,
      "मेरुदेवी": 2600,
      "महायुद्धात": 2601,
      "महाखंड": 2602,
      "व्यक्ती": 2603,
      "वारसा": 2604,
      "वारसाह": 2605,
      "लागली": 2606,
      "लागतात": 2607,
      "लागते.": 2608,
      "होती,": 2609,
      "दिल्लीला": 2610,
      "हिमालयाची": 2611,
      "हिमालयातून": 2612,
      "बांधकाम": 2613,
      "इतिहासाची": 2614,
      "इतिहासातच": 2615,
      "हवामान.": 2616,
      "ंपारिक": 2617,
      "अजस्त्र": 2618,
      "गाजव": 2619,
      "गाळाने": 2620,
      "गाठला.": 2621,
      "टीत": 2622,
      "टीला": 2623,
      "टीच्या": 2624,
      "टीचे": 2625,
      "नदीच्या": 2626,
      "नदीचा": 2627,
      "नदीपासून": 2628,
      "रेटत": 2629,
      "शतकाच्या": 2630,
      "शतकापासून": 2631,
      "विविधतेत": 2632,
      "शास्त्रिय": 2633,
      "क्रमांका": 2634,
      "समुद्री": 2635,
      "समुद्रातील": 2636,
      "समुद्रकिन": 2637,
      "समुद्रकिनाऱ्या": 2638,
      "समुद्रस्य": 2639,
      "इमारत,": 2640,
      "बंगालपासून": 2641,
      "आक्रमणाबरोबर": 2642,
      "खाऱ्यापाण्याची": 2643,
      "गणले": 2644,
      "गणली": 2645,
      "गणतंत्र": 2646,
      "गीज": 2647,
      "गीरी,": 2648,
      "ज्ज": 2649,
      "ज्वालामुख": 2650,
      "ज्याला": 2651,
      "दोघेही": 2652,
      "बीड": 2653,
      "बीमुळे": 2654,
      "लिश": 2655,
      "लियन": 2656,
      "लिहीतात": 2657,
      "व्यातून": 2658,
      "ुसज्ज": 2659,
      "भारतास": 2660,
      "भारताबद्दल": 2661,
      "मुघलकालीन": 2662,
      "राज्यकारभार": 2663,
      "राज्यघटना": 2664,
      "गेटसमो": 2665,
      "साम्राज्याने": 2666,
      "साम्राज्याचा": 2667,
      "साम्राज्यातील": 2668,
      "इंग्रजांपासून": 2669,
      "मुख्यभूमी": 2670,
      "मुख्यत्वे": 2671,
      "इस्लाम": 2672,
      "(पूर्वीची": 2673,
      "(पूर्वीचा": 2674,
      "morial": 2675,
      "कर्नाट": 2676,
      "ख्नन": 2677,
      "गोंडवन": 2678,
      "गोदावरी": 2679,
      "जवान": 2680,
      "तुंगभद्रा": 2681,
      "तुकडा": 2682,
      "द्राबाद": 2683,
      "न्यातही": 2684,
      "पठाराला": 2685,
      "पठारावरील": 2686,
      "ळीवर": 2687,
      "समविषुव": 2688,
      "समस्या": 2689,
      "समांतर": 2690,
      "सोळा": 2691,
      "सातवाह": 2692,
      "सातत्याने": 2693,
      "सातपुडा": 2694,
      "वाहत": 2695,
      "वाहू": 2696,
      "वाहतात.": 2697,
      "त्यांना": 2698,
      "त्यांचा": 2699,
      "राज्यांत": 2700,
      "राज्यांना": 2701,
      "राज्यांमध्ये": 2702,
      "राज्यांपेक्षा": 2703,
      "वेगवेगळे": 2704,
      "वेगळ्या": 2705,
      "पूर्वोत्तर": 2706,
      "वर्षांपेक्षा": 2707,
      "साम्राज्यवादी": 2708,
      "साम्राज्यवाद्यां": 2709,
      "स्वातंत्र्याचे": 2710,
      "भूमीत": 2711,
      "भूमीपासून": 2712,
      "भूमीगत": 2713,
      "युद्धे": 2714,
      "युद्धकौ": 2715,
      "भरतनाट": 2716,
      "महाराज": 2717,
      "महाराजांनी": 2718,
      "महाराष्ट्रामधील": 2719,
      "दक्षिणम्": 2720,
      "विद्यार्थ्यांच्या": 2721,
      "विद्यार्थ्यांचा": 2722,
      "विद्यार्थ्यांपेक्षा": 2723,
      "विद्यार्थ्यांनाही": 2724,
      "race": 2725,
      "stru": 2726,
      "आर्मीमधील": 2727,
      "ऋषभपुत्र": 2728,
      "ऋषींची": 2729,
      "खननात": 2730,
      "खोल्या": 2731,
      "दख्ख्नन": 2732,
      "नद्यांना": 2733,
      "नद्यांच्या": 2734,
      "नद्यांनी": 2735,
      "बराच": 2736,
      "बहुतेक": 2737,
      "बहुसंख्य": 2738,
      "मतभे": 2739,
      "मतप्रवाह": 2740,
      "मरण": 2741,
      "मैसुरू": 2742,
      "मैदान": 2743,
      "मराठ्याचे": 2744,
      "मंदिरां": 2745,
      "शकते": 2746,
      "शकतात": 2747,
      "शकतात.": 2748,
      "शकुंत": 2749,
      "शक्यता": 2750,
      "शहरात": 2751,
      "शहराच्या": 2752,
      "त्वज्ञान": 2753,
      "द्दलच्या": 2754,
      "संगीतावर": 2755,
      "त्याचेच": 2756,
      "केलेले": 2757,
      "पुराव्यां": 2758,
      "पुराव्यातून": 2759,
      "पुत्राचे": 2760,
      "म्हणून्": 2761,
      "म्हणजेच": 2762,
      "हिंदू,": 2763,
      "दक्षिणेला": 2764,
      "दक्षिणेमधील": 2765,
      "दक्षिणेतील": 2766,
      "पदवीसाठी": 2767,
      "व्युत्पत्": 2768,
      "प्ततावादी": 2769,
      "ज्ञात": 2770,
      "सोयींवर": 2771,
      "सोयीकरता": 2772,
      "वर्षांपूर्वीपर्यंत": 2773,
      "उदाहरणे": 2774,
      "वाळवंटाने": 2775,
      "पाकिस्ताना": 2776,
      "पाकिस्तानात": 2777,
      "पाकिस्तानची": 2778,
      "mater": 2779,
      "red": 2780,
      "अधिकारात": 2781,
      "आणली": 2782,
      "आणली.": 2783,
      "आणलेल्या": 2784,
      "आणखी": 2785,
      "आर्य": 2786,
      "कथ्थ": 2787,
      "कथकल्ली": 2788,
      "कच्छच्या": 2789,
      "कच्छचे": 2790,
      "गतीने": 2791,
      "ग्राम)": 2792,
      "ग्रामिण": 2793,
      "घडला": 2794,
      "घडल्या": 2795,
      "घडल्याचे": 2796,
      "घडामो": 2797,
      "चळवळ": 2798,
      "जुना": 2799,
      "तत्त्वज्ञान": 2800,
      "दुमत": 2801,
      "दुःख": 2802,
      "दुष्य": 2803,
      "दारुण": 2804,
      "दारोचे": 2805,
      "दर्जा": 2806,
      "दर्शवतात.": 2807,
      "दर्जेदार": 2808,
      "पार्क": 2809,
      "पारंपारिक": 2810,
      "पर्वतामध्ये": 2811,
      "बद्दलही": 2812,
      "भित्तीचि": 2813,
      "भीमा": 2814,
      "भीडल्या": 2815,
      "भीमबे": 2816,
      "यंते": 2817,
      "यंभुव": 2818,
      "यंच्यामधील": 2819,
      "रिका": 2820,
      "रितीरि": 2821,
      "सनाच्या": 2822,
      "सैन्यदल": 2823,
      "ृतसर": 2824,
      "१८१८": 2825,
      "१८५०": 2826,
      "१८५७": 2827,
      "लांपर्यंत": 2828,
      "लेणी,": 2829,
      "विषयक": 2830,
      "विषवृतीय": 2831,
      "सागरीसे": 2832,
      "त्यातून": 2833,
      "चीनला": 2834,
      "चीनची": 2835,
      "राजकुमार": 2836,
      "पुतळे": 2837,
      "किनारी": 2838,
      "किनाराला": 2839,
      "किनारे": 2840,
      "गेली.ही": 2841,
      "ाप्पा": 2842,
      "श्चैव": 2843,
      "१९९०": 2844,
      "१९९१": 2845,
      "१९९८": 2846,
      "१९९९": 2847,
      "सरकारे": 2848,
      "सरकारकडे": 2849,
      "यांच्यात": 2850,
      "राष्ट्रपतीचे": 2851,
      "राष्ट्रपतीभवन": 2852,
      "उत्तरेला": 2853,
      "उत्तरेकडे": 2854,
      "उत्तरेकडील": 2855,
      "उत्तरेकडून": 2856,
      "गोलार्धातील": 2857,
      "जवळील": 2858,
      "जवळपास": 2859,
      "शैलीबरोबर": 2860,
      "शैलींची": 2861,
      "वेगळेपणा": 2862,
      "मंदिरे,": 2863,
      "India)": 2864,
      "तमिळनाडूच्या": 2865,
      "तमिळनाडूतील": 2866,
      "पद्धतीवरून": 2867,
      "द्वीपसमूहांमध्ये": 2868,
      "instru": 2869,
      "legend": 2870,
      "अणुसज्ज": 2871,
      "अथक": 2872,
      "उर्मी": 2873,
      "उत्खननात": 2874,
      "कमानी": 2875,
      "कमानवजा": 2876,
      "ग्रॅनाइट": 2877,
      "जनपथ": 2878,
      "जन्यछा": 2879,
      "जनतेवर": 2880,
      "टोळी": 2881,
      "टोबर": 2882,
      "टोळ्यां": 2883,
      "ट्वेन": 2884,
      "ड्रामात": 2885,
      "णार्थ": 2886,
      "तनत": 2887,
      "दलीय": 2888,
      "दगडांचे": 2889,
      "दगडांपासून": 2890,
      "दगडावरून": 2891,
      "निकोबार": 2892,
      "पोर्तु": 2893,
      "पोहोचला": 2894,
      "पातळीवर": 2895,
      "पाचवा": 2896,
      "पाचवे": 2897,
      "बळमानाने": 2898,
      "बिन": 2899,
      "बिहु": 2900,
      "बिहार": 2901,
      "बारकावे": 2902,
      "बार्हि": 2903,
      "बदलांमध्ये": 2904,
      "महिने": 2905,
      "महिन्यांमध्ये": 2906,
      "महिन्यातही": 2907,
      "मौर्याने": 2908,
      "रचनेचे": 2909,
      "लुटये": 2910,
      "वृत्तीय": 2911,
      "शनल": 2912,
      "शेजारी": 2913,
      "शेवटी": 2914,
      "सांख्य": 2915,
      "सांगण्यात": 2916,
      "सांस्कृतिक": 2917,
      "सत्तेखाली": 2918,
      "सध्याची": 2919,
      "हाती": 2920,
      "५००)": 2921,
      "कामगि": 2922,
      "कालौघात": 2923,
      "काश्मिर": 2924,
      "प्रगतीनुसार": 2925,
      "प्राप्त": 2926,
      "वाढला": 2927,
      "वाढत्या": 2928,
      "वाढल्याने": 2929,
      "विस्ताराबरोबर": 2930,
      "नाही.": 2931,
      "तरी,": 2932,
      "देशास": 2933,
      "देशाला": 2934,
      "देशापर्यंत": 2935,
      "झालीत.": 2936,
      "राजवटीत": 2937,
      "राज्यातील": 2938,
      "पुढे": 2939,
      "मान्यतेपेक्षा": 2940,
      "परदेशी": 2941,
      "परदेशात": 2942,
      "परदेशातील": 2943,
      "दिवसात": 2944,
      "दिवसाचे": 2945,
      "दिवसेंदि": 2946,
      "स्तरावरील": 2947,
      "शिक्षणपद्धतीचा": 2948,
      "१९२९": 2949,
      "इंडो-ऑस्ट्रे": 2950,
      "विद्यापीठाशी": 2951,
      "भूभाग,": 2952,
      "भूभागावर": 2953,
      "समुद्राला": 2954,
      "समुद्रापासून": 2955,
      "समुद्रापर्यंत": 2956,
      "इंग्लिश": 2957,
      "महासागरात": 2958,
      "महासागरातून": 2959,
      "द्वीपकल्पीय": 2960,
      "इमारतीत": 2961,
      "इमारतीचे": 2962,
      "इमारतीची": 2963,
      "आक्रमणानंतर": 2964,
      "आक्रमणात,": 2965,
      "पश्चिमेला": 2966,
      "महाराष्ट्रातील": 2967,
      "ऋषभदेवामुळे": 2968,
      "व्हावे": 2969,
      "शोधात": 2970,
      "शहरे,": 2971,
      "स्मारकाची": 2972,
      "आरक्षणाच्या": 2973,
      "चळवळीच्या": 2974,
      "चळवळीची": 2975,
      "पर्वताची": 2976,
      "सैनिकांच्या": 2977,
      "सैनिकांनी": 2978,
      "सैनिकांसाठी": 2979,
      "राजकीयदृष्ट्या": 2980,
      "अरावलीच्या": 2981,
      "अग्निध्राला": 2982,
      "अशियाई,": 2983,
      "आकर्षण": 2984,
      "उठावानंतर": 2985,
      "ओडिसी": 2986,
      "दहशतवादी": 2987,
      "पंजाबमधील": 2988,
      "बंदर)": 2989,
      "बंदराच्या": 2990,
      "स्वरूप": 2991,
      "स्वरूपात": 2992,
      "स्वरूपां": 2993,
      ",३०१": 2994,
      ",३७०": 2995,
      "Arc": 2996,
      "Arch": 2997,
      "ch,": 2998,
      "ition": 2999,
      "only": 3000,
      "ंशीय": 3001,
      "अंदमान": 3002,
      "अंदाजे": 3003,
      "अर्थात": 3004,
      "अमेरिक": 3005,
      "अमेरिका": 3006,
      "अभिव्यक्ती": 3007,
      "अभियंते": 3008,
      "आढळून": 3009,
      "आढळतात.": 3010,
      "आले,ज्या": 3011,
      "आधारित": 3012,
      "इंद्रकन्या": 3013,
      "इंद्रपूरी": 3014,
      "कलकत्": 3015,
      "कलेतील": 3016,
      "खुल्या": 3017,
      "खुपच": 3018,
      "ग्रेनाइट": 3019,
      "घोड्यां": 3020,
      "घोषणा": 3021,
      "घराणी": 3022,
      "घराण्याने": 3023,
      "छाऊ": 3024,
      "जडभरत": 3025,
      "जमलेले": 3026,
      "जमातींब": 3027,
      "ज्योती": 3028,
      "जवाबदार": 3029,
      "जवाहरलाल": 3030,
      "टायटस": 3031,
      "तद्भारतं": 3032,
      "तज्ञांनुसार": 3033,
      "धडकले": 3034,
      "धडपडत": 3035,
      "धींनी": 3036,
      "नांव": 3037,
      "नांदेड": 3038,
      "नगर,": 3039,
      "पर्शियन": 3040,
      "पर्जन्यछा": 3041,
      "पराभव": 3042,
      "पराक्रमी": 3043,
      "पहिला": 3044,
      "पहिल्या": 3045,
      "पतनानंतर": 3046,
      "फायदा": 3047,
      "फाळणी": 3048,
      "बे)": 3049,
      "भेटीला": 3050,
      "मनूची": 3051,
      "मणिपुर": 3052,
      "मणिपुरी": 3053,
      "यत्समुद्रस्य": 3054,
      "यानंतरचा": 3055,
      "रांग": 3056,
      "रणापर्यंत": 3057,
      "लूट": 3058,
      "लूटीच्या": 3059,
      "लयाला": 3060,
      "लक्षद्वीप": 3061,
      "लक्षणिय": 3062,
      "श्रुति": 3063,
      "श्रीलंका": 3064,
      "सूरू": 3065,
      "समाजव्य": 3066,
      "समाविष्ट": 3067,
      "हडप्पा": 3068,
      "हडाप्पा": 3069,
      "िपतच्या": 3070,
      "िपत्याखाली": 3071,
      "१२वी": 3072,
      "लाभला": 3073,
      "लाभलेली": 3074,
      "स्वागता": 3075,
      "स्वायंभुव": 3076,
      "कावेरी": 3077,
      "प्रभावामुळे": 3078,
      "प्रभावित": 3079,
      "प्रशासना": 3080,
      "प्रशासनाच्या": 3081,
      "वास्तू": 3082,
      "वास्तुकार": 3083,
      "मुद्दा": 3084,
      "मुद्देसू": 3085,
      "नागपूरचे": 3086,
      "सादर": 3087,
      "साहित्य": 3088,
      "साहित्यात": 3089,
      "संशोधकांच्या": 3090,
      "संशोधकांचे": 3091,
      "पावली.": 3092,
      "पावलेल्या": 3093,
      "हिमाच्छ": 3094,
      "हिमनदीपासून": 3095,
      "त्रिपुरा": 3096,
      "त्रिभु": 3097,
      "केल्या.": 3098,
      "केल्यानंत": 3099,
      "पुरस्कार": 3100,
      "भावाचे": 3101,
      "भावनाही": 3102,
      "भाषा,": 3103,
      "वेढलेला": 3104,
      "वेढलेले": 3105,
      "वेरूळ": 3106,
      "मोगल": 3107,
      "मोगलांपर्यंत": 3108,
      "मोहेंजोदडो": 3109,
      "मोहेंजोदारोचे": 3110,
      "चालतो.": 3111,
      "किनाऱ्यालगत": 3112,
      "करत,": 3113,
      "टिळक": 3114,
      "टिळकांच्या": 3115,
      "सरेपासून": 3116,
      "मिळाले": 3117,
      "मिळाला.": 3118,
      "घेतले.": 3119,
      "पृष्ठाला": 3120,
      "पृष्ठामधील": 3121,
      "बांगलादेश": 3122,
      "बांगलादेशास": 3123,
      "महत्त्वाच्या": 3124,
      "महत्त्वाचा": 3125,
      "इतिहासामध्ये": 3126,
      "इतिहासाशी": 3127,
      "उपप्रकाराची": 3128,
      "उपसागरातील": 3129,
      "उपसागराने": 3130,
      "दलदलीचा": 3131,
      "दलदलींनी": 3132,
      "सीमांबद्दल": 3133,
      "लोकनृत्या": 3134,
      "लोकनृत्याचे": 3135,
      "महाविद्यालयां": 3136,
      "महाविद्यालयात": 3137,
      "इतिहासकारांमध्ये": 3138,
      "अजिंठा-वेरू": 3139,
      "खासकरून": 3140,
      "व्यापाराचे": 3141,
      "व्यापारीदृष्ट्या": 3142,
      "राज्यकर्त्याने": 3143,
      "राज्यकर्त्यांनी": 3144,
      "ials": 3145,
      "समजण्यात": 3146,
      "हजारो": 3147,
      "खोऱ्यात": 3148,
      "खोऱ्याच्या": 3149,
      "पुराणातला": 3150,
      "पुराणतज्ञांनुसार": 3151,
      "नृत्यप्रकाराचा": 3152,
      "नृत्यप्रकारांना": 3153,
      "अधिकृतपणे": 3154,
      "विषुववृत्तीय": 3155,
      "क्षेत्रात": 3156,
      "क्षेत्रफळाने": 3157,
      "अणुचाच": 3158,
      "अणुस्फो": 3159,
      "सत्ताक": 3160,
      "विस्ताराचे": 3161,
      "पुढारलेला": 3162,
      "पुढारलेली": 3163,
      "इंडोनेशियाजवळील": 3164,
      "विद्यापीठे": 3165,
      "विद्यापीठांमध्ये": 3166,
      "युरोपीयन": 3167,
      "इंग्लंडचे": 3168,
      "ऋषभदेवाची": 3169,
      "आरक्षणामुळेच": 3170,
      "अग्निध्राचा": 3171,
      "दहशतवादही": 3172,
      "अनुभवा": 3173,
      "अनुश्रुति": 3174,
      "इसवीसन": 3175,
      "ईशान्य": 3176,
      "ईशान्येकडील": 3177,
      "उमटले.": 3178,
      "उमटवला": 3179,
      "ऑस्ट्रेलिया": 3180,
      "कंपनीच्या": 3181,
      "कंपनीकडून": 3182,
      "जॉर्ज)": 3183,
      "जंबूद्वीप": 3184,
      "जंबूद्वीपाला": 3185,
      "भौगोलिकदृष्ट्या": 3186,
      "रंगमंचाची": 3187,
      "हंपीचे": 3188,
      "प्रमाणावर": 3189,
      "प्रमाणाबद्दलही": 3190,
      "प्रवेशद्वार": 3191,
      "ब्रिटिशांविरुद्धचा": 3192,
      "उपलब्धता": 3193,
      "history,": 3194,
      "'भारत'": 3195,
      "'भा'": 3196,
      "'रत'": 3197,
      "(आता": 3198,
      "(१,३०१": 3199,
      "(३,३७०": 3200,
      "(४,६": 3201,
      "(नंतरचे": 3202,
      "(फ्रेंच:": 3203,
      "-अफगा": 3204,
      "-गुजराथी": 3205,
      "All": 3206,
      "Fort": 3207,
      "Memorial": 3208,
      "Our": 3209,
      "Red": 3210,
      "Triom": 3211,
      "Titus": 3212,
      "War": 3213,
      "birt": 3214,
      "ctiv": 3215,
      "cradle": 3216,
      "great-grandmother": 3217,
      "hplace": 3218,
      "sured": 3219,
      "speech,": 3220,
      "tradition": 3221,
      "treasured": 3222,
      "uable": 3223,
      "valuable": 3224,
      "ंताशी": 3225,
      "अगदी": 3226,
      "अधिपत्याखाली": 3227,
      "अपभ्र": 3228,
      "अभ्यासक्र": 3229,
      "अमृतसर": 3230,
      "अवलंब": 3231,
      "अहमदा": 3232,
      "अ‍ॅकॅ": 3233,
      "अस्तित्त्व": 3234,
      "अलेक्झां": 3235,
      "अंगिकार": 3236,
      "अक्षरधा": 3237,
      "अरुणाच": 3238,
      "अशियातून": 3239,
      "अप्सरेपासून": 3240,
      "अलिप्ततावादी": 3241,
      "अन्याय": 3242,
      "अमरावती": 3243,
      "अध्यात्म": 3244,
      "अट्टम्": 3245,
      "अपोलो": 3246,
      "अहिंसेचा": 3247,
      "अंमलात": 3248,
      "आखल्या": 3249,
      "आफ्रिका": 3250,
      "आपापला": 3251,
      "आल्यानंतर": 3252,
      "आकारात": 3253,
      "आदिमानवाने": 3254,
      "आंतरराष्ट्रीय": 3255,
      "आंध्र": 3256,
      "आंबेडकर": 3257,
      "आग्नेय": 3258,
      "आशियामधील": 3259,
      "आश्चर्यांमध्ये": 3260,
      "इराणमधील": 3261,
      "इच्छुक": 3262,
      "उगम": 3263,
      "उद्देश्य": 3264,
      "उभारणी": 3265,
      "ऊर्फ": 3266,
      "एडविन": 3267,
      "एतद्देशीयांचे": 3268,
      "ऑगस्ट": 3269,
      "ऑक्टोबर": 3270,
      "ओसाड": 3271,
      "कळस": 3272,
      "क़िला": 3273,
      "कुचिपुडी": 3274,
      "कानपूर": 3275,
      "कटिबंध": 3276,
      "कनिष्ठ": 3277,
      "कलिंगाच्या": 3278,
      "कट्टर": 3279,
      "खडकाळ": 3280,
      "खूणावते.": 3281,
      "ख्रिश्च": 3282,
      "खजुराहो": 3283,
      "गझनी": 3284,
      "गटातील": 3285,
      "गळती": 3286,
      "गांधींनी": 3287,
      "गंडक": 3288,
      "गणित": 3289,
      "गरीबीमुळे": 3290,
      "गच्छीस": 3291,
      "गंभीर": 3292,
      "घाट": 3293,
      "घूमर": 3294,
      "चिकटून": 3295,
      "चक्रवर्ती": 3296,
      "चंद्रगुप्त": 3297,
      "चतुःसीमा": 3298,
      "चंदीगढ": 3299,
      "छोटा": 3300,
      "छत्रपती": 3301,
      "जिथे": 3302,
      "ज्येष्ठ": 3303,
      "जर्मनी": 3304,
      "जगाला": 3305,
      "जयंती": 3306,
      "झगडत": 3307,
      "झपाट्याने": 3308,
      "टेकडी": 3309,
      "ट्रायम्": 3310,
      "टवेर": 3311,
      "ठरले": 3312,
      "डरच्या": 3313,
      "डॅमी": 3314,
      "डॉ.": 3315,
      "डान्स": 3316,
      "ढोबळमानाने": 3317,
      "तैमूरल": 3318,
      "ततिः": 3319,
      "दशकापा": 3320,
      "दंतकथा": 3321,
      "दुसऱ्या": 3322,
      "धोरण": 3323,
      "नॅशनल": 3324,
      "नोंद": 3325,
      "नौदलीय": 3326,
      "नक्षलवाद": 3327,
      "नर्मदा": 3328,
      "नमूद": 3329,
      "नंदिग्राम)": 3330,
      "पॅरीस": 3331,
      "पौराणिक": 3332,
      "पानिपतच्या": 3333,
      "पूना)": 3334,
      "पसंती": 3335,
      "पंडित": 3336,
      "पसरली.": 3337,
      "फुटीचे": 3338,
      "फॉर्मेशन": 3339,
      "फ्टवेर": 3340,
      "फिक्या": 3341,
      "बसविले.": 3342,
      "बंगळु": 3343,
      "बरीच": 3344,
      "बदामी": 3345,
      "बऱ्यापैकी": 3346,
      "भांगडा": 3347,
      "भगवान": 3348,
      "मृत्युनंतर": 3349,
      "म्युझिक": 3350,
      "मंडपात": 3351,
      "मलिन": 3352,
      "मद्रास)": 3353,
      "मंदीरे": 3354,
      "मगधच्या": 3355,
      "याच्याशी": 3356,
      "रपेक्ष": 3357,
      "लद्दाख": 3358,
      "वॉर": 3359,
      "व्रताच्या": 3360,
      "वस्ती": 3361,
      "वांद्रे": 3362,
      "वस्था": 3363,
      "वसाहती": 3364,
      "शुष्क": 3365,
      "शतरूपा": 3366,
      "शहीद": 3367,
      "शस्त्रास्त्र": 3368,
      "शांतता": 3369,
      "शब्द": 3370,
      "सॉफ्टवेर": 3371,
      "सरासरी": 3372,
      "सदेगीरी,": 3373,
      "सत्रीया": 3374,
      "सल्तनत": 3375,
      "सन्ततिः": 3376,
      "हैद्राबाद": 3377,
      "हर्बट": 3378,
      "हल्ले": 3379,
      "हळेबीड": 3380,
      "हस्तगत": 3381,
      "हलविण्यात": 3382,
      "ादित": 3383,
      "ोजडोची": 3384,
      "्लो-अफगा": 3385,
      "ॠग्वेदकालीन": 3386,
      "ॠषभदेवाच्या": 3387,
      "०.५%.": 3388,
      "१४%;": 3389,
      "२.५%;": 3390,
      "२,०९४": 3391,
      "३४०": 3392,
      "५,४२३": 3393,
      "७,५१७": 3394,
      "७५-७९%;": 3395,
      "ॲंग्लो-अफगा": 3396,
      "ॲण्ड": 3397,
      "र्तमेढ": 3398,
      "भारतभूमीची": 3399,
      "भारतरत्न": 3400,
      "स्मरणार्थ": 3401,
      "लेण्यांमधील": 3402,
      "काँग्रेसने": 3403,
      "राहिलेला": 3404,
      "रायसीना": 3405,
      "प्रतिमा": 3406,
      "प्रजासत्ताक": 3407,
      "प्रस्थापकांपैकी": 3408,
      "प्रांत,": 3409,
      "प्रयत्नातून": 3410,
      "प्रियव्रताच्या": 3411,
      "प्रणयक्रीडारत": 3412,
      "प्रादेशिक": 3413,
      "यादीत": 3414,
      "यापाठोपाठ": 3415,
      "याबद्धल": 3416,
      "वापरलेल्या": 3417,
      "वाणिज्य": 3418,
      "वामित्र": 3419,
      "वाळूचे": 3420,
      "वाऱ्यांमुळे": 3421,
      "मुत्सदेगीरी,": 3422,
      "मुहूर्तमेढ": 3423,
      "मुस्लिम": 3424,
      "विसाव्या": 3425,
      "विश्वामित्र": 3426,
      "विष्णू": 3427,
      "विजयनगरचे": 3428,
      "नाल्याच्या": 3429,
      "सामाजिक": 3430,
      "साहजिकच": 3431,
      "सापडलेली": 3432,
      "साडेसात": 3433,
      "तेढांमुळे": 3434,
      "चेन्नई": 3435,
      "संदर्भात": 3436,
      "संबळपुरी": 3437,
      "संगमरवरी": 3438,
      "होणारी": 3439,
      "नेपाळची": 3440,
      "नेतृत्वाखाली": 3441,
      "नेहरूंनी": 3442,
      "पाश्चात्य": 3443,
      "पाषाणयुगातील": 3444,
      "हिवाळ्याच्या": 3445,
      "राजकारण": 3446,
      "राजवाडयापैकी": 3447,
      "भारतीयांच्यात": 3448,
      "पुरुवंशीय": 3449,
      "पुरातन": 3450,
      "पुनर्बांधणी": 3451,
      "पुर्न‍‍स्थापन": 3452,
      "पुद्दुचेरी": 3453,
      "मानचिन्हे": 3454,
      "कारभाराखाली": 3455,
      "वेल्स": 3456,
      "वेरुळ": 3457,
      "मोहिनीअट्टम्": 3458,
      "मोहम्मद": 3459,
      "मोहोंदोजडोची": 3460,
      "स्थित्यंतरे": 3461,
      "येणाऱ्या": 3462,
      "येणारे": 3463,
      "सुद्धा": 3464,
      "सुवर्णकाळ": 3465,
      "सुरक्षाविषयक": 3466,
      "शासननियु": 3467,
      "परंपरा": 3468,
      "परिकल्पना": 3469,
      "दिशेला": 3470,
      "स्तंभांचा": 3471,
      "शिक्षणसंस्थांमध्ये": 3472,
      "धर्मनिरपेक्ष": 3473,
      "१९१२–१३": 3474,
      "क्रौर्यानंतर": 3475,
      "रूपांतर": 3476,
      "म्हैसूरचा": 3477,
      "ब्रम्हपुत्रा": 3478,
      "रुंदीच्या": 3479,
      "भूप्रस्तराचे": 3480,
      "समुदायांमधील": 3481,
      "सर्वश्रेष्ठ": 3482,
      "सर्वधर्मसमभावाचे": 3483,
      "हिमालयापासून": 3484,
      "हिमाद्रेश्चैव": 3485,
      "मह्त्वाच्या": 3486,
      "शिरकाण": 3487,
      "कोलकाता": 3488,
      "बाबासाहेब": 3489,
      "बाजूला": 3490,
      "बाॅम्बे)": 3491,
      "लोकसंख्येच्या": 3492,
      "क्वीन’स": 3493,
      "मेमोरिअल": 3494,
      "महाखंडाचा": 3495,
      "वारसाहक्काने": 3496,
      "बांधकामाचे": 3497,
      "गाजवण्यास": 3498,
      "शतकापासूनच": 3499,
      "क्रमांकावर": 3500,
      "समुद्रकिनारा": 3501,
      "समुद्रकिनाऱ्यामध्ये": 3502,
      "ज्वालामुखीपासून": 3503,
      "लिहीतात,": 3504,
      "गेटसमोरील": 3505,
      "मुख्यभूमीमधील": 3506,
      "कर्नाटक": 3507,
      "समविषुववृतीय": 3508,
      "सोळाव्या": 3509,
      "सातवाहन": 3510,
      "वर्षांपेक्षाही": 3511,
      "साम्राज्यवाद्यांना": 3512,
      "युद्धकौशल्य": 3513,
      "भरतनाट्यम्": 3514,
      "race,": 3515,
      "दख्ख्ननचे": 3516,
      "मतभेद": 3517,
      "मैदानी": 3518,
      "मंदिरांवरील": 3519,
      "शकुंतला": 3520,
      "पुराव्यांपैकी": 3521,
      "व्युत्पत्ती": 3522,
      "materials": 3523,
      "कथ्थक": 3524,
      "घडामोडी": 3525,
      "दुःखदायक": 3526,
      "दुष्यंताशी": 3527,
      "भित्तीचित्रे": 3528,
      "भीमबेटका": 3529,
      "रितीरिवाज": 3530,
      "सैन्यदलातील": 3531,
      "सागरीसेतू": 3532,
      "शैलींचीच": 3533,
      "instructiv": 3534,
      "legend,": 3535,
      "टोळ्यांनी": 3536,
      "ड्रामातर्फे": 3537,
      "पोर्तुगीज": 3538,
      "बार्हिष्मती": 3539,
      "लुटयेन्स": 3540,
      "सांख्यिकीनुसार": 3541,
      "कामगिरी": 3542,
      "विस्ताराबरोबरच": 3543,
      "दिवसेंदिवस": 3544,
      "इंडो-ऑस्ट्रेलियन": 3545,
      "स्वरूपांची": 3546,
      "अंदाजे):": 3547,
      "अमेरिकन": 3548,
      "आले,ज्याने": 3549,
      "इंद्रपूरी)": 3550,
      "कलकत्ता)": 3551,
      "घोड्यांच्या": 3552,
      "जमातींबद्दलच्या": 3553,
      "पर्जन्यछायेमुळे": 3554,
      "पराभवानंतर": 3555,
      "फाळणीचा": 3556,
      "मणिपुरी‌": 3557,
      "समाजव्यवस्था": 3558,
      "स्वागतासाठी": 3559,
      "प्रशासनाद्वारे": 3560,
      "मुद्देसूद": 3561,
      "हिमाच्छादित": 3562,
      "त्रिभुज": 3563,
      "केल्यानंतर्": 3564,
      "महाविद्यालयांमध्ये": 3565,
      "अजिंठा-वेरूळची": 3566,
      "पुराणतज्ञांनुसार,": 3567,
      "अणुचाचणी": 3568,
      "अणुस्फोट": 3569,
      "अनुभवायास": 3570,
      "अनुश्रुतिनुसार": 3571,
      "प्रवेशद्वाराची": 3572,
      "(४,६७१": 3573,
      "-गुजराथीत": 3574,
      "Triomphe": 3575,
      "birthplace": 3576,
      "tradition.": 3577,
      "अपभ्रंश": 3578,
      "अभ्यासक्रमानुसार": 3579,
      "अवलंबला": 3580,
      "अहमदाबाद": 3581,
      "अ‍ॅकॅडॅमी": 3582,
      "अस्तित्त्वाचे": 3583,
      "अलेक्झांडरच्या": 3584,
      "अक्षरधामची": 3585,
      "अरुणाचल": 3586,
      "कटिबंधातील": 3587,
      "ख्रिश्चन": 3588,
      "ट्रायम्फे": 3589,
      "तैमूरलंगने": 3590,
      "दशकापासुन": 3591,
      "बंगळुरू": 3592,
      "म्युझिक,": 3593,
      "शस्त्रास्त्रे": 3594,
      "ॲंग्लो-अफगाण": 3595,
      "मोहिनीअट्टम्‌": 3596,
      "शासननियुक्त": 3597,
      "instructive": 3598
    },
    "merges": [
      [
        "्",
        "य"
      ],
      [
        "्य",
        "ा"
      ],
      [
        "ा",
        "र"
      ],
      [
        "्",
        "र"
      ],
      [
        "ा",
        "त"
      ],
      [
        "र",
        "्"
      ],
      [
        "ार",
        "त"
      ],
      [
        "ल",
        "ा"
      ],
      [
        "ह",
        "े"
      ],
      [
        "भ",
        "ारत"
      ],
      [
        "स",
        "्"
      ],
      [
        "ा",
        "च"
      ],
      [
        "आ",
        "हे"
      ],
      [
        "ा",
        "ं"
      ],
      [
        "ल",
        "े"
      ],
      [
        "ल",
        "ी"
      ],
      [
        "ा",
        "न"
      ],
      [
        "क",
        "ा"
      ],
      [
        "र",
        "ा"
      ],
      [
        "ी",
        "ल"
      ],
      [
        "प",
        "्र"
      ],
      [
        "य",
        "ा"
      ],
      [
        "ि",
        "क"
      ],
      [
        "व",
        "ा"
      ],
      [
        "त",
        "ी"
      ],
      [
        "आहे",
        "."
      ],
      [
        "म",
        "ु"
      ],
      [
        "ू",
        "न"
      ],
      [
        "व",
        "ि"
      ],
      [
        "द",
        "े"
      ],
      [
        "न",
        "ा"
      ],
      [
        "स",
        "ा"
      ],
      [
        "च",
        "्या"
      ],
      [
        "त",
        "र"
      ],
      [
        "त",
        "े"
      ],
      [
        "म",
        "ध"
      ],
      [
        "ी",
        "य"
      ],
      [
        "त",
        "्"
      ],
      [
        "च",
        "े"
      ],
      [
        "्",
        "ष"
      ],
      [
        "द",
        "्"
      ],
      [
        "ष",
        "्"
      ],
      [
        "व",
        "ी"
      ],
      [
        "स",
        "ं"
      ],
      [
        "ह",
        "ो"
      ],
      [
        "दे",
        "श"
      ],
      [
        "न",
        "े"
      ],
      [
        "ह",
        "ी"
      ],
      [
        "अ",
        "स"
      ],
      [
        "ह",
        "ा"
      ],
      [
        "त",
        "्या"
      ],
      [
        "प",
        "ा"
      ],
      [
        "्य",
        "े"
      ],
      [
        "ह",
        "ि"
      ],
      [
        "्र",
        "ा"
      ],
      [
        "झ",
        "ा"
      ],
      [
        "ं",
        "द"
      ],
      [
        "च",
        "ी"
      ],
      [
        "ाच",
        "्या"
      ],
      [
        "रा",
        "ज"
      ],
      [
        "ं",
        "ग"
      ],
      [
        "त",
        "्र"
      ],
      [
        "प",
        "ू"
      ],
      [
        "व",
        "र"
      ],
      [
        "भारत",
        "ीय"
      ],
      [
        "क",
        "े"
      ],
      [
        "क",
        "्ष"
      ],
      [
        "त",
        "ा"
      ],
      [
        "प",
        "ु"
      ],
      [
        "म",
        "ा"
      ],
      [
        "ात",
        "ील"
      ],
      [
        "म",
        "ी"
      ],
      [
        "म",
        "ान"
      ],
      [
        "ल",
        "्या"
      ],
      [
        "मध",
        "्ये"
      ],
      [
        "क",
        "ार"
      ],
      [
        "भ",
        "ा"
      ],
      [
        "व",
        "े"
      ],
      [
        "ष्",
        "ट"
      ],
      [
        "म",
        "ो"
      ],
      [
        "ल",
        "्"
      ],
      [
        "च",
        "ा"
      ],
      [
        "त",
        "ि"
      ],
      [
        "स्",
        "थ"
      ],
      [
        "ाच",
        "ी"
      ],
      [
        "पू",
        "र्"
      ],
      [
        "न",
        "ी"
      ],
      [
        "य",
        "े"
      ],
      [
        "स",
        "ु"
      ],
      [
        "्या",
        "ं"
      ],
      [
        "द्",
        "ध"
      ],
      [
        "ं",
        "ड"
      ],
      [
        "क",
        "ि"
      ],
      [
        "ळ",
        "े"
      ],
      [
        "श",
        "ा"
      ],
      [
        "का",
        "ळ"
      ],
      [
        "म",
        "्"
      ],
      [
        "आहे",
        "त"
      ],
      [
        "ली",
        "."
      ],
      [
        "क",
        "ृ"
      ],
      [
        "त",
        "ात"
      ],
      [
        "र्",
        "म"
      ],
      [
        "भारत",
        "ात"
      ],
      [
        "ते",
        "."
      ],
      [
        "प",
        "र"
      ],
      [
        "स",
        "ि"
      ],
      [
        "ान",
        "े"
      ],
      [
        "क",
        "र"
      ],
      [
        "ण",
        "ि"
      ],
      [
        "ण",
        "े"
      ],
      [
        "म",
        "्रा"
      ],
      [
        "व",
        "र्"
      ],
      [
        "ाच",
        "े"
      ],
      [
        "ग",
        "े"
      ],
      [
        "द",
        "ि"
      ],
      [
        "द",
        "ी"
      ],
      [
        "म",
        "ि"
      ],
      [
        "श",
        "िक"
      ],
      [
        "ा",
        "प"
      ],
      [
        "स्",
        "त"
      ],
      [
        "स्",
        "कृ"
      ],
      [
        "ना",
        "व"
      ],
      [
        "्ष",
        "ण"
      ],
      [
        "भा",
        "ग"
      ],
      [
        "शिक",
        "्षण"
      ],
      [
        "ं",
        "त"
      ],
      [
        "ए",
        "क"
      ],
      [
        "ठ",
        "ा"
      ],
      [
        "द",
        "्या"
      ],
      [
        "ध",
        "र्म"
      ],
      [
        "र",
        "ी"
      ],
      [
        "श",
        "्"
      ],
      [
        "ि",
        "या"
      ],
      [
        "भारत",
        "ाच्या"
      ],
      [
        "मु",
        "ळे"
      ],
      [
        "सं",
        "स्कृ"
      ],
      [
        "ने",
        "क"
      ],
      [
        "आहेत",
        "."
      ],
      [
        "ं",
        "तर"
      ],
      [
        "अ",
        "नेक"
      ],
      [
        "ण",
        "्या"
      ],
      [
        "र्",
        "व"
      ],
      [
        "त्",
        "तर"
      ],
      [
        "संस्कृ",
        "ती"
      ],
      [
        "ज",
        "ात"
      ],
      [
        "ट",
        "ि"
      ],
      [
        "१",
        "९"
      ],
      [
        "ाच",
        "ा"
      ],
      [
        "अस",
        "े"
      ],
      [
        "आ",
        "णि"
      ],
      [
        "इ",
        "ंड"
      ],
      [
        "क",
        "ड"
      ],
      [
        "क",
        "्र"
      ],
      [
        "ज",
        "ा"
      ],
      [
        "त",
        "्य"
      ],
      [
        "द",
        "्र"
      ],
      [
        "र",
        "ू"
      ],
      [
        "र",
        "ो"
      ],
      [
        "स",
        "र"
      ],
      [
        "ार",
        "ा"
      ],
      [
        "र्",
        "थ"
      ],
      [
        "ले",
        "."
      ],
      [
        "सा",
        "म्रा"
      ],
      [
        "ष्ट",
        "्र"
      ],
      [
        "स्थ",
        "ाप"
      ],
      [
        "म्",
        "ह"
      ],
      [
        "तात",
        "."
      ],
      [
        "वर्",
        "ष"
      ],
      [
        "साम्रा",
        "ज"
      ],
      [
        "द",
        "ा"
      ],
      [
        "ब",
        "्र"
      ],
      [
        "र",
        "ु"
      ],
      [
        "स्",
        "व"
      ],
      [
        "प्र",
        "देश"
      ],
      [
        "वि",
        "द्या"
      ],
      [
        "मध",
        "ील"
      ],
      [
        "पा",
        "स"
      ],
      [
        "पूर्",
        "वी"
      ],
      [
        "ये",
        "थ"
      ],
      [
        "मि",
        "ळ"
      ],
      [
        "ं",
        "ध"
      ],
      [
        "ण",
        "ी"
      ],
      [
        "य",
        "ां"
      ],
      [
        "ला",
        "."
      ],
      [
        "का",
        "ही"
      ],
      [
        "हो",
        "ता"
      ],
      [
        "झा",
        "ले"
      ],
      [
        "म्ह",
        "ण"
      ],
      [
        "पास",
        "ून"
      ],
      [
        "h",
        "e"
      ],
      [
        "घ",
        "े"
      ],
      [
        "च",
        "ि"
      ],
      [
        "ज",
        "ी"
      ],
      [
        "ण",
        "ा"
      ],
      [
        "न",
        "ि"
      ],
      [
        "भ",
        "ू"
      ],
      [
        "य",
        "ु"
      ],
      [
        "ल",
        "य"
      ],
      [
        "ल",
        "ो"
      ],
      [
        "स",
        "मु"
      ],
      [
        "स",
        "र्व"
      ],
      [
        "ह",
        "र"
      ],
      [
        "ि",
        "टि"
      ],
      [
        "रा",
        "ष्ट्र"
      ],
      [
        "ष्",
        "ठ"
      ],
      [
        "हि",
        "मा"
      ],
      [
        "ाची",
        "न"
      ],
      [
        "ब्र",
        "िटि"
      ],
      [
        "ब्रिटि",
        "श"
      ],
      [
        ")",
        ","
      ],
      [
        "इ",
        "ति"
      ],
      [
        "उ",
        "त्तर"
      ],
      [
        "क",
        "ी"
      ],
      [
        "ग",
        "र"
      ],
      [
        "ज",
        "े"
      ],
      [
        "द",
        "क्ष"
      ],
      [
        "प",
        "ृ"
      ],
      [
        "ब",
        "ां"
      ],
      [
        "भ",
        "र"
      ],
      [
        "म",
        "ह"
      ],
      [
        "म",
        "ार"
      ],
      [
        "व",
        "ै"
      ],
      [
        "श",
        "ि"
      ],
      [
        "ो",
        "."
      ],
      [
        "प्र",
        "कार"
      ],
      [
        "प्र",
        "ाचीन"
      ],
      [
        "हि",
        "ंद"
      ],
      [
        "सि",
        "ंध"
      ],
      [
        "इंड",
        "िया"
      ],
      [
        "होता",
        "."
      ],
      [
        "इति",
        "हा"
      ],
      [
        "दक्ष",
        "ि"
      ],
      [
        "t",
        "he"
      ],
      [
        "इ",
        "ंग"
      ],
      [
        "उ",
        "प"
      ],
      [
        "क",
        "ो"
      ],
      [
        "द",
        "ल"
      ],
      [
        "ध",
        "ार"
      ],
      [
        "न",
        "्"
      ],
      [
        "प",
        "ड"
      ],
      [
        "प",
        "द"
      ],
      [
        "ब",
        "ा"
      ],
      [
        "म",
        "ू"
      ],
      [
        "ऱ",
        "्या"
      ],
      [
        "श",
        "ी"
      ],
      [
        "स",
        "ी"
      ],
      [
        "स",
        "े"
      ],
      [
        "स्",
        "त्र"
      ],
      [
        "मु",
        "ख"
      ],
      [
        "वि",
        "ध"
      ],
      [
        "द्",
        "वी"
      ],
      [
        "ंग",
        "ा"
      ],
      [
        "ल्",
        "ली"
      ],
      [
        "कि",
        "ल्"
      ],
      [
        "लो",
        "क"
      ],
      [
        "सिंध",
        "ू"
      ],
      [
        "n",
        "d"
      ],
      [
        "आ",
        "ज"
      ],
      [
        "इ",
        "."
      ],
      [
        "क",
        "्"
      ],
      [
        "ठ",
        "ी"
      ],
      [
        "द",
        "िक"
      ],
      [
        "ब",
        "न"
      ],
      [
        "म",
        "े"
      ],
      [
        "म",
        "हा"
      ],
      [
        "ळ",
        "व"
      ],
      [
        "ळ",
        "ू"
      ],
      [
        "व",
        "्य"
      ],
      [
        "व",
        "ार"
      ],
      [
        "स",
        "."
      ],
      [
        "ह",
        "वा"
      ],
      [
        "्य",
        "ंत"
      ],
      [
        "ला",
        "ग"
      ],
      [
        "ां",
        "त"
      ],
      [
        "हो",
        "ती"
      ],
      [
        "पर",
        "्यंत"
      ],
      [
        "दि",
        "ल्ली"
      ],
      [
        "विद्या",
        "र्थ"
      ],
      [
        "येथ",
        "ील"
      ],
      [
        "हिमा",
        "लय"
      ],
      [
        "पृ",
        "ष्ठ"
      ],
      [
        "बां",
        "ध"
      ],
      [
        "वै",
        "दिक"
      ],
      [
        "इतिहा",
        "स"
      ],
      [
        "द्वी",
        "प"
      ],
      [
        "हवा",
        "मान"
      ],
      [
        "ं",
        "प"
      ],
      [
        "ं",
        "ब"
      ],
      [
        "अ",
        "ज"
      ],
      [
        "इ",
        "म"
      ],
      [
        "ओ",
        "ळ"
      ],
      [
        "ग",
        "ा"
      ],
      [
        "ग",
        "्"
      ],
      [
        "ट",
        "ी"
      ],
      [
        "त",
        "ील"
      ],
      [
        "ध",
        "िक"
      ],
      [
        "न",
        "दी"
      ],
      [
        "न",
        "ंतर"
      ],
      [
        "प",
        "्"
      ],
      [
        "ब",
        "ंगा"
      ],
      [
        "र",
        "े"
      ],
      [
        "व",
        "न"
      ],
      [
        "श",
        "त"
      ],
      [
        "ह",
        "ळू"
      ],
      [
        "ि",
        "त"
      ],
      [
        "ै",
        "न"
      ],
      [
        "०",
        "०"
      ],
      [
        "ला",
        "ल"
      ],
      [
        "वि",
        "विध"
      ],
      [
        "हो",
        "ते."
      ],
      [
        "अस",
        "ते."
      ],
      [
        "झा",
        "ली."
      ],
      [
        "वर",
        "ून"
      ],
      [
        "शा",
        "स्त्र"
      ],
      [
        "काळ",
        "ात"
      ],
      [
        "ण्या",
        "त"
      ],
      [
        "जात",
        "ो."
      ],
      [
        "क्र",
        "म"
      ],
      [
        "समु",
        "द्र"
      ],
      [
        "इम",
        "ारत"
      ],
      [
        "ओळ",
        "ख"
      ],
      [
        "बंगा",
        "ल"
      ],
      [
        "o",
        "f"
      ],
      [
        "ं",
        "त्र"
      ],
      [
        "आ",
        "क्रम"
      ],
      [
        "इ",
        "स्"
      ],
      [
        "ख",
        "ा"
      ],
      [
        "ग",
        "ण"
      ],
      [
        "ग",
        "ी"
      ],
      [
        "ग",
        "ु"
      ],
      [
        "ग",
        "ातील"
      ],
      [
        "घ",
        "ल"
      ],
      [
        "ज",
        "्"
      ],
      [
        "ज",
        "्या"
      ],
      [
        "त",
        "ो"
      ],
      [
        "द",
        "ो"
      ],
      [
        "न",
        "ृ"
      ],
      [
        "प",
        "श्"
      ],
      [
        "ब",
        "ी"
      ],
      [
        "ब",
        "ौ"
      ],
      [
        "ल",
        "ि"
      ],
      [
        "व",
        "्या"
      ],
      [
        "व",
        "ली"
      ],
      [
        "ु",
        "स"
      ],
      [
        "ै",
        "की"
      ],
      [
        "्",
        "छ"
      ],
      [
        "्र",
        "े"
      ],
      [
        "भारत",
        "ा"
      ],
      [
        "ां",
        "च्या"
      ],
      [
        "ली",
        "न"
      ],
      [
        "ान",
        "ंतर"
      ],
      [
        "का",
        "लीन"
      ],
      [
        "मु",
        "घल"
      ],
      [
        "अस",
        "ले"
      ],
      [
        "ंद",
        "ि"
      ],
      [
        "ंद",
        "्र"
      ],
      [
        "राज",
        "्य"
      ],
      [
        "स्थ",
        "ान"
      ],
      [
        "सु",
        "रू"
      ],
      [
        "गे",
        "ट"
      ],
      [
        "साम्राज",
        "्या"
      ],
      [
        "रु",
        "व"
      ],
      [
        "इंग",
        "्र"
      ],
      [
        "मुख",
        "्य"
      ],
      [
        "किल्",
        "ला"
      ],
      [
        "इस्",
        "ला"
      ],
      [
        "पश्",
        "चि"
      ],
      [
        "बौ",
        "द्ध"
      ],
      [
        "(",
        "पूर्वी"
      ],
      [
        "i",
        "a"
      ],
      [
        "m",
        "o"
      ],
      [
        "क",
        "र्"
      ],
      [
        "ख",
        "्"
      ],
      [
        "ग",
        "ड"
      ],
      [
        "ग",
        "ो"
      ],
      [
        "च",
        "्छ"
      ],
      [
        "ज",
        "व"
      ],
      [
        "त",
        "ु"
      ],
      [
        "द",
        "्रा"
      ],
      [
        "द",
        "्यां"
      ],
      [
        "न",
        "्या"
      ],
      [
        "प",
        "ठ"
      ],
      [
        "भ",
        "वन"
      ],
      [
        "ळ",
        "ी"
      ],
      [
        "श",
        "ै"
      ],
      [
        "श",
        "िया"
      ],
      [
        "स",
        "म"
      ],
      [
        "स",
        "ो"
      ],
      [
        "स",
        "ात"
      ],
      [
        "ह",
        "ज"
      ],
      [
        "ह",
        "ु"
      ],
      [
        "ह",
        "्या"
      ],
      [
        "ात",
        "ंत्र"
      ],
      [
        "भारत",
        "ाचे"
      ],
      [
        "ां",
        "मध्ये"
      ],
      [
        "ां",
        "नी"
      ],
      [
        "वा",
        "ह"
      ],
      [
        "मध",
        "्य"
      ],
      [
        "अस",
        "ून"
      ],
      [
        "त्या",
        "ं"
      ],
      [
        "झा",
        "ला"
      ],
      [
        "राज",
        "्यां"
      ],
      [
        "के",
        "ली"
      ],
      [
        "वे",
        "ग"
      ],
      [
        "मो",
        "ठा"
      ],
      [
        "पूर्",
        "व"
      ],
      [
        "सु",
        "रुव"
      ],
      [
        "कर",
        "ून"
      ],
      [
        "कड",
        "े"
      ],
      [
        "वर्ष",
        "ां"
      ],
      [
        "साम्राज",
        "्य"
      ],
      [
        "स्व",
        "ातंत्र"
      ],
      [
        "भू",
        "मी"
      ],
      [
        "यु",
        "द्ध"
      ],
      [
        "भर",
        "त"
      ],
      [
        "मह",
        "ारा"
      ],
      [
        "दक्षि",
        "ण"
      ],
      [
        "विद्यार्थ",
        "्यां"
      ],
      [
        "इस्ला",
        "मी"
      ],
      [
        "सुरुव",
        "ात"
      ],
      [
        "%",
        ";"
      ],
      [
        "r",
        "a"
      ],
      [
        "s",
        "t"
      ],
      [
        "ं",
        "च"
      ],
      [
        "ं",
        "ट"
      ],
      [
        "आ",
        "र्"
      ],
      [
        "उ",
        "दा"
      ],
      [
        "ऋ",
        "ष"
      ],
      [
        "ऑ",
        "फ"
      ],
      [
        "ख",
        "न"
      ],
      [
        "ख",
        "ो"
      ],
      [
        "ग",
        "ंग"
      ],
      [
        "ज",
        "गातील"
      ],
      [
        "त",
        "से"
      ],
      [
        "द",
        "ृ"
      ],
      [
        "द",
        "ख्"
      ],
      [
        "न",
        "द्यां"
      ],
      [
        "प",
        "े"
      ],
      [
        "प",
        "ती"
      ],
      [
        "प",
        "ैकी"
      ],
      [
        "ब",
        "र"
      ],
      [
        "ब",
        "हु"
      ],
      [
        "म",
        "त"
      ],
      [
        "म",
        "र"
      ],
      [
        "म",
        "ै"
      ],
      [
        "म",
        "रा"
      ],
      [
        "म",
        "ंदि"
      ],
      [
        "य",
        "ी"
      ],
      [
        "व",
        "्"
      ],
      [
        "श",
        "क"
      ],
      [
        "श",
        "ो"
      ],
      [
        "श",
        "हर"
      ],
      [
        "स",
        "म्रा"
      ],
      [
        "भारत",
        "ाने"
      ],
      [
        "स्",
        "ट"
      ],
      [
        "स्",
        "मार"
      ],
      [
        "वा",
        "ळव"
      ],
      [
        "सा",
        "गर"
      ],
      [
        "सा",
        "ठी"
      ],
      [
        "त्",
        "व"
      ],
      [
        "द्",
        "दल"
      ],
      [
        "सं",
        "गी"
      ],
      [
        "त्या",
        "चे"
      ],
      [
        "पा",
        "कि"
      ],
      [
        "झा",
        "ला."
      ],
      [
        "राज",
        "्ये"
      ],
      [
        "वर",
        "ील"
      ],
      [
        "के",
        "ले"
      ],
      [
        "के",
        "ली."
      ],
      [
        "क्ष",
        "ा"
      ],
      [
        "पु",
        "रा"
      ],
      [
        "पु",
        "त्र"
      ],
      [
        "मा",
        "ण"
      ],
      [
        "मान",
        "वी"
      ],
      [
        "ष्ट",
        "्या"
      ],
      [
        "पूर्",
        "ण"
      ],
      [
        "पर",
        "ंत"
      ],
      [
        "सि",
        "त"
      ],
      [
        "स्त",
        "ान"
      ],
      [
        "ण्या",
        "स"
      ],
      [
        "स्थाप",
        "त्य"
      ],
      [
        "म्हण",
        "ून"
      ],
      [
        "म्हण",
        "जे"
      ],
      [
        "सर्व",
        "ांत"
      ],
      [
        "राष्ट्र",
        "ीय"
      ],
      [
        "हिंद",
        "ू"
      ],
      [
        "दक्षि",
        "णे"
      ],
      [
        "धार",
        "ण"
      ],
      [
        "पड",
        "ले"
      ],
      [
        "पद",
        "वी"
      ],
      [
        "सी",
        "मा"
      ],
      [
        "इ.",
        "स."
      ],
      [
        "व्य",
        "ु"
      ],
      [
        "होती",
        "."
      ],
      [
        "प्",
        "त"
      ],
      [
        "बंगाल",
        "च्या"
      ],
      [
        "ज्",
        "ञ"
      ],
      [
        "नृ",
        "त्य"
      ],
      [
        "ुस",
        "ार"
      ],
      [
        "भारता",
        "ला"
      ],
      [
        "सो",
        "यी"
      ],
      [
        "वर्षां",
        "पूर्वी"
      ],
      [
        "उदा",
        "हर"
      ],
      [
        "गंग",
        "े"
      ],
      [
        "तसे",
        "च"
      ],
      [
        "दृ",
        "ष्ट्या"
      ],
      [
        "सम्रा",
        "ट"
      ],
      [
        "वाळव",
        "ंट"
      ],
      [
        "पाकि",
        "स्तान"
      ],
      [
        "परंत",
        "ु"
      ],
      [
        "(",
        "इंग्र"
      ],
      [
        "I",
        "nd"
      ],
      [
        "e",
        "r"
      ],
      [
        "m",
        "a"
      ],
      [
        "o",
        "m"
      ],
      [
        "r",
        "e"
      ],
      [
        "t",
        "er"
      ],
      [
        "अ",
        "ति"
      ],
      [
        "अ",
        "धिक"
      ],
      [
        "आ",
        "ण"
      ],
      [
        "आ",
        "प"
      ],
      [
        "आ",
        "र"
      ],
      [
        "आ",
        "र्थ"
      ],
      [
        "इ",
        "तर"
      ],
      [
        "इ",
        "त्या"
      ],
      [
        "क",
        "थ"
      ],
      [
        "क",
        "ात"
      ],
      [
        "क",
        "च्छ"
      ],
      [
        "ग",
        "ती"
      ],
      [
        "ग",
        "्रा"
      ],
      [
        "घ",
        "ड"
      ],
      [
        "घ",
        "ात"
      ],
      [
        "च",
        "ळव"
      ],
      [
        "ज",
        "ु"
      ],
      [
        "ज",
        "ो"
      ],
      [
        "ज",
        "ैन"
      ],
      [
        "ड",
        "ू"
      ],
      [
        "त",
        "त्"
      ],
      [
        "त",
        "मिळ"
      ],
      [
        "थ",
        "ार"
      ],
      [
        "द",
        "ु"
      ],
      [
        "द",
        "ार"
      ],
      [
        "द",
        "र्"
      ],
      [
        "ध",
        "्या"
      ],
      [
        "न",
        "द्या"
      ],
      [
        "न",
        "ुसार"
      ],
      [
        "प",
        "ार"
      ],
      [
        "प",
        "त्"
      ],
      [
        "प",
        "द्ध"
      ],
      [
        "प",
        "णे"
      ],
      [
        "प",
        "र्व"
      ],
      [
        "ब",
        "द्दल"
      ],
      [
        "भ",
        "ि"
      ],
      [
        "भ",
        "ी"
      ],
      [
        "भ",
        "दे"
      ],
      [
        "य",
        "ं"
      ],
      [
        "य",
        "न"
      ],
      [
        "य",
        "ातील"
      ],
      [
        "र",
        "ि"
      ],
      [
        "ळ",
        "ा"
      ],
      [
        "श",
        "य"
      ],
      [
        "स",
        "द"
      ],
      [
        "स",
        "न"
      ],
      [
        "स",
        "र्"
      ],
      [
        "स",
        "मू"
      ],
      [
        "स",
        "ैन"
      ],
      [
        "ू",
        "र"
      ],
      [
        "ृ",
        "त"
      ],
      [
        "ौ",
        "र"
      ],
      [
        "१",
        "६"
      ],
      [
        "१",
        "८"
      ],
      [
        "ात",
        "ून"
      ],
      [
        "ला",
        "ं"
      ],
      [
        "स्",
        "वी"
      ],
      [
        "ां",
        "चे"
      ],
      [
        "ां",
        "चा"
      ],
      [
        "ले",
        "य"
      ],
      [
        "ले",
        "ला"
      ],
      [
        "ले",
        "ल्या"
      ],
      [
        "ले",
        "णी"
      ],
      [
        "वा",
        "द"
      ],
      [
        "वा",
        "धिक"
      ],
      [
        "वि",
        "ष"
      ],
      [
        "ना",
        "डू"
      ],
      [
        "सा",
        "ग"
      ],
      [
        "सं",
        "सद"
      ],
      [
        "हो",
        "त"
      ],
      [
        "हो",
        "त्या"
      ],
      [
        "त्या",
        "त"
      ],
      [
        "ची",
        "न"
      ],
      [
        "राज",
        "क"
      ],
      [
        "पू",
        "र"
      ],
      [
        "के",
        "ंद्र"
      ],
      [
        "क्ष",
        "े"
      ],
      [
        "पु",
        "त"
      ],
      [
        "मो",
        "ठ"
      ],
      [
        "ल्",
        "प"
      ],
      [
        "कि",
        "न"
      ],
      [
        "शा",
        "लेय"
      ],
      [
        "सि",
        "द्ध"
      ],
      [
        "गे",
        "ली."
      ],
      [
        "ाप",
        "्"
      ],
      [
        "नाव",
        "ाने"
      ],
      [
        "नाव",
        "ाचा"
      ],
      [
        "भाग",
        "ात"
      ],
      [
        "श्",
        "च"
      ],
      [
        "१९",
        "९"
      ],
      [
        "कड",
        "ील"
      ],
      [
        "सर",
        "कार"
      ],
      [
        "येथ",
        "े"
      ],
      [
        "यां",
        "च्या"
      ],
      [
        "जी",
        ":"
      ],
      [
        "राष्ट्र",
        "पती"
      ],
      [
        "उत्तर",
        "े"
      ],
      [
        "हिंद",
        "ी"
      ],
      [
        "पद",
        "व्यु"
      ],
      [
        "वार",
        "े"
      ],
      [
        "लाग",
        "ले."
      ],
      [
        "द्वीप",
        "समू"
      ],
      [
        "हळू",
        "हळू"
      ],
      [
        "ओळख",
        "ले"
      ],
      [
        "खा",
        "ली"
      ],
      [
        "गण",
        "ला"
      ],
      [
        "दो",
        "न"
      ],
      [
        "पश्चि",
        "म"
      ],
      [
        "(पूर्वी",
        "चे"
      ],
      [
        "गो",
        "ल"
      ],
      [
        "जव",
        "ळ"
      ],
      [
        "पठ",
        "ार"
      ],
      [
        "शै",
        "ली"
      ],
      [
        "वेग",
        "ळे"
      ],
      [
        "स्वातंत्र",
        "्य"
      ],
      [
        "युद्ध",
        "ात"
      ],
      [
        "दख्",
        "खन"
      ],
      [
        "पे",
        "क्षा"
      ],
      [
        "मंदि",
        "रे"
      ],
      [
        "संगी",
        "त"
      ],
      [
        "उदाहर",
        "ण"
      ],
      [
        "(इंग्र",
        "जी:"
      ],
      [
        "Ind",
        "ia"
      ],
      [
        "अति",
        "शय"
      ],
      [
        "आर्थ",
        "िक"
      ],
      [
        "इत्या",
        "दी"
      ],
      [
        "तमिळ",
        "नाडू"
      ],
      [
        "थार",
        "चे"
      ],
      [
        "पद्ध",
        "ती"
      ],
      [
        "सर्",
        "वाधिक"
      ],
      [
        "पदव्यु",
        "त्तर"
      ],
      [
        "द्वीपसमू",
        "ह"
      ],
      [
        "e",
        "ter"
      ],
      [
        "i",
        "l"
      ],
      [
        "i",
        "n"
      ],
      [
        "k",
        "il"
      ],
      [
        "l",
        "e"
      ],
      [
        "o",
        "r"
      ],
      [
        "ं",
        "नी"
      ],
      [
        "ं",
        "जा"
      ],
      [
        "अ",
        "ण"
      ],
      [
        "अ",
        "थ"
      ],
      [
        "अ",
        "र"
      ],
      [
        "अ",
        "रा"
      ],
      [
        "अ",
        "ग्"
      ],
      [
        "अ",
        "शिया"
      ],
      [
        "आ",
        "कर्"
      ],
      [
        "उ",
        "र्"
      ],
      [
        "उ",
        "त्"
      ],
      [
        "उ",
        "ठा"
      ],
      [
        "ऊ",
        "न"
      ],
      [
        "ओ",
        "ड"
      ],
      [
        "ओ",
        "घात"
      ],
      [
        "क",
        "ू"
      ],
      [
        "क",
        "ला"
      ],
      [
        "क",
        "मी"
      ],
      [
        "क",
        "मान"
      ],
      [
        "क",
        "ाने"
      ],
      [
        "क",
        "ल्प"
      ],
      [
        "ग",
        "त"
      ],
      [
        "ग",
        "्र"
      ],
      [
        "ज",
        "न"
      ],
      [
        "ज",
        "ांनी"
      ],
      [
        "ट",
        "ो"
      ],
      [
        "ट",
        "्"
      ],
      [
        "ट",
        "क्"
      ],
      [
        "ड",
        "े"
      ],
      [
        "ड",
        "्रा"
      ],
      [
        "ण",
        "ार"
      ],
      [
        "ण",
        "िक"
      ],
      [
        "त",
        "न"
      ],
      [
        "त",
        "य"
      ],
      [
        "त",
        "ां"
      ],
      [
        "त",
        "्ये"
      ],
      [
        "त",
        "ो."
      ],
      [
        "द",
        "ह"
      ],
      [
        "द",
        "ली"
      ],
      [
        "द",
        "गड"
      ],
      [
        "द",
        "लां"
      ],
      [
        "न",
        "िक"
      ],
      [
        "न",
        "वी"
      ],
      [
        "प",
        "ी"
      ],
      [
        "प",
        "ो"
      ],
      [
        "प",
        "ात"
      ],
      [
        "प",
        "ाच"
      ],
      [
        "प",
        "ंजा"
      ],
      [
        "ब",
        "ळ"
      ],
      [
        "ब",
        "ि"
      ],
      [
        "ब",
        "्"
      ],
      [
        "ब",
        "ार"
      ],
      [
        "ब",
        "ंद"
      ],
      [
        "ब",
        "रो"
      ],
      [
        "ब",
        "दलां"
      ],
      [
        "भ",
        "ार"
      ],
      [
        "म",
        "िक"
      ],
      [
        "म",
        "हि"
      ],
      [
        "म",
        "ौर"
      ],
      [
        "र",
        "च"
      ],
      [
        "र",
        "ात"
      ],
      [
        "ल",
        ")"
      ],
      [
        "ल",
        "ु"
      ],
      [
        "ल",
        "ग्"
      ],
      [
        "व",
        "ृ"
      ],
      [
        "श",
        "न"
      ],
      [
        "श",
        "ह"
      ],
      [
        "श",
        "े"
      ],
      [
        "ष",
        "ा"
      ],
      [
        "स",
        "ां"
      ],
      [
        "स",
        "त्"
      ],
      [
        "स",
        "मी"
      ],
      [
        "स",
        "ह्या"
      ],
      [
        "स",
        "ध्या"
      ],
      [
        "ह",
        "ात"
      ],
      [
        "ह",
        "ान"
      ],
      [
        "ा",
        "वर"
      ],
      [
        "ि",
        "का"
      ],
      [
        "ी",
        "ला"
      ],
      [
        "ु",
        "व"
      ],
      [
        "े",
        "."
      ],
      [
        "्",
        "मिक"
      ],
      [
        "१",
        "१"
      ],
      [
        "१",
        "७"
      ],
      [
        "२",
        "६"
      ],
      [
        "५",
        "०"
      ],
      [
        "५",
        "००"
      ],
      [
        "‍",
        "नी"
      ],
      [
        "स्",
        "वर"
      ],
      [
        "आहे",
        ","
      ],
      [
        "ले",
        "ले"
      ],
      [
        "का",
        "म"
      ],
      [
        "का",
        "ल"
      ],
      [
        "का",
        "श्"
      ],
      [
        "रा",
        "ला"
      ],
      [
        "प्र",
        "गती"
      ],
      [
        "प्र",
        "सिद्ध"
      ],
      [
        "प्र",
        "ाप्"
      ],
      [
        "या",
        "स"
      ],
      [
        "वा",
        "ढ"
      ],
      [
        "वा",
        "दी"
      ],
      [
        "ती",
        "य"
      ],
      [
        "मु",
        "ंब"
      ],
      [
        "वि",
        "ले"
      ],
      [
        "वि",
        "स्त"
      ],
      [
        "वि",
        "भाग"
      ],
      [
        "ना",
        "ही"
      ],
      [
        "सा",
        "ली"
      ],
      [
        "सा",
        "धारण"
      ],
      [
        "तर",
        "ी"
      ],
      [
        "त्",
        "त्व"
      ],
      [
        "ष्",
        "ण"
      ],
      [
        "सं",
        "पूर्ण"
      ],
      [
        "सं",
        "लग्"
      ],
      [
        "देश",
        "ा"
      ],
      [
        "त्या",
        "मुळे"
      ],
      [
        "हि",
        "ं"
      ],
      [
        "झा",
        "ली"
      ],
      [
        "ंद",
        "ी"
      ],
      [
        "राज",
        "व"
      ],
      [
        "राज",
        "्या"
      ],
      [
        "पु",
        "ढ"
      ],
      [
        "मान",
        "्य"
      ],
      [
        "ल्या",
        "ची"
      ],
      [
        "मो",
        "ठी"
      ],
      [
        "मो",
        "समी"
      ],
      [
        "शा",
        "हज"
      ],
      [
        "शा",
        "सित"
      ],
      [
        "काळ",
        "ाच्या"
      ],
      [
        "काळ",
        "ातील"
      ],
      [
        "पर",
        "देश"
      ],
      [
        "कर",
        "णे"
      ],
      [
        "गे",
        "ले."
      ],
      [
        "दि",
        "व"
      ],
      [
        "स्त",
        "रा"
      ],
      [
        "शिक्षण",
        "पद्धती"
      ],
      [
        "धर्म",
        "ाचा"
      ],
      [
        "ण्या",
        "ची"
      ],
      [
        "जात",
        "े."
      ],
      [
        "१९",
        "२"
      ],
      [
        "इंड",
        "ो"
      ],
      [
        "द्र",
        "ी"
      ],
      [
        "रो",
        "प"
      ],
      [
        "रो",
        "जी"
      ],
      [
        "सर",
        "स्व"
      ],
      [
        "प्रदेश",
        "ातील"
      ],
      [
        "विद्या",
        "पी"
      ],
      [
        "मिळ",
        "तात."
      ],
      [
        "यां",
        "नी"
      ],
      [
        "घे",
        "ण्यास"
      ],
      [
        "नि",
        "ध"
      ],
      [
        "भू",
        "भाग"
      ],
      [
        "यु",
        "रोप"
      ],
      [
        "समु",
        "द्रा"
      ],
      [
        "प्रकार",
        "चे"
      ],
      [
        "the",
        "r"
      ],
      [
        "इंग",
        "्"
      ],
      [
        "उप",
        "साग"
      ],
      [
        "को",
        "टी"
      ],
      [
        "धार",
        "्मिक"
      ],
      [
        "बन",
        "विले"
      ],
      [
        "महा",
        "सागर"
      ],
      [
        "विद्यार्थ",
        "ी"
      ],
      [
        "पृष्ठ",
        "ीय"
      ],
      [
        "द्वीप",
        "कल्प"
      ],
      [
        "अज",
        "ून"
      ],
      [
        "शत",
        "कात"
      ],
      [
        "शास्त्र",
        "ीय"
      ],
      [
        "इमारत",
        "ी"
      ],
      [
        "आक्रम",
        "ण"
      ],
      [
        "आक्रम",
        "णे"
      ],
      [
        "गु",
        "ज"
      ],
      [
        "ज्या",
        "चा"
      ],
      [
        "असले",
        "ली"
      ],
      [
        "पश्चि",
        "मे"
      ],
      [
        "mo",
        "ther"
      ],
      [
        "महारा",
        "ष्ट्र"
      ],
      [
        "सुरुवात",
        "ीला"
      ],
      [
        "ऋष",
        "भदे"
      ],
      [
        "बहु",
        "तां"
      ],
      [
        "मै",
        "ल)"
      ],
      [
        "मरा",
        "ठा"
      ],
      [
        "व्",
        "हा"
      ],
      [
        "शो",
        "ध"
      ],
      [
        "शहर",
        "े"
      ],
      [
        "स्मार",
        "क"
      ],
      [
        "गंगे",
        "च्या"
      ],
      [
        "ma",
        "n"
      ],
      [
        "om",
        "eter"
      ],
      [
        "आर",
        "क्ष"
      ],
      [
        "चळव",
        "ळी"
      ],
      [
        "तत्",
        "कालीन"
      ],
      [
        "पत्",
        "‍नी"
      ],
      [
        "पर्व",
        "त"
      ],
      [
        "सैन",
        "िक"
      ],
      [
        "राजक",
        "ीय"
      ],
      [
        "केंद्र",
        "शासित"
      ],
      [
        "kil",
        "ometer"
      ],
      [
        "अर",
        "बी"
      ],
      [
        "अरा",
        "वली"
      ],
      [
        "अग्",
        "निध"
      ],
      [
        "अशिया",
        "ई"
      ],
      [
        "आकर्",
        "ष"
      ],
      [
        "उठा",
        "व"
      ],
      [
        "ओड",
        "ि"
      ],
      [
        "टक्",
        "के"
      ],
      [
        "तय",
        "ार"
      ],
      [
        "दह",
        "शत"
      ],
      [
        "पंजा",
        "ब"
      ],
      [
        "बंद",
        "र"
      ],
      [
        "बरो",
        "बर"
      ],
      [
        "शह",
        "री"
      ],
      [
        "सह्या",
        "द्री"
      ],
      [
        "स्वर",
        "ू"
      ],
      [
        "मुंब",
        "ई"
      ],
      [
        "साधारण",
        "पणे"
      ],
      [
        "संलग्",
        "न"
      ],
      [
        "शाहज",
        "हान"
      ],
      [
        "सरस्व",
        "ती"
      ],
      [
        "उपसाग",
        "राला"
      ],
      [
        "बहुतां",
        "शी"
      ],
      [
        "kilometer",
        "s"
      ],
      [
        ",",
        "३"
      ],
      [
        ".",
        "५"
      ],
      [
        ".",
        "मी"
      ],
      [
        "A",
        "r"
      ],
      [
        "a",
        "nd"
      ],
      [
        "c",
        "e"
      ],
      [
        "c",
        "h"
      ],
      [
        "g",
        "ra"
      ],
      [
        "h",
        "i"
      ],
      [
        "h",
        "u"
      ],
      [
        "i",
        "t"
      ],
      [
        "o",
        "n"
      ],
      [
        "ं",
        "श"
      ],
      [
        "ं",
        "ची"
      ],
      [
        "ं",
        "ठा"
      ],
      [
        "ं",
        "जो"
      ],
      [
        "अ",
        "न"
      ],
      [
        "अ",
        "सा"
      ],
      [
        "अ",
        "ंद"
      ],
      [
        "अ",
        "र्थ"
      ],
      [
        "अ",
        "शी"
      ],
      [
        "अ",
        "मे"
      ],
      [
        "अ",
        "शो"
      ],
      [
        "अ",
        "भि"
      ],
      [
        "आ",
        "ढ"
      ],
      [
        "आ",
        "ध"
      ],
      [
        "आ",
        "ले"
      ],
      [
        "आ",
        "ली"
      ],
      [
        "आ",
        "सा"
      ],
      [
        "आ",
        "ली."
      ],
      [
        "आ",
        "शि"
      ],
      [
        "आ",
        "धार"
      ],
      [
        "इ",
        "ट"
      ],
      [
        "इ",
        "त"
      ],
      [
        "इ",
        "स"
      ],
      [
        "इ",
        "ंद्र"
      ],
      [
        "इ",
        "व्"
      ],
      [
        "ई",
        "श"
      ],
      [
        "ई",
        "स्ट"
      ],
      [
        "उ",
        "द"
      ],
      [
        "उ",
        "न"
      ],
      [
        "उ",
        "म"
      ],
      [
        "उ",
        "ष्ण"
      ],
      [
        "ऋ",
        "त्य"
      ],
      [
        "ए",
        "का"
      ],
      [
        "ऑ",
        "स्ट"
      ],
      [
        "क",
        "ल"
      ],
      [
        "क",
        "ले"
      ],
      [
        "क",
        "ंप"
      ],
      [
        "क",
        "ांच्या"
      ],
      [
        "क",
        "न्या"
      ],
      [
        "ख",
        "ु"
      ],
      [
        "ख",
        "्य"
      ],
      [
        "ख",
        "ून"
      ],
      [
        "ग",
        "ला"
      ],
      [
        "ग",
        "ंगा"
      ],
      [
        "ग",
        "्रे"
      ],
      [
        "ग",
        "पूर"
      ],
      [
        "घ",
        "ट"
      ],
      [
        "घ",
        "ो"
      ],
      [
        "घ",
        "रा"
      ],
      [
        "च",
        "ल"
      ],
      [
        "च",
        "ो"
      ],
      [
        "छ",
        "ा"
      ],
      [
        "ज",
        "ड"
      ],
      [
        "ज",
        "म"
      ],
      [
        "ज",
        "ॉ"
      ],
      [
        "ज",
        "्य"
      ],
      [
        "ज",
        "वा"
      ],
      [
        "ज",
        "म्"
      ],
      [
        "ज",
        "ाने"
      ],
      [
        "ज",
        "महा"
      ],
      [
        "ज",
        "ंब"
      ],
      [
        "ट",
        "र"
      ],
      [
        "ट",
        "ा"
      ],
      [
        "ठ",
        "िका"
      ],
      [
        "ड",
        "ी"
      ],
      [
        "त",
        "."
      ],
      [
        "त",
        "ान"
      ],
      [
        "त",
        "च्या"
      ],
      [
        "त",
        "द्"
      ],
      [
        "त",
        "्रा"
      ],
      [
        "त",
        "ज्ञ"
      ],
      [
        "थ",
        "े"
      ],
      [
        "थ",
        "ंड"
      ],
      [
        "ध",
        "ड"
      ],
      [
        "ध",
        "र"
      ],
      [
        "ध",
        "ी"
      ],
      [
        "न",
        "ै"
      ],
      [
        "न",
        "ां"
      ],
      [
        "न",
        "मु"
      ],
      [
        "न",
        "ष्ट"
      ],
      [
        "न",
        "गर"
      ],
      [
        "न",
        "मार"
      ],
      [
        "प",
        "र्"
      ],
      [
        "प",
        "ां"
      ],
      [
        "प",
        "रा"
      ],
      [
        "प",
        "हि"
      ],
      [
        "प",
        "तन"
      ],
      [
        "प",
        "हात"
      ],
      [
        "फ",
        "ा"
      ],
      [
        "फ",
        "े"
      ],
      [
        "फ",
        "्रे"
      ],
      [
        "ब",
        "े"
      ],
      [
        "ब",
        "ती"
      ],
      [
        "भ",
        "े"
      ],
      [
        "भ",
        "ौ"
      ],
      [
        "भ",
        "वर्ष"
      ],
      [
        "म",
        "न"
      ],
      [
        "म",
        "्या"
      ],
      [
        "म",
        "णि"
      ],
      [
        "म",
        "री"
      ],
      [
        "म",
        "ारा"
      ],
      [
        "म",
        "ंच"
      ],
      [
        "म",
        "माण"
      ],
      [
        "य",
        "क"
      ],
      [
        "य",
        "श"
      ],
      [
        "य",
        "ात"
      ],
      [
        "य",
        "ाच"
      ],
      [
        "य",
        "मु"
      ],
      [
        "य",
        "त्"
      ],
      [
        "य",
        "ानंतर"
      ],
      [
        "र",
        "ण"
      ],
      [
        "र",
        "त"
      ],
      [
        "र",
        "ां"
      ],
      [
        "र",
        "ंग"
      ],
      [
        "र",
        "णा"
      ],
      [
        "र",
        "डे"
      ],
      [
        "र",
        "ममाण"
      ],
      [
        "ल",
        "ू"
      ],
      [
        "ल",
        "या"
      ],
      [
        "ल",
        "क्ष"
      ],
      [
        "ल",
        "ंड"
      ],
      [
        "ल",
        "गा"
      ],
      [
        "ल",
        "ब्"
      ],
      [
        "ळ",
        "्या"
      ],
      [
        "ळ",
        "ून"
      ],
      [
        "ळ",
        "ची"
      ],
      [
        "ळ",
        "कार"
      ],
      [
        "ळ",
        "ाने"
      ],
      [
        "व",
        "िक"
      ],
      [
        "श",
        "्र"
      ],
      [
        "स",
        "ू"
      ],
      [
        "स",
        "ाच"
      ],
      [
        "स",
        "िक"
      ],
      [
        "स",
        "मा"
      ],
      [
        "स",
        "चि"
      ],
      [
        "स",
        "ऱ्या"
      ],
      [
        "ह",
        "ड"
      ],
      [
        "ह",
        "्य"
      ],
      [
        "ह",
        "ंप"
      ],
      [
        "ि",
        "प"
      ],
      [
        "ि",
        "य"
      ],
      [
        "ि",
        "ंठा"
      ],
      [
        "ी",
        "क"
      ],
      [
        "ी",
        "न"
      ],
      [
        "ु",
        "स्थान"
      ],
      [
        "ु",
        "निक"
      ],
      [
        "्",
        "क"
      ],
      [
        "्",
        "थ"
      ],
      [
        "्",
        "की"
      ],
      [
        "१",
        "२"
      ],
      [
        "३",
        "८"
      ],
      [
        "४",
        "७"
      ],
      [
        "४",
        "८"
      ],
      [
        "५",
        "७"
      ],
      [
        "७",
        "१"
      ],
      [
        "्या",
        "चे"
      ],
      [
        "्या",
        "ने"
      ],
      [
        "ार",
        "ी"
      ],
      [
        "र्",
        "ज"
      ],
      [
        "र्",
        "माण"
      ],
      [
        "ला",
        "भ"
      ],
      [
        "हे",
        "ंजो"
      ],
      [
        "भारत",
        "ाची"
      ],
      [
        "भारत",
        "ाचा"
      ],
      [
        "भारत",
        "भर"
      ],
      [
        "स्",
        "वा"
      ],
      [
        "ां",
        "वि"
      ],
      [
        "ां",
        "तात"
      ],
      [
        "ां",
        "पासून"
      ],
      [
        "ां",
        "पैकी"
      ],
      [
        "ां",
        "चल"
      ],
      [
        "ले",
        "ली"
      ],
      [
        "का",
        "वे"
      ],
      [
        "का",
        "वरून"
      ],
      [
        "का",
        "बी"
      ],
      [
        "प्र",
        "मा"
      ],
      [
        "प्र",
        "भा"
      ],
      [
        "प्र",
        "वे"
      ],
      [
        "प्र",
        "शा"
      ],
      [
        "प्र",
        "श्"
      ],
      [
        "प्र",
        "मुख"
      ],
      [
        "प्र",
        "त्ये"
      ],
      [
        "प्र",
        "ांतात"
      ],
      [
        "या",
        "मुळे"
      ],
      [
        "वा",
        "स्त"
      ],
      [
        "वा",
        "मुळे"
      ],
      [
        "वा",
        "जी"
      ],
      [
        "वा",
        "लय"
      ],
      [
        "ती",
        "नंतर"
      ],
      [
        "मु",
        "द्"
      ],
      [
        "मु",
        "लगा"
      ],
      [
        "ना",
        "ट"
      ],
      [
        "ना",
        "ऱ्या"
      ],
      [
        "ना",
        "इट"
      ],
      [
        "ना",
        "गपूर"
      ],
      [
        "ना",
        "भवर्ष"
      ],
      [
        "सा",
        "द"
      ],
      [
        "सा",
        "ह"
      ],
      [
        "सा",
        "हि"
      ],
      [
        "मध",
        "े"
      ],
      [
        "ष्",
        "ठा"
      ],
      [
        "सं",
        "विध"
      ],
      [
        "सं",
        "शोध"
      ],
      [
        "देश",
        "्य"
      ],
      [
        "देश",
        "ाचे"
      ],
      [
        "देश",
        "ांमध्ये"
      ],
      [
        "ने",
        "शिया"
      ],
      [
        "अस",
        "ली"
      ],
      [
        "त्या",
        "ला"
      ],
      [
        "त्या",
        "ने"
      ],
      [
        "त्या",
        "ची"
      ],
      [
        "त्या",
        "साठी"
      ],
      [
        "पा",
        "ट"
      ],
      [
        "पा",
        "ठ"
      ],
      [
        "पा",
        "व"
      ],
      [
        "पा",
        "वली"
      ],
      [
        "हि",
        "म"
      ],
      [
        "हि",
        "नी"
      ],
      [
        "झा",
        "ले."
      ],
      [
        "राज",
        "ा"
      ],
      [
        "राज",
        "स्थान"
      ],
      [
        "त्र",
        "ि"
      ],
      [
        "त्र",
        "े"
      ],
      [
        "वर",
        "ी"
      ],
      [
        "वर",
        "ित"
      ],
      [
        "के",
        "ल्या"
      ],
      [
        "के",
        "ले."
      ],
      [
        "के",
        "ला."
      ],
      [
        "क्ष",
        "णिक"
      ],
      [
        "ता",
        "जमहा"
      ],
      [
        "पु",
        "र"
      ],
      [
        "पु",
        "री"
      ],
      [
        "पु",
        "न्"
      ],
      [
        "मी",
        "ण"
      ],
      [
        "मी",
        "र"
      ],
      [
        "मान",
        "ला"
      ],
      [
        "ल्या",
        "चे"
      ],
      [
        "कार",
        "भार"
      ],
      [
        "भा",
        "व"
      ],
      [
        "भा",
        "षा"
      ],
      [
        "वे",
        "ढ"
      ],
      [
        "वे",
        "रू"
      ],
      [
        "ष्ट",
        "्य"
      ],
      [
        "मो",
        "ग"
      ],
      [
        "मो",
        "हेंजो"
      ],
      [
        "चा",
        "ल"
      ],
      [
        "ति",
        "सऱ्या"
      ],
      [
        "ये",
        "ते."
      ],
      [
        "ये",
        "तात."
      ],
      [
        "सु",
        "धारण"
      ],
      [
        "सु",
        "मारा"
      ],
      [
        "्यां",
        "मध्ये"
      ],
      [
        "कि",
        ".मी"
      ],
      [
        "कि",
        "नाऱ्या"
      ],
      [
        "कृ",
        "ष्ट"
      ],
      [
        "कर",
        "त"
      ],
      [
        "कर",
        "तात."
      ],
      [
        "कर",
        "ण्यात"
      ],
      [
        "वर्",
        "तु"
      ],
      [
        "गे",
        "ल्या"
      ],
      [
        "दि",
        "ला"
      ],
      [
        "नाव",
        "ाची"
      ],
      [
        "शिक्षण",
        "ाच्या"
      ],
      [
        "संस्कृती",
        ","
      ],
      [
        "संस्कृती",
        "ची"
      ],
      [
        "टि",
        "ळ"
      ],
      [
        "१९",
        "५०"
      ],
      [
        "१९",
        "४७"
      ],
      [
        "असे",
        "ही"
      ],
      [
        "कड",
        "ून"
      ],
      [
        "जा",
        "ऊ"
      ],
      [
        "जा",
        "स्त"
      ],
      [
        "द्र",
        "े"
      ],
      [
        "रू",
        "कू"
      ],
      [
        "रो",
        "वली"
      ],
      [
        "रो",
        "खून"
      ],
      [
        "सर",
        "े"
      ],
      [
        "ारा",
        "ला"
      ],
      [
        "स्थाप",
        "न"
      ],
      [
        "स्थाप",
        "त्याचे"
      ],
      [
        "वर्ष",
        "े"
      ],
      [
        "वर्ष",
        "ात"
      ],
      [
        "साम्राज",
        "्ये"
      ],
      [
        "रु",
        "द्ध"
      ],
      [
        "प्रदेश",
        "ात"
      ],
      [
        "प्रदेश",
        "ांत"
      ],
      [
        "पूर्वी",
        "च्या"
      ],
      [
        "मिळ",
        "ा"
      ],
      [
        "मिळ",
        "ते."
      ],
      [
        "यां",
        "चा"
      ],
      [
        "झाले",
        "ले"
      ],
      [
        "म्हण",
        "तात."
      ],
      [
        "घे",
        "ऊ"
      ],
      [
        "घे",
        "त"
      ],
      [
        "घे",
        "ण्यात"
      ],
      [
        "णा",
        "मुळे"
      ],
      [
        "नि",
        "र्माण"
      ],
      [
        "यु",
        "गातील"
      ],
      [
        "ब्रिटिश",
        "कालीन"
      ],
      [
        "ब्रिटिश",
        "ांवि"
      ],
      [
        "उत्तर",
        "ांचल"
      ],
      [
        "गर",
        "जे"
      ],
      [
        "पृ",
        "ष्ठा"
      ],
      [
        "बां",
        "गला"
      ],
      [
        "मह",
        "त्त्व"
      ],
      [
        "वै",
        "शि"
      ],
      [
        "शि",
        "ख"
      ],
      [
        "शि",
        "वाजी"
      ],
      [
        "प्रकार",
        "ात"
      ],
      [
        "हिंद",
        "ुस्थान"
      ],
      [
        "इतिहा",
        "सा"
      ],
      [
        "उप",
        "प्रकार"
      ],
      [
        "उप",
        "सागर"
      ],
      [
        "उप",
        "लब्"
      ],
      [
        "को",
        "रडे"
      ],
      [
        "दल",
        "दली"
      ],
      [
        "न्",
        "स"
      ],
      [
        "न्",
        "ही"
      ],
      [
        "बा",
        "द"
      ],
      [
        "बा",
        "बती"
      ],
      [
        "सी",
        "म"
      ],
      [
        "लोक",
        "नृ"
      ],
      [
        "nd",
        "mother"
      ],
      [
        "बन",
        "ला"
      ],
      [
        "बन",
        "ली"
      ],
      [
        "महा",
        "विद्या"
      ],
      [
        "वार",
        "ी"
      ],
      [
        "लाग",
        "ू"
      ],
      [
        "दिल्ली",
        "तील"
      ],
      [
        "हिमालय",
        "ीन"
      ],
      [
        "पृष्ठ",
        "ाचा"
      ],
      [
        "बांध",
        "ले"
      ],
      [
        "बांध",
        "ली"
      ],
      [
        "बांध",
        "ून"
      ],
      [
        "बांध",
        "णी"
      ],
      [
        "इतिहास",
        "ातील"
      ],
      [
        "इतिहास",
        "कार"
      ],
      [
        "ंप",
        "ैकी"
      ],
      [
        "अज",
        "िंठा"
      ],
      [
        "अज",
        "नाभवर्ष"
      ],
      [
        "प्",
        "पा"
      ],
      [
        "००",
        "०"
      ],
      [
        "शास्त्र",
        "ातील"
      ],
      [
        "काळात",
        "च"
      ],
      [
        "ओळख",
        "ला"
      ],
      [
        "खा",
        "स"
      ],
      [
        "गु",
        "प्त"
      ],
      [
        "गु",
        "रूकू"
      ],
      [
        "दो",
        "न्ही"
      ],
      [
        "व्या",
        "पार"
      ],
      [
        "असले",
        "ला"
      ],
      [
        "असले",
        "ल्या"
      ],
      [
        "राज्य",
        "कर्"
      ],
      [
        "गेट",
        "वे"
      ],
      [
        "साम्राज्या",
        "च्या"
      ],
      [
        "साम्राज्या",
        "ची"
      ],
      [
        "इंग्र",
        "जांनी"
      ],
      [
        "ia",
        "l"
      ],
      [
        "mo",
        "st"
      ],
      [
        "गड",
        "ा"
      ],
      [
        "शै",
        "क्षणिक"
      ],
      [
        "सम",
        "ज"
      ],
      [
        "हज",
        "ार"
      ],
      [
        "मध्य",
        "प्रदेशातील"
      ],
      [
        "त्यां",
        "ची"
      ],
      [
        "त्यां",
        "नी"
      ],
      [
        "राज्यां",
        "च्या"
      ],
      [
        "विद्यार्थ्यां",
        "ची"
      ],
      [
        "ra",
        "d"
      ],
      [
        "st",
        "or"
      ],
      [
        "आर्",
        "क"
      ],
      [
        "आर्",
        "द्र"
      ],
      [
        "खो",
        "ऱ्या"
      ],
      [
        "खो",
        "रे"
      ],
      [
        "नद्यां",
        "मध्ये"
      ],
      [
        "स्मार",
        "कावरून"
      ],
      [
        "पुरा",
        "ण"
      ],
      [
        "स्थापत्य",
        "शास्त्रातील"
      ],
      [
        "दक्षिणे",
        "कडील"
      ],
      [
        "ज्ञ",
        "ान"
      ],
      [
        "नृत्य",
        "प्रकार"
      ],
      [
        "गंगे",
        "चे"
      ],
      [
        "re",
        "a"
      ],
      [
        "अधिक",
        "ृत"
      ],
      [
        "आप",
        "ले"
      ],
      [
        "आप",
        "ल्या"
      ],
      [
        "कथ",
        "ा"
      ],
      [
        "ग्रा",
        "मीण"
      ],
      [
        "जु",
        "न्या"
      ],
      [
        "१६",
        "३८"
      ],
      [
        "१६",
        "४८"
      ],
      [
        "स्वी",
        "कार"
      ],
      [
        "विष",
        "ुव"
      ],
      [
        "होत्या",
        "."
      ],
      [
        "क्षे",
        "त्र"
      ],
      [
        "क्षे",
        "त्रा"
      ],
      [
        "पुत",
        "ळा"
      ],
      [
        "मोठ",
        "े"
      ],
      [
        "मोठ",
        "्या"
      ],
      [
        "गोल",
        "िक"
      ],
      [
        "स्वातंत्र्य",
        "प्राप्"
      ],
      [
        "दख्खन",
        "च्या"
      ],
      [
        "दख्खन",
        "चे"
      ],
      [
        "अण",
        "ु"
      ],
      [
        "अथ",
        "वा"
      ],
      [
        "उर्",
        "वरित"
      ],
      [
        "उत्",
        "कृष्ट"
      ],
      [
        "ग्र",
        "ीक"
      ],
      [
        "ड्रा",
        "इव्"
      ],
      [
        "बदलां",
        "मुळे"
      ],
      [
        "मौर",
        "्य"
      ],
      [
        "रच",
        "ना"
      ],
      [
        "लु",
        "प्त"
      ],
      [
        "वृ",
        "तीय"
      ],
      [
        "सत्",
        "ता"
      ],
      [
        "काश्",
        "मीर"
      ],
      [
        "विस्त",
        "ार"
      ],
      [
        "हिं",
        "साच"
      ],
      [
        "राजव",
        "ट"
      ],
      [
        "राज्या",
        "त"
      ],
      [
        "पुढ",
        "ार"
      ],
      [
        "स्तरा",
        "वर"
      ],
      [
        "१९२",
        "०"
      ],
      [
        "इंडो",
        "नेशिया"
      ],
      [
        "विद्यापी",
        "ठ"
      ],
      [
        "युरोप",
        "ीय"
      ],
      [
        "इंग्",
        "लंड"
      ],
      [
        "अजून",
        "ही"
      ],
      [
        "गुज",
        "रात"
      ],
      [
        "पश्चिमे",
        "कडे"
      ],
      [
        "ऋषभदे",
        "व"
      ],
      [
        "आरक्ष",
        "णामुळे"
      ],
      [
        "अग्निध",
        "्र"
      ],
      [
        "आकर्ष",
        "ित"
      ],
      [
        "ओडि",
        "शा"
      ],
      [
        "दहशत",
        "वाद"
      ],
      [
        "शाहजहान",
        "ने"
      ],
      [
        "gra",
        "ndmother"
      ],
      [
        "hi",
        "stor"
      ],
      [
        "hu",
        "man"
      ],
      [
        "अन",
        "ु"
      ],
      [
        "अशो",
        "काने"
      ],
      [
        "आध",
        "ुनिक"
      ],
      [
        "आसा",
        "म"
      ],
      [
        "आशि",
        "यातील"
      ],
      [
        "इत",
        "का"
      ],
      [
        "इस",
        "वी"
      ],
      [
        "ईश",
        "ान"
      ],
      [
        "उद",
        "यास"
      ],
      [
        "उम",
        "ट"
      ],
      [
        "ऑस्ट",
        "्रे"
      ],
      [
        "कंप",
        "नी"
      ],
      [
        "घट",
        "ना"
      ],
      [
        "चो",
        "ल"
      ],
      [
        "जॉ",
        "र्ज"
      ],
      [
        "जम्",
        "मू"
      ],
      [
        "जाने",
        "वारी"
      ],
      [
        "जंब",
        "ू"
      ],
      [
        "ठिका",
        "णी"
      ],
      [
        "धर",
        "तो"
      ],
      [
        "नै",
        "ऋत्य"
      ],
      [
        "नमु",
        "ने"
      ],
      [
        "पहात",
        "ा"
      ],
      [
        "फ्रे",
        "ंच"
      ],
      [
        "भौ",
        "गोलिक"
      ],
      [
        "म्या",
        "नमार"
      ],
      [
        "मरी",
        "न"
      ],
      [
        "यश",
        "स्वी"
      ],
      [
        "यमु",
        "ना"
      ],
      [
        "रंग",
        "मंच"
      ],
      [
        "विक",
        "सित"
      ],
      [
        "सिक",
        "्की"
      ],
      [
        "सचि",
        "वालय"
      ],
      [
        "हंप",
        "ी"
      ],
      [
        "काबी",
        "ज"
      ],
      [
        "प्रमा",
        "णा"
      ],
      [
        "प्रवे",
        "श"
      ],
      [
        "प्रश्",
        "न"
      ],
      [
        "प्रत्ये",
        "क"
      ],
      [
        "संविध",
        "ान"
      ],
      [
        "ताजमहा",
        "ल"
      ],
      [
        "पुन्",
        "हा"
      ],
      [
        "सुधारण",
        "ांचा"
      ],
      [
        "सुमारा",
        "स"
      ],
      [
        "कि.मी",
        "."
      ],
      [
        "वर्तु",
        "ळकार"
      ],
      [
        "ब्रिटिशांवि",
        "रुद्ध"
      ],
      [
        "गरजे",
        "चे"
      ],
      [
        "वैशि",
        "ष्ट्य"
      ],
      [
        "उपलब्",
        "ध"
      ],
      [
        "बाबती",
        "त"
      ],
      [
        "गुरूकू",
        "ल"
      ],
      [
        "१६३८",
        "ला"
      ],
      [
        "क्षेत्रा",
        "मध्ये"
      ],
      [
        "स्वातंत्र्यप्राप्",
        "तीनंतर"
      ],
      [
        "ड्राइव्",
        "ह"
      ],
      [
        "हिंसाच",
        "ार"
      ],
      [
        "histor",
        "y"
      ],
      [
        "सिक्की",
        "म"
      ],
      [
        "\"",
        "."
      ],
      [
        "%",
        "."
      ],
      [
        "'",
        "भारत"
      ],
      [
        "'",
        "भा"
      ],
      [
        "'",
        "रत"
      ],
      [
        "(",
        "आ"
      ],
      [
        "(",
        "१"
      ],
      [
        "(",
        "३"
      ],
      [
        "(",
        "४"
      ],
      [
        "(",
        "सर्व"
      ],
      [
        "(",
        "नंतर"
      ],
      [
        "(",
        "इ.स."
      ],
      [
        "(",
        "फ्रेंच"
      ],
      [
        ")",
        ":"
      ],
      [
        ",",
        "०"
      ],
      [
        ",",
        "४"
      ],
      [
        ",",
        "५"
      ],
      [
        ",",
        "६"
      ],
      [
        ",",
        "ज्या"
      ],
      [
        ",",
        "०००"
      ],
      [
        "-",
        "अ"
      ],
      [
        "-",
        "७"
      ],
      [
        "-",
        "गुज"
      ],
      [
        "-",
        "वेरू"
      ],
      [
        "-",
        "grandmother"
      ],
      [
        "-",
        "ऑस्ट्रे"
      ],
      [
        "A",
        "l"
      ],
      [
        "F",
        "or"
      ],
      [
        "M",
        "e"
      ],
      [
        "O",
        "u"
      ],
      [
        "R",
        "e"
      ],
      [
        "T",
        "r"
      ],
      [
        "T",
        "he"
      ],
      [
        "T",
        "it"
      ],
      [
        "W",
        "a"
      ],
      [
        "a",
        "b"
      ],
      [
        "a",
        "l"
      ],
      [
        "a",
        "re"
      ],
      [
        "a",
        "ce"
      ],
      [
        "b",
        "i"
      ],
      [
        "c",
        "t"
      ],
      [
        "c",
        "rad"
      ],
      [
        "d",
        "e"
      ],
      [
        "e",
        "e"
      ],
      [
        "e",
        "nd"
      ],
      [
        "g",
        "rea"
      ],
      [
        "g",
        "end"
      ],
      [
        "h",
        "p"
      ],
      [
        "i",
        "s"
      ],
      [
        "i",
        "v"
      ],
      [
        "i",
        "om"
      ],
      [
        "i",
        "on"
      ],
      [
        "l",
        "y"
      ],
      [
        "l",
        "ace"
      ],
      [
        "p",
        "he"
      ],
      [
        "p",
        "ee"
      ],
      [
        "r",
        "t"
      ],
      [
        "r",
        "u"
      ],
      [
        "r",
        "ial"
      ],
      [
        "s",
        "u"
      ],
      [
        "s",
        "pee"
      ],
      [
        "t",
        "rad"
      ],
      [
        "t",
        "rea"
      ],
      [
        "t",
        "-grandmother"
      ],
      [
        "u",
        "p"
      ],
      [
        "u",
        "s"
      ],
      [
        "u",
        "ab"
      ],
      [
        "v",
        "al"
      ],
      [
        "ँ",
        "ग्रे"
      ],
      [
        "ं",
        "भ"
      ],
      [
        "ं",
        "म"
      ],
      [
        "ं",
        "का"
      ],
      [
        "ं",
        "वा"
      ],
      [
        "ं",
        "वर"
      ],
      [
        "ं",
        "ता"
      ],
      [
        "ं",
        "भी"
      ],
      [
        "ः",
        "ख"
      ],
      [
        "ः",
        "सीमा"
      ],
      [
        "अ",
        "ग"
      ],
      [
        "अ",
        "ध"
      ],
      [
        "अ",
        "प"
      ],
      [
        "अ",
        "भ"
      ],
      [
        "अ",
        "म"
      ],
      [
        "अ",
        "ल"
      ],
      [
        "अ",
        "व"
      ],
      [
        "अ",
        "ह"
      ],
      [
        "अ",
        "‍"
      ],
      [
        "अ",
        "स्"
      ],
      [
        "अ",
        "ले"
      ],
      [
        "अ",
        "ंग"
      ],
      [
        "अ",
        "क्ष"
      ],
      [
        "अ",
        "रु"
      ],
      [
        "अ",
        "शि"
      ],
      [
        "अ",
        "न्"
      ],
      [
        "अ",
        "प्"
      ],
      [
        "अ",
        "लि"
      ],
      [
        "अ",
        "न्या"
      ],
      [
        "अ",
        "मर"
      ],
      [
        "अ",
        "मरा"
      ],
      [
        "अ",
        "ध्या"
      ],
      [
        "अ",
        "ट्"
      ],
      [
        "अ",
        "पो"
      ],
      [
        "अ",
        "हिं"
      ],
      [
        "अ",
        "यशस्वी"
      ],
      [
        "अ",
        "ंम"
      ],
      [
        "आ",
        "ख"
      ],
      [
        "आ",
        "ठ"
      ],
      [
        "आ",
        "फ"
      ],
      [
        "आ",
        "पा"
      ],
      [
        "आ",
        "ल्या"
      ],
      [
        "आ",
        "कार"
      ],
      [
        "आ",
        "दि"
      ],
      [
        "आ",
        "ंतर"
      ],
      [
        "आ",
        "ले."
      ],
      [
        "आ",
        "ंध"
      ],
      [
        "आ",
        "ला."
      ],
      [
        "आ",
        "ंब"
      ],
      [
        "आ",
        "ग्"
      ],
      [
        "आ",
        "शिया"
      ],
      [
        "आ",
        "कडे"
      ],
      [
        "आ",
        "लेल्या"
      ],
      [
        "आ",
        "श्च"
      ],
      [
        "इ",
        "रा"
      ],
      [
        "इ",
        "च्छ"
      ],
      [
        "उ",
        "ग"
      ],
      [
        "उ",
        "स"
      ],
      [
        "उ",
        "द्"
      ],
      [
        "उ",
        "भा"
      ],
      [
        "उ",
        "ंच"
      ],
      [
        "उ",
        "भार"
      ],
      [
        "उ",
        "देश्य"
      ],
      [
        "ऊ",
        "स"
      ],
      [
        "ऊ",
        "र्"
      ],
      [
        "ए",
        "ड"
      ],
      [
        "ए",
        "तद्"
      ],
      [
        "ऑ",
        "ग"
      ],
      [
        "ऑ",
        "ल"
      ],
      [
        "ऑ",
        "क्"
      ],
      [
        "ओ",
        "सा"
      ],
      [
        "क",
        "ळ"
      ],
      [
        "क",
        "़"
      ],
      [
        "क",
        "ु"
      ],
      [
        "क",
        "ॅ"
      ],
      [
        "क",
        "ौ"
      ],
      [
        "क",
        "ान"
      ],
      [
        "क",
        "त्"
      ],
      [
        "क",
        "ाच्या"
      ],
      [
        "क",
        "टि"
      ],
      [
        "क",
        "नि"
      ],
      [
        "क",
        "से"
      ],
      [
        "क",
        "ल्ली"
      ],
      [
        "क",
        "लि"
      ],
      [
        "क",
        "ांचे"
      ],
      [
        "क",
        "ट्"
      ],
      [
        "क",
        "ांपैकी"
      ],
      [
        "ख",
        "क"
      ],
      [
        "ख",
        "ड"
      ],
      [
        "ख",
        "ी"
      ],
      [
        "ख",
        "ू"
      ],
      [
        "ख",
        "्र"
      ],
      [
        "ख",
        "ील"
      ],
      [
        "ख",
        "्ये"
      ],
      [
        "ख",
        "ंड"
      ],
      [
        "ख",
        "जु"
      ],
      [
        "ग",
        "झ"
      ],
      [
        "ग",
        "ट"
      ],
      [
        "ग",
        "ढ"
      ],
      [
        "ग",
        "ध"
      ],
      [
        "ग",
        "ळ"
      ],
      [
        "ग",
        "व"
      ],
      [
        "ग",
        "ि"
      ],
      [
        "ग",
        "ां"
      ],
      [
        "ग",
        "ील"
      ],
      [
        "ग",
        "ाच्या"
      ],
      [
        "ग",
        "ता"
      ],
      [
        "ग",
        "ंड"
      ],
      [
        "ग",
        "णि"
      ],
      [
        "ग",
        "री"
      ],
      [
        "ग",
        "ण्यात"
      ],
      [
        "ग",
        "च्छ"
      ],
      [
        "ग",
        "मर"
      ],
      [
        "ग",
        "ृत"
      ],
      [
        "ग",
        "ंभी"
      ],
      [
        "घ",
        "ा"
      ],
      [
        "घ",
        "ू"
      ],
      [
        "घ",
        "काल"
      ],
      [
        "च",
        "ार"
      ],
      [
        "च",
        "ला"
      ],
      [
        "च",
        "ाच"
      ],
      [
        "च",
        "िक"
      ],
      [
        "च",
        "क्र"
      ],
      [
        "च",
        "स्व"
      ],
      [
        "च",
        "ंद्र"
      ],
      [
        "च",
        "तु"
      ],
      [
        "च",
        "ंदी"
      ],
      [
        "छ",
        "ो"
      ],
      [
        "छ",
        "त्र"
      ],
      [
        "ज",
        "ल"
      ],
      [
        "ज",
        "ि"
      ],
      [
        "ज",
        "ू"
      ],
      [
        "ज",
        "िक"
      ],
      [
        "ज",
        "ून"
      ],
      [
        "ज",
        "्ये"
      ],
      [
        "ज",
        "र्म"
      ],
      [
        "ज",
        "व्य"
      ],
      [
        "ज",
        "गा"
      ],
      [
        "ज",
        "यं"
      ],
      [
        "ज",
        "यन"
      ],
      [
        "ज",
        "ारी"
      ],
      [
        "ज",
        "ांपासून"
      ],
      [
        "ज",
        "गाच्या"
      ],
      [
        "झ",
        "ां"
      ],
      [
        "झ",
        "िक"
      ],
      [
        "झ",
        "गड"
      ],
      [
        "झ",
        "पाट"
      ],
      [
        "ट",
        "त"
      ],
      [
        "ट",
        "स"
      ],
      [
        "ट",
        "े"
      ],
      [
        "ट",
        "का"
      ],
      [
        "ट",
        "ून"
      ],
      [
        "ट",
        "्रा"
      ],
      [
        "ट",
        "वे"
      ],
      [
        "ट",
        "ये"
      ],
      [
        "ट",
        "म्"
      ],
      [
        "ट",
        "चाल"
      ],
      [
        "ठ",
        "र"
      ],
      [
        "ठ",
        "सा"
      ],
      [
        "ठ",
        "ची"
      ],
      [
        "ठ",
        "ला."
      ],
      [
        "ठ",
        "्याचे"
      ],
      [
        "ड",
        "च"
      ],
      [
        "ड",
        "र"
      ],
      [
        "ड",
        "ा"
      ],
      [
        "ड",
        "ॅ"
      ],
      [
        "ड",
        "ॉ"
      ],
      [
        "ड",
        "ो"
      ],
      [
        "ड",
        "ारत"
      ],
      [
        "ड",
        "ान"
      ],
      [
        "ड",
        "या"
      ],
      [
        "ड",
        "ल्या"
      ],
      [
        "ड",
        "्यां"
      ],
      [
        "ड",
        "कर"
      ],
      [
        "ड",
        "ण्यात"
      ],
      [
        "ढ",
        "ो"
      ],
      [
        "ढ",
        "ां"
      ],
      [
        "ण",
        "य"
      ],
      [
        "ण",
        "्"
      ],
      [
        "ण",
        "ाच"
      ],
      [
        "ण",
        "ाच्या"
      ],
      [
        "ण",
        "्यां"
      ],
      [
        "ण",
        "काळ"
      ],
      [
        "ण",
        "ारा"
      ],
      [
        "ण",
        "मधील"
      ],
      [
        "ण",
        "युगातील"
      ],
      [
        "त",
        "ः"
      ],
      [
        "त",
        "ू"
      ],
      [
        "त",
        "ृ"
      ],
      [
        "त",
        "ै"
      ],
      [
        "त",
        "िक"
      ],
      [
        "त",
        "ती"
      ],
      [
        "त",
        "ून"
      ],
      [
        "त",
        "ही"
      ],
      [
        "त",
        "ाच्या"
      ],
      [
        "त",
        "ति"
      ],
      [
        "त",
        "मे"
      ],
      [
        "त",
        "ंत्र"
      ],
      [
        "त",
        "तच्या"
      ],
      [
        "थ",
        "ी"
      ],
      [
        "द",
        "श"
      ],
      [
        "द",
        "ान"
      ],
      [
        "द",
        "ंत"
      ],
      [
        "द",
        "ुस"
      ],
      [
        "द",
        "कालीन"
      ],
      [
        "द",
        "ूर"
      ],
      [
        "द",
        "डो"
      ],
      [
        "ध",
        "ा"
      ],
      [
        "ध",
        "ो"
      ],
      [
        "ध",
        "ातील"
      ],
      [
        "न",
        "ई"
      ],
      [
        "न",
        "न"
      ],
      [
        "न",
        "ॅ"
      ],
      [
        "न",
        "ो"
      ],
      [
        "न",
        "ौ"
      ],
      [
        "न",
        "‍"
      ],
      [
        "न",
        "’"
      ],
      [
        "न",
        "ात"
      ],
      [
        "न",
        "र्"
      ],
      [
        "न",
        "का"
      ],
      [
        "न",
        "क्ष"
      ],
      [
        "न",
        "र्म"
      ],
      [
        "न",
        "ंत"
      ],
      [
        "न",
        "मू"
      ],
      [
        "न",
        "व्या"
      ],
      [
        "न",
        "ंदि"
      ],
      [
        "न",
        "ातून"
      ],
      [
        "न",
        "्यांमध्ये"
      ],
      [
        "प",
        "च"
      ],
      [
        "प",
        "थ"
      ],
      [
        "प",
        "ॅ"
      ],
      [
        "प",
        "ौ"
      ],
      [
        "प",
        "ला"
      ],
      [
        "प",
        "ान"
      ],
      [
        "प",
        "ून"
      ],
      [
        "प",
        "सं"
      ],
      [
        "प",
        "मान"
      ],
      [
        "प",
        "ंड"
      ],
      [
        "प",
        "सर"
      ],
      [
        "प",
        "णा"
      ],
      [
        "प",
        "गडा"
      ],
      [
        "फ",
        "ु"
      ],
      [
        "फ",
        "ॉ"
      ],
      [
        "फ",
        "ो"
      ],
      [
        "फ",
        "्"
      ],
      [
        "फ",
        "िक"
      ],
      [
        "फ",
        "गा"
      ],
      [
        "फ",
        "ळाने"
      ],
      [
        "ब",
        "ट"
      ],
      [
        "ब",
        "ध"
      ],
      [
        "ब",
        "स"
      ],
      [
        "ब",
        "ंग"
      ],
      [
        "ब",
        "द्ध"
      ],
      [
        "ब",
        "री"
      ],
      [
        "ब",
        "दा"
      ],
      [
        "ब",
        "ंध"
      ],
      [
        "ब",
        "ऱ्या"
      ],
      [
        "ब",
        "दार"
      ],
      [
        "भ",
        "व"
      ],
      [
        "भ",
        "ु"
      ],
      [
        "भ",
        "्र"
      ],
      [
        "भ",
        "ात"
      ],
      [
        "भ",
        "ां"
      ],
      [
        "भ",
        "वा"
      ],
      [
        "भ",
        "ारा"
      ],
      [
        "भ",
        "व्य"
      ],
      [
        "भ",
        "द्रा"
      ],
      [
        "भ",
        "पुत्र"
      ],
      [
        "भ",
        "ुव"
      ],
      [
        "भ",
        "गव"
      ],
      [
        "म",
        ")"
      ],
      [
        "म",
        "द"
      ],
      [
        "म",
        "ृ"
      ],
      [
        "म",
        "्य"
      ],
      [
        "म",
        "ात"
      ],
      [
        "म",
        "ती"
      ],
      [
        "म",
        "ते"
      ],
      [
        "म",
        "ची"
      ],
      [
        "म",
        "ंड"
      ],
      [
        "म",
        "दा"
      ],
      [
        "म",
        "लि"
      ],
      [
        "म",
        "द्रा"
      ],
      [
        "म",
        "ंदी"
      ],
      [
        "म",
        "बे"
      ],
      [
        "म",
        "गध"
      ],
      [
        "म",
        "जल"
      ],
      [
        "य",
        "."
      ],
      [
        "य",
        "ाच्या"
      ],
      [
        "य",
        "त्र"
      ],
      [
        "य",
        "म्"
      ],
      [
        "य",
        "ाचे"
      ],
      [
        "य",
        "ाचा"
      ],
      [
        "य",
        "दा"
      ],
      [
        "य",
        "ाचीन"
      ],
      [
        "य",
        "सी"
      ],
      [
        "य",
        "व्य"
      ],
      [
        "य",
        "ातून"
      ],
      [
        "य",
        "टस"
      ],
      [
        "र",
        "ल"
      ],
      [
        "र",
        "ळ"
      ],
      [
        "र",
        "का"
      ],
      [
        "र",
        "ील"
      ],
      [
        "र",
        "िक"
      ],
      [
        "र",
        "त्"
      ],
      [
        "र",
        "पे"
      ],
      [
        "र",
        "क्षा"
      ],
      [
        "र",
        "्यांमध्ये"
      ],
      [
        "र",
        "धा"
      ],
      [
        "ऱ",
        "्यां"
      ],
      [
        "ल",
        "्य"
      ],
      [
        "ल",
        "ात"
      ],
      [
        "ल",
        "वा"
      ],
      [
        "ल",
        "वि"
      ],
      [
        "ल",
        "द्"
      ],
      [
        "ल",
        "िया"
      ],
      [
        "ल",
        "यां"
      ],
      [
        "ल",
        "ंब"
      ],
      [
        "ल",
        "कात"
      ],
      [
        "ल",
        "ूर"
      ],
      [
        "ल",
        "वाद"
      ],
      [
        "ल",
        "गत"
      ],
      [
        "ल",
        "तान"
      ],
      [
        "ळ",
        "ु"
      ],
      [
        "ळ",
        "्यां"
      ],
      [
        "ळ",
        "तात."
      ],
      [
        "ळ",
        "णी"
      ],
      [
        "व",
        "स"
      ],
      [
        "व",
        "ॉ"
      ],
      [
        "व",
        "्र"
      ],
      [
        "व",
        "ला"
      ],
      [
        "व",
        "स्"
      ],
      [
        "व",
        "ां"
      ],
      [
        "व",
        "ती"
      ],
      [
        "व",
        "ाच्या"
      ],
      [
        "व",
        "स्थ"
      ],
      [
        "व",
        "्यां"
      ],
      [
        "व",
        "ते."
      ],
      [
        "व",
        "ाने"
      ],
      [
        "व",
        "जा"
      ],
      [
        "व",
        "तात."
      ],
      [
        "व",
        "णी"
      ],
      [
        "व",
        "ला."
      ],
      [
        "व",
        "टी"
      ],
      [
        "व",
        "ण्याची"
      ],
      [
        "व",
        "साह"
      ],
      [
        "श",
        "ु"
      ],
      [
        "श",
        "तर"
      ],
      [
        "श",
        "ही"
      ],
      [
        "श",
        "स्त"
      ],
      [
        "श",
        "ांत"
      ],
      [
        "श",
        "्रे"
      ],
      [
        "श",
        "ब्"
      ],
      [
        "श",
        "ल्य"
      ],
      [
        "श",
        "वतात."
      ],
      [
        "ष",
        "्य"
      ],
      [
        "ष",
        "णा"
      ],
      [
        "ष",
        "भदे"
      ],
      [
        "स",
        ")"
      ],
      [
        "स",
        "ॉ"
      ],
      [
        "स",
        "्य"
      ],
      [
        "स",
        "्या"
      ],
      [
        "स",
        "ार"
      ],
      [
        "स",
        "रा"
      ],
      [
        "स",
        "दे"
      ],
      [
        "स",
        "ना"
      ],
      [
        "स",
        "ने"
      ],
      [
        "स",
        "त्र"
      ],
      [
        "स",
        "भा"
      ],
      [
        "स",
        "मो"
      ],
      [
        "स",
        "ल्"
      ],
      [
        "स",
        "ाचे"
      ],
      [
        "स",
        "री"
      ],
      [
        "स",
        "त्तर"
      ],
      [
        "स",
        "क्र"
      ],
      [
        "स",
        "न्"
      ],
      [
        "स",
        "स्थान"
      ],
      [
        "स",
        "ूर"
      ],
      [
        "स",
        "ळून"
      ],
      [
        "स",
        "ह्य"
      ],
      [
        "स",
        "पाट"
      ],
      [
        "स",
        "ततच्या"
      ],
      [
        "ह",
        "ू"
      ],
      [
        "ह",
        "ै"
      ],
      [
        "ह",
        "ार"
      ],
      [
        "ह",
        "र्"
      ],
      [
        "ह",
        "ल्"
      ],
      [
        "ह",
        "ळे"
      ],
      [
        "ह",
        "म्"
      ],
      [
        "ह",
        "स्त"
      ],
      [
        "ह",
        "रू"
      ],
      [
        "ह",
        "लवि"
      ],
      [
        "ा",
        ")"
      ],
      [
        "ा",
        "देश"
      ],
      [
        "ा",
        "मो"
      ],
      [
        "ा",
        "दि"
      ],
      [
        "ा",
        "जे"
      ],
      [
        "ा",
        "वरून"
      ],
      [
        "ा",
        "बद्दल"
      ],
      [
        "ि",
        "ला"
      ],
      [
        "ि",
        "ती"
      ],
      [
        "ि",
        "त्य"
      ],
      [
        "ि",
        "यन"
      ],
      [
        "ि",
        "श्च"
      ],
      [
        "ि",
        "न्स"
      ],
      [
        "ी",
        "ण"
      ],
      [
        "ी",
        "स"
      ],
      [
        "ी",
        "या"
      ],
      [
        "ी",
        "पासून"
      ],
      [
        "ी",
        "ंब"
      ],
      [
        "ी",
        "दृष्ट्या"
      ],
      [
        "ी",
        "नुसार"
      ],
      [
        "ी",
        "ंची"
      ],
      [
        "ी",
        "डारत"
      ],
      [
        "ु",
        "क"
      ],
      [
        "ु",
        "ण"
      ],
      [
        "ु",
        "कार"
      ],
      [
        "ु",
        "ति"
      ],
      [
        "ु",
        "ंत"
      ],
      [
        "ु",
        "मार"
      ],
      [
        "ु",
        "नंतर"
      ],
      [
        "ु",
        "झिक"
      ],
      [
        "ू",
        "ण"
      ],
      [
        "ू",
        "पा"
      ],
      [
        "ू",
        "ची"
      ],
      [
        "ॅ",
        "म्"
      ],
      [
        "ॅ",
        "नाइट"
      ],
      [
        "ॅ",
        "कॅ"
      ],
      [
        "े",
        "कर"
      ],
      [
        "े",
        "शन"
      ],
      [
        "े",
        "रणा"
      ],
      [
        "े",
        "डकर"
      ],
      [
        "ै",
        "व"
      ],
      [
        "ै",
        "सूर"
      ],
      [
        "ो",
        "ती"
      ],
      [
        "ो",
        "चे"
      ],
      [
        "ो",
        "ची"
      ],
      [
        "ो",
        "त्तर"
      ],
      [
        "ो",
        "बार"
      ],
      [
        "ो",
        "जड"
      ],
      [
        "ो",
        "पाठ"
      ],
      [
        "ौ",
        "घात"
      ],
      [
        "्",
        "ग"
      ],
      [
        "्",
        "स"
      ],
      [
        "्",
        "हि"
      ],
      [
        "्",
        "मा"
      ],
      [
        "्",
        "लो"
      ],
      [
        "्",
        "त्व"
      ],
      [
        "्",
        "धातील"
      ],
      [
        "ॠ",
        "ग्"
      ],
      [
        "ॠ",
        "षभदे"
      ],
      [
        "।",
        "।"
      ],
      [
        "०",
        "१"
      ],
      [
        "०",
        "वी"
      ],
      [
        "०",
        ".५"
      ],
      [
        "०",
        ",०००"
      ],
      [
        "१",
        ")"
      ],
      [
        "१",
        "३"
      ],
      [
        "१",
        "४"
      ],
      [
        "१",
        "५"
      ],
      [
        "१",
        "००"
      ],
      [
        "१",
        "५००"
      ],
      [
        "१",
        "०वी"
      ],
      [
        "२",
        ")"
      ],
      [
        "२",
        "३"
      ],
      [
        "२",
        "८"
      ],
      [
        "२",
        "%;"
      ],
      [
        "२",
        ".५"
      ],
      [
        "२",
        "५७"
      ],
      [
        "२",
        ",०"
      ],
      [
        "३",
        ")"
      ],
      [
        "३",
        "१"
      ],
      [
        "३",
        "४"
      ],
      [
        "३",
        "५००"
      ],
      [
        "४",
        ")"
      ],
      [
        "४",
        "३"
      ],
      [
        "४",
        "६"
      ],
      [
        "५",
        ")"
      ],
      [
        "५",
        ",४"
      ],
      [
        "५",
        "-७"
      ],
      [
        "६",
        ")"
      ],
      [
        "६",
        "५"
      ],
      [
        "६",
        "%;"
      ],
      [
        "७",
        "०"
      ],
      [
        "७",
        "४"
      ],
      [
        "७",
        "वा"
      ],
      [
        "७",
        ",५"
      ],
      [
        "७",
        "५-७"
      ],
      [
        "९",
        "४"
      ],
      [
        "९",
        "%;"
      ],
      [
        "९",
        "०००"
      ],
      [
        "९",
        "०,०००"
      ],
      [
        "ॲ",
        "ंग"
      ],
      [
        "ॲ",
        "ण्"
      ],
      [
        "‌",
        "("
      ],
      [
        "‍",
        "स्थापन"
      ],
      [
        "–",
        "१३"
      ],
      [
        "्य",
        "ता"
      ],
      [
        "्य",
        "म्"
      ],
      [
        "्य",
        "दल"
      ],
      [
        "्य",
        "छा"
      ],
      [
        "्या",
        "नंतर"
      ],
      [
        "्या",
        "सक्र"
      ],
      [
        "ार",
        "े"
      ],
      [
        "ार",
        "ात"
      ],
      [
        "ार",
        "िक"
      ],
      [
        "ार",
        "्धातील"
      ],
      [
        "्र",
        "िका"
      ],
      [
        "ात",
        ","
      ],
      [
        "ात",
        "."
      ],
      [
        "ात",
        "च"
      ],
      [
        "ात",
        "्य"
      ],
      [
        "ात",
        "ला"
      ],
      [
        "ात",
        "ींब"
      ],
      [
        "ात",
        "्मा"
      ],
      [
        "र्",
        "ती"
      ],
      [
        "र्",
        "तु"
      ],
      [
        "र्",
        "फे"
      ],
      [
        "र्",
        "घकाल"
      ],
      [
        "र्",
        "तमे"
      ],
      [
        "र्",
        "न‍"
      ],
      [
        "ला",
        "मुख"
      ],
      [
        "ला",
        "ंपैकी"
      ],
      [
        "ला",
        "वणी"
      ],
      [
        "हे",
        "ब"
      ],
      [
        "भारत",
        "."
      ],
      [
        "भारत",
        "ं"
      ],
      [
        "भारत",
        "ी"
      ],
      [
        "भारत",
        "ील"
      ],
      [
        "भारत",
        "भूमी"
      ],
      [
        "भारत",
        "रत्"
      ],
      [
        "स्",
        "तर"
      ],
      [
        "स्",
        "कार"
      ],
      [
        "स्",
        "लि"
      ],
      [
        "स्",
        "मर"
      ],
      [
        "स्",
        "फो"
      ],
      [
        "ाच",
        "ित"
      ],
      [
        "ाच",
        "्छ"
      ],
      [
        "ां",
        "का"
      ],
      [
        "ां",
        "ती"
      ],
      [
        "ां",
        "ना"
      ],
      [
        "ां",
        "तर"
      ],
      [
        "ां",
        "साठी"
      ],
      [
        "ां",
        "नुसार"
      ],
      [
        "ां",
        "बद्दल"
      ],
      [
        "ले",
        "स"
      ],
      [
        "ले",
        "खक"
      ],
      [
        "ले",
        "ण्यां"
      ],
      [
        "ान",
        "दी"
      ],
      [
        "का",
        "पा"
      ],
      [
        "का",
        "पासून"
      ],
      [
        "का",
        "ठी"
      ],
      [
        "का",
        "सीम"
      ],
      [
        "का",
        "ँग्रे"
      ],
      [
        "का",
        "ठची"
      ],
      [
        "रा",
        "हो"
      ],
      [
        "रा",
        "हि"
      ],
      [
        "रा",
        "णिक"
      ],
      [
        "रा",
        "थी"
      ],
      [
        "रा",
        "यसी"
      ],
      [
        "ील",
        "ंका"
      ],
      [
        "प्र",
        "ति"
      ],
      [
        "प्र",
        "जा"
      ],
      [
        "प्र",
        "स्थाप"
      ],
      [
        "प्र",
        "ांत"
      ],
      [
        "प्र",
        "वाह"
      ],
      [
        "प्र",
        "माण"
      ],
      [
        "प्र",
        "बळ"
      ],
      [
        "प्र",
        "यत्"
      ],
      [
        "प्र",
        "िय"
      ],
      [
        "प्र",
        "णय"
      ],
      [
        "प्र",
        "सार"
      ],
      [
        "प्र",
        "ादेश"
      ],
      [
        "प्र",
        "िन्स"
      ],
      [
        "प्र",
        "ेरणा"
      ],
      [
        "प्र",
        "स्तर"
      ],
      [
        "या",
        "मध्ये"
      ],
      [
        "या",
        "दी"
      ],
      [
        "या",
        "वरून"
      ],
      [
        "या",
        "पाठ"
      ],
      [
        "या",
        "बद्ध"
      ],
      [
        "िक",
        "च"
      ],
      [
        "िक",
        "ार"
      ],
      [
        "िक",
        "ल्प"
      ],
      [
        "िक",
        "ीनुसार"
      ],
      [
        "वा",
        "ज"
      ],
      [
        "वा",
        "पर"
      ],
      [
        "वा",
        "णि"
      ],
      [
        "वा",
        "मि"
      ],
      [
        "वा",
        "ळू"
      ],
      [
        "वा",
        "वरून"
      ],
      [
        "वा",
        "द्यां"
      ],
      [
        "वा",
        "खाली"
      ],
      [
        "वा",
        "ळ्या"
      ],
      [
        "वा",
        "हिनी"
      ],
      [
        "वा",
        "टचाल"
      ],
      [
        "वा",
        "डया"
      ],
      [
        "वा",
        "यव्य"
      ],
      [
        "वा",
        "ऱ्यां"
      ],
      [
        "वा",
        "सस्थान"
      ],
      [
        "वा",
        "लामुख"
      ],
      [
        "ती",
        "चि"
      ],
      [
        "ती",
        "रि"
      ],
      [
        "मु",
        "त्"
      ],
      [
        "मु",
        "हू"
      ],
      [
        "मु",
        "लांपैकी"
      ],
      [
        "मु",
        "स्लि"
      ],
      [
        "वि",
        "त"
      ],
      [
        "वि",
        "न"
      ],
      [
        "वि",
        "का"
      ],
      [
        "वि",
        "सा"
      ],
      [
        "वि",
        "ष्ट"
      ],
      [
        "वि",
        "श्"
      ],
      [
        "वि",
        "ले."
      ],
      [
        "वि",
        "वाह"
      ],
      [
        "वि",
        "ष्ण"
      ],
      [
        "वि",
        "जयन"
      ],
      [
        "दे",
        "ड"
      ],
      [
        "दे",
        "वी"
      ],
      [
        "दे",
        "तो."
      ],
      [
        "दे",
        "सू"
      ],
      [
        "दे",
        "खील"
      ],
      [
        "ना",
        "म"
      ],
      [
        "ना",
        "ल्या"
      ],
      [
        "ना",
        "गर"
      ],
      [
        "ना",
        "भि"
      ],
      [
        "ना",
        "वावरून"
      ],
      [
        "सा",
        "मा"
      ],
      [
        "सा",
        "हज"
      ],
      [
        "सा",
        "पडले"
      ],
      [
        "सा",
        "डे"
      ],
      [
        "सा",
        "मान्य"
      ],
      [
        "सा",
        "हेब"
      ],
      [
        "च्या",
        "मधील"
      ],
      [
        "ते",
        ","
      ],
      [
        "ते",
        "क"
      ],
      [
        "ते",
        "ज"
      ],
      [
        "ते",
        "त"
      ],
      [
        "ते",
        "वर"
      ],
      [
        "ते",
        "जात"
      ],
      [
        "ते",
        "खाली"
      ],
      [
        "ते",
        "पेक्षा"
      ],
      [
        "ते",
        "व्हा"
      ],
      [
        "ते",
        "ढां"
      ],
      [
        "मध",
        "ून"
      ],
      [
        "ीय",
        "ांचे"
      ],
      [
        "त्",
        "त"
      ],
      [
        "त्",
        "म"
      ],
      [
        "त्",
        "वे"
      ],
      [
        "त्",
        "पत्"
      ],
      [
        "त्",
        "तीय"
      ],
      [
        "त्",
        "वाखाली"
      ],
      [
        "त्",
        "तीचि"
      ],
      [
        "चे",
        "री"
      ],
      [
        "चे",
        "न्"
      ],
      [
        "द्",
        "वार"
      ],
      [
        "द्",
        "दु"
      ],
      [
        "द्",
        "वारे"
      ],
      [
        "ष्",
        "क"
      ],
      [
        "ष्",
        "प"
      ],
      [
        "ष्",
        "णा"
      ],
      [
        "ष्",
        "मती"
      ],
      [
        "वी",
        "न’"
      ],
      [
        "सं",
        "स्थ"
      ],
      [
        "सं",
        "दर्"
      ],
      [
        "सं",
        "बळ"
      ],
      [
        "सं",
        "ख्य"
      ],
      [
        "सं",
        "धी"
      ],
      [
        "सं",
        "ख्ये"
      ],
      [
        "सं",
        "गमर"
      ],
      [
        "सं",
        "तती"
      ],
      [
        "सं",
        "बध"
      ],
      [
        "हो",
        "ऊ"
      ],
      [
        "हो",
        "ंद"
      ],
      [
        "हो",
        "ऊन"
      ],
      [
        "हो",
        "णार"
      ],
      [
        "हो",
        "उन"
      ],
      [
        "हो",
        "चला"
      ],
      [
        "हो",
        "य."
      ],
      [
        "देश",
        "ात"
      ],
      [
        "देश",
        "ाच्या"
      ],
      [
        "देश",
        "ातील"
      ],
      [
        "देश",
        "ाची"
      ],
      [
        "देश",
        "ाने"
      ],
      [
        "देश",
        "ांच्या"
      ],
      [
        "देश",
        "ांनी"
      ],
      [
        "देश",
        "ीयांचे"
      ],
      [
        "ने",
        "य"
      ],
      [
        "ने",
        "चे"
      ],
      [
        "ने",
        "पा"
      ],
      [
        "ने",
        "मधील"
      ],
      [
        "ने",
        "ऊन"
      ],
      [
        "ने",
        "शन"
      ],
      [
        "ने",
        "तृ"
      ],
      [
        "ने",
        "हरू"
      ],
      [
        "ही",
        "तात"
      ],
      [
        "अस",
        "ते"
      ],
      [
        "अस",
        "णे"
      ],
      [
        "अस",
        "तात."
      ],
      [
        "अस",
        "ल्याची"
      ],
      [
        "अस",
        "त."
      ],
      [
        "त्या",
        "स"
      ],
      [
        "त्या",
        "मधील"
      ],
      [
        "त्या",
        "तील"
      ],
      [
        "त्या",
        "वरून"
      ],
      [
        "त्या",
        "खाली"
      ],
      [
        "पा",
        "ला"
      ],
      [
        "पा",
        "श्च"
      ],
      [
        "पा",
        "षा"
      ],
      [
        "पा",
        "ण्याची"
      ],
      [
        "पा",
        "उस"
      ],
      [
        "पा",
        "ऊस"
      ],
      [
        "पा",
        "डण्यात"
      ],
      [
        "पा",
        "लवा"
      ],
      [
        "्ये",
        "कडील"
      ],
      [
        "हि",
        "वाळ्या"
      ],
      [
        "्रा",
        "ला"
      ],
      [
        "्रा",
        "मधील"
      ],
      [
        "्रा",
        "स्त्र"
      ],
      [
        "झा",
        "ल्याची"
      ],
      [
        "राज",
        "कार"
      ],
      [
        "राज",
        "वाडया"
      ],
      [
        "ंग",
        "ने"
      ],
      [
        "ंग",
        "ाच्या"
      ],
      [
        "ंग",
        "भद्रा"
      ],
      [
        "पू",
        "री"
      ],
      [
        "वर",
        "ळी"
      ],
      [
        "भारतीय",
        "ांच्या"
      ],
      [
        "भारतीय",
        "ांनी"
      ],
      [
        "के",
        "ला"
      ],
      [
        "के",
        "रळ"
      ],
      [
        "क्ष",
        "ीण"
      ],
      [
        "ता",
        ")"
      ],
      [
        "ता",
        "वर"
      ],
      [
        "ता",
        "मध्ये"
      ],
      [
        "ता",
        "मुळे"
      ],
      [
        "ता",
        "वादी"
      ],
      [
        "ता",
        "पमान"
      ],
      [
        "पु",
        "णे"
      ],
      [
        "पु",
        "रुव"
      ],
      [
        "पु",
        "रात"
      ],
      [
        "पु",
        "डी"
      ],
      [
        "पु",
        "डा"
      ],
      [
        "पु",
        "नर्"
      ],
      [
        "पु",
        "र्न‍"
      ],
      [
        "पु",
        "द्दु"
      ],
      [
        "मा",
        "गील"
      ],
      [
        "मी",
        "मधील"
      ],
      [
        "मी",
        "टर"
      ],
      [
        "मान",
        "ाने"
      ],
      [
        "मान",
        "ाचे"
      ],
      [
        "मान",
        "चि"
      ],
      [
        "मान",
        "ुसार"
      ],
      [
        "मान",
        "वाने"
      ],
      [
        "ल्या",
        "ने"
      ],
      [
        "ल्या",
        "वरून"
      ],
      [
        "कार",
        "भारा"
      ],
      [
        "वे",
        "न"
      ],
      [
        "वे",
        "ळ"
      ],
      [
        "वे",
        "स"
      ],
      [
        "वे",
        "ल्"
      ],
      [
        "वे",
        "रु"
      ],
      [
        "वे",
        "ळा"
      ],
      [
        "वे",
        "दकालीन"
      ],
      [
        "वे",
        "लूर"
      ],
      [
        "ष्ट",
        "्रामधील"
      ],
      [
        "मो",
        "हिमा"
      ],
      [
        "मो",
        "रि"
      ],
      [
        "मो",
        "हिनी"
      ],
      [
        "मो",
        "हम्"
      ],
      [
        "मो",
        "होंद"
      ],
      [
        "ति",
        "च्या"
      ],
      [
        "ति",
        "चे"
      ],
      [
        "ति",
        "चा"
      ],
      [
        "ति",
        "त्त्व"
      ],
      [
        "ति",
        "थे"
      ],
      [
        "ति",
        "सरे"
      ],
      [
        "स्थ",
        "ित"
      ],
      [
        "स्थ",
        "ित्य"
      ],
      [
        "पूर्",
        "वेस"
      ],
      [
        "ये",
        "तात"
      ],
      [
        "ये",
        "मुळे"
      ],
      [
        "ये",
        "णा"
      ],
      [
        "ये",
        "णार"
      ],
      [
        "ये",
        "तो."
      ],
      [
        "ये",
        "ण्याची"
      ],
      [
        "सु",
        "न"
      ],
      [
        "सु",
        "द्ध"
      ],
      [
        "सु",
        "वर्"
      ],
      [
        "सु",
        "रत"
      ],
      [
        "सु",
        "त्रे"
      ],
      [
        "सु",
        "रक्षा"
      ],
      [
        "सु",
        "लतान"
      ],
      [
        "सु",
        "सह्य"
      ],
      [
        "ंड",
        "वन"
      ],
      [
        "कि",
        "ंवा"
      ],
      [
        "शा",
        "ही"
      ],
      [
        "शा",
        "सन"
      ],
      [
        "आहेत",
        ","
      ],
      [
        "आहेत",
        ";"
      ],
      [
        "ली.",
        "\""
      ],
      [
        "कृ",
        "ष्णा"
      ],
      [
        "र्म",
        "िती"
      ],
      [
        "र्म",
        "ेशन"
      ],
      [
        "भारतात",
        "ून"
      ],
      [
        "पर",
        "ंप"
      ],
      [
        "पर",
        "िकल्प"
      ],
      [
        "सि",
        "याचीन"
      ],
      [
        "कर",
        "ता"
      ],
      [
        "कर",
        "णारा"
      ],
      [
        "कर",
        "ते,"
      ],
      [
        "णि",
        "य"
      ],
      [
        "वर्",
        "ती"
      ],
      [
        "वर्",
        "चस्व"
      ],
      [
        "गे",
        "ले"
      ],
      [
        "गे",
        "ली"
      ],
      [
        "गे",
        "ला."
      ],
      [
        "दि",
        "ले"
      ],
      [
        "दि",
        "शे"
      ],
      [
        "दि",
        "लेले"
      ],
      [
        "दी",
        "र्घकाल"
      ],
      [
        "मि",
        "ण"
      ],
      [
        "मि",
        "र"
      ],
      [
        "मि",
        "सळून"
      ],
      [
        "मि",
        "त्त"
      ],
      [
        "स्त",
        "ंभ"
      ],
      [
        "स्कृ",
        "तिक"
      ],
      [
        "भाग",
        ","
      ],
      [
        "भाग",
        "ातील"
      ],
      [
        "भाग",
        "ावर"
      ],
      [
        "शिक्षण",
        "ात"
      ],
      [
        "शिक्षण",
        "ही"
      ],
      [
        "शिक्षण",
        "ानंतर"
      ],
      [
        "शिक्षण",
        "ावर"
      ],
      [
        "शिक्षण",
        "तज्ञ"
      ],
      [
        "शिक्षण",
        "ाबद्दल"
      ],
      [
        "शिक्षण",
        "संस्थ"
      ],
      [
        "ंत",
        "त्र"
      ],
      [
        "एक",
        "च"
      ],
      [
        "एक",
        "ता"
      ],
      [
        "एक",
        "ाचे"
      ],
      [
        "एक",
        "ूण"
      ],
      [
        "ठा",
        "णे"
      ],
      [
        "ठा",
        "शी"
      ],
      [
        "धर्म",
        "ाची"
      ],
      [
        "धर्म",
        "नि"
      ],
      [
        "धर्म",
        "सम"
      ],
      [
        "धर्म",
        "ांचा"
      ],
      [
        "धर्म",
        "ांपैकी"
      ],
      [
        "री",
        ","
      ],
      [
        "री",
        "व"
      ],
      [
        "री",
        "स"
      ],
      [
        "री",
        "से"
      ],
      [
        "श्",
        "लोक"
      ],
      [
        "संस्कृ",
        "त"
      ],
      [
        "नेक",
        "लेस"
      ],
      [
        "आहेत.",
        "सर्व"
      ],
      [
        "ंतर",
        "े"
      ],
      [
        "अनेक",
        "ांचे"
      ],
      [
        "ण्या",
        "ने"
      ],
      [
        "र्व",
        "ाचित"
      ],
      [
        "संस्कृती",
        "ला"
      ],
      [
        "संस्कृती",
        "चे"
      ],
      [
        "संस्कृती",
        "मध्ये"
      ],
      [
        "संस्कृती",
        "चा"
      ],
      [
        "संस्कृती",
        "ंपैकी"
      ],
      [
        "जात",
        "ी"
      ],
      [
        "जात",
        "ीय"
      ],
      [
        "जात",
        "ात."
      ],
      [
        "टि",
        "पू"
      ],
      [
        "१९",
        "१२"
      ],
      [
        "१९",
        "७१"
      ],
      [
        "१९",
        "३१"
      ],
      [
        "१९",
        "६५"
      ],
      [
        "१९",
        "७४"
      ],
      [
        "असे",
        "."
      ],
      [
        "असे",
        "ल"
      ],
      [
        "इंड",
        "ियन"
      ],
      [
        "कड",
        "क"
      ],
      [
        "कड",
        "ा"
      ],
      [
        "कड",
        "ी"
      ],
      [
        "क्र",
        "मी"
      ],
      [
        "क्र",
        "ूर"
      ],
      [
        "क्र",
        "ौर"
      ],
      [
        "क्र",
        "ीडारत"
      ],
      [
        "क्र",
        "ांती"
      ],
      [
        "जा",
        "ट"
      ],
      [
        "जा",
        "गा"
      ],
      [
        "जा",
        "ऊन"
      ],
      [
        "जा",
        "उन"
      ],
      [
        "जा",
        "गृत"
      ],
      [
        "त्य",
        "ुनंतर"
      ],
      [
        "रू",
        "पां"
      ],
      [
        "रो",
        "मन"
      ],
      [
        "रो",
        "नेशन"
      ],
      [
        "सर",
        "ते"
      ],
      [
        "सर",
        "कू"
      ],
      [
        "सर",
        "मिसळून"
      ],
      [
        "ारा",
        "वरील"
      ],
      [
        "ारा",
        "बरोबर"
      ],
      [
        "स्थाप",
        "ना"
      ],
      [
        "स्थाप",
        "ल्या"
      ],
      [
        "स्थाप",
        "त्ये"
      ],
      [
        "स्थाप",
        "त्यांची"
      ],
      [
        "स्थाप",
        "त्यामधील"
      ],
      [
        "म्ह",
        "पुत"
      ],
      [
        "म्ह",
        "ैसूर"
      ],
      [
        "वर्ष",
        "ं"
      ],
      [
        "वर्ष",
        "ाचे"
      ],
      [
        "वर्ष",
        "भर"
      ],
      [
        "दा",
        "ख"
      ],
      [
        "दा",
        "यां"
      ],
      [
        "दा",
        "यक"
      ],
      [
        "दा",
        "वरी"
      ],
      [
        "ब्र",
        "ेकर"
      ],
      [
        "ब्र",
        "म्हपुत"
      ],
      [
        "रु",
        "ंद"
      ],
      [
        "रु",
        "ंदी"
      ],
      [
        "रु",
        "देवी"
      ],
      [
        "स्व",
        "स्त"
      ],
      [
        "स्व",
        "राज्य"
      ],
      [
        "स्व",
        "तः"
      ],
      [
        "स्व",
        "ंतत्र"
      ],
      [
        "पूर्वी",
        "चे"
      ],
      [
        "येथ",
        "पासून"
      ],
      [
        "मिळ",
        "ू"
      ],
      [
        "मिळ",
        "ते"
      ],
      [
        "मिळ",
        "वण्याची"
      ],
      [
        "यां",
        "चे"
      ],
      [
        "यां",
        "मुळे"
      ],
      [
        "काही",
        "च्या"
      ],
      [
        "झाले",
        "ला"
      ],
      [
        "झाले",
        "ली"
      ],
      [
        "झाले",
        "ल्या"
      ],
      [
        "झाले",
        "ला."
      ],
      [
        "म्हण",
        "ले"
      ],
      [
        "घे",
        "ही"
      ],
      [
        "घे",
        "तात"
      ],
      [
        "घे",
        "णे"
      ],
      [
        "चि",
        "पुडी"
      ],
      [
        "जी",
        "वन"
      ],
      [
        "णा",
        "बरोबर"
      ],
      [
        "णा",
        "वते."
      ],
      [
        "नि",
        "यु"
      ],
      [
        "नि",
        "वासस्थान"
      ],
      [
        "नि",
        "र्मिती"
      ],
      [
        "नि",
        "मित्त"
      ],
      [
        "नि",
        "र्वाचित"
      ],
      [
        "भू",
        "गोल"
      ],
      [
        "भू",
        "तान"
      ],
      [
        "भू",
        "प्रस्तर"
      ],
      [
        "लय",
        "ात"
      ],
      [
        "समु",
        "दायां"
      ],
      [
        "सर्व",
        "ात"
      ],
      [
        "सर्व",
        "श्रे"
      ],
      [
        "सर्व",
        "धर्मसम"
      ],
      [
        "हर",
        "लाल"
      ],
      [
        "हर",
        "प्पा"
      ],
      [
        "हिमा",
        "लया"
      ],
      [
        "हिमा",
        "द्रे"
      ],
      [
        "ब्रिटिश",
        "ांच्या"
      ],
      [
        "उत्तर",
        "ं"
      ],
      [
        "गर",
        "चे"
      ],
      [
        "जे",
        "दार"
      ],
      [
        "जे",
        "व्हा"
      ],
      [
        "भर",
        "लेला"
      ],
      [
        "भर",
        "तामुळे"
      ],
      [
        "मह",
        "्त्व"
      ],
      [
        "मह",
        "ात्मा"
      ],
      [
        "मह",
        "ानदी"
      ],
      [
        "मार",
        "्क"
      ],
      [
        "मार",
        "्ग"
      ],
      [
        "मार",
        "ली.\""
      ],
      [
        "शि",
        "यन"
      ],
      [
        "शि",
        "रका"
      ],
      [
        "प्राचीन",
        "काळातील"
      ],
      [
        "उप",
        "नद्यांमध्ये"
      ],
      [
        "को",
        "सी"
      ],
      [
        "को",
        "चीन"
      ],
      [
        "को",
        "लकात"
      ],
      [
        "को",
        "रीव"
      ],
      [
        "को",
        "रोनेशन"
      ],
      [
        "दल",
        "दल"
      ],
      [
        "न्",
        "हे"
      ],
      [
        "पड",
        "त"
      ],
      [
        "पड",
        "तात."
      ],
      [
        "पड",
        "तो"
      ],
      [
        "पड",
        "ण्यास"
      ],
      [
        "पड",
        "साद"
      ],
      [
        "पद",
        "विका"
      ],
      [
        "बा",
        "बा"
      ],
      [
        "बा",
        "ह्य"
      ],
      [
        "बा",
        "जू"
      ],
      [
        "बा",
        "ॅम्"
      ],
      [
        "बा",
        "ष्प"
      ],
      [
        "मू",
        "ळ"
      ],
      [
        "मू",
        "रल"
      ],
      [
        "मू",
        "र्ती"
      ],
      [
        "ऱ्या",
        "पाण्याची"
      ],
      [
        "शी",
        "ख"
      ],
      [
        "से",
        "चा"
      ],
      [
        "से",
        "ंदि"
      ],
      [
        "से",
        "नेमधील"
      ],
      [
        "द्वी",
        "पाला"
      ],
      [
        "किल्",
        "ल्याची"
      ],
      [
        "किल्",
        "ल्याचे"
      ],
      [
        "किल्",
        "ल्यावरून"
      ],
      [
        "लोक",
        ","
      ],
      [
        "लोक",
        "ांच्या"
      ],
      [
        "लोक",
        "संगीत"
      ],
      [
        "लोक",
        "मान्य"
      ],
      [
        "लोक",
        "संख्ये"
      ],
      [
        "लोक",
        "शाही"
      ],
      [
        "लोक",
        "जीवन"
      ],
      [
        "आज",
        "च्या"
      ],
      [
        "आज",
        "ही"
      ],
      [
        "आज",
        "चा"
      ],
      [
        "क्",
        "त"
      ],
      [
        "क्",
        "ती"
      ],
      [
        "क्",
        "काने"
      ],
      [
        "क्",
        "झां"
      ],
      [
        "क्",
        "वीन’"
      ],
      [
        "बन",
        "ले"
      ],
      [
        "बन",
        "वला."
      ],
      [
        "मे",
        "नका"
      ],
      [
        "मे",
        "मोरि"
      ],
      [
        "मे",
        "रुदेवी"
      ],
      [
        "महा",
        "युद्धात"
      ],
      [
        "महा",
        "खंड"
      ],
      [
        "व्य",
        "क्ती"
      ],
      [
        "वार",
        "सा"
      ],
      [
        "वार",
        "साह"
      ],
      [
        "लाग",
        "ली"
      ],
      [
        "लाग",
        "तात"
      ],
      [
        "लाग",
        "ते."
      ],
      [
        "होती",
        ","
      ],
      [
        "दिल्ली",
        "ला"
      ],
      [
        "हिमालय",
        "ाची"
      ],
      [
        "हिमालय",
        "ातून"
      ],
      [
        "बांध",
        "काम"
      ],
      [
        "इतिहास",
        "ाची"
      ],
      [
        "इतिहास",
        "ातच"
      ],
      [
        "हवामान",
        "."
      ],
      [
        "ंप",
        "ारिक"
      ],
      [
        "अज",
        "स्त्र"
      ],
      [
        "गा",
        "जव"
      ],
      [
        "गा",
        "ळाने"
      ],
      [
        "गा",
        "ठला."
      ],
      [
        "टी",
        "त"
      ],
      [
        "टी",
        "ला"
      ],
      [
        "टी",
        "च्या"
      ],
      [
        "टी",
        "चे"
      ],
      [
        "नदी",
        "च्या"
      ],
      [
        "नदी",
        "चा"
      ],
      [
        "नदी",
        "पासून"
      ],
      [
        "रे",
        "टत"
      ],
      [
        "शत",
        "काच्या"
      ],
      [
        "शत",
        "कापासून"
      ],
      [
        "विविध",
        "तेत"
      ],
      [
        "शास्त्र",
        "िय"
      ],
      [
        "क्रम",
        "ांका"
      ],
      [
        "समुद्र",
        "ी"
      ],
      [
        "समुद्र",
        "ातील"
      ],
      [
        "समुद्र",
        "किन"
      ],
      [
        "समुद्र",
        "किनाऱ्या"
      ],
      [
        "समुद्र",
        "स्य"
      ],
      [
        "इमारत",
        ","
      ],
      [
        "बंगाल",
        "पासून"
      ],
      [
        "आक्रम",
        "णाबरोबर"
      ],
      [
        "खा",
        "ऱ्यापाण्याची"
      ],
      [
        "गण",
        "ले"
      ],
      [
        "गण",
        "ली"
      ],
      [
        "गण",
        "तंत्र"
      ],
      [
        "गी",
        "ज"
      ],
      [
        "गी",
        "री,"
      ],
      [
        "ज्",
        "ज"
      ],
      [
        "ज्",
        "वालामुख"
      ],
      [
        "ज्या",
        "ला"
      ],
      [
        "दो",
        "घेही"
      ],
      [
        "बी",
        "ड"
      ],
      [
        "बी",
        "मुळे"
      ],
      [
        "लि",
        "श"
      ],
      [
        "लि",
        "यन"
      ],
      [
        "लि",
        "हीतात"
      ],
      [
        "व्या",
        "तून"
      ],
      [
        "ुस",
        "ज्ज"
      ],
      [
        "भारता",
        "स"
      ],
      [
        "भारता",
        "बद्दल"
      ],
      [
        "मुघल",
        "कालीन"
      ],
      [
        "राज्य",
        "कारभार"
      ],
      [
        "राज्य",
        "घटना"
      ],
      [
        "गेट",
        "समो"
      ],
      [
        "साम्राज्या",
        "ने"
      ],
      [
        "साम्राज्या",
        "चा"
      ],
      [
        "साम्राज्या",
        "तील"
      ],
      [
        "इंग्र",
        "जांपासून"
      ],
      [
        "मुख्य",
        "भूमी"
      ],
      [
        "मुख्य",
        "त्वे"
      ],
      [
        "इस्ला",
        "म"
      ],
      [
        "(पूर्वी",
        "ची"
      ],
      [
        "(पूर्वी",
        "चा"
      ],
      [
        "mo",
        "rial"
      ],
      [
        "कर्",
        "नाट"
      ],
      [
        "ख्",
        "नन"
      ],
      [
        "गो",
        "ंडवन"
      ],
      [
        "गो",
        "दावरी"
      ],
      [
        "जव",
        "ान"
      ],
      [
        "तु",
        "ंगभद्रा"
      ],
      [
        "तु",
        "कडा"
      ],
      [
        "द्रा",
        "बाद"
      ],
      [
        "न्या",
        "तही"
      ],
      [
        "पठ",
        "ाराला"
      ],
      [
        "पठ",
        "ारावरील"
      ],
      [
        "ळी",
        "वर"
      ],
      [
        "सम",
        "विषुव"
      ],
      [
        "सम",
        "स्या"
      ],
      [
        "सम",
        "ांतर"
      ],
      [
        "सो",
        "ळा"
      ],
      [
        "सात",
        "वाह"
      ],
      [
        "सात",
        "त्याने"
      ],
      [
        "सात",
        "पुडा"
      ],
      [
        "वाह",
        "त"
      ],
      [
        "वाह",
        "ू"
      ],
      [
        "वाह",
        "तात."
      ],
      [
        "त्यां",
        "ना"
      ],
      [
        "त्यां",
        "चा"
      ],
      [
        "राज्यां",
        "त"
      ],
      [
        "राज्यां",
        "ना"
      ],
      [
        "राज्यां",
        "मध्ये"
      ],
      [
        "राज्यां",
        "पेक्षा"
      ],
      [
        "वेग",
        "वेगळे"
      ],
      [
        "वेग",
        "ळ्या"
      ],
      [
        "पूर्व",
        "ोत्तर"
      ],
      [
        "वर्षां",
        "पेक्षा"
      ],
      [
        "साम्राज्य",
        "वादी"
      ],
      [
        "साम्राज्य",
        "वाद्यां"
      ],
      [
        "स्वातंत्र",
        "्याचे"
      ],
      [
        "भूमी",
        "त"
      ],
      [
        "भूमी",
        "पासून"
      ],
      [
        "भूमी",
        "गत"
      ],
      [
        "युद्ध",
        "े"
      ],
      [
        "युद्ध",
        "कौ"
      ],
      [
        "भरत",
        "नाट"
      ],
      [
        "महारा",
        "ज"
      ],
      [
        "महारा",
        "जांनी"
      ],
      [
        "महारा",
        "ष्ट्रामधील"
      ],
      [
        "दक्षिण",
        "म्"
      ],
      [
        "विद्यार्थ्यां",
        "च्या"
      ],
      [
        "विद्यार्थ्यां",
        "चा"
      ],
      [
        "विद्यार्थ्यां",
        "पेक्षा"
      ],
      [
        "विद्यार्थ्यां",
        "नाही"
      ],
      [
        "ra",
        "ce"
      ],
      [
        "st",
        "ru"
      ],
      [
        "आर्",
        "मीमधील"
      ],
      [
        "ऋष",
        "भपुत्र"
      ],
      [
        "ऋष",
        "ींची"
      ],
      [
        "खन",
        "नात"
      ],
      [
        "खो",
        "ल्या"
      ],
      [
        "दख्",
        "ख्नन"
      ],
      [
        "नद्यां",
        "ना"
      ],
      [
        "नद्यां",
        "च्या"
      ],
      [
        "नद्यां",
        "नी"
      ],
      [
        "बर",
        "ाच"
      ],
      [
        "बहु",
        "तेक"
      ],
      [
        "बहु",
        "संख्य"
      ],
      [
        "मत",
        "भे"
      ],
      [
        "मत",
        "प्रवाह"
      ],
      [
        "मर",
        "ण"
      ],
      [
        "मै",
        "सुरू"
      ],
      [
        "मै",
        "दान"
      ],
      [
        "मरा",
        "ठ्याचे"
      ],
      [
        "मंदि",
        "रां"
      ],
      [
        "शक",
        "ते"
      ],
      [
        "शक",
        "तात"
      ],
      [
        "शक",
        "तात."
      ],
      [
        "शक",
        "ुंत"
      ],
      [
        "शक",
        "्यता"
      ],
      [
        "शहर",
        "ात"
      ],
      [
        "शहर",
        "ाच्या"
      ],
      [
        "त्व",
        "ज्ञान"
      ],
      [
        "द्दल",
        "च्या"
      ],
      [
        "संगी",
        "तावर"
      ],
      [
        "त्याचे",
        "च"
      ],
      [
        "केले",
        "ले"
      ],
      [
        "पुरा",
        "व्यां"
      ],
      [
        "पुरा",
        "व्यातून"
      ],
      [
        "पुत्र",
        "ाचे"
      ],
      [
        "म्हणून",
        "्"
      ],
      [
        "म्हणजे",
        "च"
      ],
      [
        "हिंदू",
        ","
      ],
      [
        "दक्षिणे",
        "ला"
      ],
      [
        "दक्षिणे",
        "मधील"
      ],
      [
        "दक्षिणे",
        "तील"
      ],
      [
        "पदवी",
        "साठी"
      ],
      [
        "व्यु",
        "त्पत्"
      ],
      [
        "प्त",
        "तावादी"
      ],
      [
        "ज्ञ",
        "ात"
      ],
      [
        "सोयी",
        "ंवर"
      ],
      [
        "सोयी",
        "करता"
      ],
      [
        "वर्षांपूर्वी",
        "पर्यंत"
      ],
      [
        "उदाहर",
        "णे"
      ],
      [
        "वाळवंट",
        "ाने"
      ],
      [
        "पाकिस्तान",
        "ा"
      ],
      [
        "पाकिस्तान",
        "ात"
      ],
      [
        "पाकिस्तान",
        "ची"
      ],
      [
        "ma",
        "ter"
      ],
      [
        "re",
        "d"
      ],
      [
        "अधिक",
        "ारात"
      ],
      [
        "आण",
        "ली"
      ],
      [
        "आण",
        "ली."
      ],
      [
        "आण",
        "लेल्या"
      ],
      [
        "आण",
        "खी"
      ],
      [
        "आर",
        "्य"
      ],
      [
        "कथ",
        "्थ"
      ],
      [
        "कथ",
        "कल्ली"
      ],
      [
        "कच्छ",
        "च्या"
      ],
      [
        "कच्छ",
        "चे"
      ],
      [
        "गती",
        "ने"
      ],
      [
        "ग्रा",
        "म)"
      ],
      [
        "ग्रा",
        "मिण"
      ],
      [
        "घड",
        "ला"
      ],
      [
        "घड",
        "ल्या"
      ],
      [
        "घड",
        "ल्याचे"
      ],
      [
        "घड",
        "ामो"
      ],
      [
        "चळव",
        "ळ"
      ],
      [
        "जु",
        "ना"
      ],
      [
        "तत्",
        "त्वज्ञान"
      ],
      [
        "दु",
        "मत"
      ],
      [
        "दु",
        "ःख"
      ],
      [
        "दु",
        "ष्य"
      ],
      [
        "दार",
        "ुण"
      ],
      [
        "दार",
        "ोचे"
      ],
      [
        "दर्",
        "जा"
      ],
      [
        "दर्",
        "शवतात."
      ],
      [
        "दर्",
        "जेदार"
      ],
      [
        "पार",
        "्क"
      ],
      [
        "पार",
        "ंपारिक"
      ],
      [
        "पर्व",
        "तामध्ये"
      ],
      [
        "बद्दल",
        "ही"
      ],
      [
        "भि",
        "त्तीचि"
      ],
      [
        "भी",
        "मा"
      ],
      [
        "भी",
        "डल्या"
      ],
      [
        "भी",
        "मबे"
      ],
      [
        "यं",
        "ते"
      ],
      [
        "यं",
        "भुव"
      ],
      [
        "यं",
        "च्यामधील"
      ],
      [
        "रि",
        "का"
      ],
      [
        "रि",
        "तीरि"
      ],
      [
        "सन",
        "ाच्या"
      ],
      [
        "सैन",
        "्यदल"
      ],
      [
        "ृत",
        "सर"
      ],
      [
        "१८",
        "१८"
      ],
      [
        "१८",
        "५०"
      ],
      [
        "१८",
        "५७"
      ],
      [
        "लां",
        "पर्यंत"
      ],
      [
        "लेणी",
        ","
      ],
      [
        "विष",
        "यक"
      ],
      [
        "विष",
        "वृतीय"
      ],
      [
        "साग",
        "रीसे"
      ],
      [
        "त्यात",
        "ून"
      ],
      [
        "चीन",
        "ला"
      ],
      [
        "चीन",
        "ची"
      ],
      [
        "राजक",
        "ुमार"
      ],
      [
        "पुत",
        "ळे"
      ],
      [
        "किन",
        "ारी"
      ],
      [
        "किन",
        "ाराला"
      ],
      [
        "किन",
        "ारे"
      ],
      [
        "गेली.",
        "ही"
      ],
      [
        "ाप्",
        "पा"
      ],
      [
        "श्च",
        "ैव"
      ],
      [
        "१९९",
        "०"
      ],
      [
        "१९९",
        "१"
      ],
      [
        "१९९",
        "८"
      ],
      [
        "१९९",
        "९"
      ],
      [
        "सरकार",
        "े"
      ],
      [
        "सरकार",
        "कडे"
      ],
      [
        "यांच्या",
        "त"
      ],
      [
        "राष्ट्रपती",
        "चे"
      ],
      [
        "राष्ट्रपती",
        "भवन"
      ],
      [
        "उत्तरे",
        "ला"
      ],
      [
        "उत्तरे",
        "कडे"
      ],
      [
        "उत्तरे",
        "कडील"
      ],
      [
        "उत्तरे",
        "कडून"
      ],
      [
        "गोल",
        "ार्धातील"
      ],
      [
        "जवळ",
        "ील"
      ],
      [
        "जवळ",
        "पास"
      ],
      [
        "शैली",
        "बरोबर"
      ],
      [
        "शैली",
        "ंची"
      ],
      [
        "वेगळे",
        "पणा"
      ],
      [
        "मंदिरे",
        ","
      ],
      [
        "India",
        ")"
      ],
      [
        "तमिळनाडू",
        "च्या"
      ],
      [
        "तमिळनाडू",
        "तील"
      ],
      [
        "पद्धती",
        "वरून"
      ],
      [
        "द्वीपसमूह",
        "ांमध्ये"
      ],
      [
        "in",
        "stru"
      ],
      [
        "le",
        "gend"
      ],
      [
        "अण",
        "ुसज्ज"
      ],
      [
        "अथ",
        "क"
      ],
      [
        "उर्",
        "मी"
      ],
      [
        "उत्",
        "खननात"
      ],
      [
        "कमान",
        "ी"
      ],
      [
        "कमान",
        "वजा"
      ],
      [
        "ग्र",
        "ॅनाइट"
      ],
      [
        "जन",
        "पथ"
      ],
      [
        "जन",
        "्यछा"
      ],
      [
        "जन",
        "तेवर"
      ],
      [
        "टो",
        "ळी"
      ],
      [
        "टो",
        "बर"
      ],
      [
        "टो",
        "ळ्यां"
      ],
      [
        "ट्",
        "वेन"
      ],
      [
        "ड्रा",
        "मात"
      ],
      [
        "णार",
        "्थ"
      ],
      [
        "तन",
        "त"
      ],
      [
        "दली",
        "य"
      ],
      [
        "दगड",
        "ांचे"
      ],
      [
        "दगड",
        "ांपासून"
      ],
      [
        "दगड",
        "ावरून"
      ],
      [
        "निक",
        "ोबार"
      ],
      [
        "पो",
        "र्तु"
      ],
      [
        "पो",
        "होचला"
      ],
      [
        "पात",
        "ळीवर"
      ],
      [
        "पाच",
        "वा"
      ],
      [
        "पाच",
        "वे"
      ],
      [
        "बळ",
        "मानाने"
      ],
      [
        "बि",
        "न"
      ],
      [
        "बि",
        "हु"
      ],
      [
        "बि",
        "हार"
      ],
      [
        "बार",
        "कावे"
      ],
[...]
