{
  "version": "1.0",
  "truncation": null,
  "padding": null,
  "added_tokens": [
    {
      "id": 0,
      "content": "<unk>",
      "single_word": false,
      "lstrip": false,
      "rstrip": false,
      "normalized": false,
      "special": true
    }
  ],
  "normalizer": {
    "type": "NFC"
  },
  "pre_tokenizer": {
    "type": "WhitespaceSplit"
  },
  "post_processor": null,
  "decoder": null,
  "model": {
    "type": "BPE",
    "dropout": null,
    "unk_token": "<unk>",
    "continuing_subword_prefix": null,
    "end_of_word_suffix": null,
    "fuse_unk": false,
    "byte_fallback": false,
    "ignore_merges": false,
    "vocab": {
      "<unk>": 0,
      " ": 1,
      "\"": 2,
      "%": 3,
      "&": 4,
      "'": 5,
      "(": 6,
      ")": 7,
      ",": 8,
      "-": 9,
      ".": 10,
      "/": 11,
      "0": 12,
      "1": 13,
      "2": 14,
      "3": 15,
      "4": 16,
      "5": 17,
      "6": 18,
      "7": 19,
      "8": 20,
      "9": 21,
      ":": 22,
      ";": 23,
      "=": 24,
      "A": 25,
      "B": 26,
      "C": 27,
      "D": 28,
      "E": 29,
      "F": 30,
      "G": 31,
      "H": 32,
      "I": 33,
      "L": 34,
      "M": 35,
      "N": 36,
      "P": 37,
      "R": 38,
      "S": 39,
      "T": 40,
      "U": 41,
      "V": 42,
      "W": 43,
      "X": 44,
      "Z": 45,
      "^": 46,
      "_": 47,
      "a": 48,
      "b": 49,
      "c": 50,
      "d": 51,
      "e": 52,
      "f": 53,
      "g": 54,
      "h": 55,
      "i": 56,
      "j": 57,
      "k": 58,
      "l": 59,
      "m": 60,
      "n": 61,
      "o": 62,
      "p": 63,
      "q": 64,
      "r": 65,
      "s": 66,
      "t": 67,
      "u": 68,
      "v": 69,
      "w": 70,
      "x": 71,
      "y": 72,
      "z": 73,
      "ం": 74,
      "ః": 75,
      "అ": 76,
      "ఆ": 77,
      "ఇ": 78,
      "ఈ": 79,
      "ఉ": 80,
      "ఋ": 81,
      "ఎ": 82,
      "ఏ": 83,
      "ఐ": 84,
      "ఒ": 85,
      "ఓ": 86,
      "ఔ": 87,
      "క": 88,
      "ఖ": 89,
      "గ": 90,
      "ఘ": 91,
      "చ": 92,
      "ఛ": 93,
      "జ": 94,
      "ఞ": 95,
      "ట": 96,
      "ఠ": 97,
      "డ": 98,
      "ఢ": 99,
      "ణ": 100,
      "త": 101,
      "థ": 102,
      "ద": 103,
      "ధ": 104,
      "న": 105,
      "ప": 106,
      "ఫ": 107,
      "బ": 108,
      "భ": 109,
      "మ": 110,
      "య": 111,
      "ర": 112,
      "ల": 113,
      "ళ": 114,
      "వ": 115,
      "శ": 116,
      "ష": 117,
      "స": 118,
      "హ": 119,
      "ా": 120,
      "ి": 121,
      "ీ": 122,
      "ు": 123,
      "ూ": 124,
      "ృ": 125,
      "ె": 126,
      "ే": 127,
      "ై": 128,
      "ొ": 129,
      "ో": 130,
      "ౌ": 131,
      "్": 132,
      "‌": 133,
      "–": 134,
      "—": 135,
      "↑": 136,
      "్ర": 137,
      "ార": 138,
      "లు": 139,
      "లో": 140,
      "స్": 141,
      "్య": 142,
      "న్": 143,
      "ది": 144,
      "దే": 145,
      "ప్ర": 146,
      "ిం": 147,
      "దేశ": 148,
      "ాల": 149,
      "ిక": 150,
      "ర్": 151,
      "భార": 152,
      "భారత": 153,
      "ాలు": 154,
      "న్న": 155,
      "గా": 156,
      "ది.": 157,
      "కు": 158,
      "ని": 159,
      "వి": 160,
      "ాత": 161,
      "ాయ": 162,
      "క్": 163,
      "ాన": 164,
      "దేశం": 165,
      "రా": 166,
      "్ట": 167,
      "ను": 168,
      "ము": 169,
      "ండ": 170,
      "ీయ": 171,
      "ిన": 172,
      "ద్": 173,
      "త్": 174,
      "ించ": 175,
      "తి": 176,
      "ల్": 177,
      "స్త": 178,
      "ంత": 179,
      "రి": 180,
      "సం": 181,
      "రు": 182,
      "పు": 183,
      "ులు": 184,
      "స్థ": 185,
      "ాయి": 186,
      "ంట": 187,
      "ింది.": 188,
      "ంలో": 189,
      "భారతదేశం": 190,
      "భా": 191,
      "ైన": 192,
      "ంగ": 193,
      "ూడ": 194,
      "ాయి.": 195,
      "ంది.": 196,
      "ంగా": 197,
      "ధిక": 198,
      "పా": 199,
      "వా": 200,
      "సా": 201,
      "క్ష": 202,
      "ఉన్న": 203,
      "ారు": 204,
      "టి": 205,
      "ార్": 206,
      "ిత": 207,
      "్చ": 208,
      "జాత": 209,
      "ష్ట": 210,
      "కూడ": 211,
      "ప్రా": 212,
      "రాజ": 213,
      "కో": 214,
      "క్ర": 215,
      "ట్ట": 216,
      "19": 217,
      "కా": 218,
      "చ్చ": 219,
      "నే": 220,
      "పే": 221,
      "మొ": 222,
      "00": 223,
      "ంచ": 224,
      "దు": 225,
      "మా": 226,
      "యా": 227,
      "లి": 228,
      "వ్య": 229,
      "భారతీయ": 230,
      "తర": 231,
      "నా": 232,
      "రై": 233,
      "వాత": 234,
      "సి": 235,
      "్ల": 236,
      "త్వ": 237,
      "జాతీయ": 238,
      "an": 239,
      "తం": 240,
      "తో": 241,
      "రాష్ట": 242,
      "ారు.": 243,
      "రాష్ట్ర": 244,
      "ఖ్య": 245,
      "గు": 246,
      "వచ్చ": 247,
      "ికి": 248,
      "భారతదేశ": 249,
      "ద్ధ": 250,
      "ల్ల": 251,
      "ంత్ర": 252,
      "di": 253,
      "on": 254,
      "అధిక": 255,
      "కొ": 256,
      "డు": 257,
      "పాల": 258,
      "మైన": 259,
      "వే": 260,
      "he": 261,
      "ఒక": 262,
      "కాల": 263,
      "డి": 264,
      "ణా": 265,
      "ద్ర": 266,
      "మార్": 267,
      "ండి": 268,
      "ar": 269,
      "ఉంది.": 270,
      "చే": 271,
      "టు": 272,
      "ధ్య": 273,
      "శా": 274,
      "్‌": 275,
      "ింద": 276,
      "దేశాల": 277,
      "వ్యవ": 278,
      "of": 279,
      "ంది": 280,
      "ఎన్న": 281,
      "కి": 282,
      "పార": 283,
      "పంచ": 284,
      "ాబ": 285,
      "ాన్": 286,
      "ర్వ": 287,
      "న్ని": 288,
      "భారతదేశంలో": 289,
      "ఉన్నాయి.": 290,
      "చె": 291,
      "డ్": 292,
      "ధాన": 293,
      "పె": 294,
      "ిన్న": 295,
      "ెండ": 296,
      "ాలు,": 297,
      "మార్గ": 298,
      "వ్యవస్థ": 299,
      "ంబ": 300,
      "కృ": 301,
      "కే": 302,
      "కార": 303,
      "తు": 304,
      "దా": 305,
      "హింద": 306,
      "ానికి": 307,
      "స్తు": 308,
      "కూడా": 309,
      "పేరు": 310,
      "మొద": 311,
      "అధికార": 312,
      "ndi": 313,
      "the": 314,
      "కర": 315,
      "ట్": 316,
      "త్ర": 317,
      "త్య": 318,
      "దక్ష": 319,
      "పర": 320,
      "పరి": 321,
      "మత": 322,
      "మీ": 323,
      "మే": 324,
      "మధ్య": 325,
      "వర": 326,
      "సు": 327,
      "ప్రపంచ": 328,
      "ప్రధాన": 329,
      "ాత్ర": 330,
      "ద్ద": 331,
      "స్థాన": 332,
      "భాష": 333,
      "ప్రాంత": 334,
      "రాజ్య": 335,
      "రైలు": 336,
      "ti": 337,
      "దాయ": 338,
      "ప్": 339,
      "వార": 340,
      "వర్": 341,
      "సభ": 342,
      "క్కు": 343,
      "దేశంలో": 344,
      "్టీ": 345,
      "క్రీ": 346,
      "పార్టీ": 347,
      "దక్షి": 348,
      "Indi": 349,
      "al": 350,
      "or": 351,
      "అయ": 352,
      "ఆర్": 353,
      "గి": 354,
      "జనా": 355,
      "నాలు": 356,
      "పూ": 357,
      "పో": 358,
      "భు": 359,
      "మన": 360,
      "మి": 361,
      "రో": 362,
      "రెండ": 363,
      "లం": 364,
      "లా": 365,
      "వు": 366,
      "వె": 367,
      "్యం": 368,
      "ప్రజ": 369,
      "ప్రభు": 370,
      "ముఖ్య": 371,
      "ించిన": 372,
      "ించింది.": 373,
      "హిందూ": 374,
      "er": 375,
      "is": 376,
      "ంద్ర": 377,
      "ఇతర": 378,
      "గీ": 379,
      "తా": 380,
      "తరు": 381,
      "లకు": 382,
      "వీ": 383,
      "శ్ర": 384,
      "ష్": 385,
      "ీన": 386,
      "స్కృ": 387,
      "ాల్": 388,
      "స్త్ర": 389,
      "సాం": 390,
      "వచ్చింది.": 391,
      "పెద్ద": 392,
      "క్కువ": 393,
      "India": 394,
      ",2": 395,
      "gu": 396,
      "nt": 397,
      "ం,": 398,
      "అతి": 399,
      "ఉత్": 400,
      "ఉంట": 401,
      "కలి": 402,
      "గర": 403,
      "జన": 404,
      "జరి": 405,
      "పట్ట": 406,
      "బడ": 407,
      "బా": 408,
      "బె": 409,
      "బ్ర": 410,
      "మహ": 411,
      "లలో": 412,
      "వంట": 413,
      "ుకు": 414,
      "విధ": 415,
      "భాగ": 416,
      "వాణా": 417,
      "మార్గాలు": 418,
      "కేంద్ర": 419,
      "ప్ప": 420,
      "క్రీడ": 421,
      "అయిన": 422,
      "జనాభా": 423,
      "ప్రభుత్వ": 424,
      "తరువాత": 425,
      "),": 426,
      "es": 427,
      "అనే": 428,
      "ఇది": 429,
      "ఎక్కువ": 430,
      "ఏర్": 431,
      "కీయ": 432,
      "గో": 433,
      "గ్": 434,
      "గిన": 435,
      "టిక": 436,
      "ణం": 437,
      "బహ": 438,
      "మాన": 439,
      "మంత్ర": 440,
      "రవాణా": 441,
      "లే": 442,
      "లను": 443,
      "సిం": 444,
      "సరి": 445,
      "ిల్ల": 446,
      "్రా": 447,
      "్రె": 448,
      "ప్రస్తు": 449,
      "ప్రదాయ": 450,
      "క్క": 451,
      "స్తాన్": 452,
      "ంగ్రె": 453,
      "పాకి": 454,
      "సాధ": 455,
      "రాజకీయ": 456,
      "కాంగ్రె": 457,
      "and": 458,
      "కాలంలో": 459,
      "are": 460,
      "ందిన": 461,
      "ఎన్నో": 462,
      "ాబ్": 463,
      "మొదటి": 464,
      "దక్షిణ": 465,
      "200": 466,
      "ed": 467,
      "ge": 468,
      "అత్య": 469,
      "ఇండి": 470,
      "ఉప": 471,
      "క్య": 472,
      "గణ": 473,
      "గల": 474,
      "చిన్న": 475,
      "దం": 476,
      "పై": 477,
      "పతి": 478,
      "భూ": 479,
      "మై": 480,
      "యు": 481,
      "యో": 482,
      "రం": 483,
      "రంగ": 484,
      "లతో": 485,
      "వల": 486,
      "శ్": 487,
      "షు": 488,
      "సము": 489,
      "ావర": 490,
      "ుకో": 491,
      "ెలు": 492,
      "్మ": 493,
      "ప్రము": 494,
      "ప్రతి": 495,
      "ాలలో": 496,
      "ాలను": 497,
      "విస్త": 498,
      "ండు": 499,
      "ించి": 500,
      "సంగీ": 501,
      "సంస్కృ": 502,
      "ంగ్ల": 503,
      "ిత్ర": 504,
      "ప్రాచ": 505,
      "క్రమ": 506,
      "సిని": 507,
      "సియా": 508,
      "ద్ధి": 509,
      "శాస్త్ర": 510,
      "ఆర్ధిక": 511,
      "సరిహ": 512,
      "అత్యధిక": 513,
      "ఇండియా": 514,
      "ప్రముఖ": 515,
      "20": 516,
      "50": 517,
      "as": 518,
      "ct": 519,
      "in": 520,
      "lis": 521,
      "ou": 522,
      "to": 523,
      "ం.": 524,
      "ం:": 525,
      "ంధ": 526,
      "ఆధ": 527,
      "కాలు": 528,
      "గలు": 529,
      "జాబ": 530,
      "ట్ల": 531,
      "ఢిల్ల": 532,
      "ణి": 533,
      "తిక": 534,
      "తంత్ర": 535,
      "దార": 536,
      "ధి": 537,
      "నీ": 538,
      "నె": 539,
      "నడి": 540,
      "భిన్న": 541,
      "మె": 542,
      "మూడ": 543,
      "మాత్ర": 544,
      "రహ": 545,
      "వహ": 546,
      "వై": 547,
      "సౌ": 548,
      "సింది.": 549,
      "సమా": 550,
      "హార": 551,
      "ీ;": 552,
      "ీర్": 553,
      "స్య": 554,
      "స్వ": 555,
      "స్వా": 556,
      "స్వాత": 557,
      "్యాయ": 558,
      "భారత్": 559,
      "వివిధ": 560,
      "ద్దు": 561,
      "ంతో": 562,
      "ులు,": 563,
      "సామ": 564,
      "కోర్": 565,
      "పేర్": 566,
      "000": 567,
      "రాష్ట్రపతి": 568,
      "శాఖ": 569,
      "డ్డ": 570,
      "మొదల": 571,
      "కర్య": 572,
      "ప్రాంతాలు": 573,
      "tion": 574,
      "దేశంలోని": 575,
      "రెండు": 576,
      "ాల్లో": 577,
      "ఉత్తర": 578,
      "పట్టణ": 579,
      "బెంగ": 580,
      "బ్రి": 581,
      "ప్పటిక": 582,
      "ఏర్ప": 583,
      "బహు": 584,
      "మంత్రి": 585,
      "సింధ": 586,
      "సరిహద్దు": 587,
      "ఢిల్లీ": 588,
      "నడిప": 589,
      "సౌకర్య": 590,
      "స్వాతంత్ర": 591,
      "(1": 592,
      ").": 593,
      "..": 594,
      "14": 595,
      "Con": 596,
      "ent": 597,
      "no": 598,
      "ంద": 599,
      "ందు": 600,
      "అభ": 601,
      "అను": 602,
      "కళ": 603,
      "కల్": 604,
      "గే": 605,
      "గంగా": 606,
      "చార": 607,
      "చరి": 608,
      "చైన": 609,
      "జ్య": 610,
      "టీ": 611,
      "టె": 612,
      "తన": 613,
      "తూ": 614,
      "తమి": 615,
      "తాబ్": 616,
      "థిక": 617,
      "నగర": 618,
      "పత": 619,
      "పొ": 620,
      "పద్ధ": 621,
      "పాత్ర": 622,
      "పండు": 623,
      "మలు": 624,
      "మ్య": 625,
      "రూ": 626,
      "ళం": 627,
      "ళ్ల": 628,
      "వడ": 629,
      "వృ": 630,
      "వత్": 631,
      "శతాబ్": 632,
      "సమ": 633,
      "సై": 634,
      "సార": 635,
      "సర్వ": 636,
      "ిమ": 637,
      "ుంది.": 638,
      "ాలతో": 639,
      "న్నాయి.": 640,
      "గా,": 641,
      "నిర్వ": 642,
      "నుక": 643,
      "నుండి": 644,
      "త్తం": 645,
      "ించే": 646,
      "ల్వే": 647,
      "సంఖ్య": 648,
      "పుట్ట": 649,
      "ితా": 650,
      "కూడిన": 651,
      "197": 652,
      "మొత్తం": 653,
      "రైల్వే": 654,
      "వాతావర": 655,
      "angu": 656,
      "భారతదేశానికి": 657,
      "పాలన": 658,
      "ఒకటి": 659,
      "చేయ": 660,
      "దేశాలలో": 661,
      "తున్న": 662,
      "అధికారిక": 663,
      "ట్లు": 664,
      "ప్రపంచంలో": 665,
      "భాషలు": 666,
      "వెబ": 667,
      "ప్రజా": 668,
      ",26": 669,
      "కలిగి": 670,
      "జరిగిన": 671,
      "వంటి": 672,
      "అనేక": 673,
      "ఎక్కువగా": 674,
      "ప్రస్తుతం": 675,
      "కాంగ్రెసు": 676,
      "సముద్ర": 677,
      "ప్రాచీన": 678,
      "జాబితా": 679,
      "రహదార": 680,
      "అభి": 681,
      "చరిత్ర": 682,
      "శతాబ్దం": 683,
      "నిర్వహ": 684,
      "వాతావరణం": 685,
      "angua": 686,
      "%),": 687,
      ",9": 688,
      ",000": 689,
      "1-": 690,
      "10": 691,
      "18": 692,
      "23": 693,
      "3,": 694,
      "47": 695,
      "CI": 696,
      "at": 697,
      "ation": 698,
      "de": 699,
      "fi": 700,
      "il": 701,
      "km": 702,
      "langua": 703,
      "mi": 704,
      "sq": 705,
      "th": 706,
      "tal": 707,
      "అని": 708,
      "ఆఫ": 709,
      "ఇవ": 710,
      "కం": 711,
      "కల": 712,
      "ఖండ": 713,
      "చి": 714,
      "జి": 715,
      "జన్": 716,
      "టం": 717,
      "టా": 718,
      "డే": 719,
      "ణంగా": 720,
      "దన": 721,
      "దీ": 722,
      "ద్య": 723,
      "నాయ": 724,
      "న్యాయ": 725,
      "పం": 726,
      "పద": 727,
      "పశ": 728,
      "పక్ష": 729,
      "మల": 730,
      "మాలు": 731,
      "మ్మ": 732,
      "యాలు": 733,
      "రే": 734,
      "ర్య": 735,
      "రకాల": 736,
      "లక్ష": 737,
      "వరి": 738,
      "సర": 739,
      "సూ": 740,
      "హా": 741,
      "ా,": 742,
      "ిల్": 743,
      "ిస్త": 744,
      "ీ,": 745,
      "ీలు": 746,
      "ు.": 747,
      "ుల": 748,
      "ెల": 749,
      "ోర": 750,
      "లోక్": 751,
      "స్లా": 752,
      "ప్రకార": 753,
      "ాలకు": 754,
      "ిక,": 755,
      "ికత": 756,
      "ిక్": 757,
      "కుల": 758,
      "కుంట": 759,
      "కుటు": 760,
      "నిర్": 761,
      "వి.": 762,
      "ాయు": 763,
      "రాస్య": 764,
      "ములో": 765,
      "ముంబ": 766,
      "ద్వీ": 767,
      "ల్లో": 768,
      "సంఘ": 769,
      "సంప్రదాయ": 770,
      "సంవత్": 771,
      "స్థాన్": 772,
      "ంటే": 773,
      "పాక్": 774,
      "పాటు": 775,
      "క్షరాస్య": 776,
      "టిలో": 777,
      "199": 778,
      "1950": 779,
      "ంచి": 780,
      "వ్యా": 781,
      "రైళ్ల": 782,
      "రాష్ట్రాల": 783,
      "రాష్ట్రాలు": 784,
      "వచ్చిన": 785,
      "భారతదేశపు": 786,
      "కొన్ని": 787,
      "పాలిత": 788,
      "వేగంగా": 789,
      "ణాసియా": 790,
      "భారతదేశంలోని": 791,
      "చెందిన": 792,
      "డ్డు": 793,
      "వ్యవస్థలో": 794,
      "కార్య": 795,
      "కరణ": 796,
      "పరంగా": 797,
      "పరిశ్ర": 798,
      "మేన": 799,
      "ప్రధానమంత్రి": 800,
      "స్థానంలో": 801,
      "రాజ్యాలు": 802,
      "వారస": 803,
      "సభ్య": 804,
      "ఆర్థిక": 805,
      "పూ.": 806,
      "పూర్వ": 807,
      "రోడ్డు": 808,
      "ముఖ్యమైన": 809,
      "సాంప్రదాయ": 810,
      "ఉంటాయి.": 811,
      "జనగణ": 812,
      "బాద్": 813,
      "భాగం": 814,
      "కేంద్రపాలిత": 815,
      "పాకిస్తాన్": 816,
      "పాకిస్థాన్": 817,
      "area": 818,
      "దక్షిణాన": 819,
      "2004": 820,
      "పైగా": 821,
      "ించి,": 822,
      "సంగీతం": 823,
      "సంస్కృతి": 824,
      "సినిమా": 825,
      "శాస్త్రం": 826,
      "list": 827,
      "total": 828,
      "ఆధార": 829,
      "మూడు": 830,
      "మాత్రం": 831,
      "స్వతంత్ర": 832,
      "స్వామ్య": 833,
      "సామ్రా": 834,
      "బెంగాల": 835,
      "బ్రిటి": 836,
      "నడిపించ": 837,
      "స్వాతంత్ర్య": 838,
      "వృద్ధి": 839,
      "సర్వీ": 840,
      "రహదారులు": 841,
      "అభివృద్ధి": 842,
      "language": 843,
      "ఆఫ్": 844,
      "పశ్చ": 845,
      "కుటుంబ": 846,
      "క్షరాస్యత": 847,
      "'s": 848,
      "(వె": 849,
      ".పూ.": 850,
      "12": 851,
      "17": 852,
      "22": 853,
      "26": 854,
      "40": 855,
      "46": 856,
      "7,26": 857,
      "87,26": 858,
      "BN": 859,
      "IS": 860,
      "The": 861,
      "act": 862,
      "ch": 863,
      "ci": 864,
      "ff": 865,
      "gr": 866,
      "iv": 867,
      "ly": 868,
      "ng": 869,
      "ni": 870,
      "ri": 871,
      "ry": 872,
      "se": 873,
      "sti": 874,
      "tu": 875,
      "wi": 876,
      "ంభ": 877,
      "అహ": 878,
      "అవి": 879,
      "ఆక్రమ": 880,
      "ఆహార": 881,
      "ఇవి": 882,
      "ఇంగ్ల": 883,
      "ఇస్లా": 884,
      "ఉండ": 885,
      "కథ": 886,
      "కూ": 887,
      "కన్న": 888,
      "కత్వ": 889,
      "కింద": 890,
      "కీర్": 891,
      "చన": 892,
      "చు": 893,
      "చాల": 894,
      "చిత్ర": 895,
      "జీ": 896,
      "జాలు": 897,
      "జరు": 898,
      "జంబ": 899,
      "టే": 900,
      "టై": 901,
      "టర్": 902,
      "డిన": 903,
      "తల": 904,
      "తె": 905,
      "తే": 906,
      "తము": 907,
      "తులు": 908,
      "తంలో": 909,
      "తెలు": 910,
      "దర": 911,
      "నది": 912,
      "పీ": 913,
      "పార్": 914,
      "బి": 915,
      "బంగ్ల": 916,
      "బంధ": 917,
      "బడ్డ": 918,
      "భర": 919,
      "భౌ": 920,
      "మర": 921,
      "మూ": 922,
      "మౌ": 923,
      "మాత": 924,
      "మతి": 925,
      "మారు": 926,
      "మంది": 927,
      "లీ": 928,
      "లె": 929,
      "లిం": 930,
      "ళ్": 931,
      "ళిక": 932,
      "వం": 933,
      "వులు": 934,
      "వల్ల": 935,
      "వలం": 936,
      "శెల": 937,
      "సహ": 938,
      "సే": 939,
      "స్ర": 940,
      "సులు": 941,
      "సైన": 942,
      "సార్": 943,
      "హై": 944,
      "హిమ": 945,
      "ాదేశ": 946,
      "ాంగ": 947,
      "ిగా": 948,
      "ుకొ": 949,
      "ూప": 950,
      "ూరు": 951,
      "ెట్": 952,
      "ే,": 953,
      "్వ": 954,
      "ారంభ": 955,
      "లు.": 956,
      "లోయ": 957,
      "్యా": 958,
      "దిన": 959,
      "దినాలు": 960,
      "ప్రారంభ": 961,
      "దేశపు": 962,
      "దేశానికి": 963,
      "ాలనే": 964,
      "ాలెండ": 965,
      "ికా": 966,
      "ర్,": 967,
      "ర్త": 968,
      "ర్ష": 969,
      "ర్‌": 970,
      "ాలు.": 971,
      "న్నది.": 972,
      "న్నారు.": 973,
      "గాంధ": 974,
      "కులు": 975,
      "నిస్తాన్": 976,
      "విధ్య": 977,
      "విభిన్న": 978,
      "విద్య": 979,
      "ాతో": 980,
      "క్తి": 981,
      "దేశంగా": 982,
      "నులు": 983,
      "నుంచి": 984,
      "ము.": 985,
      "ద్వార": 986,
      "త్వా": 987,
      "త్తా": 988,
      "సంకీర్": 989,
      "సంబంధ": 990,
      "పురు": 991,
      "స్థి": 992,
      "ంటు": 993,
      "పాదన": 994,
      "వాహ": 995,
      "వాణి": 996,
      "ఉన్నారు.": 997,
      "జాతి": 998,
      "కూడుకు": 999,
      "కోల్": 1000,
      "ట్టమొదటి": 1001,
      "1947": 1002,
      "కాశ్": 1003,
      "నేపాల": 1004,
      "మొట్టమొదటి": 1005,
      "మాబాద్": 1006,
      "లిచ": 1007,
      "తరాలు": 1008,
      "నాగర": 1009,
      "గువ": 1010,
      "గుర్త": 1011,
      "వచ్చు.": 1012,
      "ద్ధం": 1013,
      "పాలించ": 1014,
      "మైనది.": 1015,
      "ఒకే": 1016,
      "చేసింది.": 1017,
      "్‌సై": 1018,
      "offi": 1019,
      "ఎన్నిక": 1020,
      "పెనీ": 1021,
      "కేవలం": 1022,
      "కారణంగా": 1023,
      "తుంది.": 1024,
      "దాపు": 1025,
      "దాదాపు": 1026,
      "త్రి": 1027,
      "రాజ్యాంగ": 1028,
      "వర్గ": 1029,
      "వర్ణ": 1030,
      "దక్షిణాసియా": 1031,
      "నాలుగు": 1032,
      "ప్రజల": 1033,
      "హిందూదేశం": 1034,
      "వీటిలో": 1035,
      "శ్రీ": 1036,
      "ష్ణ": 1037,
      "స్కృతిక": 1038,
      "సాంస్కృతిక": 1039,
      "ntry": 1040,
      "ఉంటుంది.": 1041,
      "కలిసి": 1042,
      "బడత": 1043,
      "బడిన": 1044,
      "మహా": 1045,
      "ుకుంట": 1046,
      "క్రీడలు": 1047,
      "ప్రభుత్వం": 1048,
      "తరువాతి": 1049,
      "లేదా": 1050,
      "సాధించ": 1051,
      "ఉపఖండ": 1052,
      "క్యాలెండ": 1053,
      "లతో,": 1054,
      "ుకోవడ": 1055,
      "ప్రతిపాదన": 1056,
      "ిత్రక": 1057,
      "సినిమాలు": 1058,
      "శాస్త్రీయ": 1059,
      "ountry": 1060,
      "వైవిధ్య": 1061,
      "సమాఖ్య": 1062,
      "కోర్ట": 1063,
      "కోర్టు": 1064,
      "పేర్లు": 1065,
      "పేర్కొ": 1066,
      "మొదలైన": 1067,
      "ఏర్పడ్డ": 1068,
      "బహుళ": 1069,
      "సింధు": 1070,
      "Consti": 1071,
      "చారిత్రక": 1072,
      "తమిళం": 1073,
      "పతకాలు": 1074,
      "పొందిన": 1075,
      "పద్ధతి": 1076,
      "పండుగలు": 1077,
      "నుకటి": 1078,
      "వెబ్‌సై": 1079,
      "ప్రజాస్వామ్య": 1080,
      "సముద్రం": 1081,
      "నిర్వహణ": 1082,
      "ile": 1083,
      "mi)": 1084,
      "కంపెనీ": 1085,
      "జన్మ": 1086,
      "ప్రకారం": 1087,
      "ముంబై": 1088,
      "ద్వీప": 1089,
      "సంప్రదాయాలు": 1090,
      "వ్యాపార": 1091,
      "రైళ్లను": 1092,
      "కార్యక్రమ": 1093,
      "పరిశ్రమలు": 1094,
      "వారసత్వ": 1095,
      "సాంప్రదాయిక": 1096,
      "lists": 1097,
      "బెంగాలీ": 1098,
      "సర్వీసులు": 1099,
      "ఆఫ్ఘ": 1100,
      "(వెనుకటి": 1101,
      "ISBN": 1102,
      "cial": 1103,
      "ffer": 1104,
      "ఇస్లామాబాద్": 1105,
      "కన్నడ": 1106,
      "చాలా": 1107,
      "జరుపు": 1108,
      "జంబూ": 1109,
      "తెలుగు": 1110,
      "పీఠ": 1111,
      "బంగ్లాదేశ": 1112,
      "ళ్ళ": 1113,
      "శెలవు": 1114,
      "హిమాల": 1115,
      "గాంధీ": 1116,
      "ద్వారా": 1117,
      "త్వాన్ని": 1118,
      "వాణిజ్య": 1119,
      "కాశ్మీ": 1120,
      "నాగరికత": 1121,
      "official": 1122,
      "క్యాలెండర్": 1123,
      "Constitu": 1124,
      "వెబ్‌సైటు": 1125,
      "\"(": 1126,
      "\",": 1127,
      "%,": 1128,
      "(0": 1129,
      ",5": 1130,
      ",7": 1131,
      ",14": 1132,
      "-0": 1133,
      ".3": 1134,
      ".7": 1135,
      "0%),": 1136,
      "16": 1137,
      "1లో": 1138,
      "29": 1139,
      "3,2": 1140,
      "56": 1141,
      "59": 1142,
      "5-0": 1143,
      "60": 1144,
      "62": 1145,
      "7/": 1146,
      "7లో": 1147,
      "8లో": 1148,
      "9,2": 1149,
      "As": 1150,
      "CE": 1151,
      "Country": 1152,
      "EF": 1153,
      "ER": 1154,
      "Eth": 1155,
      "Eng": 1156,
      "Fact": 1157,
      "Hi": 1158,
      "Li": 1159,
      "Pr": 1160,
      "SI": 1161,
      "TER": 1162,
      "Uni": 1163,
      "_of": 1164,
      "bo": 1165,
      "br": 1166,
      "bly": 1167,
      "ev": 1168,
      "ex": 1169,
      "ect": 1170,
      "har": 1171,
      "ld": 1172,
      "lo": 1173,
      "lp": 1174,
      "land": 1175,
      "me": 1176,
      "mbly": 1177,
      "ok": 1178,
      "ow": 1179,
      "ror": 1180,
      "t:": 1181,
      "tar": 1182,
      "ter": 1183,
      "ted": 1184,
      "wh": 1185,
      "ంక": 1186,
      "ంకా": 1187,
      "అణ": 1188,
      "అవ": 1189,
      "అంత": 1190,
      "అంట": 1191,
      "అన్ని": 1192,
      "అప్ప": 1193,
      "అమె": 1194,
      "అక్షరాస్యత": 1195,
      "ఆసియా": 1196,
      "ఇదే": 1197,
      "ఇండ": 1198,
      "ఇక్క": 1199,
      "ఇటీ": 1200,
      "ఈశ": 1201,
      "ఈస్": 1202,
      "ఎడ": 1203,
      "ఎల": 1204,
      "ఏప్ర": 1205,
      "ఐరో": 1206,
      "ఐక్య": 1207,
      "ఒలం": 1208,
      "కీ": 1209,
      "కలు": 1210,
      "కాత": 1211,
      "కను": 1212,
      "కనుక": 1213,
      "కంటే": 1214,
      "కబడ్డ": 1215,
      "ఖో": 1216,
      "ఖని": 1217,
      "గత": 1218,
      "గమ": 1219,
      "గ్ర": 1220,
      "గంగ": 1221,
      "గమన": 1222,
      "గ్రా": 1223,
      "గెలు": 1224,
      "చద": 1225,
      "చయ": 1226,
      "చవి": 1227,
      "చూడ": 1228,
      "చించిన": 1229,
      "చుకోవడ": 1230,
      "జల": 1231,
      "జో": 1232,
      "జ్": 1233,
      "జ్యం": 1234,
      "జమ్మ": 1235,
      "జిక,": 1236,
      "టక": 1237,
      "ట్ర": 1238,
      "టలు": 1239,
      "టన్": 1240,
      "టంలో": 1241,
      "ట్‌": 1242,
      "టాన్": 1243,
      "టోర": 1244,
      "డైన": 1245,
      "ఢా": 1246,
      "ణులు": 1247,
      "తీ": 1248,
      "తర్": 1249,
      "తను": 1250,
      "తంగా": 1251,
      "తత్వ": 1252,
      "తక్కువ": 1253,
      "థ్యం": 1254,
      "దర్": 1255,
      "దగా": 1256,
      "దరా": 1257,
      "దండ": 1258,
      "దులు": 1259,
      "ధీన": 1260,
      "నం": 1261,
      "నూ": 1262,
      "నిక": 1263,
      "పలు": 1264,
      "పిక": 1265,
      "పవి": 1266,
      "ప్ల": 1267,
      "పల్ల": 1268,
      "పడు": 1269,
      "పర్వ": 1270,
      "పతా": 1271,
      "పక్క": 1272,
      "పడిన": 1273,
      "ఫల": 1274,
      "బు": 1275,
      "బౌ": 1276,
      "బంగ": 1277,
      "భవ": 1278,
      "భాతో": 1279,
      "భక్తి": 1280,
      "మ్": 1281,
      "మించ": 1282,
      "మిత": 1283,
      "మరో": 1284,
      "యం": 1285,
      "యింది.": 1286,
      "యాత్ర": 1287,
      "యమించ": 1288,
      "రీ": 1289,
      "రకాలు": 1290,
      "రికా": 1291,
      "రచయ": 1292,
      "లౌ": 1293,
      "లకొ": 1294,
      "లమె": 1295,
      "లస్య": 1296,
      "ళా": 1297,
      "ళి": 1298,
      "విం": 1299,
      "వంత": 1300,
      "వరు": 1301,
      "వైన": 1302,
      "వార్": 1303,
      "వత్ర": 1304,
      "వనాలు": 1305,
      "వాయు": 1306,
      "శక": 1307,
      "శి": 1308,
      "శీ": 1309,
      "శై": 1310,
      "శో": 1311,
      "శకు": 1312,
      "షయాలు": 1313,
      "సన": 1314,
      "సీ": 1315,
      "సె": 1316,
      "సాల": 1317,
      "సిక్": 1318,
      "హో": 1319,
      "హ్ర": 1320,
      "ామ": 1321,
      "ాన్ని": 1322,
      "ాడే": 1323,
      "ిమాన": 1324,
      "ీం": 1325,
      "ీక్ష": 1326,
      "ీషు": 1327,
      "ుత్": 1328,
      "ుపూర్వ": 1329,
      "ూనది": 1330,
      "ే.": 1331,
      "ోత్": 1332,
      "ౌర": 1333,
      "్మా": 1334,
      "‌సభ": 1335,
      "‌కాత": 1336,
      "ారి": 1337,
      "లుగా": 1338,
      "లోమీ": 1339,
      "స్వీ": 1340,
      "స్కరణ": 1341,
      "స్లిం": 1342,
      "దేమాత": 1343,
      "ప్రదేశ": 1344,
      "ప్రాయ": 1345,
      "ప్రసి": 1346,
      "ప్రత్య": 1347,
      "ప్రయో": 1348,
      "ప్రీం": 1349,
      "ింది": 1350,
      "దేశీ": 1351,
      "ర్తి": 1352,
      "ర్పు": 1353,
      "ర్జాతీయ": 1354,
      "ర్చు": 1355,
      "ర్థ్యం": 1356,
      "భారత్‌": 1357,
      "న్నీ": 1358,
      "న్నై": 1359,
      "గాన్ని": 1360,
      "కు,": 1361,
      "నిపు": 1362,
      "నిడి": 1363,
      "నియమించ": 1364,
      "విలు": 1365,
      "విమాన": 1366,
      "విశ్": 1367,
      "విషయాలు": 1368,
      "విదేశీ": 1369,
      "ాతం": 1370,
      "ాతి": 1371,
      "ాత్మా": 1372,
      "క్టోర": 1373,
      "ానీ": 1374,
      "ాను": 1375,
      "ాన్య": 1376,
      "దేశం.": 1377,
      "ముడి": 1378,
      "ముస్లిం": 1379,
      "ండ్": 1380,
      "ినీ": 1381,
      "తిరు": 1382,
      "స్తులు": 1383,
      "స్తారు": 1384,
      "సంస్కరణ": 1385,
      "పుకో": 1386,
      "పుతూ": 1387,
      "స్థాయి": 1388,
      "స్థావర": 1389,
      "ంటి": 1390,
      "ంలో,": 1391,
      "భారతదేశం.": 1392,
      "భావిస్త": 1393,
      "భాగాన్ని": 1394,
      "ంగా,": 1395,
      "పావ": 1396,
      "పాంత": 1397,
      "పాడు": 1398,
      "వాదం": 1399,
      "సాహ": 1400,
      "సామా": 1401,
      "ార్థ": 1402,
      "కూడి": 1403,
      "కూడుకొ": 1404,
      "రాజు": 1405,
      "కోట్ల": 1406,
      "క్రి": 1407,
      "కాహార": 1408,
      "కాపాడు": 1409,
      "చ్చే": 1410,
      "నేరే": 1411,
      "మొగలు": 1412,
      "ంచిన": 1413,
      "దుగా": 1414,
      "మాట్ల": 1415,
      "యాళం": 1416,
      "నాథ": 1417,
      "రాష్ట్రాలు,": 1418,
      "గుబా": 1419,
      "వచ్చని": 1420,
      "differ": 1421,
      "వే.": 1422,
      "వేద": 1423,
      "వేల": 1424,
      "help": 1425,
      "కాలే": 1426,
      "డిస్": 1427,
      "ద్రా": 1428,
      "ary": 1429,
      "శాసన": 1430,
      "దేశాలను": 1431,
      "ofile": 1432,
      "ందింది.": 1433,
      "ఎన్నుకో": 1434,
      "ఎన్నుకుంట": 1435,
      "కిలోమీ": 1436,
      "చెప్": 1437,
      "చెంద": 1438,
      "చెందు": 1439,
      "చెన్నై": 1440,
      "కేతిక": 1441,
      "తులతో": 1442,
      "హిందీ": 1443,
      "పేరు,": 1444,
      "అధికారం": 1445,
      "పర్యాయ": 1446,
      "పరీక్ష": 1447,
      "పరిపాలన": 1448,
      "మతాలు": 1449,
      "మతము": 1450,
      "మీదగా": 1451,
      "మే.": 1452,
      "వరీ": 1453,
      "సుప్రీం": 1454,
      "ప్రపంచములో": 1455,
      "స్థానం": 1456,
      "స్థానాలను": 1457,
      "భాషా": 1458,
      "భాషలను": 1459,
      "ప్రాంతీయ": 1460,
      "ప్రాంతాల్లో": 1461,
      "రాజ్యంగా": 1462,
      "దాయంలో": 1463,
      "వారి": 1464,
      "వర్ష": 1465,
      "వర్తి": 1466,
      "సభను": 1467,
      "క్రీ.పూ.": 1468,
      "పార్టీ,": 1469,
      "orld": 1470,
      "జనాభాతో": 1471,
      "పూర్తి": 1472,
      "పోరా": 1473,
      "పోయింది.": 1474,
      "మనదేశం": 1475,
      "మిస్తు": 1476,
      "రెండవ": 1477,
      "రెండో": 1478,
      "లంక": 1479,
      "లాహో": 1480,
      "వుతుంది.": 1481,
      "వెల్ల": 1482,
      "ప్రజలు": 1483,
      "ప్రభుత్వాన్ని": 1484,
      "ముఖ్యంగా": 1485,
      "ern": 1486,
      "error": 1487,
      "గీతం": 1488,
      "స్త్రీలు": 1489,
      "సాంకేతిక": 1490,
      "gue": 1491,
      "అతిపెద్ద": 1492,
      "జనతా": 1493,
      "జనవరి": 1494,
      "జరిగే": 1495,
      "బడింది.": 1496,
      "మహి": 1497,
      "మహాత్మా": 1498,
      "క్రీడా": 1499,
      "క్రీడలలో": 1500,
      "అయినప్పటిక": 1501,
      "అయినా,": 1502,
      "ess": 1503,
      "గోదా": 1504,
      "గోళిక": 1505,
      "గినది.": 1506,
      "మానం:": 1507,
      "లేదు": 1508,
      "ప్రస్తుతము": 1509,
      "క్కను": 1510,
      "సాధించిన": 1511,
      "కాంగ్రెస్": 1512,
      "కాలంలో,": 1513,
      "ాబ్ది": 1514,
      "2003": 1515,
      "get:": 1516,
      "ఉపయో": 1517,
      "గణతంత్ర": 1518,
      "భూభాగం": 1519,
      "భూటాన్": 1520,
      "యుగ": 1521,
      "రంగంలో": 1522,
      "వలన": 1523,
      "వలస": 1524,
      "ప్రతిపక్ష": 1525,
      "విస్తీర్": 1526,
      "ప్రముఖమైన": 1527,
      "ing": 1528,
      "lish": 1529,
      "నెలకొ": 1530,
      "మాత్రమే": 1531,
      "సమాజ": 1532,
      "స్వతం": 1533,
      "భారత్,": 1534,
      "సామర్థ్యం": 1535,
      "ఉత్తరాన": 1536,
      "పట్టణాలు,": 1537,
      "బ్రిటీ": 1538,
      "ప్పటికీ": 1539,
      "సింధూనది": 1540,
      "సరిహద్దుగా": 1541,
      "సౌకర్యాలు": 1542,
      "సౌకర్యాలలో": 1543,
      "స్వాతంత్ర్యం": 1544,
      "(1,26": 1545,
      "Congr": 1546,
      "nolo": 1547,
      "కళలు": 1548,
      "చైనా": 1549,
      "చైనాను": 1550,
      "తూర్పు": 1551,
      "తమిళ": 1552,
      "నగరాలు": 1553,
      "రూపాంత": 1554,
      "సమరం": 1555,
      "సారస్వతం": 1556,
      "సంఖ్యా": 1557,
      "పుట్టుపూర్వ": 1558,
      "రైల్వేశాఖ": 1559,
      "పాలనలో": 1560,
      "ఒకటిగా": 1561,
      "ప్రపంచంలోని": 1562,
      "వెబ్": 1563,
      "ప్రజాదర": 1564,
      "సముద్రతీ": 1565,
      "నిర్వహించింది.": 1566,
      "185": 1567,
      "3,0": 1568,
      "CIA": 1569,
      "CITER": 1570,
      "ate": 1571,
      "చిరు": 1572,
      "నాయకత్వ": 1573,
      "మలయాళం": 1574,
      "సూచించిన": 1575,
      "హాకీ": 1576,
      "ిస్తారు.": 1577,
      "లోక్‌సభ": 1578,
      "కులాలు,": 1579,
      "కుంటూ": 1580,
      "కుంటారు.": 1581,
      "నిర్మ": 1582,
      "ాయుత": 1583,
      "సంవత్సర": 1584,
      "మేనని": 1585,
      "రాజ్యాలుగా": 1586,
      "సభ్యు": 1587,
      "సభ్యులు": 1588,
      "జనగణన": 1589,
      "జనగణమన": 1590,
      "ఆధారపడిన": 1591,
      "సామ్రాజ్య": 1592,
      "సామ్రాజ్యం": 1593,
      "బ్రిటిష్": 1594,
      "బ్రిటిషు": 1595,
      "పశ్చిమ": 1596,
      "పశ్చిమాన": 1597,
      "26న": 1598,
      "87,263": 1599,
      "sembly": 1600,
      "wide": 1601,
      "ఆహారం": 1602,
      "ఇంగ్లీషు": 1603,
      "కిందకు": 1604,
      "టైటి": 1605,
      "టర్లకు": 1606,
      "పార్లమె": 1607,
      "భరత": 1608,
      "భౌగోళిక": 1609,
      "మూల": 1610,
      "మౌర్య": 1611,
      "వందేమాత": 1612,
      "సహస్ర": 1613,
      "సైనిక": 1614,
      "సార్వత్ర": 1615,
      "హైదరా": 1616,
      "ప్రారంభించ": 1617,
      "ర్షణ": 1618,
      "ర్‌ల": 1619,
      "విద్యుత్": 1620,
      "సంకీర్ణ": 1621,
      "పురుషు": 1622,
      "స్థితి": 1623,
      "కూడుకుని": 1624,
      "కోల్‌కాత": 1625,
      "నేపాల్": 1626,
      "పాలించారు.": 1627,
      "ఎన్నికల్లో": 1628,
      "రాజ్యాంగం": 1629,
      "బడతారు.": 1630,
      "మహాసముద్రం": 1631,
      "ప్రతిపాదనకు": 1632,
      "కోర్టులు": 1633,
      "ఏర్పడ్డాయి.": 1634,
      "కార్యక్రమాలు": 1635,
      "ఆఫ్ఘనిస్తాన్": 1636,
      "జరుపుకుంటారు.": 1637,
      "పీఠభూ": 1638,
      "బంగ్లాదేశ్‌": 1639,
      "శెలవుదినాలు": 1640,
      "హిమాలయ": 1641,
      "Constituent": 1642,
      "59-": 1643,
      "Assembly": 1644,
      "CEE": 1645,
      "Ethnolo": 1646,
      "English": 1647,
      "Factbo": 1648,
      "Hindi": 1649,
      "Libr": 1650,
      "Profile": 1651,
      "_of_": 1652,
      "evan": 1653,
      "harv": 1654,
      "target:": 1655,
      "అంతర్జాతీయ": 1656,
      "అమెరికా": 1657,
      "ఇండో": 1658,
      "ఈశాన్య": 1659,
      "ఈస్ట్": 1660,
      "ఎలక్టోర": 1661,
      "ఏప్రిల్": 1662,
      "ఐరోపా": 1663,
      "కనుమలు": 1664,
      "కబడ్డీ": 1665,
      "ఖనిజాలు": 1666,
      "గెలుచుకోవడ": 1667,
      "చూడండి": 1668,
      "జమ్మూ": 1669,
      "ట్రో": 1670,
      "ఢాకా": 1671,
      "తర్వాత": 1672,
      "పిక్‌": 1673,
      "పవిత్ర": 1674,
      "పతాక": 1675,
      "పక్కన": 1676,
      "బౌద్ధ": 1677,
      "బంగారు": 1678,
      "రచయిత": 1679,
      "లౌక": 1680,
      "ోత్తరాలు": 1681,
      "ప్రసిద్ధి": 1682,
      "భారత్‌లో": 1683,
      "నిపుణులు": 1684,
      "నిడివి": 1685,
      "తిరుగుబా": 1686,
      "స్థావరాలు": 1687,
      "సామాజిక,": 1688,
      "కూడుకొని": 1689,
      "కాపాడుకుంటూ": 1690,
      "నేరేడు": 1691,
      "మాట్లాడే": 1692,
      "ఎన్నుకోబడతారు.": 1693,
      "కిలోమీటర్లకు": 1694,
      "చెప్పుకో": 1695,
      "చెందాయి.": 1696,
      "చెందుతున్న": 1697,
      "పర్యాయాలు": 1698,
      "పూర్తిగా": 1699,
      "error:": 1700,
      "ఉపయోగి": 1701,
      "(1,269,2": 1702,
      "Congress": 1703,
      "పుట్టుపూర్వోత్తరాలు": 1704,
      "ప్రజాదరణ": 1705,
      "CITEREF": 1706,
      "సూచించినట్లు": 1707,
      "వందేమాతరం": 1708,
      "సహస్రాబ్ది": 1709,
      "సార్వత్రిక": 1710,
      "కోల్‌కాతా": 1711,
      "Ethnologue": 1712,
      "Factbook": 1713,
      "Library": 1714,
      "ఎలక్టోరల్": 1715,
      "గెలుచుకోవడం": 1716,
      "తిరుగుబాటు": 1717,
      "\".": 1718,
      "\"భారతదేశం": 1719,
      "\"di": 1720,
      "\"language": 1721,
      "\"The": 1722,
      "\"భరత": 1723,
      "%)": 1724,
      "%.": 1725,
      "%).": 1726,
      "(3": 1727,
      "(5": 1728,
      "(8": 1729,
      "(ఆ": 1730,
      "(ఉ": 1731,
      "(ట": 1732,
      "(భారత": 1733,
      "(సా": 1734,
      "(గి": 1735,
      "(తా": 1736,
      "(బ్ర": 1737,
      "(ou": 1738,
      "(ఇదే": 1739,
      "(శక": 1740,
      "(CEE": 1741,
      "):": 1742,
      ",0": 1743,
      ",18": 1744,
      ",87,263": 1745,
      "-7": 1746,
      "-ఆ": 1747,
      "-ఇ": 1748,
      "-దేశ": 1749,
      "-19": 1750,
      "-ఢిల్లీ": 1751,
      "-టె": 1752,
      "-56": 1753,
      "-ఖో": 1754,
      "-దండ": 1755,
      "-లాహో": 1756,
      ".8": 1757,
      ".9": 1758,
      ".ఇ": 1759,
      ".ఈ": 1760,
      ".ఏ": 1761,
      ".కి": 1762,
      ".మీ": 1763,
      ".).": 1764,
      ".23": 1765,
      "/G": 1766,
      "0%": 1767,
      "0-19": 1768,
      "11": 1769,
      "15": 1770,
      "100": 1771,
      "1000": 1772,
      "1,9": 1773,
      "1,7": 1774,
      "1,0": 1775,
      "2%": 1776,
      "25": 1777,
      "2%),": 1778,
      "2,9": 1779,
      "21-": 1780,
      "2,14": 1781,
      "2,87,263": 1782,
      "30": 1783,
      "3.8": 1784,
      "32,87,263": 1785,
      "4లో": 1786,
      "447": 1787,
      "422": 1788,
      "4%,": 1789,
      "48లో": 1790,
      "421-": 1791,
      "52": 1792,
      "546": 1793,
      "5,7": 1794,
      "65": 1795,
      "6%),": 1796,
      "6,9": 1797,
      "7000": 1798,
      "7,9": 1799,
      "73,": 1800,
      "740": 1801,
      "7,5": 1802,
      "7.23": 1803,
      "75,7": 1804,
      "81-": 1805,
      "83,0": 1806,
      "8-7": 1807,
      "82,14": 1808,
      "83.8": 1809,
      "900": 1810,
      "9,000": 1811,
      "AL": 1812,
      "Ac": 1813,
      "Ar": 1814,
      "BB": 1815,
      "BS": 1816,
      "B/G": 1817,
      "C,": 1818,
      "Ch": 1819,
      "Di": 1820,
      "Date": 1821,
      "Devan": 1822,
      "HZ": 1823,
      "II": 1824,
      "IN": 1825,
      "Int": 1826,
      "Langua": 1827,
      "Ma": 1828,
      "Nation": 1829,
      "Par": 1830,
      "PAL": 1831,
      "PIN": 1832,
      "Se": 1833,
      "St": 1834,
      "Ty": 1835,
      "V;": 1836,
      "VII": 1837,
      "Wa": 1838,
      "World": 1839,
      "XVII": 1840,
      "_Assembly": 1841,
      "ac": 1842,
      "ad": 1843,
      "ag": 1844,
      "au": 1845,
      "av": 1846,
      "be": 1847,
      "bj": 1848,
      "by": 1849,
      "bor": 1850,
      "bas": 1851,
      "bate": 1852,
      "bac": 1853,
      "can": 1854,
      "cor": 1855,
      "ces": 1856,
      "ced": 1857,
      "cri": 1858,
      "country": 1859,
      "cau": 1860,
      "du": 1861,
      "der": 1862,
      "ep": 1863,
      "for": 1864,
      "fin": 1865,
      "go": 1866,
      "gan": 1867,
      "ges": 1868,
      "giv": 1869,
      "how": 1870,
      "hav": 1871,
      "ir": 1872,
      "iz": 1873,
      "ies": 1874,
      "ich": 1875,
      "liv": 1876,
      "ms": 1877,
      "mar": 1878,
      "ment": 1879,
      "nct": 1880,
      "othe": 1881,
      "ome": 1882,
      "odu": 1883,
      "pe": 1884,
      "pr": 1885,
      "pt": 1886,
      "pu": 1887,
      "ped": 1888,
      "pri": 1889,
      "ris": 1890,
      "res": 1891,
      "rces": 1892,
      "rep": 1893,
      "su": 1894,
      "sou": 1895,
      "scri": 1896,
      "siz": 1897,
      "some": 1898,
      "spu": 1899,
      "ton": 1900,
      "tor": 1901,
      "tation": 1902,
      "uni": 1903,
      "vern": 1904,
      "world": 1905,
      "ybac": 1906,
      "ంజ": 1907,
      "ంథ": 1908,
      "ంతి": 1909,
      "ం\",": 1910,
      "అర": 1911,
      "అల": 1912,
      "అస్": 1913,
      "అది": 1914,
      "అన్న": 1915,
      "అల్": 1916,
      "అరు": 1917,
      "అక్ష": 1918,
      "అంది": 1919,
      "అవర": 1920,
      "అద్ద": 1921,
      "అలం": 1922,
      "అధి": 1923,
      "అంద": 1924,
      "అఖండ": 1925,
      "అమల": 1926,
      "అరే": 1927,
      "అంటే": 1928,
      "అంక": 1929,
      "అధీన": 1930,
      "అశో": 1931,
      "ఆగ": 1932,
      "ఆలో": 1933,
      "ఆదేశ": 1934,
      "ఆవి": 1935,
      "ఆతి": 1936,
      "ఆక్ర": 1937,
      "ఆయా": 1938,
      "ఆనా": 1939,
      "ఆడు": 1940,
      "ఆధ్య": 1941,
      "ఆదాయ": 1942,
      "ఆగ్": 1943,
      "ఆవల": 1944,
      "ఆణి": 1945,
      "ఆచార": 1946,
      "ఆక్షరాస్యత": 1947,
      "ఆటలు": 1948,
      "ఆనం": 1949,
      "ఆలస్య": 1950,
      "ఇ-": 1951,
      "ఇయ": 1952,
      "ఇన్": 1953,
      "ఇను": 1954,
      "ఇము": 1955,
      "ఇతి": 1956,
      "ఇంది": 1957,
      "ఇతరు": 1958,
      "ఇందు": 1959,
      "ఇంకా": 1960,
      "ఇతను": 1961,
      "ఇంటి": 1962,
      "ఇచ్చే": 1963,
      "ఇప్పటికీ": 1964,
      "ఉర్": 1965,
      "ఉద్": 1966,
      "ఉపా": 1967,
      "ఉండి": 1968,
      "ఉండు": 1969,
      "ఉష్ణ": 1970,
      "ఉనిక": 1971,
      "ఋతు": 1972,
      "ఎమ": 1973,
      "ఎదు": 1974,
      "ఎగు": 1975,
      "ఎల్ల": 1976,
      "ఎంతో": 1977,
      "ఎగువ": 1978,
      "ఏక": 1979,
      "ఏడ": 1980,
      "ఏడు": 1981,
      "ఏటా": 1982,
      "ఏకత్వ": 1983,
      "ఏళ్ళ": 1984,
      "ఐదు": 1985,
      "ఒక్": 1986,
      "ఒరి": 1987,
      "ఒలిం": 1988,
      "ఒడిస్": 1989,
      "ఓడ": 1990,
      "ఓటర్": 1991,
      "ఔట్‌": 1992,
      "క,": 1993,
      "కిం": 1994,
      "కర్": 1995,
      "కని": 1996,
      "కాయ": 1997,
      "కరా": 1998,
      "కంట": 1999,
      "కార్": 2000,
      "కిత": 2001,
      "కష్ట": 2002,
      "కట్ట": 2003,
      "కమైన": 2004,
      "కమీ": 2005,
      "క్యం": 2006,
      "కమల": 2007,
      "కమేన": 2008,
      "కెట్": 2009,
      "కర్‌": 2010,
      "కత్తా": 2011,
      "కానీ": 2012,
      "కవరీ": 2013,
      "ఖిక": 2014,
      "ఖగో": 2015,
      "ఖర్చు": 2016,
      "ఖాతం": 2017,
      "గృ": 2018,
      "గె": 2019,
      "గర్": 2020,
      "గించ": 2021,
      "గతి": 2022,
      "గల్": 2023,
      "గులు": 2024,
      "గింది.": 2025,
      "గలి": 2026,
      "గిన్న": 2027,
      "గర్,": 2028,
      "గనులు": 2029,
      "గౌర": 2030,
      "ఘన": 2031,
      "ఘు": 2032,
      "ఘట్ట": 2033,
      "ఘోర": 2034,
      "ఘిక,": 2035,
      "ఘర్షణ": 2036,
      "చా": 2037,
      "చీ": 2038,
      "చూ": 2039,
      "చో": 2040,
      "చ్": 2041,
      "చము": 2042,
      "చిన": 2043,
      "చింది.": 2044,
      "చిత": 2045,
      "చక్ర": 2046,
      "చట్ట": 2047,
      "చులు,": 2048,
      "చీ,": 2049,
      "చూప": 2050,
      "చర్,": 2051,
      "చ.కి": 2052,
      "ఛాయుత": 2053,
      "జా": 2054,
      "జె": 2055,
      "జై": 2056,
      "జౌ": 2057,
      "జ్ర": 2058,
      "జాన": 2059,
      "జిన": 2060,
      "జంత": 2061,
      "జైన": 2062,
      "జపా": 2063,
      "జిత": 2064,
      "జ్‌": 2065,
      "జెండ": 2066,
      "జనాలు": 2067,
      "జిల్ల": 2068,
      "జవహ": 2069,
      "జెట్": 2070,
      "ఞాన": 2071,
      "టన": 2072,
      "టో": 2073,
      "టస్": 2074,
      "టిన": 2075,
      "టాయి": 2076,
      "టచే": 2077,
      "ట్యం": 2078,
      "టం,": 2079,
      "ట్రా": 2080,
      "టంతో": 2081,
      "టమూ": 2082,
      "ఠీ;": 2083,
      "డ్ర": 2084,
      "డ్య": 2085,
      "డాల": 2086,
      "డింది.": 2087,
      "డ్చ": 2088,
      "డ్ల": 2089,
      "డ్‌": 2090,
      "డాలు,": 2091,
      "డానికి": 2092,
      "డించింది.": 2093,
      "డబు": 2094,
      "డమ్": 2095,
      "ఢవి": 2096,
      "ణే": 2097,
      "ణిక": 2098,
      "ణాలు": 2099,
      "ణించ": 2100,
      "ణదార": 2101,
      "ణంతో": 2102,
      "ణుల": 2103,
      "త,": 2104,
      "తార": 2105,
      "తాయ": 2106,
      "తాన": 2107,
      "తరా": 2108,
      "తాయి.": 2109,
      "తదు": 2110,
      "తక్కు": 2111,
      "తలం": 2112,
      "తగ్": 2113,
      "తమై": 2114,
      "తమ్య": 2115,
      "తాలతో": 2116,
      "తీ,": 2117,
      "తదేశపు": 2118,
      "థమ": 2119,
      "థి": 2120,
      "థాత": 2121,
      "థాన": 2122,
      "థార్": 2123,
      "దశ": 2124,
      "దస": 2125,
      "దూ": 2126,
      "దృ": 2127,
      "దాన": 2128,
      "దీయ": 2129,
      "దైన": 2130,
      "దారు": 2131,
      "దాబ": 2132,
      "దీన": 2133,
      "దగ్": 2134,
      "దీర్": 2135,
      "దగినది.": 2136,
      "దక్కను": 2137,
      "ధం": 2138,
      "ధర": 2139,
      "ధు": 2140,
      "ధాల": 2141,
      "ధిన": 2142,
      "ధరి": 2143,
      "ధనా": 2144,
      "ధిల్ల": 2145,
      "నృ": 2146,
      "నై": 2147,
      "నో": 2148,
      "నలు": 2149,
      "న్య": 2150,
      "నాల": 2151,
      "నర్": 2152,
      "నవి": 2153,
      "నంలో": 2154,
      "నసా": 2155,
      "నికి": 2156,
      "నడు": 2157,
      "నలలో": 2158,
      "ననీ": 2159,
      "నప్పటిక": 2160,
      "నాలతో": 2161,
      "నవచ్చు.": 2162,
      "నబడిన": 2163,
      "నదులు": 2164,
      "పక": 2165,
      "పబ": 2166,
      "పి": 2167,
      "పస్": 2168,
      "పది": 2169,
      "పిన": 2170,
      "పంలో": 2171,
      "పూడ": 2172,
      "పిత": 2173,
      "పరాజ": 2174,
      "పచ్చ": 2175,
      "పలి": 2176,
      "పట్": 2177,
      "పత్య": 2178,
      "పించింది.": 2179,
      "పం:": 2180,
      "పకళ": 2181,
      "పించే": 2182,
      "పటం": 2183,
      "పిక్": 2184,
      "పస్ర": 2185,
      "పర్ష": 2186,
      "పటంలో": 2187,
      "పవనాలు": 2188,
      "పౌర": 2189,
      "పండ్": 2190,
      "ఫు": 2191,
      "ఫ్ర": 2192,
      "ఫర్": 2193,
      "ఫరా": 2194,
      "ఫ్ట": 2195,
      "ఫలం": 2196,
      "ఫిక్": 2197,
      "బల": 2198,
      "బై": 2199,
      "బొ": 2200,
      "బాల": 2201,
      "బండ": 2202,
      "బంగా": 2203,
      "బడ్": 2204,
      "బిన్న": 2205,
      "బాబ్": 2206,
      "బ్యా": 2207,
      "బద్ధం": 2208,
      "భ్య": 2209,
      "భిం": 2210,
      "భంగ": 2211,
      "భదాయ": 2212,
      "భజిత": 2213,
      "మ.": 2214,
      "మయ": 2215,
      "మో": 2216,
      "మార": 2217,
      "మస్": 2218,
      "మిం": 2219,
      "మాల": 2220,
      "మాయ": 2221,
      "మరా": 2222,
      "మిన": 2223,
      "మంత": 2224,
      "మంలో": 2225,
      "మలి": 2226,
      "మతం": 2227,
      "మికి": 2228,
      "మ్‌": 2229,
      "మాల్": 2230,
      "మిత్ర": 2231,
      "మణి": 2232,
      "మంచి": 2233,
      "మసాల": 2234,
      "మద్రా": 2235,
      "మంజ": 2236,
      "యి": 2237,
      "యూ": 2238,
      "యస్": 2239,
      "యము": 2240,
      "యిన": 2241,
      "యులు": 2242,
      "యం:": 2243,
      "యంతో": 2244,
      "యనులు": 2245,
      "యింది": 2246,
      "యంలో,": 2247,
      "యథాత": 2248,
      "రొ": 2249,
      "ర‌": 2250,
      "రలో": 2251,
      "రాయ": 2252,
      "రము": 2253,
      "రద్": 2254,
      "రత్": 2255,
      "రంగా": 2256,
      "రక్ష": 2257,
      "రమైన": 2258,
      "రవే": 2259,
      "రించిన": 2260,
      "రవీ": 2261,
      "రీ;": 2262,
      "రక్షరాస్యత": 2263,
      "రాలు.": 2264,
      "రారి": 2265,
      "రకు,": 2266,
      "రాతి": 2267,
      "రమే.": 2268,
      "రతాయ": 2269,
      "రబద్ధం": 2270,
      "ల,": 2271,
      "లిక": 2272,
      "లిన": 2273,
      "లైన": 2274,
      "లకాల": 2275,
      "లబె": 2276,
      "లపై": 2277,
      "లహా": 2278,
      "లమానం:": 2279,
      "లఘు": 2280,
      "లబై": 2281,
      "లభ్య": 2282,
      "ళల": 2283,
      "ళు": 2284,
      "ళులు": 2285,
      "ళూరు": 2286,
      "ళవిం": 2287,
      "వత": 2288,
      "వ‌": 2289,
      "వలి": 2290,
      "వస్తు": 2291,
      "వద్ద": 2292,
      "వమి": 2293,
      "వలను": 2294,
      "వస్థానంలో": 2295,
      "వూప": 2296,
      "వనాథ": 2297,
      "వజ్ర": 2298,
      "వన్య": 2299,
      "శే": 2300,
      "శాల": 2301,
      "శక్": 2302,
      "శంలో": 2303,
      "శించే": 2304,
      "శిల్": 2305,
      "శక్తి": 2306,
      "శాతం": 2307,
      "శరద్": 2308,
      "షే": 2309,
      "షన్": 2310,
      "షులు": 2311,
      "షం.": 2312,
      "షకాహార": 2313,
      "సొ": 2314,
      "సాలు": 2315,
      "సగా": 2316,
      "సాయ": 2317,
      "సిన": 2318,
      "సల్": 2319,
      "సభా": 2320,
      "సవా": 2321,
      "సత్య": 2322,
      "సమి": 2323,
      "సమాన": 2324,
      "సరం": 2325,
      "సీలు": 2326,
      "సత్తా": 2327,
      "సాయుత": 2328,
      "సలహా": 2329,
      "హె": 2330,
      "హొ": 2331,
      "హ్": 2332,
      "హిం": 2333,
      "హర్": 2334,
      "హాయ": 2335,
      "హస్త": 2336,
      "హపు": 2337,
      "హాలు,": 2338,
      "హక్కు": 2339,
      "హ్మ": 2340,
      "హ్వ": 2341,
      "ా)": 2342,
      "ాలో": 2343,
      "ాదు": 2344,
      "ాంబ": 2345,
      "ాశ్ర": 2346,
      "ాలోయ": 2347,
      "ానిస్తాన్": 2348,
      "ాము.": 2349,
      "ాదాయంలో": 2350,
      "ాంతి": 2351,
      "ాడ్‌": 2352,
      "ాధిన": 2353,
      "ాపక": 2354,
      "ి,": 2355,
      "ి:": 2356,
      "ిని": 2357,
      "ిచె": 2358,
      "ిశ్ర": 2359,
      "ిలే": 2360,
      "ిరంగ": 2361,
      "ిద్ధి": 2362,
      "ిళ్ళ": 2363,
      "ిటన్": 2364,
      "ియనులు": 2365,
      "ీకృ": 2366,
      "ీకరణ": 2367,
      "ీకులు": 2368,
      "ీ-దండ": 2369,
      "ుని": 2370,
      "ును": 2371,
      "ుల్": 2372,
      "ువు": 2373,
      "ుర్య": 2374,
      "ుడైన": 2375,
      "ునిక": 2376,
      "ుళూరు": 2377,
      "ూ,": 2378,
      "ూలా": 2379,
      "ృతంగా": 2380,
      "ెస్": 2381,
      "ెర్": 2382,
      "ెన్న": 2383,
      "ెనే": 2384,
      "ెడ్": 2385,
      "ెల్లో": 2386,
      "ెక్కను": 2387,
      "ేత": 2388,
      "ేకా": 2389,
      "ేష్": 2390,
      "ే..": 2391,
      "ేకమైన": 2392,
      "ేననీ": 2393,
      "ేయులు": 2394,
      "ైక": 2395,
      "ైస్త": 2396,
      "ైపో": 2397,
      "ైవరు": 2398,
      "ోంది.": 2399,
      "ోక్ష": 2400,
      "ోద్య": 2401,
      "ోత్రి": 2402,
      "ోధాల": 2403,
      "్;": 2404,
      "్లో": 2405,
      "్తదేశపు": 2406,
      "‌కు": 2407,
      "‌టిక": 2408,
      "‌తంలో": 2409,
      "‌ఫర్": 2410,
      "‌వ‌": 2411,
      "–2004": 2412,
      "్రిచె": 2413,
      "ారణంగా": 2414,
      "ారమ్‌": 2415,
      "లు,": 2416,
      "లుపలి": 2417,
      "లోన్": 2418,
      "లోని": 2419,
      "లోను": 2420,
      "లోకాల": 2421,
      "లోపం": 2422,
      "స్లో": 2423,
      "స్వే": 2424,
      "స్వర": 2425,
      "స్లే": 2426,
      "స్టా": 2427,
      "స్టే": 2428,
      "స్వర్ణ": 2429,
      "స్టలు": 2430,
      "్యులు": 2431,
      "్యంలో": 2432,
      "న్మార్": 2433,
      "న్సీ": 2434,
      "న్లుగా": 2435,
      "ది,": 2436,
      "దిర్": 2437,
      "దిరి": 2438,
      "దికి": 2439,
      "దిగ్": 2440,
      "దిభాగం": 2441,
      "దిగువ": 2442,
      "దే.": 2443,
      "ప్రమా": 2444,
      "ప్రయా": 2445,
      "ప్రఖ్య": 2446,
      "ప్రణా": 2447,
      "ప్రదేశాల": 2448,
      "ప్రార్థ": 2449,
      "ప్రగతి": 2450,
      "ప్రథమ": 2451,
      "ింపు": 2452,
      "ింసాయుత": 2453,
      "దేశిక": 2454,
      "దేశము": 2455,
      "దేశరాజకీయ": 2456,
      "దేశాన్ని": 2457,
      "దేశమంత": 2458,
      "దేశాధిన": 2459,
      "ాలని": 2460,
      "ాలే.": 2461,
      "ాలన్నీ": 2462,
      "ాలెక్కను": 2463,
      "ాలేకా": 2464,
      "ికలు": 2465,
      "ికులు": 2466,
      "ికూడ": 2467,
      "ికం,": 2468,
      "ర్టి": 2469,
      "ర్కొ": 2470,
      "ర్తా": 2471,
      "ర్సిం": 2472,
      "ర్జాలు": 2473,
      "ర్లు.": 2474,
      "ర్భవ": 2475,
      "ర్జె": 2476,
      "భార్తదేశపు": 2477,
      "భార‌తంలో": 2478,
      "భారత,": 2479,
      "భారతం": 2480,
      "భారతం,": 2481,
      "భారతంలో,": 2482,
      "ాలున్నాయి.": 2483,
      "న్నత": 2484,
      "న్నా,": 2485,
      "గాంచిన": 2486,
      "గాయి": 2487,
      "కుండ": 2488,
      "కునే": 2489,
      "కుడు": 2490,
      "కుడి": 2491,
      "కుమార్": 2492,
      "కులం": 2493,
      "కులను": 2494,
      "కుమారు": 2495,
      "కుడ్య": 2496,
      "కుదిర్": 2497,
      "కుర్తా": 2498,
      "నివా": 2499,
      "నిచ్చ": 2500,
      "నియా": 2501,
      "నివార": 2502,
      "నియో": 2503,
      "నిధి": 2504,
      "నివి.": 2505,
      "నివల్ల": 2506,
      "నిలిచ": 2507,
      "నిరక్షరాస్యత": 2508,
      "నిలబె": 2509,
      "నిషే": 2510,
      "విడ": 2511,
      "విడి": 2512,
      "విధాన": 2513,
      "విస్తు": 2514,
      "వివర": 2515,
      "విశాఖ": 2516,
      "విజన్": 2517,
      "వినాయ": 2518,
      "వితంలో": 2519,
      "విజ్": 2520,
      "విఫల": 2521,
      "విశి": 2522,
      "వివాదం": 2523,
      "విభజిత": 2524,
      "విశే": 2525,
      "విసభా": 2526,
      "ాత్మ": 2527,
      "ాయతి": 2528,
      "ాయకార": 2529,
      "ాయీలు": 2530,
      "క్త": 2531,
      "క్నాల": 2532,
      "క్‌టిక": 2533,
      "ానెట్": 2534,
      "రామన": 2535,
      "రాణించ": 2536,
      "రామాయ": 2537,
      "రాసిన": 2538,
      "ను,": 2539,
      "నున్న": 2540,
      "ము,": 2541,
      "ముద్ర": 2542,
      "ముత్య": 2543,
      "ముందు": 2544,
      "ములు.": 2545,
      "ండర్": 2546,
      "ండ్రా": 2547,
      "ండమస్": 2548,
      "ండ్యులు": 2549,
      "ద్వై": 2550,
      "ద్దిభాగం": 2551,
      "ద్విసభా": 2552,
      "త్త": 2553,
      "త్తల": 2554,
      "ించుకు": 2555,
      "ించవచ్చు.": 2556,
      "ించుకోవడ": 2557,
      "ించబడింది.": 2558,
      "తిరి": 2559,
      "ల్స్": 2560,
      "ల్తాన": 2561,
      "స్తాయి.": 2562,
      "స్తానీ": 2563,
      "స్తాంబ": 2564,
      "స్తూ,": 2565,
      "ంతల": 2566,
      "ంతై": 2567,
      "రి.": 2568,
      "రిట్ల": 2569,
      "రిట్లు": 2570,
      "సం.": 2571,
      "సంస్థ": 2572,
      "సంక్ర": 2573,
      "సంధి": 2574,
      "సంగమ": 2575,
      "సందర్": 2576,
      "రు,": 2577,
      "రుగా": 2578,
      "రుష్": 2579,
      "రుచులు,": 2580,
      "పులి": 2581,
      "పుతో": 2582,
      "పుత్ర": 2583,
      "పులా": 2584,
      "పుష్": 2585,
      "పునర్": 2586,
      "పురి.": 2587,
      "స్థ‌": 2588,
      "స్థాపక": 2589,
      "స్థూలా": 2590,
      "ంటో": 2591,
      "ంటుంది.": 2592,
      "ంటరీ": 2593,
      "భారతదేశం,": 2594,
      "భాజపా": 2595,
      "భావిస్తు": 2596,
      "ైనెర్": 2597,
      "ంగల": 2598,
      "పాద": 2599,
      "పాక్ష": 2600,
      "పాండి": 2601,
      "పాండ్యులు": 2602,
      "వాద": 2603,
      "వాటి": 2604,
      "వాదన": 2605,
      "వాటిలో": 2606,
      "వామిత్ర": 2607,
      "సామీ": 2608,
      "సాఫ్ట": 2609,
      "సానియా": 2610,
      "క్షంగా": 2611,
      "క్షం:": 2612,
      "ఉన్నాయి": 2613,
      "ఉన్నారు": 2614,
      "ఉన్నట్లు": 2615,
      "ఉన్నతంగా": 2616,
      "ారు,": 2617,
      "ార్క్‌టిక": 2618,
      "ితం": 2619,
      "ితంగా": 2620,
      "ిత్యం": 2621,
      "ితే,": 2622,
      "జాతులు": 2623,
      "జాతులు,": 2624,
      "ష్టి": 2625,
      "ష్టు": 2626,
      "ష్టమైన": 2627,
      "ష్ట్యా": 2628,
      "ప్రాముఖ్య": 2629,
      "ప్రాసె": 2630,
      "ప్రాజా": 2631,
      "ప్రాణుల": 2632,
      "ప్రాబల": 2633,
      "ప్రాదేశిక": 2634,
      "రాజధాన": 2635,
      "రాజు.": 2636,
      "కోసం": 2637,
      "కోటి": 2638,
      "కోడు": 2639,
      "కోవార": 2640,
      "కోవడ": 2641,
      "క్రైస్త": 2642,
      "ట్టు": 2643,
      "ట్టూ": 2644,
      "ట్టారు.": 2645,
      "ట్టుకు": 2646,
      "ట్టెల": 2647,
      "190": 2648,
      "1956": 2649,
      "1962": 2650,
      "1948లో": 2651,
      "1965": 2652,
      "కావడ": 2653,
      "కాగా,": 2654,
      "కాకుండ": 2655,
      "నేయ": 2656,
      "నేసియా": 2657,
      "నేరుగా": 2658,
      "పే,": 2659,
      "పేస్": 2660,
      "పేదర": 2661,
      "ంచే": 2662,
      "దువు": 2663,
      "దుస్తులు": 2664,
      "మామి": 2665,
      "మాదిరి": 2666,
      "మాండమస్": 2667,
      "యా;": 2668,
      "యావత్": 2669,
      "యాండర్": 2670,
      "లి;": 2671,
      "లిసింది.": 2672,
      "లిథిక": 2673,
      "లియం": 2674,
      "లివిజన్": 2675,
      "లియాండర్": 2676,
      "వ్యయంతో": 2677,
      "వ్య‌వ‌": 2678,
      "భారతీయులు": 2679,
      "భారతీయుల": 2680,
      "భారతీయుడైన": 2681,
      "తరించింది.": 2682,
      "తరతరాలు": 2683,
      "నాటి": 2684,
      "నాడు": 2685,
      "నామాలు": 2686,
      "నాట్యం": 2687,
      "సిద్ధ": 2688,
      "సిగ్": 2689,
      "సిద్ధం": 2690,
      "్లను": 2691,
      "త్వం": 2692,
      "త్వాలు": 2693,
      "త్వంలో": 2694,
      "త్వరలో": 2695,
      "జాతీయవాదం": 2696,
      "జాతీయగీతం": 2697,
      "జాతీయాదాయంలో": 2698,
      "తోంది.": 2699,
      "తోష్ణ": 2700,
      "రాష్ట్రపు": 2701,
      "రాష్ట్రానికి": 2702,
      "రాష్ట్రపత": 2703,
      "గుప్": 2704,
      "గుత్తా": 2705,
      "గుతాయి.": 2706,
      "గునవి": 2707,
      "గుతోంది.": 2708,
      "వచ్చి,": 2709,
      "భారతదేశము": 2710,
      "భారతదేశమే.": 2711,
      "ద్ధాలు": 2712,
      "ద్ధలతో,": 2713,
      "ల్లింది.": 2714,
      "ల్లాయి.": 2715,
      "ల్లయిన": 2716,
      "ల్లీ-దండ": 2717,
      "dition": 2718,
      "ding": 2719,
      "dispu": 2720,
      "on,": 2721,
      "ong": 2722,
      "కొక్క": 2723,
      "కొంక": 2724,
      "కొనసా": 2725,
      "కొలమానం:": 2726,
      "కొద్దిభాగం": 2727,
      "కొత్త": 2728,
      "డు.": 2729,
      "డుంబ": 2730,
      "పాలకులు": 2731,
      "పాలయింది": 2732,
      "పాలిటన్": 2733,
      "పాలకులను": 2734,
      "మైనవి.": 2735,
      "వేర్,": 2736,
      "వేత్తల": 2737,
      "ఒకటో": 2738,
      "కాలపరి": 2739,
      "కాలాల్లో": 2740,
      "డిగించ": 2741,
      "ణాన్ని": 2742,
      "ణాటక": 2743,
      "ణాదికి": 2744,
      "మార్కెట్": 2745,
      "ari": 2746,
      "చేర": 2747,
      "చేసు": 2748,
      "చేసే": 2749,
      "చేత,": 2750,
      "టువంటి": 2751,
      "శాశ్": 2752,
      "శాకాహార": 2753,
      "్‌వేర్,": 2754,
      "దేశాలకు": 2755,
      "దేశాలతో": 2756,
      "దేశాలకూ": 2757,
      "దేశాల్లో": 2758,
      "వ్యవహార": 2759,
      "వ్యవసాయ": 2760,
      "ఎన్నుకొ": 2761,
      "కిమీ": 2762,
      "పారిశ్ర": 2763,
      "పంచె": 2764,
      "పంచుకుంట": 2765,
      "పంచాయతి": 2766,
      "ాబుని": 2767,
      "ాన్స్": 2768,
      "ాన్-ఇ": 2769,
      "న్నిస్లో": 2770,
      "చెంది": 2771,
      "చెందింది.": 2772,
      "డ్స్": 2773,
      "డ్మిం": 2774,
      "పెట్రో": 2775,
      "పెట్టారు.": 2776,
      "మార్గం": 2777,
      "మార్గము": 2778,
      "మార్గంలో": 2779,
      "మార్గాలలో": 2780,
      "మార్గాలను": 2781,
      "మార్గాలే.": 2782,
      "వ్యవస్థ)": 2783,
      "వ్యవస్థ,": 2784,
      "వ్యవస్థల": 2785,
      "వ్యవస్థగా": 2786,
      "వ్యవస్థకు": 2787,
      "వ్యవస్థకు,": 2788,
      "వ్యవస్థీకరణ": 2789,
      "ంబే": 2790,
      "కృష్": 2791,
      "కృష్ణ": 2792,
      "కృష్టమైన": 2793,
      "కారం": 2794,
      "తుడు": 2795,
      "తులకాల": 2796,
      "తురుష్": 2797,
      "దా:": 2798,
      "దాటే": 2799,
      "దాటిన": 2800,
      "హిందీ;": 2801,
      "ానికి,": 2802,
      "స్తుంది.": 2803,
      "స్తున్నారు.": 2804,
      "పేరుతో": 2805,
      "పేరుమీ": 2806,
      "అధికారక": 2807,
      "అధికారి": 2808,
      "అధికారాలు": 2809,
      "అధికారంలో": 2810,
      "అధికారాన్ని": 2811,
      "their": 2812,
      "కరించింది.": 2813,
      "కరమేనని": 2814,
      "కరంతై": 2815,
      "ట్కా": 2816,
      "దక్షణాసియా": 2817,
      "పరమైన": 2818,
      "పర్యా": 2819,
      "పరచింది.": 2820,
      "పరమో": 2821,
      "పరోక్ష": 2822,
      "పరిధి": 2823,
      "పరిపాలించ": 2824,
      "పరిశో": 2825,
      "పరిస్థితి": 2826,
      "పరిఢవి": 2827,
      "మతాల": 2828,
      "మతాలు,": 2829,
      "మతాలతో": 2830,
      "మతాలకు": 2831,
      "మతస్తులు": 2832,
      "మీర్జాలు": 2833,
      "మేరో": 2834,
      "మేరకు,": 2835,
      "మేళవిం": 2836,
      "మేషన్": 2837,
      "మధ్య,": 2838,
      "మధ్యకాలంలో": 2839,
      "మధ్యవర్తి": 2840,
      "మధ్యల,": 2841,
      "వరకూ": 2842,
      "సును": 2843,
      "సుమారు": 2844,
      "సుదీర్": 2845,
      "సుల్తాన": 2846,
      "ప్రపంచదేశాలలో": 2847,
      "ప్రధానమంత్ర": 2848,
      "ద్దులు": 2849,
      "స్థానిక": 2850,
      "స్థానాలు": 2851,
      "స్థానమైన": 2852,
      "స్థానం.": 2853,
      "స్థానే..": 2854,
      "భాష,": 2855,
      "భాషలలో": 2856,
      "భాషా,": 2857,
      "భాషలతో,": 2858,
      "ప్రాంతాల": 2859,
      "ప్రాంతాలతో": 2860,
      "ప్రాంతాలకు": 2861,
      "రాజ్యాలను": 2862,
      "రాజ్యసమి": 2863,
      "రైలు.": 2864,
      "tian": 2865,
      "time": 2866,
      "tinct": 2867,
      "వారిగా": 2868,
      "వర్గీ": 2869,
      "వర్ధిల్ల": 2870,
      "క్రీ.": 2871,
      "పార్టీల": 2872,
      "పార్టీలు": 2873,
      "పార్టీగా": 2874,
      "పార్టీకి": 2875,
      "పార్టీలతో": 2876,
      "దక్షిణాదికి": 2877,
      "Indian": 2878,
      "al,": 2879,
      "alect": 2880,
      "along": 2881,
      "ort": 2882,
      "organ": 2883,
      "అయింది.": 2884,
      "అయితే,": 2885,
      "గిపోయింది.": 2886,
      "గిలిన": 2887,
      "పూణే": 2888,
      "పోలో": 2889,
      "పోటీ": 2890,
      "పోతూ": 2891,
      "పోర్చు": 2892,
      "పోషకాహార": 2893,
      "పోస్టలు": 2894,
      "మనమే": 2895,
      "మనదేశంలో": 2896,
      "మనోర": 2897,
      "మిగిలిన": 2898,
      "రోడ్ల": 2899,
      "రెండుకో": 2900,
      "లాంటి": 2901,
      "లాగృ": 2902,
      "లాభదాయ": 2903,
      "వుని": 2904,
      "వుంది.": 2905,
      "వున్నా,": 2906,
      "వుంటుంది.": 2907,
      "వెలుపలి": 2908,
      "ప్రజలకు": 2909,
      "ించినందు": 2910,
      "ించినవే.": 2911,
      "హిందూస్తాన్": 2912,
      "హిందూస్తానీ": 2913,
      "isation": 2914,
      "ంద్రనాథ": 2915,
      "ఇతరదేశాలను": 2916,
      "ఇతరదేశాలకు": 2917,
      "తాజ్‌": 2918,
      "శ్రద్ధలతో,": 2919,
      "ీనములో": 2920,
      "ీనోద్య": 2921,
      "సాంఘిక,": 2922,
      "పెద్దగా": 2923,
      "పెద్దపులి": 2924,
      "India1950": 2925,
      "gues": 2926,
      "gures": 2927,
      "అతివేగంగా": 2928,
      "అతిముఖ్యమైన": 2929,
      "అతిశీ": 2930,
      "ఉత్సాహ": 2931,
      "ఉత్తరా": 2932,
      "ఉత్కృష్టమైన": 2933,
      "ఉంటూ": 2934,
      "ఉంటాయి": 2935,
      "కలిగిన": 2936,
      "గరలో": 2937,
      "జనకరమేనని": 2938,
      "జరిగింది.": 2939,
      "జరిగాయి": 2940,
      "పట్టాలు": 2941,
      "పట్టును": 2942,
      "పట్టాలెక్కను": 2943,
      "బడింది": 2944,
      "బాగా": 2945,
      "బాదు": 2946,
      "బాంబే": 2947,
      "బెల్": 2948,
      "బెట్కా": 2949,
      "బ్రహ్మ": 2950,
      "బ్రాడ్‌": 2951,
      "మహల్": 2952,
      "మహేష్": 2953,
      "వంటలు": 2954,
      "వంటలకు": 2955,
      "వంటకాలు": 2956,
      "ుకుంది.": 2957,
      "విధి": 2958,
      "విధంగా": 2959,
      "విధించిన": 2960,
      "భాగం,": 2961,
      "భాగం.": 2962,
      "భాగస్వా": 2963,
      "భాగే,": 2964,
      "భాగమేనని": 2965,
      "కేంద్రాల్లో": 2966,
      "కేంద్రీకృ": 2967,
      "ప్పించుకోవడ": 2968,
      "క్రీడ:": 2969,
      "క్రీడల": 2970,
      "జనాభాలో": 2971,
      "ప్రభుత్వంలో": 2972,
      "ప్రభుత్వం,": 2973,
      "ప్రభుత్వాలన్నీ": 2974,
      "ప్రభుత్వంచే": 2975,
      "తరువాత,": 2976,
      "ఎక్కువైపో": 2977,
      "ఏర్పాటు": 2978,
      "ఏర్పరచింది.": 2979,
      "గోర్": 2980,
      "గోధు": 2981,
      "గోడుంబ": 2982,
      "గ్గులు": 2983,
      "గ్డమ్": 2984,
      "టికంటే": 2985,
      "బహిరంగ": 2986,
      "బహాయీలు": 2987,
      "మానవుని": 2988,
      "మంత్రుల": 2989,
      "లేనివి.": 2990,
      "సింహపు": 2991,
      "సరిస్తూ,": 2992,
      "ప్రస్తుత": 2993,
      "క్కలు": 2994,
      "సాధించింది.": 2995,
      "సాధించి": 2996,
      "సాధారణంగా": 2997,
      "రాజకీయాలు": 2998,
      "కాంగ్రెసే": 2999,
      "మొదటిది": 3000,
      "మొదటిసార": 3001,
      "దక్షిణదిగ్": 3002,
      "2005-0": 3003,
      "gelist": 3004,
      "ఉపయు": 3005,
      "ఉపరాష్ట్రపత": 3006,
      "క్యులు": 3007,
      "క్యారమ్‌": 3008,
      "గణితం": 3009,
      "భూపతి": 3010,
      "మైంది.": 3011,
      "మైతే": 3012,
      "మైత్రి": 3013,
      "మైథి": 3014,
      "మైదాన": 3015,
      "యుద్ధం": 3016,
      "యు.ఏ": 3017,
      "యునై": 3018,
      "యుద్ధాలు": 3019,
      "యోచన": 3020,
      "యోరారి": 3021,
      "రంగం": 3022,
      "రంగాల": 3023,
      "రంగము": 3024,
      "రంగాల్లో": 3025,
      "వలెనే": 3026,
      "శ్లోకాల": 3027,
      "సము:": 3028,
      "సముచిత": 3029,
      "ుకోవచ్చని": 3030,
      "ెలు.": 3031,
      "్మదీయ": 3032,
      "ప్రతినిధి": 3033,
      "ాలలోను": 3034,
      "ాలనుండి": 3035,
      "విస్తారు.": 3036,
      "విస్తరించిన": 3037,
      "విస్తృతంగా": 3038,
      "సంగీత": 3039,
      "సంగీతము": 3040,
      "సంగీతంలో": 3041,
      "సంస్కృతం": 3042,
      "సంస్కృతులతో": 3043,
      "సంస్కృతీ,": 3044,
      "ంగ్లేయులు": 3045,
      "ప్రాచ్య": 3046,
      "ప్రాచుర్య": 3047,
      "క్రమంగా": 3048,
      "సరిహద్దులు": 3049,
      "అత్యధికంగా": 3050,
      "ఇండియా,": 3051,
      "ఇండియాలో": 3052,
      "2014": 3053,
      "2023": 3054,
      "2022": 3055,
      "2011": 3056,
      "ine": 3057,
      "ouped": 3058,
      "ఆధునిక": 3059,
      "ఆధీనములో": 3060,
      "గలుపు": 3061,
      "జాబీ;": 3062,
      "ట్లకు": 3063,
      "ణి;": 3064,
      "తిక,": 3065,
      "ధిపత్య": 3066,
      "నీ,": 3067,
      "నీతి": 3068,
      "నెహ్ర": 3069,
      "నెమలి": 3070,
      "నెరవే": 3071,
      "నెహ్వ": 3072,
      "భిన్నత్వాలు": 3073,
      "మెట్రో": 3074,
      "మెహర్": 3075,
      "మూడవ": 3076,
      "మూడే.": 3077,
      "రహదారు": 3078,
      "వహించిన": 3079,
      "వహించింది.": 3080,
      "వహించి": 3081,
      "వహించే": 3082,
      "వహిస్త": 3083,
      "వైశాల": 3084,
      "వైపులా": 3085,
      "సమాచార": 3086,
      "స్వాధీన": 3087,
      "రాష్ట్రపతి,": 3088,
      "రాష్ట్రపతిచే": 3089,
      "మొదలగువ": 3090,
      "మొదలవుతుంది.": 3091,
      "మొదలగునవి": 3092,
      "రెండువైపులా": 3093,
      "ఉత్తర,": 3094,
      "పట్టణాల": 3095,
      "పట్టణాలు": 3096,
      "పట్టణాలను": 3097,
      "బెంగాల్": 3098,
      "బెంగుళూరు": 3099,
      "ప్పటికీ,": 3100,
      "ఏర్పడే": 3101,
      "ఏర్పడిన": 3102,
      "ఏర్పడింది.": 3103,
      "బహుమతి": 3104,
      "బహుభాషా,": 3105,
      "మంత్రిత్వ": 3106,
      "మంత్రివర్గ": 3107,
      "సింధ్;": 3108,
      "సరిహద్దున": 3109,
      "సరిహద్దులలో": 3110,
      "సరిహద్దులను": 3111,
      "నడిపిస్త": 3112,
      "నడిపించి,": 3113,
      "సౌకర్యము.": 3114,
      "సౌకర్యవంత": 3115,
      "(1,14": 3116,
      "(1,18": 3117,
      "(17.23": 3118,
      ").\"(": 3119,
      "....": 3120,
      "142": 3121,
      "notation": 3122,
      "ందని": 3123,
      "ందరో": 3124,
      "అనునది": 3125,
      "అనుమతి": 3126,
      "అనువైన": 3127,
      "అనుసరిస్తూ,": 3128,
      "కళి": 3129,
      "కల్పే": 3130,
      "కల్గి": 3131,
      "కల్పం": 3132,
      "కల్పుతూ": 3133,
      "కల్పించే": 3134,
      "గేజి": 3135,
      "గేయం:": 3136,
      "చైనాతో": 3137,
      "టెడ్": 3138,
      "టెక్నాల": 3139,
      "టెలివిజన్": 3140,
      "టెన్నిస్లో": 3141,
      "తనలో": 3142,
      "నగరాలు,": 3143,
      "నగరాలనే": 3144,
      "నగరాలనుండి": 3145,
      "పతకం": 3146,
      "పొందింది.": 3147,
      "పొడిగించ": 3148,
      "పద్ధతులు": 3149,
      "పద్ధతులతో": 3150,
      "రూపంలో": 3151,
      "రూపొందింది.": 3152,
      "ళ్లను": 3153,
      "వృక్షం:": 3154,
      "సమశీ": 3155,
      "సమయంలో,": 3156,
      "సమష్టి": 3157,
      "సైతం": 3158,
      "సైట్లు": 3159,
      "సారాల": 3160,
      "సారవంత": 3161,
      "సర్వసత్తా": 3162,
      "నుండి,": 3163,
      "ించేది": 3164,
      "సంఖ్యలో": 3165,
      "పుట్టాయి.": 3166,
      "పుట్టిల్": 3167,
      "పుట్టిని": 3168,
      "కూడినది.": 3169,
      "1975": 3170,
      "1977": 3171,
      "1971లో": 3172,
      "1977లో": 3173,
      "1974లో": 3174,
      "ఒకటిగా,": 3175,
      "చేయబడింది.": 3176,
      "చేయలేదు": 3177,
      "చేయిస్తారు.": 3178,
      "చేయటంతో": 3179,
      "చేయడానికి": 3180,
      "తున్నారు.": 3181,
      "తున్నవార్": 3182,
      "తున్నప్పటికీ,": 3183,
      "అధికారికంగా": 3184,
      "ప్రపంచంలోనే": 3185,
      "భాషలు,": 3186,
      "కలిగి,": 3187,
      "కలిగివుంది.": 3188,
      "కాంగ్రెసును": 3189,
      "జాబితాలో": 3190,
      "రహదారులు,": 3191,
      "అభిప్రాయ": 3192,
      "చరిత్రలో": 3193,
      ",000,000": 3194,
      "1-740": 3195,
      "1-8-7": 3196,
      "1010": 3197,
      "10,000,000": 3198,
      "230": 3199,
      "2359-": 3200,
      "3,422": 3201,
      "ates": 3202,
      "ational,": 3203,
      "debate": 3204,
      "defin": 3205,
      "figures": 3206,
      "ily": 3207,
      "mi).\"(": 3208,
      "than": 3209,
      "అని,": 3210,
      "ఇవ్వ": 3211,
      "ఇవికా": 3212,
      "ఇవన్నీ": 3213,
      "ఇవికూడ": 3214,
      "కలదు": 3215,
      "కలకత్తా": 3216,
      "కలగలుపు": 3217,
      "చిపూడ": 3218,
      "చిహ్": 3219,
      "జిత్": 3220,
      "జిస్లే": 3221,
      "టాగోర్": 3222,
      "దీన్ని": 3223,
      "దీవులు": 3224,
      "దీపావ": 3225,
      "దీనివల్ల": 3226,
      "నాయకుల": 3227,
      "న్యాయవ్యవస్థలో": 3228,
      "న్యాయవ్యవస్థ,": 3229,
      "న్యాయస్థానమైన": 3230,
      "పంపిన": 3231,
      "పంజాబీ;": 3232,
      "పదవి": 3233,
      "పదవి.": 3234,
      "పదార్థ": 3235,
      "పక్షం": 3236,
      "పక్షి:": 3237,
      "మ్మదాబ": 3238,
      "ర్యన్": 3239,
      "లక్షల": 3240,
      "లక్షణాలు": 3241,
      "లక్షణాన్ని": 3242,
      "సరఫరా": 3243,
      "సరమైతే": 3244,
      "సూచన": 3245,
      "సూరత్": 3246,
      "హాసాల": 3247,
      "స్లామ్": 3248,
      "ప్రకారం,": 3249,
      "నిర్వాహ": 3250,
      "నిర్మిస్తు": 3251,
      "ముంబాయి": 3252,
      "ద్వీపే,": 3253,
      "సంఘం": 3254,
      "సంఘము.": 3255,
      "సంఘర్షణ": 3256,
      "సంప్రదాయాలను": 3257,
      "సంవత్సరం": 3258,
      "సంవత్సారాల": 3259,
      "పాక్,": 3260,
      "1991": 3261,
      "1996": 3262,
      "1991లో": 3263,
      "1998లో": 3264,
      "వ్యాసము:": 3265,
      "రాష్ట్రాలు:": 3266,
      "రాష్ట్రాలుగా,": 3267,
      "వచ్చినవారి": 3268,
      "వచ్చినది,": 3269,
      "కొన్ని:": 3270,
      "వ్యవస్థలోని": 3271,
      "కార్యనిర్వాహ": 3272,
      "కరణలో": 3273,
      "పరిశ్రమ.": 3274,
      "మేనకల": 3275,
      "ప్రధానమంత్రిని": 3276,
      "స్థానంలో,": 3277,
      "వారసత్వాన్ని": 3278,
      "ఆర్థిక,": 3279,
      "పూర్వం": 3280,
      "పూర్వపు": 3281,
      "రోడ్డుకు": 3282,
      "బాద్,": 3283,
      "పాకిస్తాన్తో": 3284,
      "పాకిస్థాన్,": 3285,
      "పాకిస్థాన్కు": 3286,
      "దక్షిణాన,": 3287,
      "సంస్కృతిలో": 3288,
      "ఆధారిత": 3289,
      "ఆధారాలు.": 3290,
      "స్వతంత్రం": 3291,
      "బెంగాలీ;": 3292,
      "నడిపించటం": 3293,
      "నడిపించాలనే": 3294,
      "నడిపించవచ్చని": 3295,
      "నడిపించటమూ": 3296,
      "స్వాతంత్ర్యానికి": 3297,
      "సర్వీసును": 3298,
      "అభివృద్ధి,": 3299,
      "language.": 3300,
      "కుటుంబాలు": 3301,
      "కుటుంబాలకు": 3302,
      "1250": 3303,
      "121,0": 3304,
      "17;": 3305,
      "40%": 3306,
      "461": 3307,
      "461-8-7": 3308,
      "87,260": 3309,
      "chiv": 3310,
      "chine": 3311,
      "grouped": 3312,
      "ritor": 3313,
      "with": 3314,
      "అహింసాయుత": 3315,
      "అహ్మదీయ": 3316,
      "అహమ్మదాబ": 3317,
      "అవి,": 3318,
      "అవినీతి": 3319,
      "ఆక్రమించిన": 3320,
      "ఆక్రమణదార": 3321,
      "ఆక్రమించుకు": 3322,
      "ఆహార్యం": 3323,
      "ఇంగ్లండు": 3324,
      "ఉండగా,": 3325,
      "ఉండటం": 3326,
      "ఉండటం,": 3327,
      "కథక్": 3328,
      "కథనాలతో": 3329,
      "కథకళి": 3330,
      "కూచిపూడ": 3331,
      "కిందట": 3332,
      "చుట్టూ": 3333,
      "చిత్రాలు": 3334,
      "చిత్రకళ": 3335,
      "చిత్రమాల": 3336,
      "జీవితంలో": 3337,
      "టైగర్": 3338,
      "తలల": 3339,
      "తెలిసింది.": 3340,
      "తెప్పించుకోవడ": 3341,
      "తేది": 3342,
      "తేలిక": 3343,
      "తులు;": 3344,
      "పార్సీలు": 3345,
      "బియా": 3346,
      "బిజిన": 3347,
      "బియస్": 3348,
      "భరతుడు": 3349,
      "భౌతిక,": 3350,
      "మర)": 3351,
      "మరెన్న": 3352,
      "మర్రిచె": 3353,
      "మౌఖిక": 3354,
      "మాతృ": 3355,
      "మారుమూల": 3356,
      "లెక్కలు": 3357,
      "లెందరో": 3358,
      "లెజిస్లే": 3359,
      "ళికలు": 3360,
      "వంశంలో": 3361,
      "సహాయకార": 3362,
      "సేవ": 3363,
      "సైనా": 3364,
      "సార్క్": 3365,
      "హైకోర్టులు": 3366,
      "ూపం,": 3367,
      "్వస్త్ర": 3368,
      "దినాలు,": 3369,
      "దినాలకు": 3370,
      "ప్రారంభమైన": 3371,
      "విద్యను": 3372,
      "సంకీర్ణం": 3373,
      "సంబంధాలు": 3374,
      "సంబంధించిన": 3375,
      "పురుషులు": 3376,
      "స్థిరమైన": 3377,
      "ంటున్నది.": 3378,
      "ంటున్నారు.": 3379,
      "వాహనాలు": 3380,
      "వాహనంలో": 3381,
      "జాతిపిత": 3382,
      "కూడుకున్నది.": 3383,
      "కోల్పోతూ": 3384,
      "నేపాలీ;": 3385,
      "లిచిన": 3386,
      "లిచారు.": 3387,
      "గుర్తించింది.": 3388,
      "గుర్తింపు": 3389,
      "గుర్తించవచ్చు.": 3390,
      "ఒకేఒక": 3391,
      "ఒకేమాదిరి": 3392,
      "చేసింది.ఢాకా": 3393,
      "ఎన్నికలలో": 3394,
      "కారణంగా,": 3395,
      "దాదాపుగా": 3396,
      "త్రివర్ణ": 3397,
      "వర్గాలు": 3398,
      "వర్గాలలోను": 3399,
      "వర్ణించబడింది.": 3400,
      "ప్రజలచే": 3401,
      "హిందూదేశం,": 3402,
      "శ్రీశై": 3403,
      "శ్రీలంక": 3404,
      "శ్రీరామన": 3405,
      "కలిసివస్తు": 3406,
      "బడతాయి.": 3407,
      "మహాభారతం": 3408,
      "సాధించగా,": 3409,
      "సాధించగలి": 3410,
      "సాధించాము.": 3411,
      "ఉపఖండం": 3412,
      "ఉపఖండపు": 3413,
      "ఉపఖండములో": 3414,
      "ప్రతిపాదనల్లో": 3415,
      "వైవిధ్యం": 3416,
      "వైవిధ్యమైనది.": 3417,
      "వైవిధ్యమైనవి.": 3418,
      "సమాఖ్య.": 3419,
      "సమాఖ్యలు": 3420,
      "కోర్టులు,": 3421,
      "కోర్టులకు": 3422,
      "పేర్కొన్నాయి.": 3423,
      "పేర్కొనవచ్చు.": 3424,
      "పేర్కొంటున్నారు.": 3425,
      "మొదలైనవి": 3426,
      "మొదలైనవి.": 3427,
      "మొదలైనటువంటి": 3428,
      "సింధులోయ": 3429,
      "సింధుాలోయ": 3430,
      "చారిత్రకంగా": 3431,
      "తమిళం;": 3432,
      "పొందినది.": 3433,
      "పద్ధతి:": 3434,
      "పద్ధతిలో": 3435,
      "పండుగలు,": 3436,
      "ప్రజాస్వామ్య,": 3437,
      "నిర్వహణలో": 3438,
      "mi);": 3439,
      "కంపెనీపై": 3440,
      "జన్మనిచ్చ": 3441,
      "జన్మస్థానం.": 3442,
      "జన్మదినాలకు": 3443,
      "ముంబైలో": 3444,
      "ద్వీపం.": 3445,
      "ద్వీప-దేశ": 3446,
      "ద్వీపకల్పం": 3447,
      "వ్యాపారం": 3448,
      "వ్యాపారవేత్తల": 3449,
      "కార్యక్రమాలలో": 3450,
      "వారసత్వంగా": 3451,
      "వారసత్వానికి": 3452,
      "సాంప్రదాయికమైన": 3453,
      "ఆఫ్ఘానిస్తాన్": 3454,
      "fferent": 3455,
      "ఇస్లామాబాద్-టె": 3456,
      "కన్నడ;": 3457,
      "కన్నడం": 3458,
      "జరుపుకునే": 3459,
      "తెలుగు;": 3460,
      "పీఠిక": 3461,
      "బంగ్లాదేశ్": 3462,
      "ళ్ళు": 3463,
      "హిమాలయాలు": 3464,
      "వాణిజ్యపరంగా": 3465,
      "కాశ్మీర్": 3466,
      "కాశ్మీరు": 3467,
      "కాశ్మీరీ;": 3468,
      "నాగరికతకు": 3469,
      "క్యాలెండర్)": 3470,
      "క్యాలెండర్:": 3471,
      "Constitution": 3472,
      "(0.3": 3473,
      "(0.9": 3474,
      ",500": 3475,
      ".30%),": 3476,
      ".70%),": 3477,
      ".72%),": 3478,
      "16;": 3479,
      "1652": 3480,
      "3,287,263": 3481,
      "3,287,260": 3482,
      "5-07": 3483,
      "60,500": 3484,
      "7/17;": 3485,
      "7/16;": 3486,
      "SIL": 3487,
      "United": 3488,
      "Union,": 3489,
      "exact": 3490,
      "extinct": 3491,
      "own": 3492,
      "terms": 3493,
      "territor": 3494,
      "ted.": 3495,
      "while": 3496,
      "which": 3497,
      "ంకాగా": 3498,
      "అణు": 3499,
      "అణ్వస్త్ర": 3500,
      "అవతరించింది.": 3501,
      "అవసరమైతే": 3502,
      "అంటారు.": 3503,
      "అంటార్క్‌టిక": 3504,
      "అన్నిటికంటే": 3505,
      "అప్పటి": 3506,
      "అప్పిలే": 3507,
      "ఆసియాలో": 3508,
      "ఇక్కడ": 3509,
      "ఇక్కడి": 3510,
      "ఇటీవల": 3511,
      "ఇటీవలి": 3512,
      "ఎడమ": 3513,
      "ఎడారి": 3514,
      "ఐక్యరాజ్యసమి": 3515,
      "ఒలంపిక్‌": 3516,
      "ఒలంపిక్": 3517,
      "కలుపుతూ": 3518,
      "కలుగుతాయి.": 3519,
      "ఖో-ఖో": 3520,
      "గమించి": 3521,
      "గ్రంథ": 3522,
      "గ్రీకులు": 3523,
      "గంగోత్రి": 3524,
      "గమనించి,": 3525,
      "గమనికలు": 3526,
      "గ్రామ": 3527,
      "గ్రాండ్": 3528,
      "చదరంగంలో": 3529,
      "చదరంగము": 3530,
      "చవితి": 3531,
      "చవిచూ": 3532,
      "జోక్యం": 3533,
      "జోన్లుగా": 3534,
      "టన్‌": 3535,
      "ట్‌బాల": 3536,
      "తత్వానికి": 3537,
      "తక్కువ.": 3538,
      "దర్శకు": 3539,
      "దండయాత్ర": 3540,
      "నూటన": 3541,
      "ప్లానెట్": 3542,
      "ప్లగ్గులు": 3543,
      "పల్లవులు": 3544,
      "పల్లెల్లో": 3545,
      "పడుతుంది.": 3546,
      "పడుతున్నారు.": 3547,
      "పర్వతాలతో": 3548,
      "పర్వదినాలు,": 3549,
      "ఫలితంగా": 3550,
      "బుక్": 3551,
      "భవించినవే.": 3552,
      "భక్తి,": 3553,
      "భక్తిశ్రద్ధలతో,": 3554,
      "మితో": 3555,
      "మితికి": 3556,
      "యాత్రికులు": 3557,
      "రీతులు": 3558,
      "రకాలు.": 3559,
      "రకాలుగా": 3560,
      "ళాఖాతం": 3561,
      "వింద్": 3562,
      "వరుసగా": 3563,
      "శిలాగృ": 3564,
      "శైలీ": 3565,
      "శకుంతల": 3566,
      "సెర్టి": 3567,
      "సిక్కు": 3568,
      "సిక్కులు": 3569,
      "హ్రాన్-ఇ": 3570,
      "ామిక": 3571,
      "ామని": 3572,
      "స్వీకారం": 3573,
      "స్వీకరించింది.": 3574,
      "ప్రదేశ్‌": 3575,
      "ప్రదేశే,": 3576,
      "ప్రాయమైనది.": 3577,
      "ప్రత్యేకమైన": 3578,
      "ప్రత్యక్షంగా": 3579,
      "ప్రయోజనాలు": 3580,
      "ప్రయోజనకరమేనని": 3581,
      "నియమించబడ్డ": 3582,
      "నియమించబడిన": 3583,
      "విలువైన": 3584,
      "విలువలను": 3585,
      "విమానాశ్ర": 3586,
      "విశ్వనాథ": 3587,
      "విశ్వామిత్ర": 3588,
      "సంస్కరణలు": 3589,
      "సంస్కరణలతో": 3590,
      "స్థాయిలో": 3591,
      "భావిస్తారు.": 3592,
      "భావిస్తారు,": 3593,
      "పావో": 3594,
      "సాహిత్యం": 3595,
      "కోట్లకు": 3596,
      "క్రి.పూ.": 3597,
      "క్రిస్టా": 3598,
      "చ్చేరి": 3599,
      "మొగలులు": 3600,
      "different": 3601,
      "differing": 3602,
      "వేదాలు": 3603,
      "వేదాలలో": 3604,
      "కాలేజి": 3605,
      "కాలేజీ": 3606,
      "డిస్కవరీ": 3607,
      "ద్రావిడ": 3608,
      "ఎన్నుకుంటారు.": 3609,
      "ఎన్నుకుంటుంది.": 3610,
      "పరీక్షలు": 3611,
      "పరీక్షను": 3612,
      "మతాలు:": 3613,
      "మతములు": 3614,
      "మతములకు": 3615,
      "వర్షాలు": 3616,
      "వర్షం\",": 3617,
      "క్రీ.పూ.5": 3618,
      "క్రీ.పూ.20": 3619,
      "పోరాటం": 3620,
      "పోరాటంలో": 3621,
      "మిస్తున్నాయి.": 3622,
      "రెండోది.": 3623,
      "లంకెలు": 3624,
      "లాహోర్": 3625,
      "వెల్లూరు": 3626,
      "వెల్లడించింది.": 3627,
      "ernational,": 3628,
      "గీతం:": 3629,
      "మహిళా": 3630,
      "మహిళల": 3631,
      "అయినప్పటికీ,": 3632,
      "అయినప్పటికినీ": 3633,
      "గోదావరి": 3634,
      "గోదావరీ": 3635,
      "లేదు.": 3636,
      "2003–2004": 3637,
      "యుగం": 3638,
      "యుగపు": 3639,
      "ప్రతిపక్షం": 3640,
      "ప్రతిపక్షమైంది.": 3641,
      "విస్తీర్ణం": 3642,
      "విస్తీర్ణంతో": 3643,
      "ప్రముఖమైనది": 3644,
      "ప్రముఖమైనదే.": 3645,
      "ing,": 3646,
      "నెలకొన్న": 3647,
      "నెలకొని": 3648,
      "సమాజము": 3649,
      "సమాజం.": 3650,
      "బ్రిటీష్": 3651,
      "బ్రిటీషు": 3652,
      "సింధూనదికి": 3653,
      "తూర్పున": 3654,
      "తమిళనాడు": 3655,
      "రూపాంతరం": 3656,
      "రూపాంతరమే.": 3657,
      "సంఖ్యాక": 3658,
      "రైల్వేశాఖకు": 3659,
      "పాలనలోకి": 3660,
      "వెబ్సైట్లు": 3661,
      "సముద్రతీరం": 3662,
      "సముద్రతీరము": 3663,
      "1853": 3664,
      "1857లో": 3665,
      "3,060,500": 3666,
      "చిరునామాలు": 3667,
      "నాయకత్వాన": 3668,
      "నాయకత్వంలో": 3669,
      "మలయాళం;": 3670,
      "హాకీలో": 3671,
      "లోక్‌సభలో": 3672,
      "కులాలు,భాషలు,": 3673,
      "నిర్మించినందు": 3674,
      "నిర్మించేది": 3675,
      "సంవత్సరాల": 3676,
      "సంవత్సరాలలో": 3677,
      "సభ్యులను": 3678,
      "సభ్యురాలు.": 3679,
      "సామ్రాజ్యాలు": 3680,
      "పశ్చిమాన,": 3681,
      "wide),": 3682,
      "widely": 3683,
      "టైటిల్": 3684,
      "టైటిళ్ళు": 3685,
      "పార్లమెంటు": 3686,
      "పార్లమెంటరీ": 3687,
      "భరతనాట్యం": 3688,
      "మూలాలు": 3689,
      "హైదరాబాదు": 3690,
      "హైదరాబాద్,": 3691,
      "ప్రారంభించాలనే": 3692,
      "ప్రారంభించాలని": 3693,
      "ర్‌లాల్": 3694,
      "సంకీర్ణాలేకా": 3695,
      "పురుషుల": 3696,
      "పురుషులకు": 3697,
      "ఆఫ్ఘనిస్తాన్‌కు": 3698,
      "పీఠభూమికి": 3699,
      "పీఠభూమితో": 3700,
      "బంగ్లాదేశ్‌ల": 3701,
      "బంగ్లాదేశ్‌లలో": 3702,
      "Constituent_Assembly": 3703,
      "59-421-": 3704,
      "English.": 3705,
      "Profile:": 3706,
      "_of_Congress": 3707,
      "_of_India1950": 3708,
      "evangelist": 3709,
      "ఇండో-ఆ": 3710,
      "ఇండోనేసియా": 3711,
      "కబడ్డీలో": 3712,
      "తర్వాతి": 3713,
      "పవిత్రంగా": 3714,
      "పతాకము": 3715,
      "పతాకం:": 3716,
      "బౌద్ధులు": 3717,
      "రచయిత.": 3718,
      "రచయితలెందరో": 3719,
      "లౌకిక": 3720,
      "లౌకిక,": 3721,
      "నిడివిలో": 3722,
      "నిడివిని": 3723,
      "కూడుకొనినప్పటిక": 3724,
      "కాపాడుకుంటూనే": 3725,
      "మాట్లాడే:": 3726,
      "చెప్పుకోవచ్చు.": 3727,
      "చెప్పుకోదగినది.": 3728,
      "ఉపయోగిస్తారు": 3729,
      "ఉపయోగిస్తుంది.": 3730,
      "(1,269,219": 3731,
      "(1,269,220": 3732,
      "CITEREFLibrary": 3733,
      "CITEREFConstituent_Assembly": 3734,
      "సహస్రాబ్దిలో": 3735,
      "Ethnologue,": 3736,
      "\"భారతదేశం\"": 3737,
      "\"dialect": 3738,
      "\"language\"": 3739,
      "\"భరతవర్షం\",": 3740,
      "(3.72%),": 3741,
      "(5.30%),": 3742,
      "(8.70%),": 3743,
      "(ఆంగ్లేయులు": 3744,
      "(ఉదా:": 3745,
      "(టండ్రా": 3746,
      "(సాకర్‌": 3747,
      "(గిల్లీ-దండ": 3748,
      "(తామర)": 3749,
      "(బ్రెడ్": 3750,
      "(out": 3751,
      "(ఇదే,": 3752,
      "-ఢిల్లీ-లాహో": 3753,
      "-562359-": 3754,
      "0-19-562359-": 3755,
      "15న": 3756,
      "100,000": 3757,
      "1,93,422": 3758,
      "1,700": 3759,
      "25%": 3760,
      "2,973,": 3761,
      "546)": 3762,
      "6,912": 3763,
      "7,960": 3764,
      "7,517": 3765,
      "75,7%.": 3766,
      "81-900": 3767,
      "83,04%,": 3768,
      "82,14%,": 3769,
      "83.80%": 3770,
      "Accor": 3771,
      "Archiv": 3772,
      "BBC": 3773,
      "Chris": 3774,
      "Different": 3775,
      "Devanag": 3776,
      "International,": 3777,
      "Languages": 3778,
      "Machine": 3779,
      "Nations": 3780,
      "Part": 3781,
      "See": 3782,
      "States": 3783,
      "Type": 3784,
      "Waybac": 3785,
      "addition": 3786,
      "becau": 3787,
      "bject": 3788,
      "border": 3789,
      "based": 3790,
      "country's": 3791,
      "govern": 3792,
      "give": 3793,
      "have": 3794,
      "living,": 3795,
      "marily": 3796,
      "other": 3797,
      "oduced": 3798,
      "produced": 3799,
      "primarily": 3800,
      "report": 3801,
      "subject": 3802,
      "sources": 3803,
      "script": 3804,
      "size": 3805,
      "tongues": 3806,
      "union": 3807,
      "worldwide),": 3808,
      "అరవింద్": 3809,
      "అలీనోద్య": 3810,
      "అస్సామీ": 3811,
      "అన్నం,": 3812,
      "అల్ప": 3813,
      "అరుదుగా": 3814,
      "అక్షరబద్ధం": 3815,
      "అందించిన": 3816,
      "అవరోధాల": 3817,
      "అద్దం": 3818,
      "అలంకార": 3819,
      "అధిగమించి": 3820,
      "అందరూ": 3821,
      "అమలవుతుంది.": 3822,
      "అరేబియా": 3823,
      "అంకెలు.": 3824,
      "అధీనంలో": 3825,
      "అశోకుడు": 3826,
      "ఆగష్టు": 3827,
      "ఆలోచన": 3828,
      "ఆదేశాలు,": 3829,
      "ఆవిర్భవ": 3830,
      "ఆక్రమిస్తున్నాయి.": 3831,
      "ఆనాది": 3832,
      "ఆడుతున్నవార్": 3833,
      "ఆధ్యాత్మ": 3834,
      "ఆదాయం": 3835,
      "ఆగ్నేయ": 3836,
      "ఆణిముత్య": 3837,
      "ఆచారాలు,": 3838,
      "ఆనంద్": 3839,
      "ఆలస్యం": 3840,
      "ఇయర్": 3841,
      "ఇన్‌ఫర్": 3842,
      "ఇనుము,": 3843,
      "ఇముడ్చ": 3844,
      "ఇతిహాసాల": 3845,
      "ఇందిరా": 3846,
      "ఇతరులు": 3847,
      "ఇందులో": 3848,
      "ఇంటిపేర్లు": 3849,
      "ఉర్దూ": 3850,
      "ఉద్భవించినవే.": 3851,
      "ఉపాధి": 3852,
      "ఉండి,": 3853,
      "ఉండుటచే": 3854,
      "ఉనికికి": 3855,
      "ఋతుపవనాలు": 3856,
      "ఎమర్జె": 3857,
      "ఎదుర్కొ": 3858,
      "ఎగుమతి": 3859,
      "ఎల్లలుగా": 3860,
      "ఏకైక": 3861,
      "ఏడవస్థానంలో": 3862,
      "ఏకత్వంగల": 3863,
      "ఏళ్ళపాటు": 3864,
      "ఒక్కొక్క": 3865,
      "ఒరియా;": 3866,
      "ఒలింపిక్‌": 3867,
      "ఒడిస్సీ": 3868,
      "ఓడించి,": 3869,
      "ఓటర్లపై": 3870,
      "ఔట్‌సొ": 3871,
      "కింగ్డమ్": 3872,
      "కర్ణాటక": 3873,
      "కనిపించింది.": 3874,
      "కరాచీ,": 3875,
      "కంటైనెర్": 3876,
      "కార్పస్": 3877,
      "కితాబుని": 3878,
      "కష్టంకాగా": 3879,
      "కట్టడాలు,": 3880,
      "కమీజ్": 3881,
      "కమలము": 3882,
      "కమేననీ,": 3883,
      "ఖగోళ": 3884,
      "ఖర్చుతో": 3885,
      "గెలిచిన": 3886,
      "గిన్నె": 3887,
      "గౌరవిస్తారు.": 3888,
      "ఘనత": 3889,
      "ఘట్టాలు": 3890,
      "ఘర్షణను": 3891,
      "చాళు": 3892,
      "చీర": 3893,
      "చోళులు": 3894,
      "చ్ఛాయుత": 3895,
      "చమురు,": 3896,
      "చక్రవర్తి": 3897,
      "చట్టం,": 3898,
      "చూపబడింది": 3899,
      "చ.కి.మీ": 3900,
      "జైనులు": 3901,
      "జౌళి": 3902,
      "జానపద": 3903,
      "జంతువు": 3904,
      "జెండా": 3905,
      "జిల్లా": 3906,
      "జవహర్‌లాల్": 3907,
      "టస్.": 3908,
      "టాయిడ్స్": 3909,
      "ట్రాఫిక్": 3910,
      "డ్రైవరు": 3911,
      "డాలర్లు.": 3912,
      "డబుల్స్": 3913,
      "ణికుల": 3914,
      "తారతమ్య": 3915,
      "తదుపరి": 3916,
      "తక్కువే.": 3917,
      "తలంపుతో": 3918,
      "తగ్గిపోయింది.": 3919,
      "థానే": 3920,
      "దశలో": 3921,
      "దసరా": 3922,
      "దృష్ట్యా": 3923,
      "దైనందిన": 3924,
      "దీనికి": 3925,
      "దగ్గరలో": 3926,
      "ధరించే": 3927,
      "ధరిస్తారు": 3928,
      "నృత్య": 3929,
      "నోబెల్": 3930,
      "నలు:": 3931,
      "నడుస్తాయి.": 3932,
      "పబడి": 3933,
      "పిలిచారు.": 3934,
      "పదిశాతం": 3935,
      "పరాజయం": 3936,
      "పచ్చజెండా": 3937,
      "పట్నం": 3938,
      "పస్రిద్ధి": 3939,
      "పర్షియనులు": 3940,
      "పండ్లు": 3941,
      "ఫుట్‌బాల": 3942,
      "ఫ్రాన్స్": 3943,
      "ఫలం:": 3944,
      "బొమ్మ": 3945,
      "బండ్లను": 3946,
      "బంగాళాఖాతం": 3947,
      "బడ్జెట్": 3948,
      "బిన్నత్వంలో": 3949,
      "బాబ్డే": 3950,
      "బ్యాడ్మిం": 3951,
      "భింబెట్కా": 3952,
      "భంగం": 3953,
      "మయన్మార్": 3954,
      "మారింది.": 3955,
      "మరాఠీ;": 3956,
      "మినహాయ": 3957,
      "మతం,": 3958,
      "మాల్దీవులు": 3959,
      "మణిపురి.": 3960,
      "మసాలాలు,": 3961,
      "మద్రాసు": 3962,
      "మంజూరు": 3963,
      "యూదులు": 3964,
      "యమున": 3965,
      "యథాతథ": 3966,
      "రొట్టెల": 3967,
      "ర‌వాణా": 3968,
      "రాయల్": 3969,
      "రంగానికి": 3970,
      "రక్షణ": 3971,
      "రవీంద్రనాథ": 3972,
      "రాతియుగపు": 3973,
      "రతాయని": 3974,
      "లైనప్పటికీ": 3975,
      "లబైరెండుకో": 3976,
      "లభ్యమైన": 3977,
      "వూపింది.": 3978,
      "వజ్రాలు": 3979,
      "వన్యప్రాణుల": 3980,
      "శక్తులు;": 3981,
      "శిల్పకళ": 3982,
      "శక్తిగా": 3983,
      "సల్వార్": 3984,
      "సవాళ్లను": 3985,
      "సత్యజిత్": 3986,
      "హెబియస్": 3987,
      "హొలీ": 3988,
      "హిందువు": 3989,
      "హక్కులకు": 3990,
      "లోన్లీ": 3991,
      "స్వేచ్ఛాయుత": 3992,
      "స్వరూపం,": 3993,
      "స్టేటాయిడ్స్": 3994,
      "ప్రమాణ": 3995,
      "ప్రయాణికుల": 3996,
      "ప్రఖ్యాతి": 3997,
      "ప్రణాళికలు": 3998,
      "ప్రార్థనలలో": 3999,
      "ప్రగతిని": 4000,
      "దేశరాజకీయాల్లో": 4001,
      "దేశమంతటా": 4002,
      "దేశాధినేత": 4003,
      "ర్సింగ్": 4004,
      "కుమార్తె": 4005,
      "కుమారుడు.": 4006,
      "కుడ్యచిత్రాలు": 4007,
      "కుదిర్చిన": 4008,
      "నివాసాలు": 4009,
      "నివారిస్తారు.": 4010,
      "నియోలిథిక": 4011,
      "నిలిచింది.": 4012,
      "నిలబెట్టుకు": 4013,
      "నిషేధం": 4014,
      "విడిపోయింది.": 4015,
      "విధానాలతో": 4016,
      "వివరాలు": 4017,
      "విశాఖపట్నం": 4018,
      "వినాయక": 4019,
      "విజ్ఞాన": 4020,
      "విశిష్ట": 4021,
      "విభజితమై": 4022,
      "విశేషం.": 4023,
      "రాణించలేదు.": 4024,
      "రామాయణం": 4025,
      "ముద్ర:": 4026,
      "ముందుగా": 4027,
      "ద్వైపాక్ష": 4028,
      "తిరిగే": 4029,
      "స్తాంబుల్": 4030,
      "రిట్లలో": 4031,
      "సంస్థలు": 4032,
      "సంక్రాంతి": 4033,
      "సందర్శించే": 4034,
      "పుష్పం:": 4035,
      "పునర్వ్యవస్థీకరణ": 4036,
      "స్థూలాదాయంలో": 4037,
      "భావిస్తున్నది.": 4038,
      "పాండిచ్చేరి": 4039,
      "వాటిల్లింది.": 4040,
      "సాఫ్ట్‌వేర్,": 4041,
      "ప్రాముఖ్యతను": 4042,
      "ప్రాసెస్": 4043,
      "ప్రాజాస్వామ్య": 4044,
      "ప్రాబల్యం": 4045,
      "రాజధానులు,": 4046,
      "కోవారంటో": 4047,
      "కోవడంతో": 4048,
      "క్రైస్తవులు": 4049,
      "1962లో": 4050,
      "కావడం": 4051,
      "కాకుండా": 4052,
      "పేదరికం,": 4053,
      "దుస్తులు.": 4054,
      "మామిడి": 4055,
      "యావత్‌": 4056,
      "వ్య‌వ‌స్థ‌": 4057,
      "తరతరాలుగా": 4058,
      "సిద్ధించింది.": 4059,
      "సిగ్నలు:": 4060,
      "త్వరలోనే": 4061,
      "గుప్తులకాల": 4062,
      "గుత్తాధిపత్య": 4063,
      "disputed.": 4064,
      "కొంకణి;": 4065,
      "కొనసాగుతోంది.": 4066,
      "పాలకులనుండి": 4067,
      "కాలపరిమితికి": 4068,
      "చేసుకోవడంతో": 4069,
      "శాశ్వత": 4070,
      "దేశాల్లోనూ": 4071,
      "వ్యవహారాల": 4072,
      "వ్యవసాయం": 4073,
      "ఎన్నుకొనబడిన": 4074,
      "పారిశ్రామిక": 4075,
      "పంచుకుంటోంది.": 4076,
      "పెట్రోలియం": 4077,
      "పెట్టారు.ప్రస్తుతము": 4078,
      "కృష్ణా": 4079,
      "తురుష్కుల": 4080,
      "దాటేసింది.": 4081,
      "పేరుమీదుగా": 4082,
      "దక్షణాసియాలో": 4083,
      "పర్యాటక": 4084,
      "పరమోన్నత": 4085,
      "పరిధిలో": 4086,
      "పరిశోధనా": 4087,
      "పరిఢవిల్లాయి.": 4088,
      "మేరోః": 4089,
      "మేళవింపబడి": 4090,
      "మధ్యవర్తిత్వం": 4091,
      "సుదీర్ఘ": 4092,
      "సుల్తానులు": 4093,
      "ప్రధానమంత్రికి": 4094,
      "స్థానే...).": 4095,
      "భాషలలోను,": 4096,
      "వర్గీకరణలో": 4097,
      "వర్ధిల్లిన": 4098,
      "organisation": 4099,
      "పోటీలలో": 4100,
      "పోర్చుగల్": 4101,
      "మనోరమ": 4102,
      "లాభదాయకమేననీ,": 4103,
      "తాజ్‌మహల్": 4104,
      "అతిశీతల": 4105,
      "ఉత్సాహంగా,": 4106,
      "ఉత్తరాదిన": 4107,
      "ఉత్కృష్టమైన,": 4108,
      "జరిగాయి.": 4109,
      "పట్టాలెక్కనుంది.": 4110,
      "బ్రహ్మపుత్ర": 4111,
      "బ్రాడ్‌గేజి": 4112,
      "భాగస్వాములు.": 4113,
      "కేంద్రీకృతమై": 4114,
      "ఎక్కువైపోతున్నప్పటికీ,": 4115,
      "గోధుమ": 4116,
      "గోడుంబిళ్ళ": 4117,
      "బహిరంగంగా": 4118,
      "మంత్రులచే": 4119,
      "సాధించిపెట్టారు.ప్రస్తుతము": 4120,
      "కాంగ్రెసేతర": 4121,
      "మొదటిసారిగా": 4122,
      "దక్షిణదిగ్భాగే,": 4123,
      "2005-05-07": 4124,
      "ఉపయుక్త": 4125,
      "ఉపరాష్ట్రపతులు": 4126,
      "మైథిలి;": 4127,
      "మైదానంతో": 4128,
      "యు.ఏ.ఇ": 4129,
      "యునైటెడ్": 4130,
      "యోచనలో": 4131,
      "శ్లోకాలతో": 4132,
      "ప్రతినిధిచే": 4133,
      "ప్రాచుర్యము": 4134,
      "నెహ్రూ": 4135,
      "నెమలిపావో": 4136,
      "నెరవేరతాయని": 4137,
      "నెహ్వాల్": 4138,
      "మెట్రోపాలిటన్": 4139,
      "మెహర్గర్,": 4140,
      "రహదారులను": 4141,
      "వహిస్తాయి.": 4142,
      "వైశాల్యంలో": 4143,
      "సమాచారం": 4144,
      "స్వాధీనం": 4145,
      "మొదలగువారు": 4146,
      "మొదలగునవి).": 4147,
      "మంత్రివర్గం": 4148,
      "నడిపిస్తామని": 4149,
      "సౌకర్యవంతంగా,": 4150,
      "(1,147,960": 4151,
      "(1,181,700": 4152,
      "(17.23%).": 4153,
      "అనుమతిని": 4154,
      "అనువైనది.": 4155,
      "టెక్నాలజీ": 4156,
      "పొడిగించుకోవచ్చని": 4157,
      "పద్ధతులున్నాయి.": 4158,
      "రూపంలో)": 4159,
      "సమశీతోష్ణ": 4160,
      "సారవంతమైన": 4161,
      "సర్వసత్తాక,": 4162,
      "పుట్టిల్లు.": 4163,
      "పుట్టినిల్లయిన": 4164,
      "1971లోను": 4165,
      "అభిప్రాయపడుతున్నారు.": 4166,
      "1-74059-421-": 4167,
      "defined": 4168,
      "figures,": 4169,
      "ఇవ్వబడిన": 4170,
      "ఇవికాక": 4171,
      "ఇవికూడా": 4172,
      "చిహ్నాలు": 4173,
      "దీపావళి": 4174,
      "పదార్థాలు,": 4175,
      "సూచనలు,": 4176,
      "నిర్మిస్తున్న": 4177,
      "సంఘర్షణలను": 4178,
      "కార్యనిర్వాహక": 4179,
      "వారసత్వాన్ని,": 4180,
      "121,01,93,422": 4181,
      "grouped.": 4182,
      "అహ్మదీయులు": 4183,
      "అహమ్మదాబాదు": 4184,
      "ఆక్రమణదారులు,": 4185,
      "ఆక్రమించుకున్నారు.": 4186,
      "కూచిపూడి": 4187,
      "చిత్రమాలిక": 4188,
      "తెప్పించుకోవడానికి,": 4189,
      "తేలికేననీ": 4190,
      "బిజినెస్": 4191,
      "మరెన్నో": 4192,
      "మర్రిచెట్టు": 4193,
      "మౌఖికమైనది.": 4194,
      "లెజిస్లేచర్,": 4195,
      "వంశంలోని": 4196,
      "సహాయకారిగా": 4197,
      "ఒకేమాదిరిగా": 4198,
      "చేసింది.ఢాకా-ఢిల్లీ-లాహో": 4199,
      "శ్రీశైలస్య": 4200,
      "శ్రీరామనవమి": 4201,
      "కలిసివస్తుందని": 4202,
      "సాధించగలిగినది.": 4203,
      "జన్మనిచ్చింది.": 4204,
      "ద్వీప-దేశాలు.": 4205,
      "ఇస్లామాబాద్-టెహ్రాన్-ఇ": 4206,
      "(0.36%),": 4207,
      "(0.9%)": 4208,
      "extinct.": 4209,
      "territories": 4210,
      "అంటార్క్‌టికాలో": 4211,
      "అప్పిలేట్": 4212,
      "ఐక్యరాజ్యసమితి": 4213,
      "గ్రంథాలు": 4214,
      "చవిచూసింది.": 4215,
      "దర్శకుడైన": 4216,
      "దండయాత్రలతో,": 4217,
      "నూటనలబైరెండుకో": 4218,
      "పల్లెల్లోని": 4219,
      "శిలాగృహాలు,": 4220,
      "సెర్టియోరారి": 4221,
      "విమానాశ్రయాలు": 4222,
      "విశ్వనాథన్": 4223,
      "క్రిస్టాటస్.": 4224,
      "తమిళనాడుకు": 4225,
      "నిర్మించినందువల్ల": 4226,
      "సంకీర్ణాలేకాగా": 4227,
      "_of_Congress2004": 4228,
      "ఇండో-ఆర్యన్": 4229,
      "కూడుకొనినప్పటికినీ": 4230,
      "CITEREFLibrary_of_Congress2004": 4231,
      "CITEREFConstituent_Assembly_of_India1950": 4232,
      "\"dialect\"": 4233,
      "(ఆంగ్లేయులు)": 4234,
      "(టండ్రా)": 4235,
      "(సాకర్‌)": 4236,
      "(గిల్లీ-దండా)": 4237,
      "(బ్రెడ్,": 4238,
      "0-19-562359-2": 4239,
      "2,973,190": 4240,
      "81-900461-8-7": 4241,
      "According": 4242,
      "Archived": 4243,
      "Christian": 4244,
      "Devanagari": 4245,
      "Wayback": 4246,
      "additional": 4247,
      "because": 4248,
      "borders": 4249,
      "government": 4250,
      "అలీనోద్యమంలో": 4251,
      "అస్సామీ;": 4252,
      "ఆవిర్భవించింది.": 4253,
      "ఆడుతున్నవార్లలో": 4254,
      "ఆధ్యాత్మికత": 4255,
      "ఆణిముత్యం.": 4256,
      "ఇన్‌ఫర్మేషన్": 4257,
      "ఇముడ్చుకుంది.": 4258,
      "ఇతిహాసాలపై": 4259,
      "ఉర్దూ;": 4260,
      "ఎమర్జెన్సీ": 4261,
      "ఎదుర్కొంటున్నది.": 4262,
      "ఒక్కొక్కటే": 4263,
      "ఔట్‌సొర్సింగ్": 4264,
      "కితాబునిస్తున్నారు.": 4265,
      "చాళుక్యులు": 4266,
      "జంతువు:": 4267,
      "తారతమ్యాలున్నాయి.": 4268,
      "పర్షియనులు,": 4269,
      "ఫుట్‌బాల్‌": 4270,
      "బ్యాడ్మింటన్‌": 4271,
      "మినహాయించి,": 4272,
      "రవీంద్రనాథ్": 4273,
      "హిందువులైనప్పటికీ": 4274,
      "నియోలిథిక్": 4275,
      "నిలబెట్టుకున్నాయి.": 4276,
      "ద్వైపాక్షిక": 4277,
      "గుప్తులకాలం": 4278,
      "గుత్తాధిపత్యం": 4279,
      "1-74059-421-5": 4280,
      "121,01,93,422.": 4281,
      "చేసింది.ఢాకా-ఢిల్లీ-లాహోర్‌ల": 4282,
      "ఇస్లామాబాద్-టెహ్రాన్-ఇస్తాంబుల్": 4283,
      "నూటనలబైరెండుకోట్లకు": 4284
    },
    "merges": [
      [
        "్",
        "ర"
      ],
      [
        "ా",
        "ర"
      ],
      [
        "ల",
        "ు"
      ],
      [
        "ల",
        "ో"
      ],
      [
        "స",
        "్"
      ],
      [
        "్",
        "య"
      ],
      [
        "న",
        "్"
      ],
      [
        "ద",
        "ి"
      ],
      [
        "ద",
        "ే"
      ],
      [
        "ప",
        "్ర"
      ],
      [
        "ి",
        "ం"
      ],
      [
        "దే",
        "శ"
      ],
      [
        "ా",
        "ల"
      ],
      [
        "ి",
        "క"
      ],
      [
        "ర",
        "్"
      ],
      [
        "భ",
        "ార"
      ],
      [
        "భార",
        "త"
      ],
      [
        "ా",
        "లు"
      ],
      [
        "న్",
        "న"
      ],
      [
        "గ",
        "ా"
      ],
      [
        "ది",
        "."
      ],
      [
        "క",
        "ు"
      ],
      [
        "న",
        "ి"
      ],
      [
        "వ",
        "ి"
      ],
      [
        "ా",
        "త"
      ],
      [
        "ా",
        "య"
      ],
      [
        "క",
        "్"
      ],
      [
        "ా",
        "న"
      ],
      [
        "దేశ",
        "ం"
      ],
      [
        "ర",
        "ా"
      ],
      [
        "్",
        "ట"
      ],
      [
        "న",
        "ు"
      ],
      [
        "మ",
        "ు"
      ],
      [
        "ం",
        "డ"
      ],
      [
        "ీ",
        "య"
      ],
      [
        "ి",
        "న"
      ],
      [
        "ద",
        "్"
      ],
      [
        "త",
        "్"
      ],
      [
        "ిం",
        "చ"
      ],
      [
        "త",
        "ి"
      ],
      [
        "ల",
        "్"
      ],
      [
        "స్",
        "త"
      ],
      [
        "ం",
        "త"
      ],
      [
        "ర",
        "ి"
      ],
      [
        "స",
        "ం"
      ],
      [
        "ర",
        "ు"
      ],
      [
        "ప",
        "ు"
      ],
      [
        "ు",
        "లు"
      ],
      [
        "స్",
        "థ"
      ],
      [
        "ాయ",
        "ి"
      ],
      [
        "ం",
        "ట"
      ],
      [
        "ిం",
        "ది."
      ],
      [
        "ం",
        "లో"
      ],
      [
        "భారత",
        "దేశం"
      ],
      [
        "భ",
        "ా"
      ],
      [
        "ై",
        "న"
      ],
      [
        "ం",
        "గ"
      ],
      [
        "ూ",
        "డ"
      ],
      [
        "ాయి",
        "."
      ],
      [
        "ం",
        "ది."
      ],
      [
        "ం",
        "గా"
      ],
      [
        "ధ",
        "ిక"
      ],
      [
        "ప",
        "ా"
      ],
      [
        "వ",
        "ా"
      ],
      [
        "స",
        "ా"
      ],
      [
        "క్",
        "ష"
      ],
      [
        "ఉ",
        "న్న"
      ],
      [
        "ార",
        "ు"
      ],
      [
        "ట",
        "ి"
      ],
      [
        "ార",
        "్"
      ],
      [
        "ి",
        "త"
      ],
      [
        "్",
        "చ"
      ],
      [
        "జ",
        "ాత"
      ],
      [
        "ష",
        "్ట"
      ],
      [
        "క",
        "ూడ"
      ],
      [
        "ప్ర",
        "ా"
      ],
      [
        "రా",
        "జ"
      ],
      [
        "క",
        "ో"
      ],
      [
        "క",
        "్ర"
      ],
      [
        "ట",
        "్ట"
      ],
      [
        "1",
        "9"
      ],
      [
        "క",
        "ా"
      ],
      [
        "చ",
        "్చ"
      ],
      [
        "న",
        "ే"
      ],
      [
        "ప",
        "ే"
      ],
      [
        "మ",
        "ొ"
      ],
      [
        "0",
        "0"
      ],
      [
        "ం",
        "చ"
      ],
      [
        "ద",
        "ు"
      ],
      [
        "మ",
        "ా"
      ],
      [
        "య",
        "ా"
      ],
      [
        "ల",
        "ి"
      ],
      [
        "వ",
        "్య"
      ],
      [
        "భారత",
        "ీయ"
      ],
      [
        "త",
        "ర"
      ],
      [
        "న",
        "ా"
      ],
      [
        "ర",
        "ై"
      ],
      [
        "వ",
        "ాత"
      ],
      [
        "స",
        "ి"
      ],
      [
        "్",
        "ల"
      ],
      [
        "త్",
        "వ"
      ],
      [
        "జాత",
        "ీయ"
      ],
      [
        "a",
        "n"
      ],
      [
        "త",
        "ం"
      ],
      [
        "త",
        "ో"
      ],
      [
        "రా",
        "ష్ట"
      ],
      [
        "ారు",
        "."
      ],
      [
        "రాష్ట",
        "్ర"
      ],
      [
        "ఖ",
        "్య"
      ],
      [
        "గ",
        "ు"
      ],
      [
        "వ",
        "చ్చ"
      ],
      [
        "ిక",
        "ి"
      ],
      [
        "భారత",
        "దేశ"
      ],
      [
        "ద్",
        "ధ"
      ],
      [
        "ల్",
        "ల"
      ],
      [
        "ంత",
        "్ర"
      ],
      [
        "d",
        "i"
      ],
      [
        "o",
        "n"
      ],
      [
        "అ",
        "ధిక"
      ],
      [
        "క",
        "ొ"
      ],
      [
        "డ",
        "ు"
      ],
      [
        "ప",
        "ాల"
      ],
      [
        "మ",
        "ైన"
      ],
      [
        "వ",
        "ే"
      ],
      [
        "h",
        "e"
      ],
      [
        "ఒ",
        "క"
      ],
      [
        "క",
        "ాల"
      ],
      [
        "డ",
        "ి"
      ],
      [
        "ణ",
        "ా"
      ],
      [
        "ద",
        "్ర"
      ],
      [
        "మ",
        "ార్"
      ],
      [
        "ండ",
        "ి"
      ],
      [
        "a",
        "r"
      ],
      [
        "ఉ",
        "ంది."
      ],
      [
        "చ",
        "ే"
      ],
      [
        "ట",
        "ు"
      ],
      [
        "ధ",
        "్య"
      ],
      [
        "శ",
        "ా"
      ],
      [
        "్",
        "‌"
      ],
      [
        "ిం",
        "ద"
      ],
      [
        "దేశ",
        "ాల"
      ],
      [
        "వ్య",
        "వ"
      ],
      [
        "o",
        "f"
      ],
      [
        "ం",
        "ది"
      ],
      [
        "ఎ",
        "న్న"
      ],
      [
        "క",
        "ి"
      ],
      [
        "ప",
        "ార"
      ],
      [
        "ప",
        "ంచ"
      ],
      [
        "ా",
        "బ"
      ],
      [
        "ా",
        "న్"
      ],
      [
        "ర్",
        "వ"
      ],
      [
        "న్న",
        "ి"
      ],
      [
        "భారతదేశం",
        "లో"
      ],
      [
        "ఉన్న",
        "ాయి."
      ],
      [
        "చ",
        "ె"
      ],
      [
        "డ",
        "్"
      ],
      [
        "ధ",
        "ాన"
      ],
      [
        "ప",
        "ె"
      ],
      [
        "ి",
        "న్న"
      ],
      [
        "ె",
        "ండ"
      ],
      [
        "ాలు",
        ","
      ],
      [
        "మార్",
        "గ"
      ],
      [
        "వ్యవ",
        "స్థ"
      ],
      [
        "ం",
        "బ"
      ],
      [
        "క",
        "ృ"
      ],
      [
        "క",
        "ే"
      ],
      [
        "క",
        "ార"
      ],
      [
        "త",
        "ు"
      ],
      [
        "ద",
        "ా"
      ],
      [
        "హ",
        "ింద"
      ],
      [
        "ాన",
        "ికి"
      ],
      [
        "స్త",
        "ు"
      ],
      [
        "కూడ",
        "ా"
      ],
      [
        "పే",
        "రు"
      ],
      [
        "మొ",
        "ద"
      ],
      [
        "అధిక",
        "ార"
      ],
      [
        "n",
        "di"
      ],
      [
        "t",
        "he"
      ],
      [
        "క",
        "ర"
      ],
      [
        "ట",
        "్"
      ],
      [
        "త",
        "్ర"
      ],
      [
        "త",
        "్య"
      ],
      [
        "ద",
        "క్ష"
      ],
      [
        "ప",
        "ర"
      ],
      [
        "ప",
        "రి"
      ],
      [
        "మ",
        "త"
      ],
      [
        "మ",
        "ీ"
      ],
      [
        "మ",
        "ే"
      ],
      [
        "మ",
        "ధ్య"
      ],
      [
        "వ",
        "ర"
      ],
      [
        "స",
        "ు"
      ],
      [
        "ప్ర",
        "పంచ"
      ],
      [
        "ప్ర",
        "ధాన"
      ],
      [
        "ాత",
        "్ర"
      ],
      [
        "ద్",
        "ద"
      ],
      [
        "స్థ",
        "ాన"
      ],
      [
        "భా",
        "ష"
      ],
      [
        "ప్రా",
        "ంత"
      ],
      [
        "రాజ",
        "్య"
      ],
      [
        "రై",
        "లు"
      ],
      [
        "t",
        "i"
      ],
      [
        "ద",
        "ాయ"
      ],
      [
        "ప",
        "్"
      ],
      [
        "వ",
        "ార"
      ],
      [
        "వ",
        "ర్"
      ],
      [
        "స",
        "భ"
      ],
      [
        "క్",
        "కు"
      ],
      [
        "దేశం",
        "లో"
      ],
      [
        "్ట",
        "ీ"
      ],
      [
        "క్ర",
        "ీ"
      ],
      [
        "పార",
        "్టీ"
      ],
      [
        "దక్ష",
        "ి"
      ],
      [
        "I",
        "ndi"
      ],
      [
        "a",
        "l"
      ],
      [
        "o",
        "r"
      ],
      [
        "అ",
        "య"
      ],
      [
        "ఆ",
        "ర్"
      ],
      [
        "గ",
        "ి"
      ],
      [
        "జ",
        "నా"
      ],
      [
        "న",
        "ాలు"
      ],
      [
        "ప",
        "ూ"
      ],
      [
        "ప",
        "ో"
      ],
      [
        "భ",
        "ు"
      ],
      [
        "మ",
        "న"
      ],
      [
        "మ",
        "ి"
      ],
      [
        "ర",
        "ో"
      ],
      [
        "ర",
        "ెండ"
      ],
      [
        "ల",
        "ం"
      ],
      [
        "ల",
        "ా"
      ],
      [
        "వ",
        "ు"
      ],
      [
        "వ",
        "ె"
      ],
      [
        "్య",
        "ం"
      ],
      [
        "ప్ర",
        "జ"
      ],
      [
        "ప్ర",
        "భు"
      ],
      [
        "ము",
        "ఖ్య"
      ],
      [
        "ించ",
        "ిన"
      ],
      [
        "ించ",
        "ింది."
      ],
      [
        "హింద",
        "ూ"
      ],
      [
        "e",
        "r"
      ],
      [
        "i",
        "s"
      ],
      [
        "ం",
        "ద్ర"
      ],
      [
        "ఇ",
        "తర"
      ],
      [
        "గ",
        "ీ"
      ],
      [
        "త",
        "ా"
      ],
      [
        "త",
        "రు"
      ],
      [
        "ల",
        "కు"
      ],
      [
        "వ",
        "ీ"
      ],
      [
        "శ",
        "్ర"
      ],
      [
        "ష",
        "్"
      ],
      [
        "ీ",
        "న"
      ],
      [
        "స్",
        "కృ"
      ],
      [
        "ాల",
        "్"
      ],
      [
        "స్త",
        "్ర"
      ],
      [
        "సా",
        "ం"
      ],
      [
        "వచ్చ",
        "ింది."
      ],
      [
        "పె",
        "ద్ద"
      ],
      [
        "క్కు",
        "వ"
      ],
      [
        "Indi",
        "a"
      ],
      [
        ",",
        "2"
      ],
      [
        "g",
        "u"
      ],
      [
        "n",
        "t"
      ],
      [
        "ం",
        ","
      ],
      [
        "అ",
        "తి"
      ],
      [
        "ఉ",
        "త్"
      ],
      [
        "ఉ",
        "ంట"
      ],
      [
        "క",
        "లి"
      ],
      [
        "గ",
        "ర"
      ],
      [
        "జ",
        "న"
      ],
      [
        "జ",
        "రి"
      ],
      [
        "ప",
        "ట్ట"
      ],
      [
        "బ",
        "డ"
      ],
      [
        "బ",
        "ా"
      ],
      [
        "బ",
        "ె"
      ],
      [
        "బ",
        "్ర"
      ],
      [
        "మ",
        "హ"
      ],
      [
        "ల",
        "లో"
      ],
      [
        "వ",
        "ంట"
      ],
      [
        "ు",
        "కు"
      ],
      [
        "వి",
        "ధ"
      ],
      [
        "భా",
        "గ"
      ],
      [
        "వా",
        "ణా"
      ],
      [
        "మార్గ",
        "ాలు"
      ],
      [
        "కే",
        "ంద్ర"
      ],
      [
        "ప్",
        "ప"
      ],
      [
        "క్రీ",
        "డ"
      ],
      [
        "అయ",
        "ిన"
      ],
      [
        "జనా",
        "భా"
      ],
      [
        "ప్రభు",
        "త్వ"
      ],
      [
        "తరు",
        "వాత"
      ],
      [
        ")",
        ","
      ],
      [
        "e",
        "s"
      ],
      [
        "అ",
        "నే"
      ],
      [
        "ఇ",
        "ది"
      ],
      [
        "ఎ",
        "క్కువ"
      ],
      [
        "ఏ",
        "ర్"
      ],
      [
        "క",
        "ీయ"
      ],
      [
        "గ",
        "ో"
      ],
      [
        "గ",
        "్"
      ],
      [
        "గ",
        "ిన"
      ],
      [
        "ట",
        "ిక"
      ],
      [
        "ణ",
        "ం"
      ],
      [
        "బ",
        "హ"
      ],
      [
        "మ",
        "ాన"
      ],
      [
        "మ",
        "ంత్ర"
      ],
      [
        "ర",
        "వాణా"
      ],
      [
        "ల",
        "ే"
      ],
      [
        "ల",
        "ను"
      ],
      [
        "స",
        "ిం"
      ],
      [
        "స",
        "రి"
      ],
      [
        "ి",
        "ల్ల"
      ],
      [
        "్ర",
        "ా"
      ],
      [
        "్ర",
        "ె"
      ],
      [
        "ప్ర",
        "స్తు"
      ],
      [
        "ప్ర",
        "దాయ"
      ],
      [
        "క్",
        "క"
      ],
      [
        "స్త",
        "ాన్"
      ],
      [
        "ంగ",
        "్రె"
      ],
      [
        "పా",
        "కి"
      ],
      [
        "సా",
        "ధ"
      ],
      [
        "రాజ",
        "కీయ"
      ],
      [
        "కా",
        "ంగ్రె"
      ],
      [
        "an",
        "d"
      ],
      [
        "కాల",
        "ంలో"
      ],
      [
        "ar",
        "e"
      ],
      [
        "ంది",
        "న"
      ],
      [
        "ఎన్న",
        "ో"
      ],
      [
        "ాబ",
        "్"
      ],
      [
        "మొద",
        "టి"
      ],
      [
        "దక్షి",
        "ణ"
      ],
      [
        "2",
        "00"
      ],
      [
        "e",
        "d"
      ],
      [
        "g",
        "e"
      ],
      [
        "అ",
        "త్య"
      ],
      [
        "ఇ",
        "ండి"
      ],
      [
        "ఉ",
        "ప"
      ],
      [
        "క",
        "్య"
      ],
      [
        "గ",
        "ణ"
      ],
      [
        "గ",
        "ల"
      ],
      [
        "చ",
        "ిన్న"
      ],
      [
        "ద",
        "ం"
      ],
      [
        "ప",
        "ై"
      ],
      [
        "ప",
        "తి"
      ],
      [
        "భ",
        "ూ"
      ],
      [
        "మ",
        "ై"
      ],
      [
        "య",
        "ు"
      ],
      [
        "య",
        "ో"
      ],
      [
        "ర",
        "ం"
      ],
      [
        "ర",
        "ంగ"
      ],
      [
        "ల",
        "తో"
      ],
      [
        "వ",
        "ల"
      ],
      [
        "శ",
        "్"
      ],
      [
        "ష",
        "ు"
      ],
      [
        "స",
        "ము"
      ],
      [
        "ా",
        "వర"
      ],
      [
        "ు",
        "కో"
      ],
      [
        "ె",
        "లు"
      ],
      [
        "్",
        "మ"
      ],
      [
        "ప్ర",
        "ము"
      ],
      [
        "ప్ర",
        "తి"
      ],
      [
        "ాల",
        "లో"
      ],
      [
        "ాల",
        "ను"
      ],
      [
        "వి",
        "స్త"
      ],
      [
        "ండ",
        "ు"
      ],
      [
        "ించ",
        "ి"
      ],
      [
        "సం",
        "గీ"
      ],
      [
        "సం",
        "స్కృ"
      ],
      [
        "ంగ",
        "్ల"
      ],
      [
        "ిత",
        "్ర"
      ],
      [
        "ప్రా",
        "చ"
      ],
      [
        "క్ర",
        "మ"
      ],
      [
        "సి",
        "ని"
      ],
      [
        "సి",
        "యా"
      ],
      [
        "ద్ధ",
        "ి"
      ],
      [
        "శా",
        "స్త్ర"
      ],
      [
        "ఆర్",
        "ధిక"
      ],
      [
        "సరి",
        "హ"
      ],
      [
        "అత్య",
        "ధిక"
      ],
      [
        "ఇండి",
        "యా"
      ],
      [
        "ప్రము",
        "ఖ"
      ],
      [
        "2",
        "0"
      ],
      [
        "5",
        "0"
      ],
      [
        "a",
        "s"
      ],
      [
        "c",
        "t"
      ],
      [
        "i",
        "n"
      ],
      [
        "l",
        "is"
      ],
      [
        "o",
        "u"
      ],
      [
        "t",
        "o"
      ],
      [
        "ం",
        "."
      ],
      [
        "ం",
        ":"
      ],
      [
        "ం",
        "ధ"
      ],
      [
        "ఆ",
        "ధ"
      ],
      [
        "క",
        "ాలు"
      ],
      [
        "గ",
        "లు"
      ],
      [
        "జ",
        "ాబ"
      ],
      [
        "ట",
        "్ల"
      ],
      [
        "ఢ",
        "ిల్ల"
      ],
      [
        "ణ",
        "ి"
      ],
      [
        "త",
        "ిక"
      ],
      [
        "త",
        "ంత్ర"
      ],
      [
        "ద",
        "ార"
      ],
      [
        "ధ",
        "ి"
      ],
      [
        "న",
        "ీ"
      ],
      [
        "న",
        "ె"
      ],
      [
        "న",
        "డి"
      ],
      [
        "భ",
        "ిన్న"
      ],
      [
        "మ",
        "ె"
      ],
      [
        "మ",
        "ూడ"
      ],
      [
        "మ",
        "ాత్ర"
      ],
      [
        "ర",
        "హ"
      ],
      [
        "వ",
        "హ"
      ],
      [
        "వ",
        "ై"
      ],
      [
        "స",
        "ౌ"
      ],
      [
        "స",
        "ింది."
      ],
      [
        "స",
        "మా"
      ],
      [
        "హ",
        "ార"
      ],
      [
        "ీ",
        ";"
      ],
      [
        "ీ",
        "ర్"
      ],
      [
        "స్",
        "య"
      ],
      [
        "స్",
        "వ"
      ],
      [
        "స్",
        "వా"
      ],
      [
        "స్",
        "వాత"
      ],
      [
        "్య",
        "ాయ"
      ],
      [
        "భారత",
        "్"
      ],
      [
        "వి",
        "విధ"
      ],
      [
        "ద్",
        "దు"
      ],
      [
        "ంత",
        "ో"
      ],
      [
        "ులు",
        ","
      ],
      [
        "సా",
        "మ"
      ],
      [
        "కో",
        "ర్"
      ],
      [
        "పే",
        "ర్"
      ],
      [
        "00",
        "0"
      ],
      [
        "రాష్ట్ర",
        "పతి"
      ],
      [
        "శా",
        "ఖ"
      ],
      [
        "డ్",
        "డ"
      ],
      [
        "మొద",
        "ల"
      ],
      [
        "కర",
        "్య"
      ],
      [
        "ప్రాంత",
        "ాలు"
      ],
      [
        "ti",
        "on"
      ],
      [
        "దేశంలో",
        "ని"
      ],
      [
        "రెండ",
        "ు"
      ],
      [
        "ాల్",
        "లో"
      ],
      [
        "ఉత్",
        "తర"
      ],
      [
        "పట్ట",
        "ణ"
      ],
      [
        "బె",
        "ంగ"
      ],
      [
        "బ్ర",
        "ి"
      ],
      [
        "ప్ప",
        "టిక"
      ],
      [
        "ఏర్",
        "ప"
      ],
      [
        "బహ",
        "ు"
      ],
      [
        "మంత్ర",
        "ి"
      ],
      [
        "సిం",
        "ధ"
      ],
      [
        "సరిహ",
        "ద్దు"
      ],
      [
        "ఢిల్ల",
        "ీ"
      ],
      [
        "నడి",
        "ప"
      ],
      [
        "సౌ",
        "కర్య"
      ],
      [
        "స్వాత",
        "ంత్ర"
      ],
      [
        "(",
        "1"
      ],
      [
        ")",
        "."
      ],
      [
        ".",
        "."
      ],
      [
        "1",
        "4"
      ],
      [
        "C",
        "on"
      ],
      [
        "e",
        "nt"
      ],
      [
        "n",
        "o"
      ],
      [
        "ం",
        "ద"
      ],
      [
        "ం",
        "దు"
      ],
      [
        "అ",
        "భ"
      ],
      [
        "అ",
        "ను"
      ],
      [
        "క",
        "ళ"
      ],
      [
        "క",
        "ల్"
      ],
      [
        "గ",
        "ే"
      ],
      [
        "గ",
        "ంగా"
      ],
      [
        "చ",
        "ార"
      ],
      [
        "చ",
        "రి"
      ],
      [
        "చ",
        "ైన"
      ],
      [
        "జ",
        "్య"
      ],
      [
        "ట",
        "ీ"
      ],
      [
        "ట",
        "ె"
      ],
      [
        "త",
        "న"
      ],
      [
        "త",
        "ూ"
      ],
      [
        "త",
        "మి"
      ],
      [
        "త",
        "ాబ్"
      ],
      [
        "థ",
        "ిక"
      ],
      [
        "న",
        "గర"
      ],
      [
        "ప",
        "త"
      ],
      [
        "ప",
        "ొ"
      ],
      [
        "ప",
        "ద్ధ"
      ],
      [
        "ప",
        "ాత్ర"
      ],
      [
        "ప",
        "ండు"
      ],
      [
        "మ",
        "లు"
      ],
      [
        "మ",
        "్య"
      ],
      [
        "ర",
        "ూ"
      ],
      [
        "ళ",
        "ం"
      ],
      [
        "ళ",
        "్ల"
      ],
      [
        "వ",
        "డ"
      ],
      [
        "వ",
        "ృ"
      ],
      [
        "వ",
        "త్"
      ],
      [
        "శ",
        "తాబ్"
      ],
      [
        "స",
        "మ"
      ],
      [
        "స",
        "ై"
      ],
      [
        "స",
        "ార"
      ],
      [
        "స",
        "ర్వ"
      ],
      [
        "ి",
        "మ"
      ],
      [
        "ు",
        "ంది."
      ],
      [
        "ాల",
        "తో"
      ],
      [
        "న్న",
        "ాయి."
      ],
      [
        "గా",
        ","
      ],
      [
        "ని",
        "ర్వ"
      ],
      [
        "ను",
        "క"
      ],
      [
        "ను",
        "ండి"
      ],
      [
        "త్",
        "తం"
      ],
      [
        "ించ",
        "ే"
      ],
      [
        "ల్",
        "వే"
      ],
      [
        "సం",
        "ఖ్య"
      ],
      [
        "పు",
        "ట్ట"
      ],
      [
        "ిత",
        "ా"
      ],
      [
        "కూడ",
        "ిన"
      ],
      [
        "19",
        "7"
      ],
      [
        "మొ",
        "త్తం"
      ],
      [
        "రై",
        "ల్వే"
      ],
      [
        "వాత",
        "ావర"
      ],
      [
        "an",
        "gu"
      ],
      [
        "భారతదేశ",
        "ానికి"
      ],
      [
        "పాల",
        "న"
      ],
      [
        "ఒక",
        "టి"
      ],
      [
        "చే",
        "య"
      ],
      [
        "దేశాల",
        "లో"
      ],
      [
        "తు",
        "న్న"
      ],
      [
        "అధికార",
        "ిక"
      ],
      [
        "ట్",
        "లు"
      ],
      [
        "ప్రపంచ",
        "ంలో"
      ],
      [
        "భాష",
        "లు"
      ],
      [
        "వె",
        "బ"
      ],
      [
        "ప్రజ",
        "ా"
      ],
      [
        ",2",
        "6"
      ],
      [
        "కలి",
        "గి"
      ],
      [
        "జరి",
        "గిన"
      ],
      [
        "వంట",
        "ి"
      ],
      [
        "అనే",
        "క"
      ],
      [
        "ఎక్కువ",
        "గా"
      ],
      [
        "ప్రస్తు",
        "తం"
      ],
      [
        "కాంగ్రె",
        "సు"
      ],
      [
        "సము",
        "ద్ర"
      ],
      [
        "ప్రాచ",
        "ీన"
      ],
      [
        "జాబ",
        "ితా"
      ],
      [
        "రహ",
        "దార"
      ],
      [
        "అభ",
        "ి"
      ],
      [
        "చరి",
        "త్ర"
      ],
      [
        "శతాబ్",
        "దం"
      ],
      [
        "నిర్వ",
        "హ"
      ],
      [
        "వాతావర",
        "ణం"
      ],
      [
        "angu",
        "a"
      ],
      [
        "%",
        "),"
      ],
      [
        ",",
        "9"
      ],
      [
        ",",
        "000"
      ],
      [
        "1",
        "-"
      ],
      [
        "1",
        "0"
      ],
      [
        "1",
        "8"
      ],
      [
        "2",
        "3"
      ],
      [
        "3",
        ","
      ],
      [
        "4",
        "7"
      ],
      [
        "C",
        "I"
      ],
      [
        "a",
        "t"
      ],
      [
        "a",
        "tion"
      ],
      [
        "d",
        "e"
      ],
      [
        "f",
        "i"
      ],
      [
        "i",
        "l"
      ],
      [
        "k",
        "m"
      ],
      [
        "l",
        "angua"
      ],
      [
        "m",
        "i"
      ],
      [
        "s",
        "q"
      ],
      [
        "t",
        "h"
      ],
      [
        "t",
        "al"
      ],
      [
        "అ",
        "ని"
      ],
      [
        "ఆ",
        "ఫ"
      ],
      [
        "ఇ",
        "వ"
      ],
      [
        "క",
        "ం"
      ],
      [
        "క",
        "ల"
      ],
      [
        "ఖ",
        "ండ"
      ],
      [
        "చ",
        "ి"
      ],
      [
        "జ",
        "ి"
      ],
      [
        "జ",
        "న్"
      ],
      [
        "ట",
        "ం"
      ],
      [
        "ట",
        "ా"
      ],
      [
        "డ",
        "ే"
      ],
      [
        "ణ",
        "ంగా"
      ],
      [
        "ద",
        "న"
      ],
      [
        "ద",
        "ీ"
      ],
      [
        "ద",
        "్య"
      ],
      [
        "న",
        "ాయ"
      ],
      [
        "న",
        "్యాయ"
      ],
      [
        "ప",
        "ం"
      ],
      [
        "ప",
        "ద"
      ],
      [
        "ప",
        "శ"
      ],
      [
        "ప",
        "క్ష"
      ],
      [
        "మ",
        "ల"
      ],
      [
        "మ",
        "ాలు"
      ],
      [
        "మ",
        "్మ"
      ],
      [
        "య",
        "ాలు"
      ],
      [
        "ర",
        "ే"
      ],
      [
        "ర",
        "్య"
      ],
      [
        "ర",
        "కాల"
      ],
      [
        "ల",
        "క్ష"
      ],
      [
        "వ",
        "రి"
      ],
      [
        "స",
        "ర"
      ],
      [
        "స",
        "ూ"
      ],
      [
        "హ",
        "ా"
      ],
      [
        "ా",
        ","
      ],
      [
        "ి",
        "ల్"
      ],
      [
        "ి",
        "స్త"
      ],
      [
        "ీ",
        ","
      ],
      [
        "ీ",
        "లు"
      ],
      [
        "ు",
        "."
      ],
      [
        "ు",
        "ల"
      ],
      [
        "ె",
        "ల"
      ],
      [
        "ో",
        "ర"
      ],
      [
        "లో",
        "క్"
      ],
      [
        "స్",
        "లా"
      ],
      [
        "ప్ర",
        "కార"
      ],
      [
        "ాల",
        "కు"
      ],
      [
        "ిక",
        ","
      ],
      [
        "ిక",
        "త"
      ],
      [
        "ిక",
        "్"
      ],
      [
        "కు",
        "ల"
      ],
      [
        "కు",
        "ంట"
      ],
      [
        "కు",
        "టు"
      ],
      [
        "ని",
        "ర్"
      ],
      [
        "వి",
        "."
      ],
      [
        "ాయ",
        "ు"
      ],
      [
        "రా",
        "స్య"
      ],
      [
        "ము",
        "లో"
      ],
      [
        "ము",
        "ంబ"
      ],
      [
        "ద్",
        "వీ"
      ],
      [
        "ల్",
        "లో"
      ],
      [
        "సం",
        "ఘ"
      ],
      [
        "సం",
        "ప్రదాయ"
      ],
      [
        "సం",
        "వత్"
      ],
      [
        "స్థ",
        "ాన్"
      ],
      [
        "ంట",
        "ే"
      ],
      [
        "పా",
        "క్"
      ],
      [
        "పా",
        "టు"
      ],
      [
        "క్ష",
        "రాస్య"
      ],
      [
        "టి",
        "లో"
      ],
      [
        "19",
        "9"
      ],
      [
        "19",
        "50"
      ],
      [
        "ంచ",
        "ి"
      ],
      [
        "వ్య",
        "ా"
      ],
      [
        "రై",
        "ళ్ల"
      ],
      [
        "రాష్ట్ర",
        "ాల"
      ],
      [
        "రాష్ట్ర",
        "ాలు"
      ],
      [
        "వచ్చ",
        "ిన"
      ],
      [
        "భారతదేశ",
        "పు"
      ],
      [
        "కొ",
        "న్ని"
      ],
      [
        "పాల",
        "ిత"
      ],
      [
        "వే",
        "గంగా"
      ],
      [
        "ణా",
        "సియా"
      ],
      [
        "భారతదేశంలో",
        "ని"
      ],
      [
        "చె",
        "ందిన"
      ],
      [
        "డ్",
        "డు"
      ],
      [
        "వ్యవస్థ",
        "లో"
      ],
      [
        "కార",
        "్య"
      ],
      [
        "కర",
        "ణ"
      ],
      [
        "పర",
        "ంగా"
      ],
      [
        "పరి",
        "శ్ర"
      ],
      [
        "మే",
        "న"
      ],
      [
        "ప్రధాన",
        "మంత్రి"
      ],
      [
        "స్థాన",
        "ంలో"
      ],
      [
        "రాజ్య",
        "ాలు"
      ],
      [
        "వార",
        "స"
      ],
      [
        "సభ",
        "్య"
      ],
      [
        "ఆర్",
        "థిక"
      ],
      [
        "పూ",
        "."
      ],
      [
        "పూ",
        "ర్వ"
      ],
      [
        "రో",
        "డ్డు"
      ],
      [
        "ముఖ్య",
        "మైన"
      ],
      [
        "సాం",
        "ప్రదాయ"
      ],
      [
        "ఉంట",
        "ాయి."
      ],
      [
        "జన",
        "గణ"
      ],
      [
        "బా",
        "ద్"
      ],
      [
        "భాగ",
        "ం"
      ],
      [
        "కేంద్ర",
        "పాలిత"
      ],
      [
        "పాకి",
        "స్తాన్"
      ],
      [
        "పాకి",
        "స్థాన్"
      ],
      [
        "are",
        "a"
      ],
      [
        "దక్షిణ",
        "ాన"
      ],
      [
        "200",
        "4"
      ],
      [
        "పై",
        "గా"
      ],
      [
        "ించి",
        ","
      ],
      [
        "సంగీ",
        "తం"
      ],
      [
        "సంస్కృ",
        "తి"
      ],
      [
        "సిని",
        "మా"
      ],
      [
        "శాస్త్ర",
        "ం"
      ],
      [
        "lis",
        "t"
      ],
      [
        "to",
        "tal"
      ],
      [
        "ఆధ",
        "ార"
      ],
      [
        "మూడ",
        "ు"
      ],
      [
        "మాత్ర",
        "ం"
      ],
      [
        "స్వ",
        "తంత్ర"
      ],
      [
        "స్వా",
        "మ్య"
      ],
      [
        "సామ",
        "్రా"
      ],
      [
        "బెంగ",
        "ాల"
      ],
      [
        "బ్రి",
        "టి"
      ],
      [
        "నడిప",
        "ించ"
      ],
      [
        "స్వాతంత్ర",
        "్య"
      ],
      [
        "వృ",
        "ద్ధి"
      ],
      [
        "సర్వ",
        "ీ"
      ],
      [
        "రహదార",
        "ులు"
      ],
      [
        "అభి",
        "వృద్ధి"
      ],
      [
        "langua",
        "ge"
      ],
      [
        "ఆఫ",
        "్"
      ],
      [
        "పశ",
        "్చ"
      ],
      [
        "కుటు",
        "ంబ"
      ],
      [
        "క్షరాస్య",
        "త"
      ],
      [
        "'",
        "s"
      ],
      [
        "(",
        "వె"
      ],
      [
        ".",
        "పూ."
      ],
      [
        "1",
        "2"
      ],
      [
        "1",
        "7"
      ],
      [
        "2",
        "2"
      ],
      [
        "2",
        "6"
      ],
      [
        "4",
        "0"
      ],
      [
        "4",
        "6"
      ],
      [
        "7",
        ",26"
      ],
      [
        "8",
        "7,26"
      ],
      [
        "B",
        "N"
      ],
      [
        "I",
        "S"
      ],
      [
        "T",
        "he"
      ],
      [
        "a",
        "ct"
      ],
      [
        "c",
        "h"
      ],
      [
        "c",
        "i"
      ],
      [
        "f",
        "f"
      ],
      [
        "g",
        "r"
      ],
      [
        "i",
        "v"
      ],
      [
        "l",
        "y"
      ],
      [
        "n",
        "g"
      ],
      [
        "n",
        "i"
      ],
      [
        "r",
        "i"
      ],
      [
        "r",
        "y"
      ],
      [
        "s",
        "e"
      ],
      [
        "s",
        "ti"
      ],
      [
        "t",
        "u"
      ],
      [
        "w",
        "i"
      ],
      [
        "ం",
        "భ"
      ],
      [
        "అ",
        "హ"
      ],
      [
        "అ",
        "వి"
      ],
      [
        "ఆ",
        "క్రమ"
      ],
      [
        "ఆ",
        "హార"
      ],
      [
        "ఇ",
        "వి"
      ],
      [
        "ఇ",
        "ంగ్ల"
      ],
      [
        "ఇ",
        "స్లా"
      ],
      [
        "ఉ",
        "ండ"
      ],
      [
        "క",
        "థ"
      ],
      [
        "క",
        "ూ"
      ],
      [
        "క",
        "న్న"
      ],
      [
        "క",
        "త్వ"
      ],
      [
        "క",
        "ింద"
      ],
      [
        "క",
        "ీర్"
      ],
      [
        "చ",
        "న"
      ],
      [
        "చ",
        "ు"
      ],
      [
        "చ",
        "ాల"
      ],
      [
        "చ",
        "ిత్ర"
      ],
      [
        "జ",
        "ీ"
      ],
      [
        "జ",
        "ాలు"
      ],
      [
        "జ",
        "రు"
      ],
      [
        "జ",
        "ంబ"
      ],
      [
        "ట",
        "ే"
      ],
      [
        "ట",
        "ై"
      ],
      [
        "ట",
        "ర్"
      ],
      [
        "డ",
        "ిన"
      ],
      [
        "త",
        "ల"
      ],
      [
        "త",
        "ె"
      ],
      [
        "త",
        "ే"
      ],
      [
        "త",
        "ము"
      ],
      [
        "త",
        "ులు"
      ],
      [
        "త",
        "ంలో"
      ],
      [
        "త",
        "ెలు"
      ],
      [
        "ద",
        "ర"
      ],
      [
        "న",
        "ది"
      ],
      [
        "ప",
        "ీ"
      ],
      [
        "ప",
        "ార్"
      ],
      [
        "బ",
        "ి"
      ],
      [
        "బ",
        "ంగ్ల"
      ],
      [
        "బ",
        "ంధ"
      ],
      [
        "బ",
        "డ్డ"
      ],
      [
        "భ",
        "ర"
      ],
      [
        "భ",
        "ౌ"
      ],
      [
        "మ",
        "ర"
      ],
      [
        "మ",
        "ూ"
      ],
      [
        "మ",
        "ౌ"
      ],
      [
        "మ",
        "ాత"
      ],
      [
        "మ",
        "తి"
      ],
      [
        "మ",
        "ారు"
      ],
      [
        "మ",
        "ంది"
      ],
      [
        "ల",
        "ీ"
      ],
      [
        "ల",
        "ె"
      ],
      [
        "ల",
        "ిం"
      ],
      [
        "ళ",
        "్"
      ],
      [
        "ళ",
        "ిక"
      ],
      [
        "వ",
        "ం"
      ],
      [
        "వ",
        "ులు"
      ],
      [
        "వ",
        "ల్ల"
      ],
      [
        "వ",
        "లం"
      ],
      [
        "శ",
        "ెల"
      ],
      [
        "స",
        "హ"
      ],
      [
        "స",
        "ే"
      ],
      [
        "స",
        "్ర"
      ],
      [
        "స",
        "ులు"
      ],
      [
        "స",
        "ైన"
      ],
      [
        "స",
        "ార్"
      ],
      [
        "హ",
        "ై"
      ],
      [
        "హ",
        "ిమ"
      ],
      [
        "ా",
        "దేశ"
      ],
      [
        "ా",
        "ంగ"
      ],
      [
        "ి",
        "గా"
      ],
      [
        "ు",
        "కొ"
      ],
      [
        "ూ",
        "ప"
      ],
      [
        "ూ",
        "రు"
      ],
      [
        "ె",
        "ట్"
      ],
      [
        "ే",
        ","
      ],
      [
        "్",
        "వ"
      ],
      [
        "ార",
        "ంభ"
      ],
      [
        "లు",
        "."
      ],
      [
        "లో",
        "య"
      ],
      [
        "్య",
        "ా"
      ],
      [
        "ది",
        "న"
      ],
      [
        "ది",
        "నాలు"
      ],
      [
        "ప్ర",
        "ారంభ"
      ],
      [
        "దేశ",
        "పు"
      ],
      [
        "దేశ",
        "ానికి"
      ],
      [
        "ాల",
        "నే"
      ],
      [
        "ాల",
        "ెండ"
      ],
      [
        "ిక",
        "ా"
      ],
      [
        "ర్",
        ","
      ],
      [
        "ర్",
        "త"
      ],
      [
        "ర్",
        "ష"
      ],
      [
        "ర్",
        "‌"
      ],
      [
        "ాలు",
        "."
      ],
      [
        "న్న",
        "ది."
      ],
      [
        "న్న",
        "ారు."
      ],
      [
        "గా",
        "ంధ"
      ],
      [
        "కు",
        "లు"
      ],
      [
        "ని",
        "స్తాన్"
      ],
      [
        "వి",
        "ధ్య"
      ],
      [
        "వి",
        "భిన్న"
      ],
      [
        "వి",
        "ద్య"
      ],
      [
        "ాత",
        "ో"
      ],
      [
        "క్",
        "తి"
      ],
      [
        "దేశం",
        "గా"
      ],
      [
        "ను",
        "లు"
      ],
      [
        "ను",
        "ంచి"
      ],
      [
        "ము",
        "."
      ],
      [
        "ద్",
        "వార"
      ],
      [
        "త్",
        "వా"
      ],
      [
        "త్",
        "తా"
      ],
      [
        "సం",
        "కీర్"
      ],
      [
        "సం",
        "బంధ"
      ],
      [
        "పు",
        "రు"
      ],
      [
        "స్థ",
        "ి"
      ],
      [
        "ంట",
        "ు"
      ],
      [
        "పా",
        "దన"
      ],
      [
        "వా",
        "హ"
      ],
      [
        "వా",
        "ణి"
      ],
      [
        "ఉన్న",
        "ారు."
      ],
      [
        "జాత",
        "ి"
      ],
      [
        "కూడ",
        "ుకు"
      ],
      [
        "కో",
        "ల్"
      ],
      [
        "ట్ట",
        "మొదటి"
      ],
      [
        "19",
        "47"
      ],
      [
        "కా",
        "శ్"
      ],
      [
        "నే",
        "పాల"
      ],
      [
        "మొ",
        "ట్టమొదటి"
      ],
      [
        "మా",
        "బాద్"
      ],
      [
        "లి",
        "చ"
      ],
      [
        "తర",
        "ాలు"
      ],
      [
        "నా",
        "గర"
      ],
      [
        "గు",
        "వ"
      ],
      [
        "గు",
        "ర్త"
      ],
      [
        "వచ్చ",
        "ు."
      ],
      [
        "ద్ధ",
        "ం"
      ],
      [
        "పాల",
        "ించ"
      ],
      [
        "మైన",
        "ది."
      ],
      [
        "ఒక",
        "ే"
      ],
      [
        "చే",
        "సింది."
      ],
      [
        "్‌",
        "సై"
      ],
      [
        "of",
        "fi"
      ],
      [
        "ఎన్న",
        "ిక"
      ],
      [
        "పె",
        "నీ"
      ],
      [
        "కే",
        "వలం"
      ],
      [
        "కార",
        "ణంగా"
      ],
      [
        "తు",
        "ంది."
      ],
      [
        "దా",
        "పు"
      ],
      [
        "దా",
        "దాపు"
      ],
      [
        "త్ర",
        "ి"
      ],
      [
        "రాజ్య",
        "ాంగ"
      ],
      [
        "వర్",
        "గ"
      ],
      [
        "వర్",
        "ణ"
      ],
      [
        "దక్షి",
        "ణాసియా"
      ],
      [
        "నాలు",
        "గు"
      ],
      [
        "ప్రజ",
        "ల"
      ],
      [
        "హిందూ",
        "దేశం"
      ],
      [
        "వీ",
        "టిలో"
      ],
      [
        "శ్ర",
        "ీ"
      ],
      [
        "ష్",
        "ణ"
      ],
      [
        "స్కృ",
        "తిక"
      ],
      [
        "సాం",
        "స్కృతిక"
      ],
      [
        "nt",
        "ry"
      ],
      [
        "ఉంట",
        "ుంది."
      ],
      [
        "కలి",
        "సి"
      ],
      [
        "బడ",
        "త"
      ],
      [
        "బడ",
        "ిన"
      ],
      [
        "మహ",
        "ా"
      ],
      [
        "ుకు",
        "ంట"
      ],
      [
        "క్రీడ",
        "లు"
      ],
      [
        "ప్రభుత్వ",
        "ం"
      ],
      [
        "తరువాత",
        "ి"
      ],
      [
        "లే",
        "దా"
      ],
      [
        "సాధ",
        "ించ"
      ],
      [
        "ఉప",
        "ఖండ"
      ],
      [
        "క్య",
        "ాలెండ"
      ],
      [
        "లతో",
        ","
      ],
      [
        "ుకో",
        "వడ"
      ],
      [
        "ప్రతి",
        "పాదన"
      ],
      [
        "ిత్ర",
        "క"
      ],
      [
        "సిని",
        "మాలు"
      ],
      [
        "శాస్త్ర",
        "ీయ"
      ],
      [
        "ou",
        "ntry"
      ],
      [
        "వై",
        "విధ్య"
      ],
      [
        "సమా",
        "ఖ్య"
      ],
      [
        "కోర్",
        "ట"
      ],
      [
        "కోర్",
        "టు"
      ],
      [
        "పేర్",
        "లు"
      ],
      [
        "పేర్",
        "కొ"
      ],
      [
        "మొదల",
        "ైన"
      ],
      [
        "ఏర్ప",
        "డ్డ"
      ],
      [
        "బహు",
        "ళ"
      ],
      [
        "సింధ",
        "ు"
      ],
      [
        "Con",
        "sti"
      ],
      [
        "చార",
        "ిత్రక"
      ],
      [
        "తమి",
        "ళం"
      ],
      [
        "పత",
        "కాలు"
      ],
      [
        "పొ",
        "ందిన"
      ],
      [
        "పద్ధ",
        "తి"
      ],
      [
        "పండు",
        "గలు"
      ],
      [
        "నుక",
        "టి"
      ],
      [
        "వెబ",
        "్‌సై"
      ],
      [
        "ప్రజా",
        "స్వామ్య"
      ],
      [
        "సముద్ర",
        "ం"
      ],
      [
        "నిర్వహ",
        "ణ"
      ],
      [
        "il",
        "e"
      ],
      [
        "mi",
        ")"
      ],
      [
        "కం",
        "పెనీ"
      ],
      [
        "జన్",
        "మ"
      ],
      [
        "ప్రకార",
        "ం"
      ],
      [
        "ముంబ",
        "ై"
      ],
      [
        "ద్వీ",
        "ప"
      ],
      [
        "సంప్రదాయ",
        "ాలు"
      ],
      [
        "వ్యా",
        "పార"
      ],
      [
        "రైళ్ల",
        "ను"
      ],
      [
        "కార్య",
        "క్రమ"
      ],
      [
        "పరిశ్ర",
        "మలు"
      ],
      [
        "వారస",
        "త్వ"
      ],
      [
        "సాంప్రదాయ",
        "ిక"
      ],
      [
        "list",
        "s"
      ],
      [
        "బెంగాల",
        "ీ"
      ],
      [
        "సర్వీ",
        "సులు"
      ],
      [
        "ఆఫ్",
        "ఘ"
      ],
      [
        "(వె",
        "నుకటి"
      ],
      [
        "IS",
        "BN"
      ],
      [
        "ci",
        "al"
      ],
      [
        "ff",
        "er"
      ],
      [
        "ఇస్లా",
        "మాబాద్"
      ],
      [
        "కన్న",
        "డ"
      ],
      [
        "చాల",
        "ా"
      ],
      [
        "జరు",
        "పు"
      ],
      [
        "జంబ",
        "ూ"
      ],
      [
        "తెలు",
        "గు"
      ],
      [
        "పీ",
        "ఠ"
      ],
      [
        "బంగ్ల",
        "ాదేశ"
      ],
      [
        "ళ్",
        "ళ"
      ],
      [
        "శెల",
        "వు"
      ],
      [
        "హిమ",
        "ాల"
      ],
      [
        "గాంధ",
        "ీ"
      ],
      [
        "ద్వార",
        "ా"
      ],
      [
        "త్వా",
        "న్ని"
      ],
      [
        "వాణి",
        "జ్య"
      ],
      [
        "కాశ్",
        "మీ"
      ],
      [
        "నాగర",
        "ికత"
      ],
      [
        "offi",
        "cial"
      ],
      [
        "క్యాలెండ",
        "ర్"
      ],
      [
        "Consti",
        "tu"
      ],
      [
        "వెబ్‌సై",
        "టు"
      ],
      [
        "\"",
        "("
      ],
      [
        "\"",
        ","
      ],
      [
        "%",
        ","
      ],
      [
        "(",
        "0"
      ],
      [
        ",",
        "5"
      ],
      [
        ",",
        "7"
      ],
      [
        ",",
        "14"
      ],
      [
        "-",
        "0"
      ],
      [
        ".",
        "3"
      ],
      [
        ".",
        "7"
      ],
      [
        "0",
        "%),"
      ],
      [
        "1",
        "6"
      ],
      [
        "1",
        "లో"
      ],
      [
        "2",
        "9"
      ],
      [
        "3",
        ",2"
      ],
      [
        "5",
        "6"
      ],
      [
        "5",
        "9"
      ],
      [
        "5",
        "-0"
      ],
      [
        "6",
        "0"
      ],
      [
        "6",
        "2"
      ],
      [
        "7",
        "/"
      ],
      [
        "7",
        "లో"
      ],
      [
        "8",
        "లో"
      ],
      [
        "9",
        ",2"
      ],
      [
        "A",
        "s"
      ],
      [
        "C",
        "E"
      ],
      [
        "C",
        "ountry"
      ],
      [
        "E",
        "F"
      ],
      [
        "E",
        "R"
      ],
      [
        "E",
        "th"
      ],
      [
        "E",
        "ng"
      ],
      [
        "F",
        "act"
      ],
      [
        "H",
        "i"
      ],
      [
        "L",
        "i"
      ],
      [
        "P",
        "r"
      ],
      [
        "S",
        "I"
      ],
      [
        "T",
        "ER"
      ],
      [
        "U",
        "ni"
      ],
      [
        "_",
        "of"
      ],
      [
        "b",
        "o"
      ],
      [
        "b",
        "r"
      ],
      [
        "b",
        "ly"
      ],
      [
        "e",
        "v"
      ],
      [
        "e",
        "x"
      ],
      [
        "e",
        "ct"
      ],
      [
        "h",
        "ar"
      ],
      [
        "l",
        "d"
      ],
      [
        "l",
        "o"
      ],
      [
        "l",
        "p"
      ],
      [
        "l",
        "and"
      ],
      [
        "m",
        "e"
      ],
      [
        "m",
        "bly"
      ],
      [
        "o",
        "k"
      ],
      [
        "o",
        "w"
      ],
      [
        "r",
        "or"
      ],
      [
        "t",
        ":"
      ],
      [
        "t",
        "ar"
      ],
      [
        "t",
        "er"
      ],
      [
        "t",
        "ed"
      ],
      [
        "w",
        "h"
      ],
      [
        "ం",
        "క"
      ],
      [
        "ం",
        "కా"
      ],
      [
        "అ",
        "ణ"
      ],
      [
        "అ",
        "వ"
      ],
      [
        "అ",
        "ంత"
      ],
      [
        "అ",
        "ంట"
      ],
      [
        "అ",
        "న్ని"
      ],
      [
        "అ",
        "ప్ప"
      ],
      [
        "అ",
        "మె"
      ],
      [
        "అ",
        "క్షరాస్యత"
      ],
      [
        "ఆ",
        "సియా"
      ],
      [
        "ఇ",
        "దే"
      ],
      [
        "ఇ",
        "ండ"
      ],
      [
        "ఇ",
        "క్క"
      ],
      [
        "ఇ",
        "టీ"
      ],
      [
        "ఈ",
        "శ"
      ],
      [
        "ఈ",
        "స్"
      ],
      [
        "ఎ",
        "డ"
      ],
      [
        "ఎ",
        "ల"
      ],
      [
        "ఏ",
        "ప్ర"
      ],
      [
        "ఐ",
        "రో"
      ],
      [
        "ఐ",
        "క్య"
      ],
      [
        "ఒ",
        "లం"
      ],
      [
        "క",
        "ీ"
      ],
      [
        "క",
        "లు"
      ],
      [
        "క",
        "ాత"
      ],
      [
        "క",
        "ను"
      ],
      [
        "క",
        "నుక"
      ],
      [
        "క",
        "ంటే"
      ],
      [
        "క",
        "బడ్డ"
      ],
      [
        "ఖ",
        "ో"
      ],
      [
        "ఖ",
        "ని"
      ],
      [
        "గ",
        "త"
      ],
      [
        "గ",
        "మ"
      ],
      [
        "గ",
        "్ర"
      ],
      [
        "గ",
        "ంగ"
      ],
      [
        "గ",
        "మన"
      ],
      [
        "గ",
        "్రా"
      ],
      [
        "గ",
        "ెలు"
      ],
      [
        "చ",
        "ద"
      ],
      [
        "చ",
        "య"
      ],
      [
        "చ",
        "వి"
      ],
      [
        "చ",
        "ూడ"
      ],
      [
        "చ",
        "ించిన"
      ],
      [
        "చ",
        "ుకోవడ"
      ],
      [
        "జ",
        "ల"
      ],
      [
        "జ",
        "ో"
      ],
      [
        "జ",
        "్"
      ],
      [
        "జ",
        "్యం"
      ],
      [
        "జ",
        "మ్మ"
      ],
      [
        "జ",
        "ిక,"
      ],
      [
        "ట",
        "క"
      ],
      [
        "ట",
        "్ర"
      ],
      [
        "ట",
        "లు"
      ],
      [
        "ట",
        "న్"
      ],
      [
        "ట",
        "ంలో"
      ],
      [
        "ట",
        "్‌"
      ],
      [
        "ట",
        "ాన్"
      ],
      [
        "ట",
        "ోర"
      ],
      [
        "డ",
        "ైన"
      ],
      [
        "ఢ",
        "ా"
      ],
      [
        "ణ",
        "ులు"
      ],
      [
        "త",
        "ీ"
      ],
      [
        "త",
        "ర్"
      ],
      [
        "త",
        "ను"
      ],
      [
        "త",
        "ంగా"
      ],
      [
        "త",
        "త్వ"
      ],
      [
        "త",
        "క్కువ"
      ],
      [
        "థ",
        "్యం"
      ],
      [
        "ద",
        "ర్"
      ],
      [
        "ద",
        "గా"
      ],
      [
        "ద",
        "రా"
      ],
      [
        "ద",
        "ండ"
      ],
      [
        "ద",
        "ులు"
      ],
      [
        "ధ",
        "ీన"
      ],
      [
        "న",
        "ం"
      ],
      [
        "న",
        "ూ"
      ],
      [
        "న",
        "ిక"
      ],
      [
        "ప",
        "లు"
      ],
      [
        "ప",
        "ిక"
      ],
      [
        "ప",
        "వి"
      ],
      [
        "ప",
        "్ల"
      ],
      [
        "ప",
        "ల్ల"
      ],
      [
        "ప",
        "డు"
      ],
      [
        "ప",
        "ర్వ"
      ],
      [
        "ప",
        "తా"
      ],
      [
        "ప",
        "క్క"
      ],
      [
        "ప",
        "డిన"
      ],
      [
        "ఫ",
        "ల"
      ],
      [
        "బ",
        "ు"
      ],
      [
        "బ",
        "ౌ"
      ],
      [
        "బ",
        "ంగ"
      ],
      [
        "భ",
        "వ"
      ],
      [
        "భ",
        "ాతో"
      ],
      [
        "భ",
        "క్తి"
      ],
      [
        "మ",
        "్"
      ],
      [
        "మ",
        "ించ"
      ],
      [
        "మ",
        "ిత"
      ],
      [
        "మ",
        "రో"
      ],
      [
        "య",
        "ం"
      ],
      [
        "య",
        "ింది."
      ],
      [
        "య",
        "ాత్ర"
      ],
      [
        "య",
        "మించ"
      ],
      [
        "ర",
        "ీ"
      ],
      [
        "ర",
        "కాలు"
      ],
      [
        "ర",
        "ికా"
      ],
      [
        "ర",
        "చయ"
      ],
      [
        "ల",
        "ౌ"
      ],
      [
        "ల",
        "కొ"
      ],
      [
        "ల",
        "మె"
      ],
      [
        "ల",
        "స్య"
      ],
      [
        "ళ",
        "ా"
      ],
      [
        "ళ",
        "ి"
      ],
      [
        "వ",
        "ిం"
      ],
      [
        "వ",
        "ంత"
      ],
      [
        "వ",
        "రు"
      ],
      [
        "వ",
        "ైన"
      ],
      [
        "వ",
        "ార్"
      ],
      [
        "వ",
        "త్ర"
      ],
      [
        "వ",
        "నాలు"
      ],
      [
        "వ",
        "ాయు"
      ],
      [
        "శ",
        "క"
      ],
      [
        "శ",
        "ి"
      ],
      [
        "శ",
        "ీ"
      ],
      [
        "శ",
        "ై"
      ],
      [
        "శ",
        "ో"
      ],
      [
        "శ",
        "కు"
      ],
      [
        "ష",
        "యాలు"
      ],
      [
        "స",
        "న"
      ],
      [
        "స",
        "ీ"
      ],
      [
        "స",
        "ె"
      ],
      [
        "స",
        "ాల"
      ],
      [
        "స",
        "ిక్"
      ],
      [
        "హ",
        "ో"
      ],
      [
        "హ",
        "్ర"
      ],
      [
        "ా",
        "మ"
      ],
      [
        "ా",
        "న్ని"
      ],
      [
        "ా",
        "డే"
      ],
      [
        "ి",
        "మాన"
      ],
      [
        "ీ",
        "ం"
      ],
      [
        "ీ",
        "క్ష"
      ],
      [
        "ీ",
        "షు"
      ],
      [
        "ు",
        "త్"
      ],
      [
        "ు",
        "పూర్వ"
      ],
      [
        "ూ",
        "నది"
      ],
      [
        "ే",
        "."
      ],
      [
        "ో",
        "త్"
      ],
      [
        "ౌ",
        "ర"
      ],
      [
        "్",
        "మా"
      ],
      [
        "‌",
        "సభ"
      ],
      [
        "‌",
        "కాత"
      ],
      [
        "ార",
        "ి"
      ],
      [
        "లు",
        "గా"
      ],
      [
        "లో",
        "మీ"
      ],
      [
        "స్",
        "వీ"
      ],
      [
        "స్",
        "కరణ"
      ],
      [
        "స్",
        "లిం"
      ],
      [
        "దే",
        "మాత"
      ],
      [
        "ప్ర",
        "దేశ"
      ],
      [
        "ప్ర",
        "ాయ"
      ],
      [
        "ప్ర",
        "సి"
      ],
      [
        "ప్ర",
        "త్య"
      ],
      [
        "ప్ర",
        "యో"
      ],
      [
        "ప్ర",
        "ీం"
      ],
      [
        "ిం",
        "ది"
      ],
      [
        "దేశ",
        "ీ"
      ],
      [
        "ర్",
        "తి"
      ],
      [
        "ర్",
        "పు"
      ],
      [
        "ర్",
        "జాతీయ"
      ],
      [
        "ర్",
        "చు"
      ],
      [
        "ర్",
        "థ్యం"
      ],
      [
        "భారత",
        "్‌"
      ],
      [
        "న్న",
        "ీ"
      ],
      [
        "న్న",
        "ై"
      ],
      [
        "గా",
        "న్ని"
      ],
      [
        "కు",
        ","
      ],
      [
        "ని",
        "పు"
      ],
      [
        "ని",
        "డి"
      ],
      [
        "ని",
        "యమించ"
      ],
      [
        "వి",
        "లు"
      ],
      [
        "వి",
        "మాన"
      ],
      [
        "వి",
        "శ్"
      ],
      [
        "వి",
        "షయాలు"
      ],
      [
        "వి",
        "దేశీ"
      ],
      [
        "ాత",
        "ం"
      ],
      [
        "ాత",
        "ి"
      ],
      [
        "ాత",
        "్మా"
      ],
      [
        "క్",
        "టోర"
      ],
      [
        "ాన",
        "ీ"
      ],
      [
        "ాన",
        "ు"
      ],
      [
        "ాన",
        "్య"
      ],
      [
        "దేశం",
        "."
      ],
      [
        "ము",
        "డి"
      ],
      [
        "ము",
        "స్లిం"
      ],
      [
        "ండ",
        "్"
      ],
      [
        "ిన",
        "ీ"
      ],
      [
        "తి",
        "రు"
      ],
      [
        "స్త",
        "ులు"
      ],
      [
        "స్త",
        "ారు"
      ],
      [
        "సం",
        "స్కరణ"
      ],
      [
        "పు",
        "కో"
      ],
      [
        "పు",
        "తూ"
      ],
      [
        "స్థ",
        "ాయి"
      ],
      [
        "స్థ",
        "ావర"
      ],
      [
        "ంట",
        "ి"
      ],
      [
        "ంలో",
        ","
      ],
      [
        "భారతదేశం",
        "."
      ],
      [
        "భా",
        "విస్త"
      ],
      [
        "భా",
        "గాన్ని"
      ],
      [
        "ంగా",
        ","
      ],
      [
        "పా",
        "వ"
      ],
      [
        "పా",
        "ంత"
      ],
      [
        "పా",
        "డు"
      ],
      [
        "వా",
        "దం"
      ],
      [
        "సా",
        "హ"
      ],
      [
        "సా",
        "మా"
      ],
      [
        "ార్",
        "థ"
      ],
      [
        "కూడ",
        "ి"
      ],
      [
        "కూడ",
        "ుకొ"
      ],
      [
        "రాజ",
        "ు"
      ],
      [
        "కో",
        "ట్ల"
      ],
      [
        "క్ర",
        "ి"
      ],
      [
        "కా",
        "హార"
      ],
      [
        "కా",
        "పాడు"
      ],
      [
        "చ్చ",
        "ే"
      ],
      [
        "నే",
        "రే"
      ],
      [
        "మొ",
        "గలు"
      ],
      [
        "ంచ",
        "ిన"
      ],
      [
        "దు",
        "గా"
      ],
      [
        "మా",
        "ట్ల"
      ],
      [
        "యా",
        "ళం"
      ],
      [
        "నా",
        "థ"
      ],
      [
        "రాష్ట్ర",
        "ాలు,"
      ],
      [
        "గు",
        "బా"
      ],
      [
        "వచ్చ",
        "ని"
      ],
      [
        "di",
        "ffer"
      ],
      [
        "వే",
        "."
      ],
      [
        "వే",
        "ద"
      ],
      [
        "వే",
        "ల"
      ],
      [
        "he",
        "lp"
      ],
      [
        "కాల",
        "ే"
      ],
      [
        "డి",
        "స్"
      ],
      [
        "ద్ర",
        "ా"
      ],
      [
        "ar",
        "y"
      ],
      [
        "శా",
        "సన"
      ],
      [
        "దేశాల",
        "ను"
      ],
      [
        "of",
        "ile"
      ],
      [
        "ంది",
        "ంది."
      ],
      [
        "ఎన్న",
        "ుకో"
      ],
      [
        "ఎన్న",
        "ుకుంట"
      ],
      [
        "కి",
        "లోమీ"
      ],
      [
        "చె",
        "ప్"
      ],
      [
        "చె",
        "ంద"
      ],
      [
        "చె",
        "ందు"
      ],
      [
        "చె",
        "న్నై"
      ],
      [
        "కే",
        "తిక"
      ],
      [
        "తు",
        "లతో"
      ],
      [
        "హింద",
        "ీ"
      ],
      [
        "పేరు",
        ","
      ],
      [
        "అధికార",
        "ం"
      ],
      [
        "పర",
        "్యాయ"
      ],
      [
        "పర",
        "ీక్ష"
      ],
      [
        "పరి",
        "పాలన"
      ],
      [
        "మత",
        "ాలు"
      ],
      [
        "మత",
        "ము"
      ],
      [
        "మీ",
        "దగా"
      ],
      [
        "మే",
        "."
      ],
      [
        "వర",
        "ీ"
      ],
      [
        "సు",
        "ప్రీం"
      ],
      [
        "ప్రపంచ",
        "ములో"
      ],
      [
        "స్థాన",
        "ం"
      ],
      [
        "స్థాన",
        "ాలను"
      ],
      [
        "భాష",
        "ా"
      ],
      [
        "భాష",
        "లను"
      ],
      [
        "ప్రాంత",
        "ీయ"
      ],
      [
        "ప్రాంత",
        "ాల్లో"
      ],
      [
        "రాజ్య",
        "ంగా"
      ],
      [
        "దాయ",
        "ంలో"
      ],
      [
        "వార",
        "ి"
      ],
      [
        "వర్",
        "ష"
      ],
      [
        "వర్",
        "తి"
      ],
      [
        "సభ",
        "ను"
      ],
      [
        "క్రీ",
        ".పూ."
      ],
      [
        "పార్టీ",
        ","
      ],
      [
        "or",
        "ld"
      ],
      [
        "జనా",
        "భాతో"
      ],
      [
        "పూ",
        "ర్తి"
      ],
      [
        "పో",
        "రా"
      ],
      [
        "పో",
        "యింది."
      ],
      [
        "మన",
        "దేశం"
      ],
      [
        "మి",
        "స్తు"
      ],
      [
        "రెండ",
        "వ"
      ],
      [
        "రెండ",
        "ో"
      ],
      [
        "లం",
        "క"
      ],
      [
        "లా",
        "హో"
      ],
      [
        "వు",
        "తుంది."
      ],
      [
        "వె",
        "ల్ల"
      ],
      [
        "ప్రజ",
        "లు"
      ],
      [
        "ప్రభు",
        "త్వాన్ని"
      ],
      [
        "ముఖ్య",
        "ంగా"
      ],
      [
        "er",
        "n"
      ],
      [
        "er",
        "ror"
      ],
      [
        "గీ",
        "తం"
      ],
      [
        "స్త్ర",
        "ీలు"
      ],
      [
        "సాం",
        "కేతిక"
      ],
      [
        "gu",
        "e"
      ],
      [
        "అతి",
        "పెద్ద"
      ],
      [
        "జన",
        "తా"
      ],
      [
        "జన",
        "వరి"
      ],
      [
        "జరి",
        "గే"
      ],
      [
        "బడ",
        "ింది."
      ],
      [
        "మహ",
        "ి"
      ],
      [
        "మహ",
        "ాత్మా"
      ],
      [
        "క్రీడ",
        "ా"
      ],
      [
        "క్రీడ",
        "లలో"
      ],
      [
        "అయిన",
        "ప్పటిక"
      ],
      [
        "అయిన",
        "ా,"
      ],
      [
        "es",
        "s"
      ],
      [
        "గో",
        "దా"
      ],
      [
        "గో",
        "ళిక"
      ],
      [
        "గిన",
        "ది."
      ],
      [
        "మాన",
        "ం:"
      ],
      [
        "లే",
        "దు"
      ],
      [
        "ప్రస్తు",
        "తము"
      ],
      [
        "క్క",
        "ను"
      ],
      [
        "సాధ",
        "ించిన"
      ],
      [
        "కాంగ్రె",
        "స్"
      ],
      [
        "కాలంలో",
        ","
      ],
      [
        "ాబ్",
        "ది"
      ],
      [
        "200",
        "3"
      ],
      [
        "ge",
        "t:"
      ],
      [
        "ఉప",
        "యో"
      ],
      [
        "గణ",
        "తంత్ర"
      ],
      [
        "భూ",
        "భాగం"
      ],
      [
        "భూ",
        "టాన్"
      ],
      [
        "యు",
        "గ"
      ],
      [
        "రంగ",
        "ంలో"
      ],
      [
        "వల",
        "న"
      ],
      [
        "వల",
        "స"
      ],
      [
        "ప్రతి",
        "పక్ష"
      ],
      [
        "విస్త",
        "ీర్"
      ],
      [
        "ప్రముఖ",
        "మైన"
      ],
      [
        "in",
        "g"
      ],
      [
        "lis",
        "h"
      ],
      [
        "నె",
        "లకొ"
      ],
      [
        "మాత్ర",
        "మే"
      ],
      [
        "సమా",
        "జ"
      ],
      [
        "స్వ",
        "తం"
      ],
      [
        "భారత్",
        ","
      ],
      [
        "సామ",
        "ర్థ్యం"
      ],
      [
        "ఉత్తర",
        "ాన"
      ],
      [
        "పట్టణ",
        "ాలు,"
      ],
      [
        "బ్రి",
        "టీ"
      ],
      [
        "ప్పటిక",
        "ీ"
      ],
      [
        "సింధ",
        "ూనది"
      ],
      [
        "సరిహద్దు",
        "గా"
      ],
      [
        "సౌకర్య",
        "ాలు"
      ],
      [
        "సౌకర్య",
        "ాలలో"
      ],
      [
        "స్వాతంత్ర",
        "్యం"
      ],
      [
        "(1",
        ",26"
      ],
      [
        "Con",
        "gr"
      ],
      [
        "no",
        "lo"
      ],
      [
        "కళ",
        "లు"
      ],
      [
        "చైన",
        "ా"
      ],
      [
        "చైన",
        "ాను"
      ],
      [
        "తూ",
        "ర్పు"
      ],
      [
        "తమి",
        "ళ"
      ],
      [
        "నగర",
        "ాలు"
      ],
      [
        "రూ",
        "పాంత"
      ],
      [
        "సమ",
        "రం"
      ],
      [
        "సార",
        "స్వతం"
      ],
      [
        "సంఖ్య",
        "ా"
      ],
      [
        "పుట్ట",
        "ుపూర్వ"
      ],
      [
        "రైల్వే",
        "శాఖ"
      ],
      [
        "పాలన",
        "లో"
      ],
      [
        "ఒకటి",
        "గా"
      ],
      [
        "ప్రపంచంలో",
        "ని"
      ],
      [
        "వెబ",
        "్"
      ],
      [
        "ప్రజా",
        "దర"
      ],
      [
        "సముద్ర",
        "తీ"
      ],
      [
        "నిర్వహ",
        "ించింది."
      ],
      [
        "18",
        "5"
      ],
      [
        "3,",
        "0"
      ],
      [
        "CI",
        "A"
      ],
      [
        "CI",
        "TER"
      ],
      [
        "at",
        "e"
      ],
      [
        "చి",
        "రు"
      ],
      [
        "నాయ",
        "కత్వ"
      ],
      [
        "మల",
        "యాళం"
      ],
      [
        "సూ",
        "చించిన"
      ],
      [
        "హా",
        "కీ"
      ],
      [
        "ిస్త",
        "ారు."
      ],
      [
        "లోక్",
        "‌సభ"
      ],
      [
        "కుల",
        "ాలు,"
      ],
      [
        "కుంట",
        "ూ"
      ],
      [
        "కుంట",
        "ారు."
      ],
      [
        "నిర్",
        "మ"
      ],
      [
        "ాయు",
        "త"
      ],
      [
        "సంవత్",
        "సర"
      ],
      [
        "మేన",
        "ని"
      ],
      [
        "రాజ్యాలు",
        "గా"
      ],
      [
        "సభ్య",
        "ు"
      ],
      [
        "సభ్య",
        "ులు"
      ],
      [
        "జనగణ",
        "న"
      ],
      [
        "జనగణ",
        "మన"
      ],
      [
        "ఆధార",
        "పడిన"
      ],
      [
        "సామ్రా",
        "జ్య"
      ],
      [
        "సామ్రా",
        "జ్యం"
      ],
      [
        "బ్రిటి",
        "ష్"
      ],
      [
        "బ్రిటి",
        "షు"
      ],
      [
        "పశ్చ",
        "ిమ"
      ],
      [
        "పశ్చ",
        "ిమాన"
      ],
      [
        "26",
        "న"
      ],
      [
        "87,26",
        "3"
      ],
      [
        "se",
        "mbly"
      ],
      [
        "wi",
        "de"
      ],
      [
        "ఆహార",
        "ం"
      ],
      [
        "ఇంగ్ల",
        "ీషు"
      ],
      [
        "కింద",
        "కు"
      ],
      [
        "టై",
        "టి"
      ],
      [
        "టర్",
        "లకు"
      ],
      [
        "పార్",
        "లమె"
      ],
      [
        "భర",
        "త"
      ],
      [
        "భౌ",
        "గోళిక"
      ],
      [
        "మూ",
        "ల"
      ],
      [
        "మౌ",
        "ర్య"
      ],
      [
        "వం",
        "దేమాత"
      ],
      [
        "సహ",
        "స్ర"
      ],
      [
        "సైన",
        "ిక"
      ],
      [
        "సార్",
        "వత్ర"
      ],
      [
        "హై",
        "దరా"
      ],
      [
        "ప్రారంభ",
        "ించ"
      ],
      [
        "ర్ష",
        "ణ"
      ],
      [
        "ర్‌",
        "ల"
      ],
      [
        "విద్య",
        "ుత్"
      ],
      [
        "సంకీర్",
        "ణ"
      ],
      [
        "పురు",
        "షు"
      ],
      [
        "స్థి",
        "తి"
      ],
      [
        "కూడుకు",
        "ని"
      ],
      [
        "కోల్",
        "‌కాత"
      ],
      [
        "నేపాల",
        "్"
      ],
      [
        "పాలించ",
        "ారు."
      ],
      [
        "ఎన్నిక",
        "ల్లో"
      ],
      [
        "రాజ్యాంగ",
        "ం"
      ],
      [
        "బడత",
        "ారు."
      ],
      [
        "మహా",
        "సముద్రం"
      ],
      [
        "ప్రతిపాదన",
        "కు"
      ],
      [
        "కోర్ట",
        "ులు"
      ],
      [
        "ఏర్పడ్డ",
        "ాయి."
      ],
      [
        "కార్యక్రమ",
        "ాలు"
      ],
      [
        "ఆఫ్ఘ",
        "నిస్తాన్"
      ],
      [
        "జరుపు",
        "కుంటారు."
      ],
      [
        "పీఠ",
        "భూ"
      ],
      [
        "బంగ్లాదేశ",
        "్‌"
      ],
      [
        "శెలవు",
        "దినాలు"
      ],
      [
        "హిమాల",
        "య"
      ],
      [
        "Constitu",
        "ent"
      ],
      [
        "59",
        "-"
      ],
      [
        "As",
        "sembly"
      ],
      [
        "CE",
        "E"
      ],
      [
        "Eth",
        "nolo"
      ],
      [
        "Eng",
        "lish"
      ],
      [
        "Fact",
        "bo"
      ],
      [
        "Hi",
        "ndi"
      ],
      [
        "Li",
        "br"
      ],
      [
        "Pr",
        "ofile"
      ],
      [
        "_of",
        "_"
      ],
      [
        "ev",
        "an"
      ],
      [
        "har",
        "v"
      ],
      [
        "tar",
        "get:"
      ],
      [
        "అంత",
        "ర్జాతీయ"
      ],
      [
        "అమె",
        "రికా"
      ],
      [
        "ఇండ",
        "ో"
      ],
      [
        "ఈశ",
        "ాన్య"
      ],
      [
        "ఈస్",
        "ట్"
      ],
      [
        "ఎల",
        "క్టోర"
      ],
      [
        "ఏప్ర",
        "ిల్"
      ],
      [
        "ఐరో",
        "పా"
      ],
      [
        "కను",
        "మలు"
      ],
      [
        "కబడ్డ",
        "ీ"
      ],
      [
        "ఖని",
        "జాలు"
      ],
      [
        "గెలు",
        "చుకోవడ"
      ],
      [
        "చూడ",
        "ండి"
      ],
      [
        "జమ్మ",
        "ూ"
      ],
      [
        "ట్ర",
        "ో"
      ],
      [
        "ఢా",
        "కా"
      ],
      [
        "తర్",
        "వాత"
      ],
      [
        "పిక",
        "్‌"
      ],
      [
        "పవి",
        "త్ర"
      ],
      [
        "పతా",
        "క"
      ],
      [
        "పక్క",
        "న"
      ],
      [
        "బౌ",
        "ద్ధ"
      ],
      [
        "బంగ",
        "ారు"
      ],
      [
        "రచయ",
        "ిత"
      ],
      [
        "లౌ",
        "క"
      ],
      [
        "ోత్",
        "తరాలు"
      ],
      [
        "ప్రసి",
        "ద్ధి"
      ],
      [
        "భారత్‌",
        "లో"
      ],
      [
        "నిపు",
        "ణులు"
      ],
      [
        "నిడి",
        "వి"
      ],
      [
        "తిరు",
        "గుబా"
      ],
      [
        "స్థావర",
        "ాలు"
      ],
      [
        "సామా",
        "జిక,"
      ],
      [
        "కూడుకొ",
        "ని"
      ],
      [
        "కాపాడు",
        "కుంటూ"
      ],
      [
        "నేరే",
        "డు"
      ],
      [
        "మాట్ల",
        "ాడే"
      ],
      [
        "ఎన్నుకో",
        "బడతారు."
      ],
      [
        "కిలోమీ",
        "టర్లకు"
      ],
      [
        "చెప్",
        "పుకో"
      ],
      [
        "చెంద",
        "ాయి."
      ],
      [
        "చెందు",
        "తున్న"
      ],
      [
        "పర్యాయ",
        "ాలు"
      ],
      [
        "పూర్తి",
        "గా"
      ],
      [
        "error",
        ":"
      ],
      [
        "ఉపయో",
        "గి"
      ],
      [
        "(1,26",
        "9,2"
      ],
      [
        "Congr",
        "ess"
      ],
      [
        "పుట్టుపూర్వ",
        "ోత్తరాలు"
      ],
      [
        "ప్రజాదర",
        "ణ"
      ],
      [
        "CITER",
        "EF"
      ],
      [
        "సూచించిన",
        "ట్లు"
      ],
      [
        "వందేమాత",
        "రం"
      ],
      [
        "సహస్ర",
        "ాబ్ది"
      ],
      [
        "సార్వత్ర",
        "ిక"
      ],
      [
        "కోల్‌కాత",
        "ా"
      ],
      [
        "Ethnolo",
        "gue"
      ],
      [
        "Factbo",
        "ok"
      ],
      [
        "Libr",
        "ary"
      ],
      [
        "ఎలక్టోర",
        "ల్"
      ],
      [
        "గెలుచుకోవడ",
        "ం"
      ],
      [
        "తిరుగుబా",
        "టు"
      ],
      [
        "\"",
        "."
      ],
      [
        "\"",
        "భారతదేశం"
      ],
      [
        "\"",
        "di"
      ],
      [
        "\"",
        "language"
      ],
      [
        "\"",
        "The"
      ],
      [
        "\"",
        "భరత"
      ],
      [
        "%",
        ")"
      ],
      [
        "%",
        "."
      ],
      [
        "%",
        ")."
      ],
      [
        "(",
        "3"
      ],
      [
        "(",
        "5"
      ],
      [
        "(",
        "8"
      ],
      [
        "(",
        "ఆ"
      ],
      [
        "(",
        "ఉ"
      ],
      [
        "(",
        "ట"
      ],
      [
        "(",
        "భారత"
      ],
      [
        "(",
        "సా"
      ],
      [
        "(",
        "గి"
      ],
      [
        "(",
        "తా"
      ],
      [
        "(",
        "బ్ర"
      ],
      [
        "(",
        "ou"
      ],
      [
        "(",
        "ఇదే"
      ],
      [
        "(",
        "శక"
      ],
      [
        "(",
        "CEE"
      ],
      [
        ")",
        ":"
      ],
      [
        ",",
        "0"
      ],
      [
        ",",
        "18"
      ],
      [
        ",",
        "87,263"
      ],
      [
        "-",
        "7"
      ],
      [
        "-",
        "ఆ"
      ],
      [
        "-",
        "ఇ"
      ],
      [
        "-",
        "దేశ"
      ],
      [
        "-",
        "19"
      ],
      [
        "-",
        "ఢిల్లీ"
      ],
      [
        "-",
        "టె"
      ],
      [
        "-",
        "56"
      ],
      [
        "-",
        "ఖో"
      ],
      [
        "-",
        "దండ"
      ],
      [
        "-",
        "లాహో"
      ],
      [
        ".",
        "8"
      ],
      [
        ".",
        "9"
      ],
      [
        ".",
        "ఇ"
      ],
      [
        ".",
        "ఈ"
      ],
      [
        ".",
        "ఏ"
      ],
      [
        ".",
        "కి"
      ],
      [
        ".",
        "మీ"
      ],
      [
        ".",
        ")."
      ],
      [
        ".",
        "23"
      ],
      [
        "/",
        "G"
      ],
      [
        "0",
        "%"
      ],
      [
        "0",
        "-19"
      ],
      [
        "1",
        "1"
      ],
      [
        "1",
        "5"
      ],
      [
        "1",
        "00"
      ],
      [
        "1",
        "000"
      ],
      [
        "1",
        ",9"
      ],
      [
        "1",
        ",7"
      ],
      [
        "1",
        ",0"
      ],
      [
        "2",
        "%"
      ],
      [
        "2",
        "5"
      ],
      [
        "2",
        "%),"
      ],
      [
        "2",
        ",9"
      ],
      [
        "2",
        "1-"
      ],
      [
        "2",
        ",14"
      ],
      [
        "2",
        ",87,263"
      ],
      [
        "3",
        "0"
      ],
      [
        "3",
        ".8"
      ],
      [
        "3",
        "2,87,263"
      ],
      [
        "4",
        "లో"
      ],
      [
        "4",
        "47"
      ],
      [
        "4",
        "22"
      ],
      [
        "4",
        "%,"
      ],
      [
        "4",
        "8లో"
      ],
      [
        "4",
        "21-"
      ],
      [
        "5",
        "2"
      ],
      [
        "5",
        "46"
      ],
      [
        "5",
        ",7"
      ],
      [
        "6",
        "5"
      ],
      [
        "6",
        "%),"
      ],
      [
        "6",
        ",9"
      ],
      [
        "7",
        "000"
      ],
      [
        "7",
        ",9"
      ],
      [
        "7",
        "3,"
      ],
      [
        "7",
        "40"
      ],
      [
        "7",
        ",5"
      ],
      [
        "7",
        ".23"
      ],
      [
        "7",
        "5,7"
      ],
      [
        "8",
        "1-"
      ],
      [
        "8",
        "3,0"
      ],
      [
        "8",
        "-7"
      ],
      [
        "8",
        "2,14"
      ],
      [
        "8",
        "3.8"
      ],
      [
        "9",
        "00"
      ],
      [
        "9",
        ",000"
      ],
      [
        "A",
        "L"
      ],
      [
        "A",
        "c"
      ],
      [
        "A",
        "r"
      ],
      [
        "B",
        "B"
      ],
      [
        "B",
        "S"
      ],
      [
        "B",
        "/G"
      ],
      [
        "C",
        ","
      ],
      [
        "C",
        "h"
      ],
      [
        "D",
        "i"
      ],
      [
        "D",
        "ate"
      ],
      [
        "D",
        "evan"
      ],
      [
        "H",
        "Z"
      ],
      [
        "I",
        "I"
      ],
      [
        "I",
        "N"
      ],
      [
        "I",
        "nt"
      ],
      [
        "L",
        "angua"
      ],
      [
        "M",
        "a"
      ],
      [
        "N",
        "ation"
      ],
      [
        "P",
        "ar"
      ],
      [
        "P",
        "AL"
      ],
      [
        "P",
        "IN"
      ],
      [
        "S",
        "e"
      ],
      [
        "S",
        "t"
      ],
      [
        "T",
        "y"
      ],
      [
        "V",
        ";"
      ],
      [
        "V",
        "II"
      ],
      [
        "W",
        "a"
      ],
      [
        "W",
        "orld"
      ],
      [
        "X",
        "VII"
      ],
      [
        "_",
        "Assembly"
      ],
      [
        "a",
        "c"
      ],
      [
        "a",
        "d"
      ],
      [
        "a",
        "g"
      ],
      [
        "a",
        "u"
      ],
      [
        "a",
        "v"
      ],
      [
        "b",
        "e"
      ],
      [
        "b",
        "j"
      ],
      [
        "b",
        "y"
      ],
      [
        "b",
        "or"
      ],
      [
        "b",
        "as"
      ],
      [
        "b",
        "ate"
      ],
      [
        "b",
        "ac"
      ],
      [
        "c",
        "an"
      ],
      [
        "c",
        "or"
      ],
      [
        "c",
        "es"
      ],
      [
        "c",
        "ed"
      ],
      [
        "c",
        "ri"
      ],
      [
        "c",
        "ountry"
      ],
      [
        "c",
        "au"
      ],
      [
        "d",
        "u"
      ],
      [
        "d",
        "er"
      ],
      [
        "e",
        "p"
      ],
      [
        "f",
        "or"
      ],
      [
        "f",
        "in"
      ],
      [
        "g",
        "o"
      ],
      [
        "g",
        "an"
      ],
      [
        "g",
        "es"
      ],
      [
        "g",
        "iv"
      ],
      [
        "h",
        "ow"
      ],
      [
        "h",
        "av"
      ],
      [
        "i",
        "r"
      ],
      [
        "i",
        "z"
      ],
      [
        "i",
        "es"
      ],
      [
        "i",
        "ch"
      ],
      [
        "l",
        "iv"
      ],
      [
        "m",
        "s"
      ],
      [
        "m",
        "ar"
      ],
      [
        "m",
        "ent"
      ],
      [
        "n",
        "ct"
      ],
      [
        "o",
        "the"
      ],
      [
        "o",
        "me"
      ],
      [
        "o",
        "du"
      ],
      [
        "p",
        "e"
      ],
      [
        "p",
        "r"
      ],
      [
        "p",
        "t"
      ],
      [
        "p",
        "u"
      ],
      [
        "p",
        "ed"
      ],
      [
        "p",
        "ri"
      ],
      [
        "r",
        "is"
      ],
      [
        "r",
        "es"
      ],
      [
        "r",
        "ces"
      ],
      [
        "r",
        "ep"
      ],
      [
        "s",
        "u"
      ],
      [
        "s",
        "ou"
      ],
      [
        "s",
        "cri"
      ],
      [
        "s",
        "iz"
      ],
      [
        "s",
        "ome"
      ],
      [
        "s",
        "pu"
      ],
      [
        "t",
        "on"
      ],
      [
        "t",
        "or"
      ],
      [
        "t",
        "ation"
      ],
      [
        "u",
        "ni"
      ],
      [
        "v",
        "ern"
      ],
      [
        "w",
        "orld"
      ],
      [
        "y",
        "bac"
      ],
      [
        "ం",
        "జ"
      ],
      [
        "ం",
        "థ"
      ],
      [
        "ం",
        "తి"
      ],
      [
        "ం",
        "\","
      ],
      [
        "అ",
        "ర"
      ],
      [
        "అ",
        "ల"
      ],
      [
        "అ",
        "స్"
      ],
      [
        "అ",
        "ది"
      ],
      [
        "అ",
        "న్న"
      ],
      [
        "అ",
        "ల్"
      ],
      [
        "అ",
        "రు"
      ],
      [
        "అ",
        "క్ష"
      ],
      [
        "అ",
        "ంది"
      ],
      [
        "అ",
        "వర"
      ],
      [
        "అ",
        "ద్ద"
      ],
      [
        "అ",
        "లం"
      ],
      [
        "అ",
        "ధి"
      ],
      [
        "అ",
        "ంద"
      ],
      [
        "అ",
        "ఖండ"
      ],
      [
        "అ",
        "మల"
      ],
      [
        "అ",
        "రే"
      ],
      [
        "అ",
        "ంటే"
      ],
      [
        "అ",
        "ంక"
      ],
      [
        "అ",
        "ధీన"
      ],
      [
        "అ",
        "శో"
      ],
      [
        "ఆ",
        "గ"
      ],
      [
        "ఆ",
        "లో"
      ],
      [
        "ఆ",
        "దేశ"
      ],
      [
        "ఆ",
        "వి"
      ],
      [
        "ఆ",
        "తి"
      ],
      [
        "ఆ",
        "క్ర"
      ],
      [
        "ఆ",
        "యా"
      ],
      [
        "ఆ",
        "నా"
      ],
      [
        "ఆ",
        "డు"
      ],
      [
        "ఆ",
        "ధ్య"
      ],
      [
        "ఆ",
        "దాయ"
      ],
      [
        "ఆ",
        "గ్"
      ],
      [
        "ఆ",
        "వల"
      ],
      [
        "ఆ",
        "ణి"
      ],
      [
        "ఆ",
        "చార"
      ],
      [
        "ఆ",
        "క్షరాస్యత"
      ],
      [
        "ఆ",
        "టలు"
      ],
      [
        "ఆ",
        "నం"
      ],
      [
        "ఆ",
        "లస్య"
      ],
      [
        "ఇ",
        "-"
      ],
      [
        "ఇ",
        "య"
      ],
      [
        "ఇ",
        "న్"
      ],
      [
        "ఇ",
        "ను"
      ],
      [
        "ఇ",
        "ము"
      ],
      [
        "ఇ",
        "తి"
      ],
      [
        "ఇ",
        "ంది"
      ],
      [
        "ఇ",
        "తరు"
      ],
      [
        "ఇ",
        "ందు"
      ],
      [
        "ఇ",
        "ంకా"
      ],
      [
        "ఇ",
        "తను"
      ],
      [
        "ఇ",
        "ంటి"
      ],
      [
        "ఇ",
        "చ్చే"
      ],
      [
        "ఇ",
        "ప్పటికీ"
      ],
      [
        "ఉ",
        "ర్"
      ],
      [
        "ఉ",
        "ద్"
      ],
      [
        "ఉ",
        "పా"
      ],
      [
        "ఉ",
        "ండి"
      ],
      [
        "ఉ",
        "ండు"
      ],
      [
        "ఉ",
        "ష్ణ"
      ],
      [
        "ఉ",
        "నిక"
      ],
      [
        "ఋ",
        "తు"
      ],
      [
        "ఎ",
        "మ"
      ],
      [
        "ఎ",
        "దు"
      ],
      [
        "ఎ",
        "గు"
      ],
      [
        "ఎ",
        "ల్ల"
      ],
      [
        "ఎ",
        "ంతో"
      ],
      [
        "ఎ",
        "గువ"
      ],
      [
        "ఏ",
        "క"
      ],
      [
        "ఏ",
        "డ"
      ],
      [
        "ఏ",
        "డు"
      ],
      [
        "ఏ",
        "టా"
      ],
      [
        "ఏ",
        "కత్వ"
      ],
      [
        "ఏ",
        "ళ్ళ"
      ],
      [
        "ఐ",
        "దు"
      ],
      [
        "ఒ",
        "క్"
      ],
      [
        "ఒ",
        "రి"
      ],
      [
        "ఒ",
        "లిం"
      ],
      [
        "ఒ",
        "డిస్"
      ],
      [
        "ఓ",
        "డ"
      ],
      [
        "ఓ",
        "టర్"
      ],
      [
        "ఔ",
        "ట్‌"
      ],
      [
        "క",
        ","
      ],
      [
        "క",
        "ిం"
      ],
      [
        "క",
        "ర్"
      ],
      [
        "క",
        "ని"
      ],
      [
        "క",
        "ాయ"
      ],
      [
        "క",
        "రా"
      ],
      [
        "క",
        "ంట"
      ],
      [
        "క",
        "ార్"
      ],
      [
        "క",
        "ిత"
      ],
      [
        "క",
        "ష్ట"
      ],
      [
        "క",
        "ట్ట"
      ],
      [
        "క",
        "మైన"
      ],
      [
        "క",
        "మీ"
      ],
      [
        "క",
        "్యం"
      ],
      [
        "క",
        "మల"
      ],
      [
        "క",
        "మేన"
      ],
      [
        "క",
        "ెట్"
      ],
      [
        "క",
        "ర్‌"
      ],
      [
        "క",
        "త్తా"
      ],
      [
        "క",
        "ానీ"
      ],
      [
        "క",
        "వరీ"
      ],
      [
        "ఖ",
        "ిక"
      ],
      [
        "ఖ",
        "గో"
      ],
      [
        "ఖ",
        "ర్చు"
      ],
      [
        "ఖ",
        "ాతం"
      ],
      [
        "గ",
        "ృ"
      ],
      [
        "గ",
        "ె"
      ],
      [
        "గ",
        "ర్"
      ],
      [
        "గ",
        "ించ"
      ],
      [
        "గ",
        "తి"
      ],
      [
        "గ",
        "ల్"
      ],
      [
        "గ",
        "ులు"
      ],
      [
        "గ",
        "ింది."
      ],
      [
        "గ",
        "లి"
      ],
      [
        "గ",
        "ిన్న"
      ],
      [
        "గ",
        "ర్,"
      ],
      [
        "గ",
        "నులు"
      ],
      [
        "గ",
        "ౌర"
      ],
      [
        "ఘ",
        "న"
      ],
      [
        "ఘ",
        "ు"
      ],
      [
        "ఘ",
        "ట్ట"
      ],
      [
        "ఘ",
        "ోర"
      ],
      [
        "ఘ",
        "ిక,"
      ],
      [
        "ఘ",
        "ర్షణ"
      ],
      [
        "చ",
        "ా"
      ],
      [
        "చ",
        "ీ"
      ],
      [
        "చ",
        "ూ"
      ],
      [
        "చ",
        "ో"
      ],
      [
        "చ",
        "్"
      ],
      [
        "చ",
        "ము"
      ],
      [
        "చ",
        "ిన"
      ],
      [
        "చ",
        "ింది."
      ],
      [
        "చ",
        "ిత"
      ],
      [
        "చ",
        "క్ర"
      ],
      [
        "చ",
        "ట్ట"
      ],
      [
        "చ",
        "ులు,"
      ],
      [
        "చ",
        "ీ,"
      ],
      [
        "చ",
        "ూప"
      ],
      [
        "చ",
        "ర్,"
      ],
      [
        "చ",
        ".కి"
      ],
      [
        "ఛ",
        "ాయుత"
      ],
      [
        "జ",
        "ా"
      ],
      [
        "జ",
        "ె"
      ],
      [
        "జ",
        "ై"
      ],
      [
        "జ",
        "ౌ"
      ],
      [
        "జ",
        "్ర"
      ],
      [
        "జ",
        "ాన"
      ],
      [
        "జ",
        "ిన"
      ],
      [
        "జ",
        "ంత"
      ],
      [
        "జ",
        "ైన"
      ],
      [
        "జ",
        "పా"
      ],
      [
        "జ",
        "ిత"
      ],
      [
        "జ",
        "్‌"
      ],
      [
        "జ",
        "ెండ"
      ],
      [
        "జ",
        "నాలు"
      ],
      [
        "జ",
        "ిల్ల"
      ],
      [
        "జ",
        "వహ"
      ],
      [
        "జ",
        "ెట్"
      ],
      [
        "ఞ",
        "ాన"
      ],
      [
        "ట",
        "న"
      ],
      [
        "ట",
        "ో"
      ],
      [
        "ట",
        "స్"
      ],
      [
        "ట",
        "ిన"
      ],
      [
        "ట",
        "ాయి"
      ],
      [
        "ట",
        "చే"
      ],
      [
        "ట",
        "్యం"
      ],
      [
        "ట",
        "ం,"
      ],
      [
        "ట",
        "్రా"
      ],
      [
        "ట",
        "ంతో"
      ],
      [
        "ట",
        "మూ"
      ],
      [
        "ఠ",
        "ీ;"
      ],
      [
        "డ",
        "్ర"
      ],
      [
        "డ",
        "్య"
      ],
      [
        "డ",
        "ాల"
      ],
      [
        "డ",
        "ింది."
      ],
      [
        "డ",
        "్చ"
      ],
      [
        "డ",
        "్ల"
      ],
      [
        "డ",
        "్‌"
      ],
      [
        "డ",
        "ాలు,"
      ],
      [
        "డ",
        "ానికి"
      ],
      [
        "డ",
        "ించింది."
      ],
      [
        "డ",
        "బు"
      ],
      [
        "డ",
        "మ్"
      ],
      [
        "ఢ",
        "వి"
      ],
      [
        "ణ",
        "ే"
      ],
      [
        "ణ",
        "ిక"
      ],
      [
        "ణ",
        "ాలు"
      ],
      [
        "ణ",
        "ించ"
      ],
      [
        "ణ",
        "దార"
      ],
      [
        "ణ",
        "ంతో"
      ],
      [
        "ణ",
        "ుల"
      ],
      [
        "త",
        ","
      ],
      [
        "త",
        "ార"
      ],
      [
        "త",
        "ాయ"
      ],
      [
        "త",
        "ాన"
      ],
      [
        "త",
        "రా"
      ],
      [
        "త",
        "ాయి."
      ],
      [
        "త",
        "దు"
      ],
      [
        "త",
        "క్కు"
      ],
      [
        "త",
        "లం"
      ],
      [
        "త",
        "గ్"
      ],
      [
        "త",
        "మై"
      ],
      [
        "త",
        "మ్య"
      ],
      [
        "త",
        "ాలతో"
      ],
      [
        "త",
        "ీ,"
      ],
      [
        "త",
        "దేశపు"
      ],
      [
        "థ",
        "మ"
      ],
      [
        "థ",
        "ి"
      ],
      [
        "థ",
        "ాత"
      ],
      [
        "థ",
        "ాన"
      ],
      [
        "థ",
        "ార్"
      ],
      [
        "ద",
        "శ"
      ],
      [
        "ద",
        "స"
      ],
      [
        "ద",
        "ూ"
      ],
      [
        "ద",
        "ృ"
      ],
      [
        "ద",
        "ాన"
      ],
      [
        "ద",
        "ీయ"
      ],
      [
        "ద",
        "ైన"
      ],
      [
        "ద",
        "ారు"
      ],
      [
        "ద",
        "ాబ"
      ],
      [
        "ద",
        "ీన"
      ],
      [
        "ద",
        "గ్"
      ],
      [
        "ద",
        "ీర్"
      ],
      [
        "ద",
        "గినది."
      ],
      [
        "ద",
        "క్కను"
      ],
      [
        "ధ",
        "ం"
      ],
      [
        "ధ",
        "ర"
      ],
      [
        "ధ",
        "ు"
      ],
      [
        "ధ",
        "ాల"
      ],
      [
        "ధ",
        "ిన"
      ],
      [
        "ధ",
        "రి"
      ],
      [
        "ధ",
        "నా"
      ],
      [
        "ధ",
        "ిల్ల"
      ],
      [
        "న",
        "ృ"
      ],
      [
        "న",
        "ై"
      ],
      [
        "న",
        "ో"
      ],
      [
        "న",
        "లు"
      ],
      [
        "న",
        "్య"
      ],
      [
        "న",
        "ాల"
      ],
      [
        "న",
        "ర్"
      ],
      [
        "న",
        "వి"
      ],
      [
        "న",
        "ంలో"
      ],
      [
        "న",
        "సా"
      ],
      [
        "న",
        "ికి"
      ],
      [
        "న",
        "డు"
      ],
      [
        "న",
        "లలో"
      ],
      [
        "న",
        "నీ"
      ],
      [
        "న",
        "ప్పటిక"
      ],
      [
        "న",
        "ాలతో"
      ],
      [
        "న",
        "వచ్చు."
      ],
      [
        "న",
        "బడిన"
      ],
      [
        "న",
        "దులు"
      ],
      [
        "ప",
        "క"
      ],
      [
        "ప",
        "బ"
      ],
      [
        "ప",
        "ి"
      ],
      [
        "ప",
        "స్"
      ],
      [
        "ప",
        "ది"
      ],
      [
        "ప",
        "ిన"
      ],
      [
        "ప",
        "ంలో"
      ],
      [
        "ప",
        "ూడ"
      ],
      [
        "ప",
        "ిత"
      ],
      [
        "ప",
        "రాజ"
      ],
      [
        "ప",
        "చ్చ"
      ],
      [
        "ప",
        "లి"
      ],
      [
        "ప",
        "ట్"
      ],
      [
        "ప",
        "త్య"
      ],
      [
        "ప",
        "ించింది."
      ],
      [
        "ప",
        "ం:"
      ],
      [
        "ప",
        "కళ"
      ],
      [
        "ప",
        "ించే"
      ],
      [
        "ప",
        "టం"
      ],
      [
        "ప",
        "ిక్"
      ],
      [
        "ప",
        "స్ర"
      ],
      [
        "ప",
        "ర్ష"
      ],
      [
        "ప",
        "టంలో"
      ],
      [
        "ప",
        "వనాలు"
      ],
      [
        "ప",
        "ౌర"
      ],
      [
        "ప",
        "ండ్"
      ],
      [
        "ఫ",
        "ు"
      ],
      [
        "ఫ",
        "్ర"
      ],
      [
        "ఫ",
        "ర్"
      ],
      [
        "ఫ",
        "రా"
      ],
      [
        "ఫ",
        "్ట"
      ],
      [
        "ఫ",
        "లం"
      ],
      [
        "ఫ",
        "ిక్"
      ],
      [
        "బ",
        "ల"
      ],
      [
        "బ",
        "ై"
      ],
      [
        "బ",
        "ొ"
      ],
      [
        "బ",
        "ాల"
      ],
      [
        "బ",
        "ండ"
      ],
      [
        "బ",
        "ంగా"
      ],
      [
        "బ",
        "డ్"
      ],
      [
        "బ",
        "ిన్న"
      ],
      [
        "బ",
        "ాబ్"
      ],
      [
        "బ",
        "్యా"
      ],
      [
        "బ",
        "ద్ధం"
      ],
      [
        "భ",
        "్య"
      ],
      [
        "భ",
        "ిం"
      ],
      [
        "భ",
        "ంగ"
      ],
      [
        "భ",
        "దాయ"
      ],
      [
        "భ",
        "జిత"
      ],
      [
        "మ",
        "."
      ],
      [
        "మ",
        "య"
      ],
      [
        "మ",
        "ో"
      ],
      [
        "మ",
        "ార"
      ],
      [
        "మ",
        "స్"
      ],
      [
        "మ",
        "ిం"
      ],
      [
        "మ",
        "ాల"
      ],
      [
        "మ",
        "ాయ"
      ],
      [
        "మ",
        "రా"
      ],
      [
        "మ",
        "ిన"
      ],
      [
        "మ",
        "ంత"
      ],
      [
        "మ",
        "ంలో"
      ],
      [
        "మ",
        "లి"
      ],
      [
        "మ",
        "తం"
      ],
      [
        "మ",
        "ికి"
      ],
      [
        "మ",
        "్‌"
      ],
      [
        "మ",
        "ాల్"
      ],
      [
        "మ",
        "ిత్ర"
      ],
      [
        "మ",
        "ణి"
      ],
      [
        "మ",
        "ంచి"
      ],
      [
        "మ",
        "సాల"
      ],
      [
        "మ",
        "ద్రా"
      ],
      [
        "మ",
        "ంజ"
      ],
      [
        "య",
        "ి"
      ],
      [
        "య",
        "ూ"
      ],
      [
        "య",
        "స్"
      ],
      [
        "య",
        "ము"
      ],
      [
        "య",
        "ిన"
      ],
      [
        "య",
        "ులు"
      ],
      [
        "య",
        "ం:"
      ],
      [
        "య",
        "ంతో"
      ],
      [
        "య",
        "నులు"
      ],
      [
        "య",
        "ింది"
      ],
      [
        "య",
        "ంలో,"
      ],
      [
        "య",
        "థాత"
      ],
      [
        "ర",
        "ొ"
      ],
      [
        "ర",
        "‌"
      ],
      [
        "ర",
        "లో"
      ],
      [
        "ర",
        "ాయ"
      ],
      [
        "ర",
        "ము"
      ],
      [
        "ర",
        "ద్"
      ],
      [
        "ర",
        "త్"
      ],
      [
        "ర",
        "ంగా"
      ],
      [
        "ర",
        "క్ష"
      ],
      [
        "ర",
        "మైన"
      ],
      [
        "ర",
        "వే"
      ],
      [
        "ర",
        "ించిన"
      ],
      [
        "ర",
        "వీ"
      ],
      [
        "ర",
        "ీ;"
      ],
      [
        "ర",
        "క్షరాస్యత"
      ],
      [
        "ర",
        "ాలు."
      ],
      [
        "ర",
        "ారి"
      ],
      [
        "ర",
        "కు,"
      ],
      [
        "ర",
        "ాతి"
      ],
      [
        "ర",
        "మే."
      ],
      [
        "ర",
        "తాయ"
      ],
      [
        "ర",
        "బద్ధం"
      ],
      [
        "ల",
        ","
      ],
      [
        "ల",
        "ిక"
      ],
      [
        "ల",
        "ిన"
      ],
      [
        "ల",
        "ైన"
      ],
      [
        "ల",
        "కాల"
      ],
      [
        "ల",
        "బె"
      ],
      [
        "ల",
        "పై"
      ],
      [
        "ల",
        "హా"
      ],
      [
        "ల",
        "మానం:"
      ],
      [
        "ల",
        "ఘు"
      ],
      [
        "ల",
        "బై"
      ],
      [
        "ల",
        "భ్య"
      ],
      [
        "ళ",
        "ల"
      ],
      [
        "ళ",
        "ు"
      ],
      [
        "ళ",
        "ులు"
      ],
      [
        "ళ",
        "ూరు"
      ],
      [
        "ళ",
        "విం"
      ],
      [
        "వ",
        "త"
      ],
      [
        "వ",
        "‌"
      ],
      [
        "వ",
        "లి"
      ],
      [
        "వ",
        "స్తు"
      ],
      [
        "వ",
        "ద్ద"
      ],
      [
        "వ",
        "మి"
      ],
      [
        "వ",
        "లను"
      ],
      [
        "వ",
        "స్థానంలో"
      ],
      [
        "వ",
        "ూప"
      ],
      [
        "వ",
        "నాథ"
      ],
      [
        "వ",
        "జ్ర"
      ],
      [
        "వ",
        "న్య"
      ],
      [
        "శ",
        "ే"
      ],
      [
        "శ",
        "ాల"
      ],
      [
        "శ",
        "క్"
      ],
      [
        "శ",
        "ంలో"
      ],
      [
        "శ",
        "ించే"
      ],
      [
        "శ",
        "ిల్"
      ],
      [
        "శ",
        "క్తి"
      ],
      [
        "శ",
        "ాతం"
      ],
      [
        "శ",
        "రద్"
      ],
      [
        "ష",
        "ే"
      ],
      [
        "ష",
        "న్"
      ],
      [
        "ష",
        "ులు"
      ],
      [
        "ష",
        "ం."
      ],
      [
        "ష",
        "కాహార"
      ],
      [
        "స",
        "ొ"
      ],
      [
        "స",
        "ాలు"
      ],
      [
        "స",
        "గా"
      ],
      [
        "స",
        "ాయ"
      ],
      [
        "స",
        "ిన"
      ],
      [
        "స",
        "ల్"
      ],
      [
        "స",
        "భా"
      ],
      [
        "స",
        "వా"
      ],
      [
        "స",
        "త్య"
      ],
      [
        "స",
        "మి"
      ],
      [
        "స",
        "మాన"
      ],
      [
        "స",
        "రం"
      ],
      [
        "స",
        "ీలు"
      ],
      [
        "స",
        "త్తా"
      ],
      [
        "స",
        "ాయుత"
      ],
      [
        "స",
        "లహా"
      ],
      [
        "హ",
        "ె"
      ],
      [
        "హ",
        "ొ"
      ],
      [
        "హ",
        "్"
      ],
      [
        "హ",
        "ిం"
      ],
      [
        "హ",
        "ర్"
      ],
      [
        "హ",
        "ాయ"
      ],
      [
        "హ",
        "స్త"
      ],
      [
        "హ",
        "పు"
      ],
      [
        "హ",
        "ాలు,"
      ],
      [
        "హ",
        "క్కు"
      ],
      [
        "హ",
        "్మ"
      ],
      [
        "హ",
        "్వ"
      ],
      [
        "ా",
        ")"
      ],
      [
        "ా",
        "లో"
      ],
      [
        "ా",
        "దు"
      ],
      [
        "ా",
        "ంబ"
      ],
      [
        "ా",
        "శ్ర"
      ],
      [
        "ా",
        "లోయ"
      ],
      [
        "ా",
        "నిస్తాన్"
      ],
      [
        "ా",
        "ము."
      ],
      [
        "ా",
        "దాయంలో"
      ],
      [
        "ా",
        "ంతి"
      ],
      [
        "ా",
        "డ్‌"
      ],
      [
        "ా",
        "ధిన"
      ],
      [
        "ా",
        "పక"
      ],
      [
        "ి",
        ","
      ],
      [
        "ి",
        ":"
      ],
      [
        "ి",
        "ని"
      ],
      [
        "ి",
        "చె"
      ],
      [
        "ి",
        "శ్ర"
      ],
      [
        "ి",
        "లే"
      ],
      [
        "ి",
        "రంగ"
      ],
      [
        "ి",
        "ద్ధి"
      ],
      [
        "ి",
        "ళ్ళ"
      ],
      [
        "ి",
        "టన్"
      ],
      [
        "ి",
        "యనులు"
      ],
      [
        "ీ",
        "కృ"
      ],
      [
        "ీ",
        "కరణ"
      ],
      [
        "ీ",
        "కులు"
      ],
      [
        "ీ",
        "-దండ"
      ],
      [
        "ు",
        "ని"
      ],
      [
        "ు",
        "ను"
      ],
      [
        "ు",
        "ల్"
      ],
      [
        "ు",
        "వు"
      ],
      [
        "ు",
        "ర్య"
      ],
      [
        "ు",
        "డైన"
      ],
      [
        "ు",
        "నిక"
      ],
      [
        "ు",
        "ళూరు"
      ],
      [
        "ూ",
        ","
      ],
      [
        "ూ",
        "లా"
      ],
      [
        "ృ",
        "తంగా"
      ],
      [
        "ె",
        "స్"
      ],
      [
        "ె",
        "ర్"
      ],
      [
        "ె",
        "న్న"
      ],
      [
        "ె",
        "నే"
      ],
      [
        "ె",
        "డ్"
      ],
      [
        "ె",
        "ల్లో"
      ],
      [
        "ె",
        "క్కను"
      ],
      [
        "ే",
        "త"
      ],
      [
        "ే",
        "కా"
      ],
      [
        "ే",
        "ష్"
      ],
      [
        "ే",
        ".."
      ],
      [
        "ే",
        "కమైన"
      ],
      [
        "ే",
        "ననీ"
      ],
      [
        "ే",
        "యులు"
      ],
      [
        "ై",
        "క"
      ],
      [
        "ై",
        "స్త"
      ],
      [
        "ై",
        "పో"
      ],
      [
        "ై",
        "వరు"
      ],
      [
        "ో",
        "ంది."
      ],
      [
        "ో",
        "క్ష"
      ],
      [
        "ో",
        "ద్య"
      ],
      [
        "ో",
        "త్రి"
      ],
      [
        "ో",
        "ధాల"
      ],
      [
        "్",
        ";"
      ],
      [
        "్",
        "లో"
      ],
      [
        "్",
        "తదేశపు"
      ],
      [
        "‌",
        "కు"
      ],
      [
        "‌",
        "టిక"
      ],
      [
        "‌",
        "తంలో"
      ],
      [
        "‌",
        "ఫర్"
      ],
      [
        "‌",
        "వ‌"
      ],
      [
        "–",
        "2004"
      ],
      [
        "్ర",
        "ిచె"
      ],
      [
        "ార",
        "ణంగా"
      ],
      [
        "ార",
        "మ్‌"
      ],
      [
        "లు",
        ","
      ],
      [
        "లు",
        "పలి"
      ],
      [
        "లో",
        "న్"
      ],
      [
        "లో",
        "ని"
      ],
      [
        "లో",
        "ను"
      ],
      [
        "లో",
        "కాల"
      ],
      [
        "లో",
        "పం"
      ],
      [
        "స్",
        "లో"
      ],
      [
        "స్",
        "వే"
      ],
      [
        "స్",
        "వర"
      ],
      [
        "స్",
        "లే"
      ],
      [
        "స్",
        "టా"
      ],
      [
        "స్",
        "టే"
      ],
      [
        "స్",
        "వర్ణ"
      ],
      [
        "స్",
        "టలు"
      ],
      [
        "్య",
        "ులు"
      ],
      [
        "్య",
        "ంలో"
      ],
      [
        "న్",
        "మార్"
      ],
      [
        "న్",
        "సీ"
      ],
      [
        "న్",
        "లుగా"
      ],
      [
        "ది",
        ","
      ],
      [
        "ది",
        "ర్"
      ],
      [
        "ది",
        "రి"
      ],
      [
        "ది",
        "కి"
      ],
      [
        "ది",
        "గ్"
      ],
      [
        "ది",
        "భాగం"
      ],
      [
        "ది",
        "గువ"
      ],
      [
        "దే",
        "."
      ],
      [
        "ప్ర",
        "మా"
      ],
      [
        "ప్ర",
        "యా"
      ],
      [
        "ప్ర",
        "ఖ్య"
      ],
      [
        "ప్ర",
        "ణా"
      ],
      [
        "ప్ర",
        "దేశాల"
      ],
      [
        "ప్ర",
        "ార్థ"
      ],
      [
        "ప్ర",
        "గతి"
      ],
      [
        "ప్ర",
        "థమ"
      ],
      [
        "ిం",
        "పు"
      ],
      [
        "ిం",
        "సాయుత"
      ],
      [
        "దేశ",
        "ిక"
      ],
      [
        "దేశ",
        "ము"
      ],
      [
        "దేశ",
        "రాజకీయ"
      ],
      [
        "దేశ",
        "ాన్ని"
      ],
      [
        "దేశ",
        "మంత"
      ],
      [
        "దేశ",
        "ాధిన"
      ],
      [
        "ాల",
        "ని"
      ],
      [
        "ాల",
        "ే."
      ],
      [
        "ాల",
        "న్నీ"
      ],
      [
        "ాల",
        "ెక్కను"
      ],
      [
        "ాల",
        "ేకా"
      ],
      [
        "ిక",
        "లు"
      ],
      [
        "ిక",
        "ులు"
      ],
      [
        "ిక",
        "ూడ"
      ],
      [
        "ిక",
        "ం,"
      ],
      [
        "ర్",
        "టి"
      ],
      [
        "ర్",
        "కొ"
      ],
      [
        "ర్",
        "తా"
      ],
      [
        "ర్",
        "సిం"
      ],
      [
        "ర్",
        "జాలు"
      ],
      [
        "ర్",
        "లు."
      ],
      [
        "ర్",
        "భవ"
      ],
      [
        "ర్",
        "జె"
      ],
      [
        "భార",
        "్తదేశపు"
      ],
      [
        "భార",
        "‌తంలో"
      ],
      [
        "భారత",
        ","
      ],
      [
        "భారత",
        "ం"
      ],
      [
        "భారత",
        "ం,"
      ],
      [
        "భారత",
        "ంలో,"
      ],
      [
        "ాలు",
        "న్నాయి."
      ],
      [
        "న్న",
        "త"
      ],
      [
        "న్న",
        "ా,"
      ],
      [
        "గా",
        "ంచిన"
      ],
      [
        "గా",
        "యి"
      ],
      [
        "కు",
        "ండ"
      ],
      [
        "కు",
        "నే"
      ],
      [
        "కు",
        "డు"
      ],
      [
        "కు",
        "డి"
      ],
      [
        "కు",
        "మార్"
      ],
      [
        "కు",
        "లం"
      ],
      [
        "కు",
        "లను"
      ],
      [
        "కు",
        "మారు"
      ],
      [
        "కు",
        "డ్య"
      ],
      [
        "కు",
        "దిర్"
      ],
      [
        "కు",
        "ర్తా"
      ],
      [
        "ని",
        "వా"
      ],
      [
        "ని",
        "చ్చ"
      ],
      [
        "ని",
        "యా"
      ],
      [
        "ని",
        "వార"
      ],
      [
        "ని",
        "యో"
      ],
      [
        "ని",
        "ధి"
      ],
      [
        "ని",
        "వి."
      ],
      [
        "ని",
        "వల్ల"
      ],
      [
        "ని",
        "లిచ"
      ],
      [
        "ని",
        "రక్షరాస్యత"
      ],
      [
        "ని",
        "లబె"
      ],
      [
        "ని",
        "షే"
      ],
      [
        "వి",
        "డ"
      ],
      [
        "వి",
        "డి"
      ],
      [
        "వి",
        "ధాన"
      ],
      [
        "వి",
        "స్తు"
      ],
      [
        "వి",
        "వర"
      ],
      [
        "వి",
        "శాఖ"
      ],
      [
        "వి",
        "జన్"
      ],
      [
        "వి",
        "నాయ"
      ],
      [
        "వి",
        "తంలో"
      ],
      [
        "వి",
        "జ్"
      ],
      [
        "వి",
        "ఫల"
      ],
      [
        "వి",
        "శి"
      ],
      [
        "వి",
        "వాదం"
      ],
      [
        "వి",
        "భజిత"
      ],
      [
        "వి",
        "శే"
      ],
      [
        "వి",
        "సభా"
      ],
      [
        "ాత",
        "్మ"
      ],
      [
        "ాయ",
        "తి"
      ],
      [
        "ాయ",
        "కార"
      ],
      [
        "ాయ",
        "ీలు"
      ],
      [
        "క్",
        "త"
      ],
      [
        "క్",
        "నాల"
      ],
      [
        "క్",
        "‌టిక"
      ],
      [
        "ాన",
        "ెట్"
      ],
      [
        "రా",
        "మన"
      ],
      [
        "రా",
        "ణించ"
      ],
      [
        "రా",
        "మాయ"
      ],
      [
        "రా",
        "సిన"
      ],
      [
        "ను",
        ","
      ],
      [
        "ను",
        "న్న"
      ],
      [
        "ము",
        ","
      ],
      [
        "ము",
        "ద్ర"
      ],
      [
        "ము",
        "త్య"
      ],
      [
        "ము",
        "ందు"
      ],
      [
        "ము",
        "లు."
      ],
      [
        "ండ",
        "ర్"
      ],
      [
        "ండ",
        "్రా"
      ],
      [
        "ండ",
        "మస్"
      ],
      [
        "ండ",
        "్యులు"
      ],
      [
        "ద్",
        "వై"
      ],
      [
        "ద్",
        "దిభాగం"
      ],
      [
        "ద్",
        "విసభా"
      ],
      [
        "త్",
        "త"
      ],
      [
        "త్",
        "తల"
      ],
      [
        "ించ",
        "ుకు"
      ],
      [
        "ించ",
        "వచ్చు."
      ],
      [
        "ించ",
        "ుకోవడ"
      ],
      [
        "ించ",
        "బడింది."
      ],
      [
        "తి",
        "రి"
      ],
      [
        "ల్",
        "స్"
      ],
      [
        "ల్",
        "తాన"
      ],
      [
        "స్త",
        "ాయి."
      ],
      [
        "స్త",
        "ానీ"
      ],
      [
        "స్త",
        "ాంబ"
      ],
      [
        "స్త",
        "ూ,"
      ],
      [
        "ంత",
        "ల"
      ],
      [
        "ంత",
        "ై"
      ],
      [
        "రి",
        "."
      ],
      [
        "రి",
        "ట్ల"
      ],
      [
        "రి",
        "ట్లు"
      ],
      [
        "సం",
        "."
      ],
      [
        "సం",
        "స్థ"
      ],
      [
        "సం",
        "క్ర"
      ],
      [
        "సం",
        "ధి"
      ],
      [
        "సం",
        "గమ"
      ],
      [
        "సం",
        "దర్"
      ],
      [
        "రు",
        ","
      ],
      [
        "రు",
        "గా"
      ],
      [
        "రు",
        "ష్"
      ],
      [
        "రు",
        "చులు,"
      ],
      [
        "పు",
        "లి"
      ],
      [
        "పు",
        "తో"
      ],
      [
        "పు",
        "త్ర"
      ],
      [
        "పు",
        "లా"
      ],
      [
        "పు",
        "ష్"
      ],
      [
        "పు",
        "నర్"
      ],
      [
        "పు",
        "రి."
      ],
      [
        "స్థ",
        "‌"
      ],
      [
        "స్థ",
        "ాపక"
      ],
      [
        "స్థ",
        "ూలా"
      ],
      [
        "ంట",
        "ో"
      ],
      [
        "ంట",
        "ుంది."
      ],
      [
[...]
