{
  "version": "1.0",
  "truncation": null,
  "padding": null,
  "added_tokens": [
    {
      "id": 0,
      "content": "<unk>",
      "single_word": false,
      "lstrip": false,
      "rstrip": false,
      "normalized": false,
      "special": true
    }
  ],
  "normalizer": {
    "type": "NFC"
  },
  "pre_tokenizer": {
    "type": "Whitespace"
  },
  "post_processor": null,
  "decoder": null,
  "model": {
    "type": "BPE",
    "dropout": null,
    "unk_token": "<unk>",
    "continuing_subword_prefix": null,
    "end_of_word_suffix": null,
    "fuse_unk": false,
    "byte_fallback": false,
    "ignore_merges": false,
    "vocab": {
      "<unk>": 0,
      " ": 1,
      "\"": 2,
      "%": 3,
      "&": 4,
      "'": 5,
      "(": 6,
      ")": 7,
      ",": 8,
      "-": 9,
      ".": 10,
      "/": 11,
      "0": 12,
      "1": 13,
      "2": 14,
      "3": 15,
      "4": 16,
      "5": 17,
      "6": 18,
      "7": 19,
      "8": 20,
      "9": 21,
      ":": 22,
      ";": 23,
      "=": 24,
      "A": 25,
      "B": 26,
      "C": 27,
      "D": 28,
      "E": 29,
      "F": 30,
      "G": 31,
      "H": 32,
      "I": 33,
      "L": 34,
      "M": 35,
      "N": 36,
      "P": 37,
      "R": 38,
      "S": 39,
      "T": 40,
      "U": 41,
      "V": 42,
      "W": 43,
      "X": 44,
      "Z": 45,
      "^": 46,
      "_": 47,
      "a": 48,
      "b": 49,
      "c": 50,
      "d": 51,
      "e": 52,
      "f": 53,
      "g": 54,
      "h": 55,
      "i": 56,
      "j": 57,
      "k": 58,
      "l": 59,
      "m": 60,
      "n": 61,
      "o": 62,
      "p": 63,
      "q": 64,
      "r": 65,
      "s": 66,
      "t": 67,
      "u": 68,
      "v": 69,
      "w": 70,
      "x": 71,
      "y": 72,
      "z": 73,
      "ం": 74,
      "ః": 75,
      "అ": 76,
      "ఆ": 77,
      "ఇ": 78,
      "ఈ": 79,
      "ఉ": 80,
      "ఋ": 81,
      "ఎ": 82,
      "ఏ": 83,
      "ఐ": 84,
      "ఒ": 85,
      "ఓ": 86,
      "ఔ": 87,
      "క": 88,
      "ఖ": 89,
      "గ": 90,
      "ఘ": 91,
      "చ": 92,
      "ఛ": 93,
      "జ": 94,
      "ఞ": 95,
      "ట": 96,
      "ఠ": 97,
      "డ": 98,
      "ఢ": 99,
      "ణ": 100,
      "త": 101,
      "థ": 102,
      "ద": 103,
      "ధ": 104,
      "న": 105,
      "ప": 106,
      "ఫ": 107,
      "బ": 108,
      "భ": 109,
      "మ": 110,
      "య": 111,
      "ర": 112,
      "ల": 113,
      "ళ": 114,
      "వ": 115,
      "శ": 116,
      "ష": 117,
      "స": 118,
      "హ": 119,
      "ా": 120,
      "ి": 121,
      "ీ": 122,
      "ు": 123,
      "ూ": 124,
      "ృ": 125,
      "ె": 126,
      "ే": 127,
      "ై": 128,
      "ొ": 129,
      "ో": 130,
      "ౌ": 131,
      "్": 132,
      "‌": 133,
      "–": 134,
      "—": 135,
      "↑": 136,
      "్ర": 137,
      "ార": 138,
      "లు": 139,
      "లో": 140,
      "స్": 141,
      "్య": 142,
      "న్": 143,
      "ది": 144,
      "దే": 145,
      "ప్ర": 146,
      "ిం": 147,
      "దేశ": 148,
      "ాల": 149,
      "ిక": 150,
      "ర్": 151,
      "భార": 152,
      "భారత": 153,
      "ాలు": 154,
      "న్న": 155,
      "గా": 156,
      "కు": 157,
      "ని": 158,
      "వి": 159,
      "ాత": 160,
      "ాయ": 161,
      "క్": 162,
      "ాన": 163,
      "దేశం": 164,
      "రా": 165,
      "్ట": 166,
      "ను": 167,
      "ము": 168,
      "ండ": 169,
      "ీయ": 170,
      "ిన": 171,
      "ద్": 172,
      "త్": 173,
      "ించ": 174,
      "తి": 175,
      "ల్": 176,
      "స్త": 177,
      "ంది": 178,
      "ంత": 179,
      "రి": 180,
      "సం": 181,
      "రు": 182,
      "పు": 183,
      "ులు": 184,
      "స్థ": 185,
      "ింది": 186,
      "ాయి": 187,
      "ంట": 188,
      "ంలో": 189,
      "భారతదేశం": 190,
      "భా": 191,
      "ైన": 192,
      "ంగ": 193,
      "ూడ": 194,
      "ంగా": 195,
      "ధిక": 196,
      "పా": 197,
      "వా": 198,
      "సా": 199,
      "క్ష": 200,
      "ఉన్న": 201,
      "ారు": 202,
      "టి": 203,
      "ార్": 204,
      "ిత": 205,
      "్చ": 206,
      "జాత": 207,
      "ష్ట": 208,
      "కూడ": 209,
      "ప్రా": 210,
      "రాజ": 211,
      "కో": 212,
      "క్ర": 213,
      "ట్ట": 214,
      "19": 215,
      "కా": 216,
      "చ్చ": 217,
      "నే": 218,
      "పే": 219,
      "మొ": 220,
      "00": 221,
      "ంచ": 222,
      "దు": 223,
      "మా": 224,
      "యా": 225,
      "లి": 226,
      "వ్య": 227,
      "భారతీయ": 228,
      "తర": 229,
      "నా": 230,
      "రై": 231,
      "వాత": 232,
      "సి": 233,
      "్ల": 234,
      "త్వ": 235,
      "జాతీయ": 236,
      "an": 237,
      "తం": 238,
      "తో": 239,
      "రాష్ట": 240,
      "రాష్ట్ర": 241,
      "ఖ్య": 242,
      "గు": 243,
      "వచ్చ": 244,
      "ికి": 245,
      "భారతదేశ": 246,
      "ద్ధ": 247,
      "ల్ల": 248,
      "ంత్ర": 249,
      "di": 250,
      "on": 251,
      "అధిక": 252,
      "కొ": 253,
      "డు": 254,
      "పాల": 255,
      "మైన": 256,
      "వే": 257,
      "he": 258,
      "ఒక": 259,
      "కాల": 260,
      "డి": 261,
      "ణా": 262,
      "ద్ర": 263,
      "మార్": 264,
      "ండి": 265,
      "ar": 266,
      "ఉంది": 267,
      "చే": 268,
      "టు": 269,
      "ధ్య": 270,
      "శా": 271,
      "్‌": 272,
      "ింద": 273,
      "దేశాల": 274,
      "ఉన్నాయి": 275,
      "వ్యవ": 276,
      "of": 277,
      "ఎన్న": 278,
      "కి": 279,
      "పార": 280,
      "పంచ": 281,
      "ాబ": 282,
      "ాన్": 283,
      "ర్వ": 284,
      "న్ని": 285,
      "భారతదేశంలో": 286,
      "చె": 287,
      "డ్": 288,
      "ధాన": 289,
      "పె": 290,
      "ిన్న": 291,
      "ెండ": 292,
      "మార్గ": 293,
      "వ్యవస్థ": 294,
      "ంబ": 295,
      "కృ": 296,
      "కే": 297,
      "కార": 298,
      "తు": 299,
      "దా": 300,
      "హింద": 301,
      "ానికి": 302,
      "స్తు": 303,
      "కూడా": 304,
      "పేరు": 305,
      "మొద": 306,
      "అధికార": 307,
      "ndi": 308,
      "the": 309,
      "కర": 310,
      "ట్": 311,
      "త్ర": 312,
      "త్య": 313,
      "దక్ష": 314,
      "పర": 315,
      "పరి": 316,
      "మత": 317,
      "మీ": 318,
      "మే": 319,
      "మధ్య": 320,
      "వర": 321,
      "సు": 322,
      "ప్రపంచ": 323,
      "ప్రధాన": 324,
      "ాత్ర": 325,
      "ద్ద": 326,
      "స్థాన": 327,
      "భాష": 328,
      "ప్రాంత": 329,
      "రాజ్య": 330,
      "రైలు": 331,
      "ti": 332,
      "దాయ": 333,
      "నాలు": 334,
      "ప్": 335,
      "వార": 336,
      "వర్": 337,
      "సభ": 338,
      "క్కు": 339,
      "దేశంలో": 340,
      "్టీ": 341,
      "క్రీ": 342,
      "పార్టీ": 343,
      "దక్షి": 344,
      "Indi": 345,
      "al": 346,
      "or": 347,
      "అయ": 348,
      "ఆర్": 349,
      "గి": 350,
      "జనా": 351,
      "పూ": 352,
      "పో": 353,
      "భు": 354,
      "మన": 355,
      "మి": 356,
      "రో": 357,
      "రెండ": 358,
      "లం": 359,
      "లా": 360,
      "వు": 361,
      "వె": 362,
      "్యం": 363,
      "ప్రజ": 364,
      "ప్రభు": 365,
      "ముఖ్య": 366,
      "ించిన": 367,
      "ించింది": 368,
      "హిందూ": 369,
      "er": 370,
      "is": 371,
      "ంద్ర": 372,
      "ఇతర": 373,
      "గీ": 374,
      "తా": 375,
      "తరు": 376,
      "లకు": 377,
      "వీ": 378,
      "శ్ర": 379,
      "ష్": 380,
      "ీన": 381,
      "స్కృ": 382,
      "ాల్": 383,
      "స్త్ర": 384,
      "సాం": 385,
      "వచ్చింది": 386,
      "పెద్ద": 387,
      "క్కువ": 388,
      "India": 389,
      "gu": 390,
      "nt": 391,
      "అతి": 392,
      "ఉత్": 393,
      "ఉంట": 394,
      "కలి": 395,
      "గర": 396,
      "జన": 397,
      "జరి": 398,
      "పట్ట": 399,
      "బడ": 400,
      "బా": 401,
      "బె": 402,
      "బ్ర": 403,
      "మహ": 404,
      "లలో": 405,
      "వంట": 406,
      "ుకు": 407,
      "విధ": 408,
      "భాగ": 409,
      "వాణా": 410,
      "మార్గాలు": 411,
      "కేంద్ర": 412,
      "ప్ప": 413,
      "క్రీడ": 414,
      "అయిన": 415,
      "జనాభా": 416,
      "ప్రభుత్వ": 417,
      "తరువాత": 418,
      "),": 419,
      "26": 420,
      "es": 421,
      "అనే": 422,
      "ఇది": 423,
      "ఎక్కువ": 424,
      "ఏర్": 425,
      "కీయ": 426,
      "గో": 427,
      "గ్": 428,
      "గిన": 429,
      "టిక": 430,
      "ణం": 431,
      "బహ": 432,
      "మాన": 433,
      "మంత్ర": 434,
      "రవాణా": 435,
      "లే": 436,
      "లను": 437,
      "సిం": 438,
      "సరి": 439,
      "ిల్ల": 440,
      "్రా": 441,
      "్రె": 442,
      "ప్రస్తు": 443,
      "ప్రదాయ": 444,
      "క్క": 445,
      "స్తాన్": 446,
      "ందిన": 447,
      "ంగ్రె": 448,
      "పాకి": 449,
      "సాధ": 450,
      "రాజకీయ": 451,
      "కాంగ్రె": 452,
      "and": 453,
      "కాలంలో": 454,
      "are": 455,
      "ఎన్నో": 456,
      "ాబ్": 457,
      "మొదటి": 458,
      "దక్షిణ": 459,
      "200": 460,
      "ed": 461,
      "ge": 462,
      "అత్య": 463,
      "ఇండి": 464,
      "ఉప": 465,
      "క్య": 466,
      "గణ": 467,
      "గల": 468,
      "చిన్న": 469,
      "దం": 470,
      "పం": 471,
      "పై": 472,
      "పతి": 473,
      "భూ": 474,
      "మై": 475,
      "యు": 476,
      "యో": 477,
      "రం": 478,
      "రంగ": 479,
      "లతో": 480,
      "వల": 481,
      "శ్": 482,
      "షు": 483,
      "సము": 484,
      "ావర": 485,
      "ుకో": 486,
      "ెలు": 487,
      "్మ": 488,
      "ప్రము": 489,
      "ప్రతి": 490,
      "ాలలో": 491,
      "ాలను": 492,
      "విస్త": 493,
      "ండు": 494,
      "ించి": 495,
      "సంగీ": 496,
      "సంస్కృ": 497,
      "ంగ్ల": 498,
      "ిత్ర": 499,
      "ప్రాచ": 500,
      "క్రమ": 501,
      "సిని": 502,
      "సియా": 503,
      "ద్ధి": 504,
      "శాస్త్ర": 505,
      "ఆర్ధిక": 506,
      "సరిహ": 507,
      "అత్యధిక": 508,
      "ఇండియా": 509,
      "ప్రముఖ": 510,
      "20": 511,
      "50": 512,
      "as": 513,
      "ct": 514,
      "in": 515,
      "lis": 516,
      "ou": 517,
      "to": 518,
      "ంధ": 519,
      "ఆధ": 520,
      "కాలు": 521,
      "గలు": 522,
      "జాబ": 523,
      "ట్ల": 524,
      "ఢిల్ల": 525,
      "ణి": 526,
      "తిక": 527,
      "తంత్ర": 528,
      "దార": 529,
      "ధి": 530,
      "నీ": 531,
      "నె": 532,
      "నడి": 533,
      "భిన్న": 534,
      "మె": 535,
      "మూడ": 536,
      "మాత్ర": 537,
      "రహ": 538,
      "వహ": 539,
      "వై": 540,
      "సౌ": 541,
      "సింది": 542,
      "సమా": 543,
      "హార": 544,
      "ీర్": 545,
      "స్య": 546,
      "స్వ": 547,
      "స్వా": 548,
      "స్వాత": 549,
      "్యాయ": 550,
      "భారత్": 551,
      "వివిధ": 552,
      "ద్దు": 553,
      "ంతో": 554,
      "సామ": 555,
      "కోర్": 556,
      "పేర్": 557,
      "000": 558,
      "రాష్ట్రాలు": 559,
      "రాష్ట్రపతి": 560,
      "శాఖ": 561,
      "డ్డ": 562,
      "మొదల": 563,
      "కర్య": 564,
      "ప్రాంతాలు": 565,
      "tion": 566,
      "దేశంలోని": 567,
      "రెండు": 568,
      "ాల్లో": 569,
      "ఉత్తర": 570,
      "పట్టణ": 571,
      "బెంగ": 572,
      "బ్రి": 573,
      "భాగం": 574,
      "ప్పటిక": 575,
      "ఏర్ప": 576,
      "బహు": 577,
      "మంత్రి": 578,
      "సింధ": 579,
      "సరిహద్దు": 580,
      "ఢిల్లీ": 581,
      "దారులు": 582,
      "నడిప": 583,
      "సౌకర్య": 584,
      "స్వాతంత్ర": 585,
      ").": 586,
      "..": 587,
      "14": 588,
      "Con": 589,
      "ent": 590,
      "no": 591,
      "ంద": 592,
      "ందు": 593,
      "అభ": 594,
      "అను": 595,
      "కం": 596,
      "కళ": 597,
      "కల్": 598,
      "గే": 599,
      "గంగా": 600,
      "చార": 601,
      "చరి": 602,
      "చైన": 603,
      "జ్య": 604,
      "టం": 605,
      "టీ": 606,
      "టె": 607,
      "తన": 608,
      "తూ": 609,
      "తమి": 610,
      "తాబ్": 611,
      "థిక": 612,
      "నగర": 613,
      "పత": 614,
      "పొ": 615,
      "పద్ధ": 616,
      "పాత్ర": 617,
      "పండు": 618,
      "మలు": 619,
      "మ్య": 620,
      "రూ": 621,
      "ళం": 622,
      "ళ్ల": 623,
      "వడ": 624,
      "వృ": 625,
      "వత్": 626,
      "శతాబ్": 627,
      "సమ": 628,
      "సై": 629,
      "సార": 630,
      "సర్వ": 631,
      "ిమ": 632,
      "ుంది": 633,
      "ాలతో": 634,
      "న్నాయి": 635,
      "నిర్వ": 636,
      "నుక": 637,
      "నుండి": 638,
      "త్తం": 639,
      "ించే": 640,
      "ల్వే": 641,
      "సంఖ్య": 642,
      "పుట్ట": 643,
      "ితా": 644,
      "కూడిన": 645,
      "197": 646,
      "మొత్తం": 647,
      "రైల్వే": 648,
      "వాతావర": 649,
      "angu": 650,
      "భారతదేశానికి": 651,
      "పాలన": 652,
      "ఒకటి": 653,
      "చేయ": 654,
      "దేశాలలో": 655,
      "కారం": 656,
      "తున్న": 657,
      "అధికారిక": 658,
      "ట్లు": 659,
      "ప్రపంచంలో": 660,
      "భాషలు": 661,
      "వెబ": 662,
      "ప్రజా": 663,
      "ఉంటాయి": 664,
      "కలిగి": 665,
      "జరిగిన": 666,
      "వంటి": 667,
      "అనేక": 668,
      "ఎక్కువగా": 669,
      "ప్రస్తుతం": 670,
      "కాంగ్రెసు": 671,
      "సముద్ర": 672,
      "ప్రాచీన": 673,
      "జాబితా": 674,
      "రహదారులు": 675,
      "అభి": 676,
      "చరిత్ర": 677,
      "శతాబ్దం": 678,
      "నిర్వహ": 679,
      "వాతావరణం": 680,
      "angua": 681,
      "%),": 682,
      "10": 683,
      "17": 684,
      "18": 685,
      "23": 686,
      "47": 687,
      "CI": 688,
      "at": 689,
      "ation": 690,
      "de": 691,
      "fi": 692,
      "il": 693,
      "km": 694,
      "langua": 695,
      "mi": 696,
      "sq": 697,
      "th": 698,
      "tal": 699,
      "అని": 700,
      "ఆఫ": 701,
      "ఇవ": 702,
      "కల": 703,
      "ఖండ": 704,
      "చి": 705,
      "జి": 706,
      "జన్": 707,
      "టా": 708,
      "డే": 709,
      "ణంగా": 710,
      "దన": 711,
      "దీ": 712,
      "ద్య": 713,
      "నాయ": 714,
      "న్యాయ": 715,
      "పద": 716,
      "పశ": 717,
      "పక్ష": 718,
      "మల": 719,
      "మాలు": 720,
      "మ్మ": 721,
      "యాలు": 722,
      "రే": 723,
      "ర్య": 724,
      "రకాల": 725,
      "లక్ష": 726,
      "వరి": 727,
      "సర": 728,
      "సూ": 729,
      "హా": 730,
      "ిల్": 731,
      "ిస్త": 732,
      "ీలు": 733,
      "ుల": 734,
      "ెల": 735,
      "ోర": 736,
      "లోక్": 737,
      "స్లా": 738,
      "దినాలు": 739,
      "ప్రకారం": 740,
      "ాలీ": 741,
      "ాలకు": 742,
      "ికత": 743,
      "ిక్": 744,
      "కుల": 745,
      "కుంట": 746,
      "కుటు": 747,
      "నిర్": 748,
      "ాయు": 749,
      "రాస్య": 750,
      "ములో": 751,
      "ముంబ": 752,
      "ద్వీ": 753,
      "ల్లో": 754,
      "సంఘ": 755,
      "సంప్రదాయ": 756,
      "సంవత్": 757,
      "స్థాన్": 758,
      "ంటే": 759,
      "పాక్": 760,
      "పాటు": 761,
      "క్షరాస్య": 762,
      "ఉన్నారు": 763,
      "టిలో": 764,
      "199": 765,
      "1950": 766,
      "ంచి": 767,
      "వ్యా": 768,
      "రైళ్ల": 769,
      "రాష్ట్రాల": 770,
      "వచ్చిన": 771,
      "భారతదేశపు": 772,
      "కొన్ని": 773,
      "పాలిత": 774,
      "మైనది": 775,
      "వేగంగా": 776,
      "ణాసియా": 777,
      "భారతదేశంలోని": 778,
      "చెందిన": 779,
      "డ్డు": 780,
      "వ్యవస్థలో": 781,
      "కార్య": 782,
      "కరణ": 783,
      "పరంగా": 784,
      "పరిశ్ర": 785,
      "మేన": 786,
      "ప్రధానమంత్రి": 787,
      "స్థానంలో": 788,
      "రాజ్యాలు": 789,
      "వారస": 790,
      "సభ్య": 791,
      "ఆర్థిక": 792,
      "పూర్వ": 793,
      "రోడ్డు": 794,
      "ముఖ్యమైన": 795,
      "సాంప్రదాయ": 796,
      "జనగణ": 797,
      "బాద్": 798,
      "కేంద్రపాలిత": 799,
      "ప్రభుత్వం": 800,
      "పాకిస్తాన్": 801,
      "పాకిస్థాన్": 802,
      "area": 803,
      "దక్షిణాన": 804,
      "2004": 805,
      "పైగా": 806,
      "సంగీతం": 807,
      "సంస్కృతి": 808,
      "సినిమా": 809,
      "శాస్త్రం": 810,
      "list": 811,
      "total": 812,
      "ఆధార": 813,
      "మూడు": 814,
      "మాత్రం": 815,
      "స్వతంత్ర": 816,
      "స్వామ్య": 817,
      "సామ్రా": 818,
      "బెంగాలీ": 819,
      "బ్రిటి": 820,
      "ప్పటికీ": 821,
      "నడిపించ": 822,
      "స్వాతంత్ర్య": 823,
      "వృద్ధి": 824,
      "సర్వీ": 825,
      "అభివృద్ధి": 826,
      "language": 827,
      "ఆఫ్": 828,
      "పశ్చ": 829,
      "కుటుంబ": 830,
      "క్షరాస్యత": 831,
      "12": 832,
      "22": 833,
      "40": 834,
      "46": 835,
      "87": 836,
      "BN": 837,
      "IS": 838,
      "The": 839,
      "act": 840,
      "ch": 841,
      "ci": 842,
      "ff": 843,
      "gr": 844,
      "iv": 845,
      "ly": 846,
      "ng": 847,
      "ni": 848,
      "ri": 849,
      "ry": 850,
      "se": 851,
      "sti": 852,
      "tu": 853,
      "wi": 854,
      "ంభ": 855,
      "అహ": 856,
      "అవి": 857,
      "ఆక్రమ": 858,
      "ఆహార": 859,
      "ఇవి": 860,
      "ఇంగ్ల": 861,
      "ఇస్లా": 862,
      "ఉండ": 863,
      "కథ": 864,
      "కూ": 865,
      "కన్న": 866,
      "కత్వ": 867,
      "కింద": 868,
      "కీర్": 869,
      "చన": 870,
      "చు": 871,
      "చాల": 872,
      "చిత్ర": 873,
      "జీ": 874,
      "జాలు": 875,
      "జరు": 876,
      "జంబ": 877,
      "టే": 878,
      "టై": 879,
      "టర్": 880,
      "టులు": 881,
      "డిన": 882,
      "తల": 883,
      "తీ": 884,
      "తె": 885,
      "తే": 886,
      "తము": 887,
      "తులు": 888,
      "తంలో": 889,
      "తెలు": 890,
      "దర": 891,
      "నది": 892,
      "పీ": 893,
      "పార్": 894,
      "బి": 895,
      "బంగ్ల": 896,
      "బంధ": 897,
      "బడ్డ": 898,
      "భర": 899,
      "భౌ": 900,
      "మర": 901,
      "మూ": 902,
      "మౌ": 903,
      "మాత": 904,
      "మతి": 905,
      "మంది": 906,
      "మారు": 907,
      "యం": 908,
      "యింది": 909,
      "రీ": 910,
      "లీ": 911,
      "లె": 912,
      "లిం": 913,
      "ళ్": 914,
      "ళిక": 915,
      "వం": 916,
      "వులు": 917,
      "వల్ల": 918,
      "వలం": 919,
      "శెల": 920,
      "సహ": 921,
      "సే": 922,
      "స్ర": 923,
      "సులు": 924,
      "సైన": 925,
      "సార్": 926,
      "హై": 927,
      "హిమ": 928,
      "ాదేశ": 929,
      "ాంగ": 930,
      "ిగా": 931,
      "ుకొ": 932,
      "ూరు": 933,
      "ెట్": 934,
      "్వ": 935,
      "ారంభ": 936,
      "లోయ": 937,
      "్యా": 938,
      "ప్రారంభ": 939,
      "దేశపు": 940,
      "దేశానికి": 941,
      "ాలనే": 942,
      "ాలెండ": 943,
      "ికా": 944,
      "ర్త": 945,
      "ర్ష": 946,
      "ర్‌": 947,
      "న్నది": 948,
      "న్నారు": 949,
      "గాంధ": 950,
      "కులు": 951,
      "నిస్తాన్": 952,
      "విధ్య": 953,
      "విభిన్న": 954,
      "విద్య": 955,
      "ాతో": 956,
      "క్తి": 957,
      "దేశంగా": 958,
      "నులు": 959,
      "నుంచి": 960,
      "ద్వార": 961,
      "త్వా": 962,
      "త్తా": 963,
      "సంకీర్": 964,
      "సంబంధ": 965,
      "పురు": 966,
      "స్థి": 967,
      "ంటు": 968,
      "పాదన": 969,
      "వాహ": 970,
      "వాణి": 971,
      "జాతి": 972,
      "కూడుకు": 973,
      "రాజు": 974,
      "కోల్": 975,
      "ట్టమొదటి": 976,
      "1947": 977,
      "కాగా": 978,
      "కాశ్": 979,
      "నేపాల": 980,
      "మొట్టమొదటి": 981,
      "మాబాద్": 982,
      "లిచ": 983,
      "తరాలు": 984,
      "నాగర": 985,
      "గువ": 986,
      "గుర్త": 987,
      "వచ్చు": 988,
      "ద్ధం": 989,
      "పాలించ": 990,
      "ఒకే": 991,
      "చేసింది": 992,
      "్‌సై": 993,
      "offi": 994,
      "ఎన్నిక": 995,
      "పెనీ": 996,
      "కేవలం": 997,
      "కారణంగా": 998,
      "తుంది": 999,
      "దాపు": 1000,
      "దాదాపు": 1001,
      "హిందీ": 1002,
      "త్రి": 1003,
      "మతాలు": 1004,
      "స్థానం": 1005,
      "భాషా": 1006,
      "రాజ్యాంగ": 1007,
      "నాలుగు": 1008,
      "వర్గ": 1009,
      "వర్ణ": 1010,
      "దక్షిణాసియా": 1011,
      "వెనుక": 1012,
      "ప్రజల": 1013,
      "హిందూదేశం": 1014,
      "వీటిలో": 1015,
      "శ్రీ": 1016,
      "ష్ణ": 1017,
      "స్కృతిక": 1018,
      "సాంస్కృతిక": 1019,
      "ntry": 1020,
      "ఉంటుంది": 1021,
      "కలిసి": 1022,
      "బడత": 1023,
      "బడిన": 1024,
      "బడింది": 1025,
      "మహా": 1026,
      "ుకుంట": 1027,
      "క్రీడలు": 1028,
      "తరువాతి": 1029,
      "లేదా": 1030,
      "సాధించ": 1031,
      "ఉపఖండ": 1032,
      "క్యాలెండ": 1033,
      "ుకోవడ": 1034,
      "ప్రతిపాదన": 1035,
      "విస్తారు": 1036,
      "ిత్రక": 1037,
      "సినిమాలు": 1038,
      "శాస్త్రీయ": 1039,
      "ountry": 1040,
      "వైవిధ్య": 1041,
      "సమాఖ్య": 1042,
      "కోర్టు": 1043,
      "కోర్టులు": 1044,
      "పేర్లు": 1045,
      "పేర్కొ": 1046,
      "మొదలైన": 1047,
      "పట్టణాలు": 1048,
      "ఏర్పడ్డ": 1049,
      "బహుళ": 1050,
      "సింధు": 1051,
      "Consti": 1052,
      "కంపెనీ": 1053,
      "చారిత్రక": 1054,
      "తమిళం": 1055,
      "నగరాలు": 1056,
      "పతకాలు": 1057,
      "పొందిన": 1058,
      "పద్ధతి": 1059,
      "పండుగలు": 1060,
      "ఒకటిగా": 1061,
      "వెబ్‌సై": 1062,
      "ప్రజాస్వామ్య": 1063,
      "సముద్రం": 1064,
      "నిర్వహణ": 1065,
      "ile": 1066,
      "జన్మ": 1067,
      "ముంబై": 1068,
      "సంప్రదాయాలు": 1069,
      "వ్యాపార": 1070,
      "రైళ్లను": 1071,
      "కార్యక్రమ": 1072,
      "పరిశ్రమలు": 1073,
      "వారసత్వ": 1074,
      "సాంప్రదాయిక": 1075,
      "lists": 1076,
      "సర్వీసులు": 1077,
      "ఆఫ్ఘ": 1078,
      "ISBN": 1079,
      "cial": 1080,
      "ffer": 1081,
      "ఇస్లామాబాద్": 1082,
      "కన్నడ": 1083,
      "చాలా": 1084,
      "జరుపు": 1085,
      "జంబూ": 1086,
      "తెలుగు": 1087,
      "పీఠ": 1088,
      "బంగ్లాదేశ": 1089,
      "ళ్ళ": 1090,
      "శెలవు": 1091,
      "హిమాల": 1092,
      "గాంధీ": 1093,
      "ద్వారా": 1094,
      "త్వాన్ని": 1095,
      "వాణిజ్య": 1096,
      "కాశ్మీ": 1097,
      "నాగరికత": 1098,
      "official": 1099,
      "వెనుకటి": 1100,
      "క్యాలెండర్": 1101,
      "Constitu": 1102,
      "వెబ్‌సైటు": 1103,
      "\"(": 1104,
      "\",": 1105,
      "%,": 1106,
      "16": 1107,
      "1లో": 1108,
      "29": 1109,
      "287": 1110,
      "30": 1111,
      "56": 1112,
      "59": 1113,
      "60": 1114,
      "62": 1115,
      "7లో": 1116,
      "83": 1117,
      "8లో": 1118,
      "As": 1119,
      "CE": 1120,
      "Country": 1121,
      "EF": 1122,
      "ER": 1123,
      "Eth": 1124,
      "Eng": 1125,
      "Fact": 1126,
      "Hi": 1127,
      "Li": 1128,
      "Pr": 1129,
      "SI": 1130,
      "TER": 1131,
      "Uni": 1132,
      "_of": 1133,
      "bo": 1134,
      "br": 1135,
      "bly": 1136,
      "ev": 1137,
      "ex": 1138,
      "ect": 1139,
      "har": 1140,
      "ld": 1141,
      "lo": 1142,
      "lp": 1143,
      "land": 1144,
      "me": 1145,
      "mbly": 1146,
      "ok": 1147,
      "ow": 1148,
      "ror": 1149,
      "tar": 1150,
      "ter": 1151,
      "ted": 1152,
      "wh": 1153,
      "ంక": 1154,
      "అణ": 1155,
      "అవ": 1156,
      "అంత": 1157,
      "అంట": 1158,
      "అన్ని": 1159,
      "అప్ప": 1160,
      "అమె": 1161,
      "అక్షరాస్యత": 1162,
      "ఆసియా": 1163,
      "ఇదే": 1164,
      "ఇండ": 1165,
      "ఇక్క": 1166,
      "ఇటీ": 1167,
      "ఈశ": 1168,
      "ఈస్": 1169,
      "ఎడ": 1170,
      "ఎల": 1171,
      "ఏప్ర": 1172,
      "ఐరో": 1173,
      "ఐక్య": 1174,
      "ఒలం": 1175,
      "కీ": 1176,
      "కలు": 1177,
      "కిక": 1178,
      "కాత": 1179,
      "కను": 1180,
      "కనుక": 1181,
      "కంటే": 1182,
      "కబడ్డ": 1183,
      "ఖో": 1184,
      "ఖని": 1185,
      "గత": 1186,
      "గమ": 1187,
      "గ్ర": 1188,
      "గర్": 1189,
      "గంగ": 1190,
      "గమన": 1191,
      "గ్రా": 1192,
      "గెలు": 1193,
      "చద": 1194,
      "చయ": 1195,
      "చీ": 1196,
      "చూ": 1197,
      "చవి": 1198,
      "చూడ": 1199,
      "చించిన": 1200,
      "చుకోవడ": 1201,
      "జల": 1202,
      "జో": 1203,
      "జ్": 1204,
      "జిక": 1205,
      "జ్యం": 1206,
      "జమ్మ": 1207,
      "టక": 1208,
      "ట్ర": 1209,
      "టలు": 1210,
      "టన్": 1211,
      "టంలో": 1212,
      "ట్‌": 1213,
      "టాన్": 1214,
      "టోర": 1215,
      "డైన": 1216,
      "ఢా": 1217,
      "ణులు": 1218,
      "తర్": 1219,
      "తను": 1220,
      "తంగా": 1221,
      "తత్వ": 1222,
      "తక్కువ": 1223,
      "థాలు": 1224,
      "థ్యం": 1225,
      "దర్": 1226,
      "దగా": 1227,
      "దరా": 1228,
      "దండ": 1229,
      "దులు": 1230,
      "ధీన": 1231,
      "నం": 1232,
      "నూ": 1233,
      "నిక": 1234,
      "పలు": 1235,
      "పిక": 1236,
      "పవి": 1237,
      "ప్ల": 1238,
      "పల్ల": 1239,
      "పడు": 1240,
      "పర్వ": 1241,
      "పతా": 1242,
      "పక్క": 1243,
      "పడిన": 1244,
      "ఫల": 1245,
      "బు": 1246,
      "బౌ": 1247,
      "బంగ": 1248,
      "భవ": 1249,
      "భాతో": 1250,
      "భక్తి": 1251,
      "మ్": 1252,
      "మించ": 1253,
      "మిత": 1254,
      "మరో": 1255,
      "యాత్ర": 1256,
      "యమించ": 1257,
      "రకాలు": 1258,
      "రికా": 1259,
      "రచయ": 1260,
      "లౌ": 1261,
      "లకొ": 1262,
      "లమె": 1263,
      "లస్య": 1264,
      "ళా": 1265,
      "ళి": 1266,
      "విం": 1267,
      "వంత": 1268,
      "వరు": 1269,
      "వైన": 1270,
      "వార్": 1271,
      "వత్ర": 1272,
      "వనాలు": 1273,
      "వాయు": 1274,
      "శక": 1275,
      "శి": 1276,
      "శీ": 1277,
      "శై": 1278,
      "శో": 1279,
      "శకు": 1280,
      "షం": 1281,
      "షయాలు": 1282,
      "సన": 1283,
      "సీ": 1284,
      "సె": 1285,
      "సాల": 1286,
      "సిక్": 1287,
      "హో": 1288,
      "హ్ర": 1289,
      "ామ": 1290,
      "ాన్ని": 1291,
      "ాడే": 1292,
      "ిమాన": 1293,
      "ీం": 1294,
      "ీక్ష": 1295,
      "ీషు": 1296,
      "ుత్": 1297,
      "ుపూర్వ": 1298,
      "ూనది": 1299,
      "ోత్": 1300,
      "ౌర": 1301,
      "్మా": 1302,
      "‌సభ": 1303,
      "‌కాత": 1304,
      "ారి": 1305,
      "లుగా": 1306,
      "లోమీ": 1307,
      "స్వీ": 1308,
      "స్కరణ": 1309,
      "స్లిం": 1310,
      "దిన": 1311,
      "దేమాత": 1312,
      "ప్రదేశ": 1313,
      "ప్రాయ": 1314,
      "ప్రసి": 1315,
      "ప్రత్య": 1316,
      "ప్రయో": 1317,
      "ప్రీం": 1318,
      "దేశీ": 1319,
      "దేశాలు": 1320,
      "ాలే": 1321,
      "ర్తి": 1322,
      "ర్పు": 1323,
      "ర్జాతీయ": 1324,
      "ర్చు": 1325,
      "ర్థ్యం": 1326,
      "భారతం": 1327,
      "భారత్‌": 1328,
      "న్నీ": 1329,
      "న్నై": 1330,
      "గాన్ని": 1331,
      "నిపు": 1332,
      "నిడి": 1333,
      "నియమించ": 1334,
      "విలు": 1335,
      "విమాన": 1336,
      "విశ్": 1337,
      "విషయాలు": 1338,
      "విదేశీ": 1339,
      "ాతం": 1340,
      "ాతి": 1341,
      "ాత్మా": 1342,
      "క్టోర": 1343,
      "ానీ": 1344,
      "ాను": 1345,
      "ాన్య": 1346,
      "ములు": 1347,
      "ముడి": 1348,
      "ముస్లిం": 1349,
      "ండ్": 1350,
      "ినీ": 1351,
      "తిరు": 1352,
      "స్తులు": 1353,
      "స్తారు": 1354,
      "ందింది": 1355,
      "సంస్కరణ": 1356,
      "పుకో": 1357,
      "పుతూ": 1358,
      "స్థాయి": 1359,
      "స్థావర": 1360,
      "ంటి": 1361,
      "భావిస్తారు": 1362,
      "భాగాన్ని": 1363,
      "పావ": 1364,
      "పాంత": 1365,
      "పాడు": 1366,
      "వాదం": 1367,
      "సాహ": 1368,
      "సామా": 1369,
      "జాతులు": 1370,
      "కూడి": 1371,
      "కూడుకొ": 1372,
      "కోట్ల": 1373,
      "క్రి": 1374,
      "కాహార": 1375,
      "కాపాడు": 1376,
      "చ్చే": 1377,
      "నేరే": 1378,
      "మొగలు": 1379,
      "ంచిన": 1380,
      "దుగా": 1381,
      "మాట్ల": 1382,
      "యాళం": 1383,
      "నాథ": 1384,
      "గుబా": 1385,
      "వచ్చని": 1386,
      "differ": 1387,
      "వేద": 1388,
      "వేల": 1389,
      "help": 1390,
      "కాలే": 1391,
      "డిస్": 1392,
      "ద్రా": 1393,
      "ary": 1394,
      "శాసన": 1395,
      "దేశాలను": 1396,
      "ofile": 1397,
      "ఎన్నుకో": 1398,
      "ఎన్నుకుంట": 1399,
      "కిలోమీ": 1400,
      "చెప్": 1401,
      "చెంద": 1402,
      "చెందు": 1403,
      "చెన్నై": 1404,
      "వ్యవస్థకు": 1405,
      "కేతిక": 1406,
      "తులతో": 1407,
      "అధికారం": 1408,
      "త్యం": 1409,
      "పర్యాయ": 1410,
      "పరీక్ష": 1411,
      "పరిపాలన": 1412,
      "మీదగా": 1413,
      "వరీ": 1414,
      "సుప్రీం": 1415,
      "ప్రపంచములో": 1416,
      "స్థానాలను": 1417,
      "భాషలను": 1418,
      "ప్రాంతీయ": 1419,
      "ప్రాంతాల్లో": 1420,
      "రాజ్యంగా": 1421,
      "దాయంలో": 1422,
      "వారి": 1423,
      "వర్తి": 1424,
      "సభను": 1425,
      "orld": 1426,
      "జనాభాతో": 1427,
      "పూర్తి": 1428,
      "పోరా": 1429,
      "పోయింది": 1430,
      "మనదేశం": 1431,
      "మిస్తు": 1432,
      "రెండవ": 1433,
      "రెండో": 1434,
      "లంక": 1435,
      "లాహో": 1436,
      "వుతుంది": 1437,
      "వెల్ల": 1438,
      "ప్రజలు": 1439,
      "ప్రభుత్వాన్ని": 1440,
      "ముఖ్యంగా": 1441,
      "ern": 1442,
      "error": 1443,
      "గీతం": 1444,
      "స్త్రీలు": 1445,
      "సాంకేతిక": 1446,
      "gue": 1447,
      "అతిపెద్ద": 1448,
      "జనతా": 1449,
      "జనవరి": 1450,
      "జరిగే": 1451,
      "మహి": 1452,
      "మహాత్మా": 1453,
      "క్రీడా": 1454,
      "క్రీడలలో": 1455,
      "అయినా": 1456,
      "263": 1457,
      "269": 1458,
      "26న": 1459,
      "ess": 1460,
      "గోదా": 1461,
      "గోళిక": 1462,
      "గినది": 1463,
      "మానం": 1464,
      "లేదు": 1465,
      "ప్రస్తుతము": 1466,
      "క్కను": 1467,
      "సాధించిన": 1468,
      "కాంగ్రెస్": 1469,
      "ాబ్ది": 1470,
      "2003": 1471,
      "get": 1472,
      "ఉపయో": 1473,
      "గణతంత్ర": 1474,
      "భూభాగం": 1475,
      "భూటాన్": 1476,
      "యుగ": 1477,
      "రంగంలో": 1478,
      "వలన": 1479,
      "వలస": 1480,
      "ప్రతిపక్ష": 1481,
      "విస్తీర్": 1482,
      "ing": 1483,
      "lish": 1484,
      "నెలకొ": 1485,
      "మాత్రమే": 1486,
      "సమాజ": 1487,
      "స్వతం": 1488,
      "సామర్థ్యం": 1489,
      "ఉత్తరాన": 1490,
      "బ్రిటీ": 1491,
      "ప్పటికినీ": 1492,
      "సింధూనది": 1493,
      "సరిహద్దుగా": 1494,
      "సౌకర్యాలు": 1495,
      "సౌకర్యాలలో": 1496,
      "స్వాతంత్ర్యం": 1497,
      "Congr": 1498,
      "nolo": 1499,
      "కళలు": 1500,
      "చైనా": 1501,
      "చైనాను": 1502,
      "తూర్పు": 1503,
      "తమిళ": 1504,
      "రూపాంత": 1505,
      "సమరం": 1506,
      "సారస్వతం": 1507,
      "సంఖ్యా": 1508,
      "పుట్టుపూర్వ": 1509,
      "రైల్వేశాఖ": 1510,
      "పాలనలో": 1511,
      "ప్రపంచంలోని": 1512,
      "వెబ్": 1513,
      "ప్రజాదర": 1514,
      "సముద్రతీ": 1515,
      "నిర్వహించింది": 1516,
      "185": 1517,
      "CIA": 1518,
      "CITER": 1519,
      "ate": 1520,
      "చిరు": 1521,
      "నాయకత్వ": 1522,
      "పదవి": 1523,
      "మలయాళం": 1524,
      "సూచించిన": 1525,
      "హాకీ": 1526,
      "ిస్తారు": 1527,
      "లోక్‌సభ": 1528,
      "కులాలు": 1529,
      "కుంటూ": 1530,
      "కుంటారు": 1531,
      "నిర్మ": 1532,
      "ాయుత": 1533,
      "ద్వీప": 1534,
      "సంవత్సర": 1535,
      "మేనని": 1536,
      "రాజ్యాలుగా": 1537,
      "సభ్యు": 1538,
      "సభ్యులు": 1539,
      "జనగణన": 1540,
      "జనగణమన": 1541,
      "ఆధారపడిన": 1542,
      "సామ్రాజ్య": 1543,
      "సామ్రాజ్యం": 1544,
      "బ్రిటిష్": 1545,
      "బ్రిటిషు": 1546,
      "పశ్చిమ": 1547,
      "పశ్చిమాన": 1548,
      "461": 1549,
      "sembly": 1550,
      "wide": 1551,
      "ఆహారం": 1552,
      "ఇంగ్లీషు": 1553,
      "ఉండటం": 1554,
      "కిందకు": 1555,
      "టైటి": 1556,
      "టర్లకు": 1557,
      "పార్లమె": 1558,
      "భరత": 1559,
      "భౌగోళిక": 1560,
      "మూల": 1561,
      "మౌర్య": 1562,
      "వందేమాత": 1563,
      "సహస్ర": 1564,
      "సైనిక": 1565,
      "సార్వత్ర": 1566,
      "హైదరా": 1567,
      "ప్రారంభించ": 1568,
      "ర్షణ": 1569,
      "ర్‌ల": 1570,
      "విద్యుత్": 1571,
      "సంకీర్ణ": 1572,
      "పురుషు": 1573,
      "స్థితి": 1574,
      "కూడుకుని": 1575,
      "కోల్‌కాత": 1576,
      "నేపాల్": 1577,
      "పాలించారు": 1578,
      "ఎన్నికల్లో": 1579,
      "రాజ్యాంగం": 1580,
      "బడతారు": 1581,
      "మహాసముద్రం": 1582,
      "ప్రతిపాదనకు": 1583,
      "మొదలైనవి": 1584,
      "ఏర్పడ్డాయి": 1585,
      "కార్యక్రమాలు": 1586,
      "ఆఫ్ఘనిస్తాన్": 1587,
      "జరుపుకుంటారు": 1588,
      "పీఠభూ": 1589,
      "బంగ్లాదేశ్‌": 1590,
      "శెలవుదినాలు": 1591,
      "హిమాలయ": 1592,
      "Constituent": 1593,
      "Assembly": 1594,
      "CEE": 1595,
      "Ethnolo": 1596,
      "English": 1597,
      "Factbo": 1598,
      "Hindi": 1599,
      "Libr": 1600,
      "Profile": 1601,
      "_of_": 1602,
      "evan": 1603,
      "harv": 1604,
      "target": 1605,
      "అంతర్జాతీయ": 1606,
      "అమెరికా": 1607,
      "ఇండో": 1608,
      "ఈశాన్య": 1609,
      "ఈస్ట్": 1610,
      "ఎలక్టోర": 1611,
      "ఏప్రిల్": 1612,
      "ఐరోపా": 1613,
      "కనుమలు": 1614,
      "కబడ్డీ": 1615,
      "ఖనిజాలు": 1616,
      "గెలుచుకోవడ": 1617,
      "చూడండి": 1618,
      "జమ్మూ": 1619,
      "ట్రో": 1620,
      "ఢాకా": 1621,
      "తర్వాత": 1622,
      "పిక్‌": 1623,
      "పవిత్ర": 1624,
      "పక్కన": 1625,
      "బౌద్ధ": 1626,
      "బంగారు": 1627,
      "రచయిత": 1628,
      "లౌకిక": 1629,
      "ోత్తరాలు": 1630,
      "ప్రసిద్ధి": 1631,
      "భారత్‌లో": 1632,
      "నిపుణులు": 1633,
      "నిడివి": 1634,
      "తిరుగుబా": 1635,
      "స్థావరాలు": 1636,
      "సామాజిక": 1637,
      "కూడుకొని": 1638,
      "కాపాడుకుంటూ": 1639,
      "నేరేడు": 1640,
      "మాట్లాడే": 1641,
      "ఎన్నుకోబడతారు": 1642,
      "కిలోమీటర్లకు": 1643,
      "చెప్పుకో": 1644,
      "చెందాయి": 1645,
      "చెందుతున్న": 1646,
      "పర్యాయాలు": 1647,
      "పూర్తిగా": 1648,
      "ఉపయోగి": 1649,
      "Congress": 1650,
      "పుట్టుపూర్వోత్తరాలు": 1651,
      "ప్రజాదరణ": 1652,
      "CITEREF": 1653,
      "సూచించినట్లు": 1654,
      "వందేమాతరం": 1655,
      "సహస్రాబ్ది": 1656,
      "సార్వత్రిక": 1657,
      "కోల్‌కాతా": 1658,
      "Ethnologue": 1659,
      "Factbook": 1660,
      "Library": 1661,
      "ఎలక్టోరల్": 1662,
      "గెలుచుకోవడం": 1663,
      "తిరుగుబాటు": 1664,
      "\".": 1665,
      "%)": 1666,
      "%.": 1667,
      "%).": 1668,
      "):": 1669,
      ");": 1670,
      ".).": 1671,
      "01": 1672,
      "04": 1673,
      "05": 1674,
      "07": 1675,
      "060": 1676,
      "11": 1677,
      "15": 1678,
      "100": 1679,
      "1000": 1680,
      "21": 1681,
      "25": 1682,
      "219": 1683,
      "220": 1684,
      "32": 1685,
      "36": 1686,
      "4లో": 1687,
      "447": 1688,
      "422": 1689,
      "48లో": 1690,
      "421": 1691,
      "52": 1692,
      "500": 1693,
      "517": 1694,
      "546": 1695,
      "65": 1696,
      "70": 1697,
      "72": 1698,
      "73": 1699,
      "75": 1700,
      "700": 1701,
      "7000": 1702,
      "740": 1703,
      "80": 1704,
      "81": 1705,
      "82": 1706,
      "93": 1707,
      "900": 1708,
      "912": 1709,
      "960": 1710,
      "973": 1711,
      "AL": 1712,
      "Ac": 1713,
      "Ar": 1714,
      "BB": 1715,
      "BS": 1716,
      "Ch": 1717,
      "Di": 1718,
      "Date": 1719,
      "Devan": 1720,
      "HZ": 1721,
      "II": 1722,
      "IN": 1723,
      "Int": 1724,
      "Langua": 1725,
      "Ma": 1726,
      "Nation": 1727,
      "Par": 1728,
      "PAL": 1729,
      "PIN": 1730,
      "Se": 1731,
      "St": 1732,
      "Ty": 1733,
      "VII": 1734,
      "Wa": 1735,
      "World": 1736,
      "XVII": 1737,
      "_Assembly": 1738,
      "ac": 1739,
      "ad": 1740,
      "ag": 1741,
      "au": 1742,
      "av": 1743,
      "be": 1744,
      "bj": 1745,
      "by": 1746,
      "bor": 1747,
      "bas": 1748,
      "bate": 1749,
      "bac": 1750,
      "can": 1751,
      "cor": 1752,
      "ces": 1753,
      "ced": 1754,
      "cri": 1755,
      "country": 1756,
      "cau": 1757,
      "du": 1758,
      "der": 1759,
      "ep": 1760,
      "for": 1761,
      "fin": 1762,
      "go": 1763,
      "gan": 1764,
      "ges": 1765,
      "giv": 1766,
      "how": 1767,
      "hav": 1768,
      "ir": 1769,
      "iz": 1770,
      "ies": 1771,
      "ich": 1772,
      "liv": 1773,
      "ms": 1774,
      "mar": 1775,
      "ment": 1776,
      "nct": 1777,
      "othe": 1778,
      "ome": 1779,
      "odu": 1780,
      "pe": 1781,
      "pr": 1782,
      "pt": 1783,
      "pu": 1784,
      "ped": 1785,
      "pri": 1786,
      "ris": 1787,
      "res": 1788,
      "rces": 1789,
      "rep": 1790,
      "su": 1791,
      "sou": 1792,
      "scri": 1793,
      "siz": 1794,
      "some": 1795,
      "spu": 1796,
      "ton": 1797,
      "tor": 1798,
      "tation": 1799,
      "uni": 1800,
      "vern": 1801,
      "world": 1802,
      "ybac": 1803,
      "ంజ": 1804,
      "ంతి": 1805,
      "ంకా": 1806,
      "ంకాగా": 1807,
      "ంథాలు": 1808,
      "అర": 1809,
      "అల": 1810,
      "అస్": 1811,
      "అది": 1812,
      "అన్న": 1813,
      "అల్": 1814,
      "అంది": 1815,
      "అరు": 1816,
      "అక్ష": 1817,
      "అవర": 1818,
      "అద్ద": 1819,
      "అలం": 1820,
      "అధి": 1821,
      "అంద": 1822,
      "అఖండ": 1823,
      "అమల": 1824,
      "అరే": 1825,
      "అంటే": 1826,
      "అంక": 1827,
      "అధీన": 1828,
      "అశో": 1829,
      "ఆగ": 1830,
      "ఆలో": 1831,
      "ఆవి": 1832,
      "ఆతి": 1833,
      "ఆక్ర": 1834,
      "ఆయా": 1835,
      "ఆనా": 1836,
      "ఆడు": 1837,
      "ఆధ్య": 1838,
      "ఆదాయ": 1839,
      "ఆగ్": 1840,
      "ఆవల": 1841,
      "ఆంగ్ల": 1842,
      "ఆణి": 1843,
      "ఆచార": 1844,
      "ఆర్య": 1845,
      "ఆక్షరాస్యత": 1846,
      "ఆటలు": 1847,
      "ఆనం": 1848,
      "ఆలస్య": 1849,
      "ఆదేశాలు": 1850,
      "ఇయ": 1851,
      "ఇన్": 1852,
      "ఇను": 1853,
      "ఇము": 1854,
      "ఇతి": 1855,
      "ఇస్త": 1856,
      "ఇంది": 1857,
      "ఇతరు": 1858,
      "ఇందు": 1859,
      "ఇప్పటికీ": 1860,
      "ఇతను": 1861,
      "ఇంటి": 1862,
      "ఇచ్చే": 1863,
      "ఇంకా": 1864,
      "ఉర్": 1865,
      "ఉద్": 1866,
      "ఉపా": 1867,
      "ఉండి": 1868,
      "ఉదా": 1869,
      "ఉండు": 1870,
      "ఉష్ణ": 1871,
      "ఉనిక": 1872,
      "ఋతు": 1873,
      "ఎమ": 1874,
      "ఎదు": 1875,
      "ఎగు": 1876,
      "ఎల్ల": 1877,
      "ఎంతో": 1878,
      "ఎగువ": 1879,
      "ఏక": 1880,
      "ఏడ": 1881,
      "ఏడు": 1882,
      "ఏటా": 1883,
      "ఏకత్వ": 1884,
      "ఏళ్ళ": 1885,
      "ఐదు": 1886,
      "ఒక్": 1887,
      "ఒరి": 1888,
      "ఒలిం": 1889,
      "ఒడిస్": 1890,
      "ఓడ": 1891,
      "ఓటర్": 1892,
      "ఔట్‌": 1893,
      "కిం": 1894,
      "కర్": 1895,
      "కని": 1896,
      "కాయ": 1897,
      "కరా": 1898,
      "కము": 1899,
      "కంట": 1900,
      "కార్": 1901,
      "కిత": 1902,
      "కష్ట": 1903,
      "కట్ట": 1904,
      "కమైన": 1905,
      "కమీ": 1906,
      "క్యం": 1907,
      "కమల": 1908,
      "కమేన": 1909,
      "కెట్": 1910,
      "కర్‌": 1911,
      "కత్తా": 1912,
      "కానీ": 1913,
      "కవరీ": 1914,
      "ఖిక": 1915,
      "ఖగో": 1916,
      "ఖర్చు": 1917,
      "ఖాతం": 1918,
      "గృ": 1919,
      "గె": 1920,
      "గించ": 1921,
      "గతి": 1922,
      "గల్": 1923,
      "గులు": 1924,
      "గింది": 1925,
      "గలి": 1926,
      "గిన్న": 1927,
      "గనులు": 1928,
      "గౌర": 1929,
      "ఘన": 1930,
      "ఘు": 1931,
      "ఘిక": 1932,
      "ఘట్ట": 1933,
      "ఘోర": 1934,
      "ఘర్షణ": 1935,
      "చా": 1936,
      "చో": 1937,
      "చ్": 1938,
      "చర్": 1939,
      "చము": 1940,
      "చిన": 1941,
      "చులు": 1942,
      "చింది": 1943,
      "చిత": 1944,
      "చక్ర": 1945,
      "చట్ట": 1946,
      "ఛాయుత": 1947,
      "జా": 1948,
      "జె": 1949,
      "జై": 1950,
      "జౌ": 1951,
      "జ్ర": 1952,
      "జాన": 1953,
      "జిన": 1954,
      "జంత": 1955,
      "జైన": 1956,
      "జపా": 1957,
      "జిత": 1958,
      "జ్‌": 1959,
      "జెండ": 1960,
      "జనాలు": 1961,
      "జిల్ల": 1962,
      "జవహ": 1963,
      "జెట్": 1964,
      "ఞాన": 1965,
      "టన": 1966,
      "టో": 1967,
      "టస్": 1968,
      "టండ": 1969,
      "టిన": 1970,
      "టాయి": 1971,
      "టచే": 1972,
      "ట్యం": 1973,
      "ట్రా": 1974,
      "టంతో": 1975,
      "టమూ": 1976,
      "ఠీ": 1977,
      "డ్ర": 1978,
      "డ్య": 1979,
      "డాల": 1980,
      "డాలు": 1981,
      "డింది": 1982,
      "డ్చ": 1983,
      "డ్ల": 1984,
      "డ్‌": 1985,
      "డానికి": 1986,
      "డించింది": 1987,
      "డబు": 1988,
      "డమ్": 1989,
      "ఢవి": 1990,
      "ణే": 1991,
      "ణిక": 1992,
      "ణాలు": 1993,
      "ణించ": 1994,
      "ణంతో": 1995,
      "ణదారులు": 1996,
      "ణుల": 1997,
      "తార": 1998,
      "తాయ": 1999,
      "తాన": 2000,
      "తరా": 2001,
      "తాయి": 2002,
      "తదు": 2003,
      "తక్కు": 2004,
      "తలం": 2005,
      "తగ్": 2006,
      "తమై": 2007,
      "తమ్య": 2008,
      "తాలతో": 2009,
      "తదేశపు": 2010,
      "థన": 2011,
      "థమ": 2012,
      "థి": 2013,
      "థాత": 2014,
      "థాన": 2015,
      "థార్": 2016,
      "దశ": 2017,
      "దస": 2018,
      "దూ": 2019,
      "దృ": 2020,
      "దాన": 2021,
      "దీయ": 2022,
      "దైన": 2023,
      "దారు": 2024,
      "దాబ": 2025,
      "దీన": 2026,
      "దగ్": 2027,
      "దీర్": 2028,
      "దగినది": 2029,
      "దక్కను": 2030,
      "ధం": 2031,
      "ధర": 2032,
      "ధు": 2033,
      "ధాల": 2034,
      "ధిన": 2035,
      "ధరి": 2036,
      "ధనా": 2037,
      "ధిల్ల": 2038,
      "నృ": 2039,
      "నై": 2040,
      "నో": 2041,
      "నలు": 2042,
      "న్య": 2043,
      "నాల": 2044,
      "నర్": 2045,
      "నవి": 2046,
      "నంలో": 2047,
      "నసా": 2048,
      "నికి": 2049,
      "నడు": 2050,
      "ననీ": 2051,
      "నాలతో": 2052,
      "నవచ్చు": 2053,
      "నబడిన": 2054,
      "నదులు": 2055,
      "నప్పటికినీ": 2056,
      "పక": 2057,
      "పబ": 2058,
      "పి": 2059,
      "పస్": 2060,
      "పది": 2061,
      "పిన": 2062,
      "పింది": 2063,
      "పంలో": 2064,
      "పూడ": 2065,
      "పిత": 2066,
      "పరాజ": 2067,
      "పచ్చ": 2068,
      "పలి": 2069,
      "పట్": 2070,
      "పించింది": 2071,
      "పకళ": 2072,
      "పటం": 2073,
      "పించే": 2074,
      "పిక్": 2075,
      "పస్ర": 2076,
      "పర్ష": 2077,
      "పబడింది": 2078,
      "పటంలో": 2079,
      "పవనాలు": 2080,
      "పౌర": 2081,
      "పండ్": 2082,
      "పత్యం": 2083,
      "ఫు": 2084,
      "ఫ్ర": 2085,
      "ఫర్": 2086,
      "ఫరా": 2087,
      "ఫ్ట": 2088,
      "ఫలం": 2089,
      "ఫిక్": 2090,
      "బల": 2091,
      "బై": 2092,
      "బొ": 2093,
      "బాల": 2094,
      "బండ": 2095,
      "బంగా": 2096,
      "బడ్": 2097,
      "బిన్న": 2098,
      "బాబ్": 2099,
      "బ్యా": 2100,
      "బద్ధం": 2101,
      "భ్య": 2102,
      "భిం": 2103,
      "భంగ": 2104,
      "భదాయ": 2105,
      "భజిత": 2106,
      "మయ": 2107,
      "మో": 2108,
      "మార": 2109,
      "మస్": 2110,
      "మిం": 2111,
      "మాల": 2112,
      "మాయ": 2113,
      "మరా": 2114,
      "మిన": 2115,
      "మంత": 2116,
      "మంలో": 2117,
      "మలి": 2118,
      "మతం": 2119,
      "మికి": 2120,
      "మ్‌": 2121,
      "మాల్": 2122,
      "మిత్ర": 2123,
      "మణి": 2124,
      "మంచి": 2125,
      "మసాల": 2126,
      "మద్రా": 2127,
      "మంజ": 2128,
      "యి": 2129,
      "యూ": 2130,
      "యస్": 2131,
      "యము": 2132,
      "యిన": 2133,
      "యులు": 2134,
      "యంలో": 2135,
      "యంతో": 2136,
      "యనులు": 2137,
      "యథాత": 2138,
      "రొ": 2139,
      "ర‌": 2140,
      "రలో": 2141,
      "రాలు": 2142,
      "రకు": 2143,
      "రాయ": 2144,
      "రము": 2145,
      "రద్": 2146,
      "రత్": 2147,
      "రంగా": 2148,
      "రక్ష": 2149,
      "రమైన": 2150,
      "రవే": 2151,
      "రమే": 2152,
      "రించిన": 2153,
      "రవీ": 2154,
      "రక్షరాస్యత": 2155,
      "రారి": 2156,
      "రాతి": 2157,
      "రతాయ": 2158,
      "రబద్ధం": 2159,
      "లిక": 2160,
      "లిన": 2161,
      "లైన": 2162,
      "లకాల": 2163,
      "లబె": 2164,
      "లపై": 2165,
      "లహా": 2166,
      "లమానం": 2167,
      "లఘు": 2168,
      "లబై": 2169,
      "లభ్య": 2170,
      "ళల": 2171,
      "ళు": 2172,
      "ళులు": 2173,
      "ళూరు": 2174,
      "ళవిం": 2175,
      "వత": 2176,
      "వూ": 2177,
      "వ‌": 2178,
      "వలి": 2179,
      "వస్తు": 2180,
      "వద్ద": 2181,
      "వమి": 2182,
      "వలను": 2183,
      "వస్థానంలో": 2184,
      "వనాథ": 2185,
      "వజ్ర": 2186,
      "వన్య": 2187,
      "శే": 2188,
      "శాల": 2189,
      "శక్": 2190,
      "శంలో": 2191,
      "శించే": 2192,
      "శిల్": 2193,
      "శక్తి": 2194,
      "శాతం": 2195,
      "శరద్": 2196,
      "షే": 2197,
      "షన్": 2198,
      "షాలు": 2199,
      "షులు": 2200,
      "షకాహార": 2201,
      "సొ": 2202,
      "సాలు": 2203,
      "సగా": 2204,
      "సాయ": 2205,
      "సిన": 2206,
      "సల్": 2207,
      "సభా": 2208,
      "సవా": 2209,
      "సత్య": 2210,
      "సమి": 2211,
      "సమాన": 2212,
      "సరం": 2213,
      "సీలు": 2214,
      "సత్తా": 2215,
      "సాయుత": 2216,
      "సలహా": 2217,
      "హె": 2218,
      "హొ": 2219,
      "హ్": 2220,
      "హిం": 2221,
      "హర్": 2222,
      "హాలు": 2223,
      "హాయ": 2224,
      "హస్త": 2225,
      "హపు": 2226,
      "హక్కు": 2227,
      "హ్మ": 2228,
      "హ్వ": 2229,
      "ాలో": 2230,
      "ాము": 2231,
      "ాదు": 2232,
      "ాంబ": 2233,
      "ాశ్ర": 2234,
      "ాలోయ": 2235,
      "ానిస్తాన్": 2236,
      "ాదాయంలో": 2237,
      "ాంతి": 2238,
      "ాడ్‌": 2239,
      "ాధిన": 2240,
      "ాపక": 2241,
      "ిని": 2242,
      "ిచె": 2243,
      "ిశ్ర": 2244,
      "ిలే": 2245,
      "ిరంగ": 2246,
      "ిద్ధి": 2247,
      "ిళ్ళ": 2248,
      "ిటన్": 2249,
      "ియనులు": 2250,
      "ీకృ": 2251,
      "ీకరణ": 2252,
      "ీకులు": 2253,
      "ుని": 2254,
      "ును": 2255,
      "ుల్": 2256,
      "ువు": 2257,
      "ుర్య": 2258,
      "ుడైన": 2259,
      "ునిక": 2260,
      "ుళూరు": 2261,
      "ూలా": 2262,
      "ూపం": 2263,
      "ృతంగా": 2264,
      "ెస్": 2265,
      "ెర్": 2266,
      "ెన్న": 2267,
      "ెనే": 2268,
      "ెడ్": 2269,
      "ెల్లో": 2270,
      "ెక్కను": 2271,
      "ేత": 2272,
      "ేష్": 2273,
      "ేకమైన": 2274,
      "ేననీ": 2275,
      "ేయులు": 2276,
      "ైక": 2277,
      "ైస్త": 2278,
      "ైపో": 2279,
      "ైవరు": 2280,
      "ోంది": 2281,
      "ోక్ష": 2282,
      "ోద్య": 2283,
      "ోత్రి": 2284,
      "ోధాల": 2285,
      "్లో": 2286,
      "్తదేశపు": 2287,
      "‌కు": 2288,
      "‌టిక": 2289,
      "‌తంలో": 2290,
      "‌ఫర్": 2291,
      "‌వ‌": 2292,
      "్రిచె": 2293,
      "ారణంగా": 2294,
      "ారమ్‌": 2295,
      "లుపలి": 2296,
      "లోన్": 2297,
      "లోని": 2298,
      "లోను": 2299,
      "లోకాల": 2300,
      "లోపం": 2301,
      "స్లో": 2302,
      "స్వే": 2303,
      "స్వర": 2304,
      "స్లే": 2305,
      "స్టా": 2306,
      "స్టే": 2307,
      "స్వర్ణ": 2308,
      "స్టలు": 2309,
      "్యులు": 2310,
      "్యంలో": 2311,
      "న్మార్": 2312,
      "న్సీ": 2313,
      "న్లుగా": 2314,
      "దిర్": 2315,
      "దిరి": 2316,
      "దికి": 2317,
      "దిగ్": 2318,
      "దిభాగం": 2319,
      "దిగువ": 2320,
      "ప్రార్": 2321,
      "ప్రమా": 2322,
      "ప్రయా": 2323,
      "ప్రఖ్య": 2324,
      "ప్రణా": 2325,
      "ప్రదేశాల": 2326,
      "ప్రగతి": 2327,
      "ప్రథమ": 2328,
      "ింపు": 2329,
      "ింసాయుత": 2330,
      "దేశిక": 2331,
      "దేశము": 2332,
      "దేశరాజకీయ": 2333,
      "దేశాన్ని": 2334,
      "దేశమంత": 2335,
      "దేశాధిన": 2336,
      "ాలని": 2337,
      "ాలన్నీ": 2338,
      "ాలెక్కను": 2339,
      "ికం": 2340,
      "ికలు": 2341,
      "ికులు": 2342,
      "ికూడ": 2343,
      "ర్లు": 2344,
      "ర్టి": 2345,
      "ర్కొ": 2346,
      "ర్తా": 2347,
      "ర్సిం": 2348,
      "ర్జాలు": 2349,
      "ర్భవ": 2350,
      "ర్జె": 2351,
      "భార్తదేశపు": 2352,
      "భార‌తంలో": 2353,
      "భారతంలో": 2354,
      "ాలున్నాయి": 2355,
      "న్నత": 2356,
      "న్నా": 2357,
      "గాంచిన": 2358,
      "గాయి": 2359,
      "కుండ": 2360,
      "కునే": 2361,
      "కుడు": 2362,
      "కుడి": 2363,
      "కుమార్": 2364,
      "కులం": 2365,
      "కులను": 2366,
      "కుమారు": 2367,
      "కుడ్య": 2368,
      "కుదిర్": 2369,
      "కుర్తా": 2370,
      "నివి": 2371,
      "నివా": 2372,
      "నిచ్చ": 2373,
      "నియా": 2374,
      "నివార": 2375,
      "నియో": 2376,
      "నిధి": 2377,
      "నివల్ల": 2378,
      "నిలిచ": 2379,
      "నిరక్షరాస్యత": 2380,
      "నిలబె": 2381,
      "నిషే": 2382,
      "విడ": 2383,
      "విడి": 2384,
      "విధాన": 2385,
      "విస్తు": 2386,
      "వివర": 2387,
      "విశాఖ": 2388,
      "విజన్": 2389,
      "వినాయ": 2390,
      "వితంలో": 2391,
      "విజ్": 2392,
      "విఫల": 2393,
      "విశి": 2394,
      "వివాదం": 2395,
      "విభజిత": 2396,
      "విశే": 2397,
      "విసభా": 2398,
      "ాత్మ": 2399,
      "ాయతి": 2400,
      "ాయకార": 2401,
      "ాయీలు": 2402,
      "క్త": 2403,
      "క్నాల": 2404,
      "క్‌టిక": 2405,
      "ానెట్": 2406,
      "రామన": 2407,
      "రాణించ": 2408,
      "రామాయ": 2409,
      "రాసిన": 2410,
      "నున్న": 2411,
      "ముద్ర": 2412,
      "ములకు": 2413,
      "ముందు": 2414,
      "ముత్యం": 2415,
      "ండర్": 2416,
      "ండమస్": 2417,
      "ండ్యులు": 2418,
      "ద్వై": 2419,
      "ద్దిభాగం": 2420,
      "ద్విసభా": 2421,
      "త్త": 2422,
      "త్తల": 2423,
      "ించుకు": 2424,
      "ించవచ్చు": 2425,
      "ించబడింది": 2426,
      "ించుకోవడ": 2427,
      "తిరి": 2428,
      "ల్స్": 2429,
      "ల్తాన": 2430,
      "స్తూ": 2431,
      "స్తాయి": 2432,
      "స్తానీ": 2433,
      "ంతల": 2434,
      "ంతై": 2435,
      "రిట్ల": 2436,
      "రిట్లు": 2437,
      "సంస్థ": 2438,
      "సంక్ర": 2439,
      "సంధి": 2440,
      "సంగమ": 2441,
      "సందర్": 2442,
      "రుగా": 2443,
      "రుష్": 2444,
      "రుచులు": 2445,
      "పురి": 2446,
      "పులి": 2447,
      "పుతో": 2448,
      "పుత్ర": 2449,
      "పులా": 2450,
      "పుష్": 2451,
      "పునర్": 2452,
      "స్థ‌": 2453,
      "స్థాపక": 2454,
      "స్థూలా": 2455,
      "ంటో": 2456,
      "ంటుంది": 2457,
      "ంటరీ": 2458,
      "భాజపా": 2459,
      "భావిస్తు": 2460,
      "ైనెర్": 2461,
      "ంగల": 2462,
      "పాద": 2463,
      "పాక్ష": 2464,
      "పాండి": 2465,
      "పాండ్యులు": 2466,
      "వాద": 2467,
      "వాటి": 2468,
      "వాదన": 2469,
      "వాటిలో": 2470,
      "వామిత్ర": 2471,
      "సామీ": 2472,
      "సాకర్‌": 2473,
      "సాఫ్ట": 2474,
      "సానియా": 2475,
      "క్షం": 2476,
      "క్షంగా": 2477,
      "ఉన్నట్లు": 2478,
      "ఉన్నతంగా": 2479,
      "ార్థాలు": 2480,
      "ార్క్‌టిక": 2481,
      "ితం": 2482,
      "ితే": 2483,
      "ితంగా": 2484,
      "ిత్యం": 2485,
      "ష్టి": 2486,
      "ష్టు": 2487,
      "ష్టమైన": 2488,
      "ష్ట్యా": 2489,
      "ప్రాముఖ్య": 2490,
      "ప్రాసె": 2491,
      "ప్రాజా": 2492,
      "ప్రాణుల": 2493,
      "ప్రాబల": 2494,
      "ప్రాదేశిక": 2495,
      "రాజధాన": 2496,
      "కోసం": 2497,
      "కోటి": 2498,
      "కోడు": 2499,
      "కోవార": 2500,
      "కోవడ": 2501,
      "క్రైస్త": 2502,
      "ట్టు": 2503,
      "ట్టూ": 2504,
      "ట్టారు": 2505,
      "ట్టుకు": 2506,
      "ట్టెల": 2507,
      "190": 2508,
      "1956": 2509,
      "1962": 2510,
      "1948లో": 2511,
      "1965": 2512,
      "కావడ": 2513,
      "కాకుండ": 2514,
      "నేయ": 2515,
      "నేసియా": 2516,
      "నేరుగా": 2517,
      "పేస్": 2518,
      "పేదర": 2519,
      "ంచే": 2520,
      "దువు": 2521,
      "దుస్తులు": 2522,
      "మామి": 2523,
      "మాదిరి": 2524,
      "మాండమస్": 2525,
      "యావత్": 2526,
      "యాండర్": 2527,
      "లిసింది": 2528,
      "లిథిక": 2529,
      "లియం": 2530,
      "లివిజన్": 2531,
      "లియాండర్": 2532,
      "వ్యయంతో": 2533,
      "వ్య‌వ‌": 2534,
      "భారతీయులు": 2535,
      "భారతీయుల": 2536,
      "భారతీయుడైన": 2537,
      "తరించింది": 2538,
      "తరతరాలు": 2539,
      "నాటి": 2540,
      "నాడు": 2541,
      "నామాలు": 2542,
      "నాట్యం": 2543,
      "సిద్ధ": 2544,
      "సిగ్": 2545,
      "సిద్ధం": 2546,
      "్లను": 2547,
      "త్వం": 2548,
      "త్వాలు": 2549,
      "త్వంలో": 2550,
      "త్వరలో": 2551,
      "జాతీయవాదం": 2552,
      "జాతీయగీతం": 2553,
      "జాతీయాదాయంలో": 2554,
      "తోంది": 2555,
      "తోష్ణ": 2556,
      "రాష్ట్రపు": 2557,
      "రాష్ట్రానికి": 2558,
      "రాష్ట్రపత": 2559,
      "గుప్": 2560,
      "గుత్తా": 2561,
      "గుతాయి": 2562,
      "గునవి": 2563,
      "గుతోంది": 2564,
      "వచ్చి": 2565,
      "భారతదేశము": 2566,
      "భారతదేశమే": 2567,
      "ద్ధాలు": 2568,
      "ద్ధలతో": 2569,
      "ల్లీ": 2570,
      "ల్లింది": 2571,
      "ల్లాయి": 2572,
      "ల్లయిన": 2573,
      "dial": 2574,
      "dition": 2575,
      "ding": 2576,
      "dispu": 2577,
      "ong": 2578,
      "కొక్క": 2579,
      "కొంక": 2580,
      "కొనసా": 2581,
      "కొలమానం": 2582,
      "కొద్దిభాగం": 2583,
      "కొత్త": 2584,
      "డుంబ": 2585,
      "పాలయింది": 2586,
      "పాలకులు": 2587,
      "పాలిటన్": 2588,
      "పాలకులను": 2589,
      "మైనదే": 2590,
      "మైనవి": 2591,
      "వేర్": 2592,
      "వేత్తల": 2593,
      "ఒకటో": 2594,
      "కాలపరి": 2595,
      "కాలాల్లో": 2596,
      "డిగించ": 2597,
      "ణాన్ని": 2598,
      "ణాటక": 2599,
      "ణాదికి": 2600,
      "మార్కెట్": 2601,
      "ari": 2602,
      "చేత": 2603,
      "చేర": 2604,
      "చేసు": 2605,
      "చేసే": 2606,
      "టువంటి": 2607,
      "శాశ్": 2608,
      "శాకాహార": 2609,
      "్‌వేర్": 2610,
      "దేశాలకు": 2611,
      "దేశాలతో": 2612,
      "దేశాలకూ": 2613,
      "దేశాల్లో": 2614,
      "వ్యవహార": 2615,
      "వ్యవసాయ": 2616,
      "ఎన్నుకొ": 2617,
      "కిమీ": 2618,
      "పారిశ్ర": 2619,
      "పంచె": 2620,
      "పంచుకుంట": 2621,
      "పంచాయతి": 2622,
      "ాబుని": 2623,
      "ాన్స్": 2624,
      "న్నిస్లో": 2625,
      "చెంది": 2626,
      "చెందింది": 2627,
      "డ్స్": 2628,
      "డ్మిం": 2629,
      "పెట్రో": 2630,
      "పెట్టారు": 2631,
      "మార్గం": 2632,
      "మార్గము": 2633,
      "మార్గంలో": 2634,
      "మార్గాలలో": 2635,
      "మార్గాలను": 2636,
      "మార్గాలే": 2637,
      "వ్యవస్థల": 2638,
      "వ్యవస్థగా": 2639,
      "వ్యవస్థీకరణ": 2640,
      "ంబే": 2641,
      "కృష్": 2642,
      "కృష్ణ": 2643,
      "కృష్టమైన": 2644,
      "తుడు": 2645,
      "తులకాల": 2646,
      "తురుష్": 2647,
      "దాటే": 2648,
      "దాటిన": 2649,
      "స్తుంది": 2650,
      "స్తున్నారు": 2651,
      "పేరుతో": 2652,
      "పేరుమీ": 2653,
      "అధికారక": 2654,
      "అధికారి": 2655,
      "అధికారాలు": 2656,
      "అధికారంలో": 2657,
      "అధికారాన్ని": 2658,
      "their": 2659,
      "కరించింది": 2660,
      "కరమేనని": 2661,
      "కరంతై": 2662,
      "ట్కా": 2663,
      "దక్షణాసియా": 2664,
      "పరమైన": 2665,
      "పర్యా": 2666,
      "పరచింది": 2667,
      "పరమో": 2668,
      "పరోక్ష": 2669,
      "పరిధి": 2670,
      "పరిపాలించ": 2671,
      "పరిశో": 2672,
      "పరిస్థితి": 2673,
      "పరిఢవి": 2674,
      "మతాల": 2675,
      "మతాలతో": 2676,
      "మతాలకు": 2677,
      "మతములు": 2678,
      "మతస్తులు": 2679,
      "మతములకు": 2680,
      "మీర్జాలు": 2681,
      "మేరో": 2682,
      "మేరకు": 2683,
      "మేళవిం": 2684,
      "మేషన్": 2685,
      "మధ్యల": 2686,
      "మధ్యకాలంలో": 2687,
      "మధ్యవర్తి": 2688,
      "వరకూ": 2689,
      "సును": 2690,
      "సుమారు": 2691,
      "సుదీర్": 2692,
      "సుల్తాన": 2693,
      "ప్రపంచదేశాలలో": 2694,
      "ప్రధానమంత్ర": 2695,
      "ద్దులు": 2696,
      "స్థానే": 2697,
      "స్థానిక": 2698,
      "స్థానాలు": 2699,
      "స్థానమైన": 2700,
      "భాషలలో": 2701,
      "భాషలతో": 2702,
      "ప్రాంతాల": 2703,
      "ప్రాంతాలతో": 2704,
      "ప్రాంతాలకు": 2705,
      "రాజ్యాలను": 2706,
      "రాజ్యసమి": 2707,
      "tian": 2708,
      "time": 2709,
      "tinct": 2710,
      "వారిగా": 2711,
      "వర్గీ": 2712,
      "వర్షం": 2713,
      "వర్ధిల్ల": 2714,
      "వర్షాలు": 2715,
      "పార్టీల": 2716,
      "పార్టీలు": 2717,
      "పార్టీగా": 2718,
      "పార్టీకి": 2719,
      "పార్టీలతో": 2720,
      "దక్షిణాదికి": 2721,
      "Indian": 2722,
      "along": 2723,
      "ort": 2724,
      "organ": 2725,
      "అయింది": 2726,
      "అయితే": 2727,
      "గిపోయింది": 2728,
      "గిలిన": 2729,
      "గిల్లీ": 2730,
      "పూణే": 2731,
      "పోలో": 2732,
      "పోటీ": 2733,
      "పోతూ": 2734,
      "పోర్చు": 2735,
      "పోషకాహార": 2736,
      "పోస్టలు": 2737,
      "మనమే": 2738,
      "మనదేశంలో": 2739,
      "మనోర": 2740,
      "మిగిలిన": 2741,
      "రోడ్ల": 2742,
      "రెండుకో": 2743,
      "లాంటి": 2744,
      "లాగృ": 2745,
      "లాభదాయ": 2746,
      "వుని": 2747,
      "వుంది": 2748,
      "వున్నా": 2749,
      "వుంటుంది": 2750,
      "వెలుపలి": 2751,
      "ప్రజలకు": 2752,
      "ించినవే": 2753,
      "ించినందు": 2754,
      "హిందూస్తాన్": 2755,
      "హిందూస్తానీ": 2756,
      "isation": 2757,
      "ంద్రనాథ": 2758,
      "ఇతరదేశాలను": 2759,
      "ఇతరదేశాలకు": 2760,
      "తామర": 2761,
      "తాజ్‌": 2762,
      "శ్రద్ధలతో": 2763,
      "ీనములో": 2764,
      "ీనోద్య": 2765,
      "సాంఘిక": 2766,
      "పెద్దగా": 2767,
      "పెద్దపులి": 2768,
      "India1950": 2769,
      "gues": 2770,
      "gures": 2771,
      "అతివేగంగా": 2772,
      "అతిముఖ్యమైన": 2773,
      "అతిశీ": 2774,
      "ఉత్సాహ": 2775,
      "ఉత్తరా": 2776,
      "ఉత్కృష్టమైన": 2777,
      "ఉంటూ": 2778,
      "కలిగిన": 2779,
      "గరలో": 2780,
      "జనకరమేనని": 2781,
      "జరిగింది": 2782,
      "జరిగాయి": 2783,
      "పట్టాలు": 2784,
      "పట్టును": 2785,
      "పట్టాలెక్కను": 2786,
      "బాగా": 2787,
      "బాదు": 2788,
      "బాంబే": 2789,
      "బెల్": 2790,
      "బెట్కా": 2791,
      "బ్రహ్మ": 2792,
      "బ్రాడ్‌": 2793,
      "బ్రెడ్": 2794,
      "మహల్": 2795,
      "మహేష్": 2796,
      "వంటలు": 2797,
      "వంటలకు": 2798,
      "వంటకాలు": 2799,
      "ుకుంది": 2800,
      "విధి": 2801,
      "విధంగా": 2802,
      "విధించిన": 2803,
      "భాగే": 2804,
      "భాగస్వా": 2805,
      "భాగమేనని": 2806,
      "కేంద్రాల్లో": 2807,
      "కేంద్రీకృ": 2808,
      "ప్పించుకోవడ": 2809,
      "క్రీడల": 2810,
      "అయినప్పటికీ": 2811,
      "అయినప్పటికినీ": 2812,
      "జనాభాలో": 2813,
      "ప్రభుత్వంలో": 2814,
      "ప్రభుత్వాలన్నీ": 2815,
      "ప్రభుత్వంచే": 2816,
      "260": 2817,
      "ఎక్కువైపో": 2818,
      "ఏర్పాటు": 2819,
      "ఏర్పరచింది": 2820,
      "గోర్": 2821,
      "గోధు": 2822,
      "గోడుంబ": 2823,
      "గ్గులు": 2824,
      "గ్డమ్": 2825,
      "టికంటే": 2826,
      "బహిరంగ": 2827,
      "బహాయీలు": 2828,
      "మానవుని": 2829,
      "మంత్రుల": 2830,
      "లేనివి": 2831,
      "సింహపు": 2832,
      "సరిస్తూ": 2833,
      "ప్రస్తుత": 2834,
      "క్కలు": 2835,
      "సాధించింది": 2836,
      "సాధించి": 2837,
      "సాధారణంగా": 2838,
      "రాజకీయాలు": 2839,
      "కాంగ్రెసే": 2840,
      "మొదటిది": 2841,
      "మొదటిసార": 2842,
      "దక్షిణదిగ్": 2843,
      "2005": 2844,
      "gelist": 2845,
      "ఉపయు": 2846,
      "ఉపరాష్ట్రపత": 2847,
      "క్యులు": 2848,
      "క్యారమ్‌": 2849,
      "గణితం": 2850,
      "పంజాబ": 2851,
      "పంపిన": 2852,
      "భూపతి": 2853,
      "మైంది": 2854,
      "మైతే": 2855,
      "మైత్రి": 2856,
      "మైథి": 2857,
      "మైదాన": 2858,
      "యుద్ధం": 2859,
      "యునై": 2860,
      "యుద్ధాలు": 2861,
      "యోచన": 2862,
      "యోరారి": 2863,
      "రంగం": 2864,
      "రంగాల": 2865,
      "రంగము": 2866,
      "రంగాల్లో": 2867,
      "వలెనే": 2868,
      "శ్లోకాల": 2869,
      "సముచిత": 2870,
      "ుకోవచ్చని": 2871,
      "్మదీయ": 2872,
      "ప్రతినిధి": 2873,
      "ాలలోను": 2874,
      "ాలనుండి": 2875,
      "విస్తరించిన": 2876,
      "విస్తృతంగా": 2877,
      "సంగీత": 2878,
      "సంగీతము": 2879,
      "సంగీతంలో": 2880,
      "సంస్కృతం": 2881,
      "సంస్కృతీ": 2882,
      "సంస్కృతులతో": 2883,
      "ప్రాచ్య": 2884,
      "ప్రాచుర్య": 2885,
      "క్రమంగా": 2886,
      "సరిహద్దులు": 2887,
      "అత్యధికంగా": 2888,
      "ఇండియాలో": 2889,
      "ప్రముఖమైనది": 2890,
      "ప్రముఖమైనదే": 2891,
      "2014": 2892,
      "2023": 2893,
      "2022": 2894,
      "2011": 2895,
      "ine": 2896,
      "out": 2897,
      "ouped": 2898,
      "ఆధునిక": 2899,
      "ఆధీనములో": 2900,
      "గలుపు": 2901,
      "ట్లకు": 2902,
      "ధిపత్యం": 2903,
      "నీతి": 2904,
      "నెహ్ర": 2905,
      "నెమలి": 2906,
      "నెరవే": 2907,
      "నెహ్వ": 2908,
      "భిన్నత్వాలు": 2909,
      "మెట్రో": 2910,
      "మెహర్": 2911,
      "మూడవ": 2912,
      "మూడే": 2913,
      "రహదారు": 2914,
      "వహించిన": 2915,
      "వహించింది": 2916,
      "వహించి": 2917,
      "వహించే": 2918,
      "వహిస్త": 2919,
      "వైశాల": 2920,
      "వైపులా": 2921,
      "సమాచార": 2922,
      "స్వాధీన": 2923,
      "రాష్ట్రాలుగా": 2924,
      "రాష్ట్రపతిచే": 2925,
      "మొదలగువ": 2926,
      "మొదలవుతుంది": 2927,
      "మొదలగునవి": 2928,
      "రెండువైపులా": 2929,
      "పట్టణాల": 2930,
      "పట్టణాలను": 2931,
      "బెంగాల్": 2932,
      "బెంగుళూరు": 2933,
      "ఏర్పడే": 2934,
      "ఏర్పడిన": 2935,
      "ఏర్పడింది": 2936,
      "బహుమతి": 2937,
      "బహుభాషా": 2938,
      "మంత్రిత్వ": 2939,
      "మంత్రివర్గ": 2940,
      "సింధ్": 2941,
      "సరిహద్దున": 2942,
      "సరిహద్దులలో": 2943,
      "సరిహద్దులను": 2944,
      "నడిపించి": 2945,
      "నడిపిస్త": 2946,
      "సౌకర్యము": 2947,
      "సౌకర్యవంత": 2948,
      ").\"(": 2949,
      "....": 2950,
      "...).": 2951,
      "142": 2952,
      "147": 2953,
      "notation": 2954,
      "ందని": 2955,
      "ందరో": 2956,
      "అనునది": 2957,
      "అనుమతి": 2958,
      "అనువైన": 2959,
      "అనుసరిస్తూ": 2960,
      "కళి": 2961,
      "కల్పే": 2962,
      "కల్గి": 2963,
      "కల్పం": 2964,
      "కల్పుతూ": 2965,
      "కల్పించే": 2966,
      "గేజి": 2967,
      "గేయం": 2968,
      "చైనాతో": 2969,
      "టెడ్": 2970,
      "టెహ్ర": 2971,
      "టెక్నాల": 2972,
      "టెలివిజన్": 2973,
      "టెన్నిస్లో": 2974,
      "తనలో": 2975,
      "నగరాలనే": 2976,
      "నగరాలనుండి": 2977,
      "పతకం": 2978,
      "పొందింది": 2979,
      "పొడిగించ": 2980,
      "పద్ధతులు": 2981,
      "పద్ధతులతో": 2982,
      "రూపంలో": 2983,
      "రూపొందింది": 2984,
      "ళ్లను": 2985,
      "వృక్షం": 2986,
      "సమశీ": 2987,
      "సమయంలో": 2988,
      "సమష్టి": 2989,
      "సైతం": 2990,
      "సైట్లు": 2991,
      "సారాల": 2992,
      "సారవంత": 2993,
      "సర్వసత్తా": 2994,
      "ించేది": 2995,
      "సంఖ్యలో": 2996,
      "పుట్టాయి": 2997,
      "పుట్టిల్": 2998,
      "పుట్టిని": 2999,
      "కూడినది": 3000,
      "1975": 3001,
      "1977": 3002,
      "1971లో": 3003,
      "1977లో": 3004,
      "1974లో": 3005,
      "చేయబడింది": 3006,
      "చేయలేదు": 3007,
      "చేయిస్తారు": 3008,
      "చేయటంతో": 3009,
      "చేయడానికి": 3010,
      "తున్నారు": 3011,
      "తున్నప్పటికీ": 3012,
      "తున్నవార్": 3013,
      "అధికారికంగా": 3014,
      "ప్రపంచంలోనే": 3015,
      "కలిగివుంది": 3016,
      "కాంగ్రెసును": 3017,
      "జాబితాలో": 3018,
      "అభిప్రాయ": 3019,
      "చరిత్రలో": 3020,
      "1010": 3021,
      "181": 3022,
      "230": 3023,
      "2359": 3024,
      "ates": 3025,
      "ational": 3026,
      "debate": 3027,
      "defin": 3028,
      "figures": 3029,
      "ily": 3030,
      "than": 3031,
      "ఇవ్వ": 3032,
      "ఇవికా": 3033,
      "ఇవన్నీ": 3034,
      "ఇవికూడ": 3035,
      "కలదు": 3036,
      "కలకత్తా": 3037,
      "కలగలుపు": 3038,
      "చిపూడ": 3039,
      "చిహ్": 3040,
      "జిత్": 3041,
      "జిస్లే": 3042,
      "టాగోర్": 3043,
      "దీన్ని": 3044,
      "దీవులు": 3045,
      "దీపావ": 3046,
      "దీనివల్ల": 3047,
      "నాయకుల": 3048,
      "న్యాయవ్యవస్థ": 3049,
      "న్యాయవ్యవస్థలో": 3050,
      "న్యాయస్థానమైన": 3051,
      "పదార్థాలు": 3052,
      "పక్షం": 3053,
      "పక్షి": 3054,
      "మ్మదాబ": 3055,
      "లక్షల": 3056,
      "లక్షణాలు": 3057,
      "లక్షణాన్ని": 3058,
      "సరఫరా": 3059,
      "సరమైతే": 3060,
      "సూచన": 3061,
      "సూరత్": 3062,
      "హాసాల": 3063,
      "స్లామ్": 3064,
      "నిర్వాహ": 3065,
      "నిర్మిస్తు": 3066,
      "ముంబాయి": 3067,
      "ద్వీపే": 3068,
      "ద్వీపం": 3069,
      "సంఘం": 3070,
      "సంఘము": 3071,
      "సంఘర్షణ": 3072,
      "సంప్రదాయాలను": 3073,
      "సంవత్సరం": 3074,
      "సంవత్సారాల": 3075,
      "1991": 3076,
      "1996": 3077,
      "1991లో": 3078,
      "1998లో": 3079,
      "వ్యాసము": 3080,
      "వచ్చినది": 3081,
      "వచ్చినవారి": 3082,
      "వ్యవస్థలోని": 3083,
      "కార్యనిర్వాహ": 3084,
      "కరణలో": 3085,
      "పరిశ్రమ": 3086,
      "మేనకల": 3087,
      "ప్రధానమంత్రిని": 3088,
      "వారసత్వాన్ని": 3089,
      "పూర్వం": 3090,
      "పూర్వపు": 3091,
      "రోడ్డుకు": 3092,
      "పాకిస్తాన్తో": 3093,
      "పాకిస్థాన్కు": 3094,
      "సంస్కృతిలో": 3095,
      "ఆధారాలు": 3096,
      "ఆధారిత": 3097,
      "స్వతంత్రం": 3098,
      "నడిపించటం": 3099,
      "నడిపించాలనే": 3100,
      "నడిపించవచ్చని": 3101,
      "నడిపించటమూ": 3102,
      "స్వాతంత్ర్యానికి": 3103,
      "సర్వీసును": 3104,
      "కుటుంబాలు": 3105,
      "కుటుంబాలకు": 3106,
      "121": 3107,
      "1250": 3108,
      "chiv": 3109,
      "chine": 3110,
      "grouped": 3111,
      "ritor": 3112,
      "with": 3113,
      "అహింసాయుత": 3114,
      "అహ్మదీయ": 3115,
      "అహమ్మదాబ": 3116,
      "అవినీతి": 3117,
      "ఆక్రమించిన": 3118,
      "ఆక్రమణదారులు": 3119,
      "ఆక్రమించుకు": 3120,
      "ఆహార్యం": 3121,
      "ఇంగ్లండు": 3122,
      "ఉండగా": 3123,
      "కథక్": 3124,
      "కథనాలతో": 3125,
      "కథకళి": 3126,
      "కూచిపూడ": 3127,
      "కిందట": 3128,
      "చుట్టూ": 3129,
      "చిత్రాలు": 3130,
      "చిత్రకళ": 3131,
      "చిత్రమాల": 3132,
      "జీవితంలో": 3133,
      "టైగర్": 3134,
      "తలల": 3135,
      "తెలిసింది": 3136,
      "తెప్పించుకోవడ": 3137,
      "తేది": 3138,
      "తేలిక": 3139,
      "పార్సీలు": 3140,
      "బియా": 3141,
      "బిజిన": 3142,
      "బియస్": 3143,
      "భరతుడు": 3144,
      "భౌతిక": 3145,
      "మరెన్న": 3146,
      "మర్రిచె": 3147,
      "మౌఖిక": 3148,
      "మాతృ": 3149,
      "మారుమూల": 3150,
      "రీతులు": 3151,
      "లెక్కలు": 3152,
      "లెందరో": 3153,
      "లెజిస్లే": 3154,
      "ళికలు": 3155,
      "వంశంలో": 3156,
      "సహాయకార": 3157,
      "సేవ": 3158,
      "సైనా": 3159,
      "సార్క్": 3160,
      "హైకోర్టులు": 3161,
      "్వస్త్ర": 3162,
      "ప్రారంభమైన": 3163,
      "విద్యను": 3164,
      "సంకీర్ణం": 3165,
      "సంబంధాలు": 3166,
      "సంబంధించిన": 3167,
      "పురుషులు": 3168,
      "స్థిరమైన": 3169,
      "ంటున్నది": 3170,
      "ంటున్నారు": 3171,
      "వాహనాలు": 3172,
      "వాహనంలో": 3173,
      "జాతిపిత": 3174,
      "కూడుకున్నది": 3175,
      "కోల్పోతూ": 3176,
      "నేపాలీ": 3177,
      "లిచిన": 3178,
      "లిచారు": 3179,
      "గుర్తించింది": 3180,
      "గుర్తింపు": 3181,
      "గుర్తించవచ్చు": 3182,
      "ఒకేఒక": 3183,
      "ఒకేమాదిరి": 3184,
      "ఎన్నికలలో": 3185,
      "దాదాపుగా": 3186,
      "త్రివర్ణ": 3187,
      "వర్గాలు": 3188,
      "వర్గాలలోను": 3189,
      "వర్ణించబడింది": 3190,
      "ప్రజలచే": 3191,
      "శ్రీశై": 3192,
      "శ్రీలంక": 3193,
      "శ్రీరామన": 3194,
      "కలిసివస్తు": 3195,
      "బడతాయి": 3196,
      "మహాభారతం": 3197,
      "సాధించగా": 3198,
      "సాధించగలి": 3199,
      "సాధించాము": 3200,
      "ఉపఖండం": 3201,
      "ఉపఖండపు": 3202,
      "ఉపఖండములో": 3203,
      "ప్రతిపాదనల్లో": 3204,
      "వైవిధ్యం": 3205,
      "వైవిధ్యమైనది": 3206,
      "వైవిధ్యమైనవి": 3207,
      "సమాఖ్యలు": 3208,
      "కోర్టులకు": 3209,
      "పేర్కొన్నాయి": 3210,
      "పేర్కొనవచ్చు": 3211,
      "పేర్కొంటున్నారు": 3212,
      "మొదలైనటువంటి": 3213,
      "సింధులోయ": 3214,
      "సింధుాలోయ": 3215,
      "కంపెనీపై": 3216,
      "చారిత్రకంగా": 3217,
      "పొందినది": 3218,
      "పద్ధతిలో": 3219,
      "నిర్వహణలో": 3220,
      "జన్మస్థానం": 3221,
      "జన్మదిన": 3222,
      "జన్మనిచ్చ": 3223,
      "ముంబైలో": 3224,
      "వ్యాపారం": 3225,
      "వ్యాపారవేత్తల": 3226,
      "కార్యక్రమాలలో": 3227,
      "వారసత్వంగా": 3228,
      "వారసత్వానికి": 3229,
      "సాంప్రదాయికమైన": 3230,
      "ఆఫ్ఘానిస్తాన్": 3231,
      "fferent": 3232,
      "కన్నడం": 3233,
      "జరుపుకునే": 3234,
      "పీఠిక": 3235,
      "బంగ్లాదేశ్": 3236,
      "ళ్ళు": 3237,
      "హిమాలయాలు": 3238,
      "వాణిజ్యపరంగా": 3239,
      "కాశ్మీర్": 3240,
      "కాశ్మీరు": 3241,
      "కాశ్మీరీ": 3242,
      "నాగరికతకు": 3243,
      "Constitution": 3244,
      "1652": 3245,
      "562359": 3246,
      "SIL": 3247,
      "Union": 3248,
      "United": 3249,
      "exact": 3250,
      "extinct": 3251,
      "own": 3252,
      "terms": 3253,
      "territor": 3254,
      "while": 3255,
      "which": 3256,
      "అణు": 3257,
      "అణ్వస్త్ర": 3258,
      "అవతరించింది": 3259,
      "అవసరమైతే": 3260,
      "అంటారు": 3261,
      "అంటార్క్‌టిక": 3262,
      "అన్నిటికంటే": 3263,
      "అప్పటి": 3264,
      "అప్పిలే": 3265,
      "ఆసియాలో": 3266,
      "ఇక్కడ": 3267,
      "ఇక్కడి": 3268,
      "ఇటీవల": 3269,
      "ఇటీవలి": 3270,
      "ఎడమ": 3271,
      "ఎడారి": 3272,
      "ఐక్యరాజ్యసమి": 3273,
      "ఒలంపిక్‌": 3274,
      "ఒలంపిక్": 3275,
      "కలుపుతూ": 3276,
      "కలుగుతాయి": 3277,
      "గమించి": 3278,
      "గ్రంథాలు": 3279,
      "గ్రీకులు": 3280,
      "గంగోత్రి": 3281,
      "గమనించి": 3282,
      "గమనికలు": 3283,
      "గ్రామ": 3284,
      "గ్రాండ్": 3285,
      "చదరంగంలో": 3286,
      "చదరంగము": 3287,
      "చీర": 3288,
      "చూసింది": 3289,
      "చూపబడింది": 3290,
      "చవితి": 3291,
      "చవిచూసింది": 3292,
      "జోక్యం": 3293,
      "జోన్లుగా": 3294,
      "టన్‌": 3295,
      "ట్‌బాల": 3296,
      "తత్వానికి": 3297,
      "దర్శకు": 3298,
      "దండా": 3299,
      "దండయాత్ర": 3300,
      "నూటన": 3301,
      "ప్లానెట్": 3302,
      "ప్లగ్గులు": 3303,
      "పల్లవులు": 3304,
      "పల్లెల్లో": 3305,
      "పడుతుంది": 3306,
      "పడుతున్నారు": 3307,
      "పర్వదినాలు": 3308,
      "పర్వతాలతో": 3309,
      "పతాకం": 3310,
      "పతాకము": 3311,
      "ఫలితంగా": 3312,
      "బుక్": 3313,
      "భవించినవే": 3314,
      "భక్తిశ్రద్ధలతో": 3315,
      "మితో": 3316,
      "మితికి": 3317,
      "యాత్రికులు": 3318,
      "రకాలుగా": 3319,
      "ళాఖాతం": 3320,
      "వింద్": 3321,
      "వరుసగా": 3322,
      "శిలాగృ": 3323,
      "శైలీ": 3324,
      "శకుంతల": 3325,
      "సెర్టి": 3326,
      "సిక్కు": 3327,
      "సిక్కులు": 3328,
      "ామిక": 3329,
      "ామని": 3330,
      "స్వీకారం": 3331,
      "స్వీకరించింది": 3332,
      "ప్రదేశే": 3333,
      "ప్రదేశ్‌": 3334,
      "ప్రాయమైనది": 3335,
      "ప్రత్యేకమైన": 3336,
      "ప్రత్యక్షంగా": 3337,
      "ప్రయోజనాలు": 3338,
      "ప్రయోజనకరమేనని": 3339,
      "ాలేకాగా": 3340,
      "నియమించబడ్డ": 3341,
      "నియమించబడిన": 3342,
      "విలువైన": 3343,
      "విలువలను": 3344,
      "విమానాశ్ర": 3345,
      "విశ్వనాథ": 3346,
      "విశ్వామిత్ర": 3347,
      "సంస్కరణలు": 3348,
      "సంస్కరణలతో": 3349,
      "స్థాయిలో": 3350,
      "పావో": 3351,
      "సాహిత్యం": 3352,
      "కోట్లకు": 3353,
      "క్రిస్టా": 3354,
      "చ్చేరి": 3355,
      "మొగలులు": 3356,
      "different": 3357,
      "differing": 3358,
      "వేదాలు": 3359,
      "వేదాలలో": 3360,
      "కాలేజి": 3361,
      "కాలేజీ": 3362,
      "డిస్కవరీ": 3363,
      "ద్రావిడ": 3364,
      "ఎన్నుకుంటారు": 3365,
      "ఎన్నుకుంటుంది": 3366,
      "పరీక్షలు": 3367,
      "పరీక్షను": 3368,
      "పోరాటం": 3369,
      "పోరాటంలో": 3370,
      "మిస్తున్నాయి": 3371,
      "రెండోది": 3372,
      "లంకెలు": 3373,
      "లాహోర్": 3374,
      "లాహోర్‌ల": 3375,
      "వెల్లూరు": 3376,
      "వెల్లడించింది": 3377,
      "ernational": 3378,
      "మహిళా": 3379,
      "మహిళల": 3380,
      "గోదావరి": 3381,
      "గోదావరీ": 3382,
      "యుగం": 3383,
      "యుగపు": 3384,
      "ప్రతిపక్షం": 3385,
      "ప్రతిపక్షమైంది": 3386,
      "విస్తీర్ణం": 3387,
      "విస్తీర్ణంతో": 3388,
      "నెలకొన్న": 3389,
      "నెలకొని": 3390,
      "సమాజం": 3391,
      "సమాజము": 3392,
      "బ్రిటీష్": 3393,
      "బ్రిటీషు": 3394,
      "సింధూనదికి": 3395,
      "తూర్పున": 3396,
      "తమిళనాడు": 3397,
      "రూపాంతరం": 3398,
      "రూపాంతరమే": 3399,
      "సంఖ్యాక": 3400,
      "రైల్వేశాఖకు": 3401,
      "పాలనలోకి": 3402,
      "వెబ్సైట్లు": 3403,
      "సముద్రతీరం": 3404,
      "సముద్రతీరము": 3405,
      "1853": 3406,
      "1857లో": 3407,
      "చిరునామాలు": 3408,
      "నాయకత్వాన": 3409,
      "నాయకత్వంలో": 3410,
      "హాకీలో": 3411,
      "లోక్‌సభలో": 3412,
      "నిర్మించినందు": 3413,
      "నిర్మించేది": 3414,
      "ద్వీపకల్పం": 3415,
      "సంవత్సరాల": 3416,
      "సంవత్సరాలలో": 3417,
      "సభ్యులను": 3418,
      "సభ్యురాలు": 3419,
      "సామ్రాజ్యాలు": 3420,
      "widely": 3421,
      "టైటిల్": 3422,
      "టైటిళ్ళు": 3423,
      "పార్లమెంటు": 3424,
      "పార్లమెంటరీ": 3425,
      "భరతనాట్యం": 3426,
      "భరతవర్షం": 3427,
      "మూలాలు": 3428,
      "హైదరాబాద్": 3429,
      "హైదరాబాదు": 3430,
      "ప్రారంభించాలనే": 3431,
      "ప్రారంభించాలని": 3432,
      "ర్‌లాల్": 3433,
      "సంకీర్ణాలేకాగా": 3434,
      "పురుషుల": 3435,
      "పురుషులకు": 3436,
      "ఆఫ్ఘనిస్తాన్‌కు": 3437,
      "పీఠభూమికి": 3438,
      "పీఠభూమితో": 3439,
      "బంగ్లాదేశ్‌ల": 3440,
      "బంగ్లాదేశ్‌లలో": 3441,
      "Constituent_Assembly": 3442,
      "_of_Congress": 3443,
      "_of_India1950": 3444,
      "evangelist": 3445,
      "ఇండోనేసియా": 3446,
      "కబడ్డీలో": 3447,
      "తర్వాతి": 3448,
      "పవిత్రంగా": 3449,
      "బౌద్ధులు": 3450,
      "రచయితలెందరో": 3451,
      "నిడివిలో": 3452,
      "నిడివిని": 3453,
      "కూడుకొనినప్పటికినీ": 3454,
      "కాపాడుకుంటూనే": 3455,
      "చెప్పుకోవచ్చు": 3456,
      "చెప్పుకోదగినది": 3457,
      "ఉపయోగిస్తారు": 3458,
      "ఉపయోగిస్తుంది": 3459,
      "CITEREFLibrary": 3460,
      "CITEREFConstituent_Assembly": 3461,
      "సహస్రాబ్దిలో": 3462,
      "15న": 3463,
      "74059": 3464,
      "900461": 3465,
      "Accor": 3466,
      "Archiv": 3467,
      "BBC": 3468,
      "Chris": 3469,
      "Different": 3470,
      "Devanag": 3471,
      "International": 3472,
      "Languages": 3473,
      "Machine": 3474,
      "Nations": 3475,
      "Part": 3476,
      "See": 3477,
      "States": 3478,
      "Type": 3479,
      "Waybac": 3480,
      "addition": 3481,
      "becau": 3482,
      "bject": 3483,
      "border": 3484,
      "based": 3485,
      "govern": 3486,
      "give": 3487,
      "have": 3488,
      "living": 3489,
      "marily": 3490,
      "other": 3491,
      "oduced": 3492,
      "produced": 3493,
      "primarily": 3494,
      "report": 3495,
      "subject": 3496,
      "sources": 3497,
      "script": 3498,
      "size": 3499,
      "tongues": 3500,
      "union": 3501,
      "worldwide": 3502,
      "అరవింద్": 3503,
      "అలీనోద్య": 3504,
      "అస్సామీ": 3505,
      "అన్నం": 3506,
      "అల్ప": 3507,
      "అందించిన": 3508,
      "అరుదుగా": 3509,
      "అక్షరబద్ధం": 3510,
      "అవరోధాల": 3511,
      "అద్దం": 3512,
      "అలంకార": 3513,
      "అధిగమించి": 3514,
      "అందరూ": 3515,
      "అమలవుతుంది": 3516,
      "అరేబియా": 3517,
      "అంకెలు": 3518,
      "అధీనంలో": 3519,
      "అశోకుడు": 3520,
      "ఆగష్టు": 3521,
      "ఆలోచన": 3522,
      "ఆవిర్భవ": 3523,
      "ఆక్రమిస్తున్నాయి": 3524,
      "ఆనాది": 3525,
      "ఆడుతున్నవార్": 3526,
      "ఆధ్యాత్మ": 3527,
      "ఆదాయం": 3528,
      "ఆగ్నేయ": 3529,
      "ఆంగ్లేయులు": 3530,
      "ఆణిముత్యం": 3531,
      "ఆచారాలు": 3532,
      "ఆర్యన్": 3533,
      "ఆనంద్": 3534,
      "ఆలస్యం": 3535,
      "ఇయర్": 3536,
      "ఇన్‌ఫర్": 3537,
      "ఇనుము": 3538,
      "ఇముడ్చ": 3539,
      "ఇతిహాసాల": 3540,
      "ఇస్తాంబ": 3541,
      "ఇందిరా": 3542,
      "ఇతరులు": 3543,
      "ఇందులో": 3544,
      "ఇంటిపేర్లు": 3545,
      "ఉర్దూ": 3546,
      "ఉద్భవించినవే": 3547,
      "ఉపాధి": 3548,
      "ఉండుటచే": 3549,
      "ఉనికికి": 3550,
      "ఋతుపవనాలు": 3551,
      "ఎమర్జె": 3552,
      "ఎదుర్కొ": 3553,
      "ఎగుమతి": 3554,
      "ఎల్లలుగా": 3555,
      "ఏకైక": 3556,
      "ఏడవస్థానంలో": 3557,
      "ఏకత్వంగల": 3558,
      "ఏళ్ళపాటు": 3559,
      "ఒక్కొక్క": 3560,
      "ఒరియా": 3561,
      "ఒలింపిక్‌": 3562,
      "ఒడిస్సీ": 3563,
      "ఓడించి": 3564,
      "ఓటర్లపై": 3565,
      "ఔట్‌సొ": 3566,
      "కింగ్డమ్": 3567,
      "కర్ణాటక": 3568,
      "కనిపించింది": 3569,
      "కరాచీ": 3570,
      "కంటైనెర్": 3571,
      "కార్పస్": 3572,
      "కితాబుని": 3573,
      "కష్టంకాగా": 3574,
      "కట్టడాలు": 3575,
      "కమీజ్": 3576,
      "కమలము": 3577,
      "కమేననీ": 3578,
      "ఖగోళ": 3579,
      "ఖర్చుతో": 3580,
      "గెలిచిన": 3581,
      "గిన్నె": 3582,
      "గౌరవిస్తారు": 3583,
      "ఘనత": 3584,
      "ఘట్టాలు": 3585,
      "ఘర్షణను": 3586,
      "చాళు": 3587,
      "చోళులు": 3588,
      "చ్ఛాయుత": 3589,
      "చమురు": 3590,
      "చక్రవర్తి": 3591,
      "చట్టం": 3592,
      "జైనులు": 3593,
      "జౌళి": 3594,
      "జానపద": 3595,
      "జంతువు": 3596,
      "జెండా": 3597,
      "జిల్లా": 3598,
      "జవహర్‌లాల్": 3599,
      "టండ్రా": 3600,
      "టాయిడ్స్": 3601,
      "ట్రాఫిక్": 3602,
      "డ్రైవరు": 3603,
      "డాలర్లు": 3604,
      "డబుల్స్": 3605,
      "ణికుల": 3606,
      "తారతమ్య": 3607,
      "తదుపరి": 3608,
      "తక్కువే": 3609,
      "తలంపుతో": 3610,
      "తగ్గిపోయింది": 3611,
      "థనలలో": 3612,
      "థానే": 3613,
      "దశలో": 3614,
      "దసరా": 3615,
      "దృష్ట్యా": 3616,
      "దైనందిన": 3617,
      "దీనికి": 3618,
      "దగ్గరలో": 3619,
      "ధరించే": 3620,
      "ధరిస్తారు": 3621,
      "నృత్య": 3622,
      "నోబెల్": 3623,
      "నడుస్తాయి": 3624,
      "పబడి": 3625,
      "పిలిచారు": 3626,
      "పదిశాతం": 3627,
      "పరాజయం": 3628,
      "పచ్చజెండా": 3629,
      "పట్నం": 3630,
      "పస్రిద్ధి": 3631,
      "పర్షియనులు": 3632,
      "పండ్లు": 3633,
      "ఫుట్‌బాల": 3634,
      "ఫ్రాన్స్": 3635,
      "బొమ్మ": 3636,
      "బండ్లను": 3637,
      "బంగాళాఖాతం": 3638,
      "బడ్జెట్": 3639,
      "బిన్నత్వంలో": 3640,
      "బాబ్డే": 3641,
      "బ్యాడ్మిం": 3642,
      "భింబెట్కా": 3643,
      "భంగం": 3644,
      "మయన్మార్": 3645,
      "మారింది": 3646,
      "మరాఠీ": 3647,
      "మినహాయ": 3648,
      "మాల్దీవులు": 3649,
      "మణిపురి": 3650,
      "మసాలాలు": 3651,
      "మద్రాసు": 3652,
      "మంజూరు": 3653,
      "యూదులు": 3654,
      "యమున": 3655,
      "యథాతథ": 3656,
      "రొట్టెల": 3657,
      "ర‌వాణా": 3658,
      "రాయల్": 3659,
      "రంగానికి": 3660,
      "రక్షణ": 3661,
      "రవీంద్రనాథ": 3662,
      "రాతియుగపు": 3663,
      "రతాయని": 3664,
      "లైనప్పటికీ": 3665,
      "లబైరెండుకో": 3666,
      "లభ్యమైన": 3667,
      "వూపింది": 3668,
      "వజ్రాలు": 3669,
      "వన్యప్రాణుల": 3670,
      "శక్తులు": 3671,
      "శిల్పకళ": 3672,
      "శక్తిగా": 3673,
      "సల్వార్": 3674,
      "సవాళ్లను": 3675,
      "సత్యజిత్": 3676,
      "హెబియస్": 3677,
      "హొలీ": 3678,
      "హిందువు": 3679,
      "హక్కులకు": 3680,
      "లోన్లీ": 3681,
      "స్వేచ్ఛాయుత": 3682,
      "స్వరూపం": 3683,
      "స్టేటాయిడ్స్": 3684,
      "ప్రార్థనలలో": 3685,
      "ప్రమాణ": 3686,
      "ప్రయాణికుల": 3687,
      "ప్రఖ్యాతి": 3688,
      "ప్రణాళికలు": 3689,
      "ప్రగతిని": 3690,
      "దేశరాజకీయాల్లో": 3691,
      "దేశమంతటా": 3692,
      "దేశాధినేత": 3693,
      "ర్సింగ్": 3694,
      "కుమార్తె": 3695,
      "కుమారుడు": 3696,
      "కుడ్యచిత్రాలు": 3697,
      "కుదిర్చిన": 3698,
      "నివాసాలు": 3699,
      "నివారిస్తారు": 3700,
      "నియోలిథిక": 3701,
      "నిలిచింది": 3702,
      "నిలబెట్టుకు": 3703,
      "నిషేధం": 3704,
      "విడిపోయింది": 3705,
      "విధానాలతో": 3706,
      "వివరాలు": 3707,
      "విశాఖపట్నం": 3708,
      "వినాయక": 3709,
      "విజ్ఞాన": 3710,
      "విశిష్ట": 3711,
      "విభజితమై": 3712,
      "విశేషం": 3713,
      "రాణించలేదు": 3714,
      "రామాయణం": 3715,
      "ముందుగా": 3716,
      "ద్వైపాక్ష": 3717,
      "తిరిగే": 3718,
      "రిట్లలో": 3719,
      "సంస్థలు": 3720,
      "సంక్రాంతి": 3721,
      "సందర్శించే": 3722,
      "పుష్పం": 3723,
      "పునర్వ్యవస్థీకరణ": 3724,
      "స్థూలాదాయంలో": 3725,
      "భావిస్తున్నది": 3726,
      "పాండిచ్చేరి": 3727,
      "వాటిల్లింది": 3728,
      "సాఫ్ట్‌వేర్": 3729,
      "ప్రాముఖ్యతను": 3730,
      "ప్రాసెస్": 3731,
      "ప్రాజాస్వామ్య": 3732,
      "ప్రాబల్యం": 3733,
      "రాజధానులు": 3734,
      "కోవారంటో": 3735,
      "కోవడంతో": 3736,
      "క్రైస్తవులు": 3737,
      "1962లో": 3738,
      "కావడం": 3739,
      "కాకుండా": 3740,
      "పేదరికం": 3741,
      "మామిడి": 3742,
      "యావత్‌": 3743,
      "వ్య‌వ‌స్థ‌": 3744,
      "తరతరాలుగా": 3745,
      "సిద్ధించింది": 3746,
      "సిగ్నలు": 3747,
      "త్వరలోనే": 3748,
      "గుప్తులకాల": 3749,
      "గుత్తాధిపత్యం": 3750,
      "dialect": 3751,
      "disputed": 3752,
      "కొంకణి": 3753,
      "కొనసాగుతోంది": 3754,
      "పాలకులనుండి": 3755,
      "కాలపరిమితికి": 3756,
      "చేసుకోవడంతో": 3757,
      "శాశ్వత": 3758,
      "దేశాల్లోనూ": 3759,
      "వ్యవహారాల": 3760,
      "వ్యవసాయం": 3761,
      "ఎన్నుకొనబడిన": 3762,
      "పారిశ్రామిక": 3763,
      "పంచుకుంటోంది": 3764,
      "పెట్రోలియం": 3765,
      "కృష్ణా": 3766,
      "తురుష్కుల": 3767,
      "దాటేసింది": 3768,
      "పేరుమీదుగా": 3769,
      "దక్షణాసియాలో": 3770,
      "పర్యాటక": 3771,
      "పరమోన్నత": 3772,
      "పరిధిలో": 3773,
      "పరిశోధనా": 3774,
      "పరిఢవిల్లాయి": 3775,
      "మేరోః": 3776,
      "మేళవింపబడి": 3777,
      "మధ్యవర్తిత్వం": 3778,
      "సుదీర్ఘ": 3779,
      "సుల్తానులు": 3780,
      "ప్రధానమంత్రికి": 3781,
      "భాషలలోను": 3782,
      "వర్గీకరణలో": 3783,
      "వర్ధిల్లిన": 3784,
      "organisation": 3785,
      "పోటీలలో": 3786,
      "పోర్చుగల్": 3787,
      "మనోరమ": 3788,
      "లాభదాయకమేననీ": 3789,
      "తాజ్‌మహల్": 3790,
      "అతిశీతల": 3791,
      "ఉత్సాహంగా": 3792,
      "ఉత్తరాదిన": 3793,
      "పట్టాలెక్కనుంది": 3794,
      "బ్రహ్మపుత్ర": 3795,
      "బ్రాడ్‌గేజి": 3796,
      "భాగస్వాములు": 3797,
      "కేంద్రీకృతమై": 3798,
      "ఎక్కువైపోతున్నప్పటికీ": 3799,
      "గోధుమ": 3800,
      "గోడుంబిళ్ళ": 3801,
      "బహిరంగంగా": 3802,
      "మంత్రులచే": 3803,
      "సాధించిపెట్టారు": 3804,
      "కాంగ్రెసేతర": 3805,
      "మొదటిసారిగా": 3806,
      "దక్షిణదిగ్భాగే": 3807,
      "ఉపయుక్త": 3808,
      "ఉపరాష్ట్రపతులు": 3809,
      "పంజాబీ": 3810,
      "మైథిలి": 3811,
      "మైదానంతో": 3812,
      "యునైటెడ్": 3813,
      "యోచనలో": 3814,
      "శ్లోకాలతో": 3815,
      "ప్రతినిధిచే": 3816,
      "ప్రాచుర్యము": 3817,
      "నెహ్రూ": 3818,
      "నెమలిపావో": 3819,
      "నెరవేరతాయని": 3820,
      "నెహ్వాల్": 3821,
      "మెట్రోపాలిటన్": 3822,
      "మెహర్గర్": 3823,
      "రహదారులను": 3824,
      "వహిస్తాయి": 3825,
      "వైశాల్యంలో": 3826,
      "సమాచారం": 3827,
      "స్వాధీనం": 3828,
      "మొదలగువారు": 3829,
      "మంత్రివర్గం": 3830,
      "నడిపిస్తామని": 3831,
      "సౌకర్యవంతంగా": 3832,
      "అనుమతిని": 3833,
      "అనువైనది": 3834,
      "టెహ్రాన్": 3835,
      "టెక్నాలజీ": 3836,
      "పొడిగించుకోవచ్చని": 3837,
      "పద్ధతులున్నాయి": 3838,
      "సమశీతోష్ణ": 3839,
      "సారవంతమైన": 3840,
      "సర్వసత్తాక": 3841,
      "పుట్టిల్లు": 3842,
      "పుట్టినిల్లయిన": 3843,
      "1971లోను": 3844,
      "అభిప్రాయపడుతున్నారు": 3845,
      "defined": 3846,
      "ఇవ్వబడిన": 3847,
      "ఇవికాక": 3848,
      "ఇవికూడా": 3849,
      "చిహ్నాలు": 3850,
      "దీపావళి": 3851,
      "సూచనలు": 3852,
      "నిర్మిస్తున్న": 3853,
      "సంఘర్షణలను": 3854,
      "కార్యనిర్వాహక": 3855,
      "అహ్మదీయులు": 3856,
      "అహమ్మదాబాదు": 3857,
      "ఆక్రమించుకున్నారు": 3858,
      "కూచిపూడి": 3859,
      "చిత్రమాలిక": 3860,
      "తెప్పించుకోవడానికి": 3861,
      "తేలికేననీ": 3862,
      "బిజినెస్": 3863,
      "మరెన్నో": 3864,
      "మర్రిచెట్టు": 3865,
      "మౌఖికమైనది": 3866,
      "లెజిస్లేచర్": 3867,
      "వంశంలోని": 3868,
      "సహాయకారిగా": 3869,
      "ఒకేమాదిరిగా": 3870,
      "శ్రీశైలస్య": 3871,
      "శ్రీరామనవమి": 3872,
      "కలిసివస్తుందని": 3873,
      "సాధించగలిగినది": 3874,
      "జన్మదినాలకు": 3875,
      "జన్మనిచ్చింది": 3876,
      "territories": 3877,
      "అంటార్క్‌టికాలో": 3878,
      "అప్పిలేట్": 3879,
      "ఐక్యరాజ్యసమితి": 3880,
      "దర్శకుడైన": 3881,
      "దండయాత్రలతో": 3882,
      "నూటనలబైరెండుకో": 3883,
      "పల్లెల్లోని": 3884,
      "శిలాగృహాలు": 3885,
      "సెర్టియోరారి": 3886,
      "విమానాశ్రయాలు": 3887,
      "విశ్వనాథన్": 3888,
      "క్రిస్టాటస్": 3889,
      "తమిళనాడుకు": 3890,
      "నిర్మించినందువల్ల": 3891,
      "_of_Congress2004": 3892,
      "CITEREFLibrary_of_Congress2004": 3893,
      "CITEREFConstituent_Assembly_of_India1950": 3894,
      "According": 3895,
      "Archived": 3896,
      "Christian": 3897,
      "Devanagari": 3898,
      "Wayback": 3899,
      "additional": 3900,
      "because": 3901,
      "borders": 3902,
      "government": 3903,
      "అలీనోద్యమంలో": 3904,
      "ఆవిర్భవించింది": 3905,
      "ఆడుతున్నవార్లలో": 3906,
      "ఆధ్యాత్మికత": 3907,
      "ఇన్‌ఫర్మేషన్": 3908,
      "ఇముడ్చుకుంది": 3909,
      "ఇతిహాసాలపై": 3910,
      "ఇస్తాంబుల్": 3911,
      "ఎమర్జెన్సీ": 3912,
      "ఎదుర్కొంటున్నది": 3913,
      "ఒక్కొక్కటే": 3914,
      "ఔట్‌సొర్సింగ్": 3915,
      "కితాబునిస్తున్నారు": 3916,
      "చాళుక్యులు": 3917,
      "తారతమ్యాలున్నాయి": 3918,
      "ఫుట్‌బాల్‌": 3919,
      "బ్యాడ్మింటన్‌": 3920,
      "మినహాయించి": 3921,
      "రవీంద్రనాథ్": 3922,
      "హిందువులైనప్పటికీ": 3923,
      "నియోలిథిక్": 3924,
      "నిలబెట్టుకున్నాయి": 3925,
      "ద్వైపాక్షిక": 3926,
      "గుప్తులకాలం": 3927,
      "నూటనలబైరెండుకోట్లకు": 3928
    },
    "merges": [
      [
        "్",
        "ర"
      ],
      [
        "ా",
        "ర"
      ],
      [
        "ల",
        "ు"
      ],
      [
        "ల",
        "ో"
      ],
      [
        "స",
        "్"
      ],
      [
        "్",
        "య"
      ],
      [
        "న",
        "్"
      ],
      [
        "ద",
        "ి"
      ],
      [
        "ద",
        "ే"
      ],
      [
        "ప",
        "్ర"
      ],
      [
        "ి",
        "ం"
      ],
      [
        "దే",
        "శ"
      ],
      [
        "ా",
        "ల"
      ],
      [
        "ి",
        "క"
      ],
      [
        "ర",
        "్"
      ],
      [
        "భ",
        "ార"
      ],
      [
        "భార",
        "త"
      ],
      [
        "ా",
        "లు"
      ],
      [
        "న్",
        "న"
      ],
      [
        "గ",
        "ా"
      ],
      [
        "క",
        "ు"
      ],
      [
        "న",
        "ి"
      ],
      [
        "వ",
        "ి"
      ],
      [
        "ా",
        "త"
      ],
      [
        "ా",
        "య"
      ],
      [
        "క",
        "్"
      ],
      [
        "ా",
        "న"
      ],
      [
        "దేశ",
        "ం"
      ],
      [
        "ర",
        "ా"
      ],
      [
        "్",
        "ట"
      ],
      [
        "న",
        "ు"
      ],
      [
        "మ",
        "ు"
      ],
      [
        "ం",
        "డ"
      ],
      [
        "ీ",
        "య"
      ],
      [
        "ి",
        "న"
      ],
      [
        "ద",
        "్"
      ],
      [
        "త",
        "్"
      ],
      [
        "ిం",
        "చ"
      ],
      [
        "త",
        "ి"
      ],
      [
        "ల",
        "్"
      ],
      [
        "స్",
        "త"
      ],
      [
        "ం",
        "ది"
      ],
      [
        "ం",
        "త"
      ],
      [
        "ర",
        "ి"
      ],
      [
        "స",
        "ం"
      ],
      [
        "ర",
        "ు"
      ],
      [
        "ప",
        "ు"
      ],
      [
        "ు",
        "లు"
      ],
      [
        "స్",
        "థ"
      ],
      [
        "ిం",
        "ది"
      ],
      [
        "ాయ",
        "ి"
      ],
      [
        "ం",
        "ట"
      ],
      [
        "ం",
        "లో"
      ],
      [
        "భారత",
        "దేశం"
      ],
      [
        "భ",
        "ా"
      ],
      [
        "ై",
        "న"
      ],
      [
        "ం",
        "గ"
      ],
      [
        "ూ",
        "డ"
      ],
      [
        "ం",
        "గా"
      ],
      [
        "ధ",
        "ిక"
      ],
      [
        "ప",
        "ా"
      ],
      [
        "వ",
        "ా"
      ],
      [
        "స",
        "ా"
      ],
      [
        "క్",
        "ష"
      ],
      [
        "ఉ",
        "న్న"
      ],
      [
        "ార",
        "ు"
      ],
      [
        "ట",
        "ి"
      ],
      [
        "ార",
        "్"
      ],
      [
        "ి",
        "త"
      ],
      [
        "్",
        "చ"
      ],
      [
        "జ",
        "ాత"
      ],
      [
        "ష",
        "్ట"
      ],
      [
        "క",
        "ూడ"
      ],
      [
        "ప్ర",
        "ా"
      ],
      [
        "రా",
        "జ"
      ],
      [
        "క",
        "ో"
      ],
      [
        "క",
        "్ర"
      ],
      [
        "ట",
        "్ట"
      ],
      [
        "1",
        "9"
      ],
      [
        "క",
        "ా"
      ],
      [
        "చ",
        "్చ"
      ],
      [
        "న",
        "ే"
      ],
      [
        "ప",
        "ే"
      ],
      [
        "మ",
        "ొ"
      ],
      [
        "0",
        "0"
      ],
      [
        "ం",
        "చ"
      ],
      [
        "ద",
        "ు"
      ],
      [
        "మ",
        "ా"
      ],
      [
        "య",
        "ా"
      ],
      [
        "ల",
        "ి"
      ],
      [
        "వ",
        "్య"
      ],
      [
        "భారత",
        "ీయ"
      ],
      [
        "త",
        "ర"
      ],
      [
        "న",
        "ా"
      ],
      [
        "ర",
        "ై"
      ],
      [
        "వ",
        "ాత"
      ],
      [
        "స",
        "ి"
      ],
      [
        "్",
        "ల"
      ],
      [
        "త్",
        "వ"
      ],
      [
        "జాత",
        "ీయ"
      ],
      [
        "a",
        "n"
      ],
      [
        "త",
        "ం"
      ],
      [
        "త",
        "ో"
      ],
      [
        "రా",
        "ష్ట"
      ],
      [
        "రాష్ట",
        "్ర"
      ],
      [
        "ఖ",
        "్య"
      ],
      [
        "గ",
        "ు"
      ],
      [
        "వ",
        "చ్చ"
      ],
      [
        "ిక",
        "ి"
      ],
      [
        "భారత",
        "దేశ"
      ],
      [
        "ద్",
        "ధ"
      ],
      [
        "ల్",
        "ల"
      ],
      [
        "ంత",
        "్ర"
      ],
      [
        "d",
        "i"
      ],
      [
        "o",
        "n"
      ],
      [
        "అ",
        "ధిక"
      ],
      [
        "క",
        "ొ"
      ],
      [
        "డ",
        "ు"
      ],
      [
        "ప",
        "ాల"
      ],
      [
        "మ",
        "ైన"
      ],
      [
        "వ",
        "ే"
      ],
      [
        "h",
        "e"
      ],
      [
        "ఒ",
        "క"
      ],
      [
        "క",
        "ాల"
      ],
      [
        "డ",
        "ి"
      ],
      [
        "ణ",
        "ా"
      ],
      [
        "ద",
        "్ర"
      ],
      [
        "మ",
        "ార్"
      ],
      [
        "ండ",
        "ి"
      ],
      [
        "a",
        "r"
      ],
      [
        "ఉ",
        "ంది"
      ],
      [
        "చ",
        "ే"
      ],
      [
        "ట",
        "ు"
      ],
      [
        "ధ",
        "్య"
      ],
      [
        "శ",
        "ా"
      ],
      [
        "్",
        "‌"
      ],
      [
        "ిం",
        "ద"
      ],
      [
        "దేశ",
        "ాల"
      ],
      [
        "ఉన్న",
        "ాయి"
      ],
      [
        "వ్య",
        "వ"
      ],
      [
        "o",
        "f"
      ],
      [
        "ఎ",
        "న్న"
      ],
      [
        "క",
        "ి"
      ],
      [
        "ప",
        "ార"
      ],
      [
        "ప",
        "ంచ"
      ],
      [
        "ా",
        "బ"
      ],
      [
        "ా",
        "న్"
      ],
      [
        "ర్",
        "వ"
      ],
      [
        "న్న",
        "ి"
      ],
      [
        "భారతదేశం",
        "లో"
      ],
      [
        "చ",
        "ె"
      ],
      [
        "డ",
        "్"
      ],
      [
        "ధ",
        "ాన"
      ],
      [
        "ప",
        "ె"
      ],
      [
        "ి",
        "న్న"
      ],
      [
        "ె",
        "ండ"
      ],
      [
        "మార్",
        "గ"
      ],
      [
        "వ్యవ",
        "స్థ"
      ],
      [
        "ం",
        "బ"
      ],
      [
        "క",
        "ృ"
      ],
      [
        "క",
        "ే"
      ],
      [
        "క",
        "ార"
      ],
      [
        "త",
        "ు"
      ],
      [
        "ద",
        "ా"
      ],
      [
        "హ",
        "ింద"
      ],
      [
        "ాన",
        "ికి"
      ],
      [
        "స్త",
        "ు"
      ],
      [
        "కూడ",
        "ా"
      ],
      [
        "పే",
        "రు"
      ],
      [
        "మొ",
        "ద"
      ],
      [
        "అధిక",
        "ార"
      ],
      [
        "n",
        "di"
      ],
      [
        "t",
        "he"
      ],
      [
        "క",
        "ర"
      ],
      [
        "ట",
        "్"
      ],
      [
        "త",
        "్ర"
      ],
      [
        "త",
        "్య"
      ],
      [
        "ద",
        "క్ష"
      ],
      [
        "ప",
        "ర"
      ],
      [
        "ప",
        "రి"
      ],
      [
        "మ",
        "త"
      ],
      [
        "మ",
        "ీ"
      ],
      [
        "మ",
        "ే"
      ],
      [
        "మ",
        "ధ్య"
      ],
      [
        "వ",
        "ర"
      ],
      [
        "స",
        "ు"
      ],
      [
        "ప్ర",
        "పంచ"
      ],
      [
        "ప్ర",
        "ధాన"
      ],
      [
        "ాత",
        "్ర"
      ],
      [
        "ద్",
        "ద"
      ],
      [
        "స్థ",
        "ాన"
      ],
      [
        "భా",
        "ష"
      ],
      [
        "ప్రా",
        "ంత"
      ],
      [
        "రాజ",
        "్య"
      ],
      [
        "రై",
        "లు"
      ],
      [
        "t",
        "i"
      ],
      [
        "ద",
        "ాయ"
      ],
      [
        "న",
        "ాలు"
      ],
      [
        "ప",
        "్"
      ],
      [
        "వ",
        "ార"
      ],
      [
        "వ",
        "ర్"
      ],
      [
        "స",
        "భ"
      ],
      [
        "క్",
        "కు"
      ],
      [
        "దేశం",
        "లో"
      ],
      [
        "్ట",
        "ీ"
      ],
      [
        "క్ర",
        "ీ"
      ],
      [
        "పార",
        "్టీ"
      ],
      [
        "దక్ష",
        "ి"
      ],
      [
        "I",
        "ndi"
      ],
      [
        "a",
        "l"
      ],
      [
        "o",
        "r"
      ],
      [
        "అ",
        "య"
      ],
      [
        "ఆ",
        "ర్"
      ],
      [
        "గ",
        "ి"
      ],
      [
        "జ",
        "నా"
      ],
      [
        "ప",
        "ూ"
      ],
      [
        "ప",
        "ో"
      ],
      [
        "భ",
        "ు"
      ],
      [
        "మ",
        "న"
      ],
      [
        "మ",
        "ి"
      ],
      [
        "ర",
        "ో"
      ],
      [
        "ర",
        "ెండ"
      ],
      [
        "ల",
        "ం"
      ],
      [
        "ల",
        "ా"
      ],
      [
        "వ",
        "ు"
      ],
      [
        "వ",
        "ె"
      ],
      [
        "్య",
        "ం"
      ],
      [
        "ప్ర",
        "జ"
      ],
      [
        "ప్ర",
        "భు"
      ],
      [
        "ము",
        "ఖ్య"
      ],
      [
        "ించ",
        "ిన"
      ],
      [
        "ించ",
        "ింది"
      ],
      [
        "హింద",
        "ూ"
      ],
      [
        "e",
        "r"
      ],
      [
        "i",
        "s"
      ],
      [
        "ం",
        "ద్ర"
      ],
      [
        "ఇ",
        "తర"
      ],
      [
        "గ",
        "ీ"
      ],
      [
        "త",
        "ా"
      ],
      [
        "త",
        "రు"
      ],
      [
        "ల",
        "కు"
      ],
      [
        "వ",
        "ీ"
      ],
      [
        "శ",
        "్ర"
      ],
      [
        "ష",
        "్"
      ],
      [
        "ీ",
        "న"
      ],
      [
        "స్",
        "కృ"
      ],
      [
        "ాల",
        "్"
      ],
      [
        "స్త",
        "్ర"
      ],
      [
        "సా",
        "ం"
      ],
      [
        "వచ్చ",
        "ింది"
      ],
      [
        "పె",
        "ద్ద"
      ],
      [
        "క్కు",
        "వ"
      ],
      [
        "Indi",
        "a"
      ],
      [
        "g",
        "u"
      ],
      [
        "n",
        "t"
      ],
      [
        "అ",
        "తి"
      ],
      [
        "ఉ",
        "త్"
      ],
      [
        "ఉ",
        "ంట"
      ],
      [
        "క",
        "లి"
      ],
      [
        "గ",
        "ర"
      ],
      [
        "జ",
        "న"
      ],
      [
        "జ",
        "రి"
      ],
      [
        "ప",
        "ట్ట"
      ],
      [
        "బ",
        "డ"
      ],
      [
        "బ",
        "ా"
      ],
      [
        "బ",
        "ె"
      ],
      [
        "బ",
        "్ర"
      ],
      [
        "మ",
        "హ"
      ],
      [
        "ల",
        "లో"
      ],
      [
        "వ",
        "ంట"
      ],
      [
        "ు",
        "కు"
      ],
      [
        "వి",
        "ధ"
      ],
      [
        "భా",
        "గ"
      ],
      [
        "వా",
        "ణా"
      ],
      [
        "మార్గ",
        "ాలు"
      ],
      [
        "కే",
        "ంద్ర"
      ],
      [
        "ప్",
        "ప"
      ],
      [
        "క్రీ",
        "డ"
      ],
      [
        "అయ",
        "ిన"
      ],
      [
        "జనా",
        "భా"
      ],
      [
        "ప్రభు",
        "త్వ"
      ],
      [
        "తరు",
        "వాత"
      ],
      [
        ")",
        ","
      ],
      [
        "2",
        "6"
      ],
      [
        "e",
        "s"
      ],
      [
        "అ",
        "నే"
      ],
      [
        "ఇ",
        "ది"
      ],
      [
        "ఎ",
        "క్కువ"
      ],
      [
        "ఏ",
        "ర్"
      ],
      [
        "క",
        "ీయ"
      ],
      [
        "గ",
        "ో"
      ],
      [
        "గ",
        "్"
      ],
      [
        "గ",
        "ిన"
      ],
      [
        "ట",
        "ిక"
      ],
      [
        "ణ",
        "ం"
      ],
      [
        "బ",
        "హ"
      ],
      [
        "మ",
        "ాన"
      ],
      [
        "మ",
        "ంత్ర"
      ],
      [
        "ర",
        "వాణా"
      ],
      [
        "ల",
        "ే"
      ],
      [
        "ల",
        "ను"
      ],
      [
        "స",
        "ిం"
      ],
      [
        "స",
        "రి"
      ],
      [
        "ి",
        "ల్ల"
      ],
      [
        "్ర",
        "ా"
      ],
      [
        "్ర",
        "ె"
      ],
      [
        "ప్ర",
        "స్తు"
      ],
      [
        "ప్ర",
        "దాయ"
      ],
      [
        "క్",
        "క"
      ],
      [
        "స్త",
        "ాన్"
      ],
      [
        "ంది",
        "న"
      ],
      [
        "ంగ",
        "్రె"
      ],
      [
        "పా",
        "కి"
      ],
      [
        "సా",
        "ధ"
      ],
      [
        "రాజ",
        "కీయ"
      ],
      [
        "కా",
        "ంగ్రె"
      ],
      [
        "an",
        "d"
      ],
      [
        "కాల",
        "ంలో"
      ],
      [
        "ar",
        "e"
      ],
      [
        "ఎన్న",
        "ో"
      ],
      [
        "ాబ",
        "్"
      ],
      [
        "మొద",
        "టి"
      ],
      [
        "దక్షి",
        "ణ"
      ],
      [
        "2",
        "00"
      ],
      [
        "e",
        "d"
      ],
      [
        "g",
        "e"
      ],
      [
        "అ",
        "త్య"
      ],
      [
        "ఇ",
        "ండి"
      ],
      [
        "ఉ",
        "ప"
      ],
      [
        "క",
        "్య"
      ],
      [
        "గ",
        "ణ"
      ],
      [
        "గ",
        "ల"
      ],
      [
        "చ",
        "ిన్న"
      ],
      [
        "ద",
        "ం"
      ],
      [
        "ప",
        "ం"
      ],
      [
        "ప",
        "ై"
      ],
      [
        "ప",
        "తి"
      ],
      [
        "భ",
        "ూ"
      ],
      [
        "మ",
        "ై"
      ],
      [
        "య",
        "ు"
      ],
      [
        "య",
        "ో"
      ],
      [
        "ర",
        "ం"
      ],
      [
        "ర",
        "ంగ"
      ],
      [
        "ల",
        "తో"
      ],
      [
        "వ",
        "ల"
      ],
      [
        "శ",
        "్"
      ],
      [
        "ష",
        "ు"
      ],
      [
        "స",
        "ము"
      ],
      [
        "ా",
        "వర"
      ],
      [
        "ు",
        "కో"
      ],
      [
        "ె",
        "లు"
      ],
      [
        "్",
        "మ"
      ],
      [
        "ప్ర",
        "ము"
      ],
      [
        "ప్ర",
        "తి"
      ],
      [
        "ాల",
        "లో"
      ],
      [
        "ాల",
        "ను"
      ],
      [
        "వి",
        "స్త"
      ],
      [
        "ండ",
        "ు"
      ],
      [
        "ించ",
        "ి"
      ],
      [
        "సం",
        "గీ"
      ],
      [
        "సం",
        "స్కృ"
      ],
      [
        "ంగ",
        "్ల"
      ],
      [
        "ిత",
        "్ర"
      ],
      [
        "ప్రా",
        "చ"
      ],
      [
        "క్ర",
        "మ"
      ],
      [
        "సి",
        "ని"
      ],
      [
        "సి",
        "యా"
      ],
      [
        "ద్ధ",
        "ి"
      ],
      [
        "శా",
        "స్త్ర"
      ],
      [
        "ఆర్",
        "ధిక"
      ],
      [
        "సరి",
        "హ"
      ],
      [
        "అత్య",
        "ధిక"
      ],
      [
        "ఇండి",
        "యా"
      ],
      [
        "ప్రము",
        "ఖ"
      ],
      [
        "2",
        "0"
      ],
      [
        "5",
        "0"
      ],
      [
        "a",
        "s"
      ],
      [
        "c",
        "t"
      ],
      [
        "i",
        "n"
      ],
      [
        "l",
        "is"
      ],
      [
        "o",
        "u"
      ],
      [
        "t",
        "o"
      ],
      [
        "ం",
        "ధ"
      ],
      [
        "ఆ",
        "ధ"
      ],
      [
        "క",
        "ాలు"
      ],
      [
        "గ",
        "లు"
      ],
      [
        "జ",
        "ాబ"
      ],
      [
        "ట",
        "్ల"
      ],
      [
        "ఢ",
        "ిల్ల"
      ],
      [
        "ణ",
        "ి"
      ],
      [
        "త",
        "ిక"
      ],
      [
        "త",
        "ంత్ర"
      ],
      [
        "ద",
        "ార"
      ],
      [
        "ధ",
        "ి"
      ],
      [
        "న",
        "ీ"
      ],
      [
        "న",
        "ె"
      ],
      [
        "న",
        "డి"
      ],
      [
        "భ",
        "ిన్న"
      ],
      [
        "మ",
        "ె"
      ],
      [
        "మ",
        "ూడ"
      ],
      [
        "మ",
        "ాత్ర"
      ],
      [
        "ర",
        "హ"
      ],
      [
        "వ",
        "హ"
      ],
      [
        "వ",
        "ై"
      ],
      [
        "స",
        "ౌ"
      ],
      [
        "స",
        "ింది"
      ],
      [
        "స",
        "మా"
      ],
      [
        "హ",
        "ార"
      ],
      [
        "ీ",
        "ర్"
      ],
      [
        "స్",
        "య"
      ],
      [
        "స్",
        "వ"
      ],
      [
        "స్",
        "వా"
      ],
      [
        "స్",
        "వాత"
      ],
      [
        "్య",
        "ాయ"
      ],
      [
        "భారత",
        "్"
      ],
      [
        "వి",
        "విధ"
      ],
      [
        "ద్",
        "దు"
      ],
      [
        "ంత",
        "ో"
      ],
      [
        "సా",
        "మ"
      ],
      [
        "కో",
        "ర్"
      ],
      [
        "పే",
        "ర్"
      ],
      [
        "00",
        "0"
      ],
      [
        "రాష్ట్ర",
        "ాలు"
      ],
      [
        "రాష్ట్ర",
        "పతి"
      ],
      [
        "శా",
        "ఖ"
      ],
      [
        "డ్",
        "డ"
      ],
      [
        "మొద",
        "ల"
      ],
      [
        "కర",
        "్య"
      ],
      [
        "ప్రాంత",
        "ాలు"
      ],
      [
        "ti",
        "on"
      ],
      [
        "దేశంలో",
        "ని"
      ],
      [
        "రెండ",
        "ు"
      ],
      [
        "ాల్",
        "లో"
      ],
      [
        "ఉత్",
        "తర"
      ],
      [
        "పట్ట",
        "ణ"
      ],
      [
        "బె",
        "ంగ"
      ],
      [
        "బ్ర",
        "ి"
      ],
      [
        "భాగ",
        "ం"
      ],
      [
        "ప్ప",
        "టిక"
      ],
      [
        "ఏర్",
        "ప"
      ],
      [
        "బహ",
        "ు"
      ],
      [
        "మంత్ర",
        "ి"
      ],
      [
        "సిం",
        "ధ"
      ],
      [
        "సరిహ",
        "ద్దు"
      ],
      [
        "ఢిల్ల",
        "ీ"
      ],
      [
        "దార",
        "ులు"
      ],
      [
        "నడి",
        "ప"
      ],
      [
        "సౌ",
        "కర్య"
      ],
      [
        "స్వాత",
        "ంత్ర"
      ],
      [
        ")",
        "."
      ],
      [
        ".",
        "."
      ],
      [
        "1",
        "4"
      ],
      [
        "C",
        "on"
      ],
      [
        "e",
        "nt"
      ],
      [
        "n",
        "o"
      ],
      [
        "ం",
        "ద"
      ],
      [
        "ం",
        "దు"
      ],
      [
        "అ",
        "భ"
      ],
      [
        "అ",
        "ను"
      ],
      [
        "క",
        "ం"
      ],
      [
        "క",
        "ళ"
      ],
      [
        "క",
        "ల్"
      ],
      [
        "గ",
        "ే"
      ],
      [
        "గ",
        "ంగా"
      ],
      [
        "చ",
        "ార"
      ],
      [
        "చ",
        "రి"
      ],
      [
        "చ",
        "ైన"
      ],
      [
        "జ",
        "్య"
      ],
      [
        "ట",
        "ం"
      ],
      [
        "ట",
        "ీ"
      ],
      [
        "ట",
        "ె"
      ],
      [
        "త",
        "న"
      ],
      [
        "త",
        "ూ"
      ],
      [
        "త",
        "మి"
      ],
      [
        "త",
        "ాబ్"
      ],
      [
        "థ",
        "ిక"
      ],
      [
        "న",
        "గర"
      ],
      [
        "ప",
        "త"
      ],
      [
        "ప",
        "ొ"
      ],
      [
        "ప",
        "ద్ధ"
      ],
      [
        "ప",
        "ాత్ర"
      ],
      [
        "ప",
        "ండు"
      ],
      [
        "మ",
        "లు"
      ],
      [
        "మ",
        "్య"
      ],
      [
        "ర",
        "ూ"
      ],
      [
        "ళ",
        "ం"
      ],
      [
        "ళ",
        "్ల"
      ],
      [
        "వ",
        "డ"
      ],
      [
        "వ",
        "ృ"
      ],
      [
        "వ",
        "త్"
      ],
      [
        "శ",
        "తాబ్"
      ],
      [
        "స",
        "మ"
      ],
      [
        "స",
        "ై"
      ],
      [
        "స",
        "ార"
      ],
      [
        "స",
        "ర్వ"
      ],
      [
        "ి",
        "మ"
      ],
      [
        "ు",
        "ంది"
      ],
      [
        "ాల",
        "తో"
      ],
      [
        "న్న",
        "ాయి"
      ],
      [
        "ని",
        "ర్వ"
      ],
      [
        "ను",
        "క"
      ],
      [
        "ను",
        "ండి"
      ],
      [
        "త్",
        "తం"
      ],
      [
        "ించ",
        "ే"
      ],
      [
        "ల్",
        "వే"
      ],
      [
        "సం",
        "ఖ్య"
      ],
      [
        "పు",
        "ట్ట"
      ],
      [
        "ిత",
        "ా"
      ],
      [
        "కూడ",
        "ిన"
      ],
      [
        "19",
        "7"
      ],
      [
        "మొ",
        "త్తం"
      ],
      [
        "రై",
        "ల్వే"
      ],
      [
        "వాత",
        "ావర"
      ],
      [
        "an",
        "gu"
      ],
      [
        "భారతదేశ",
        "ానికి"
      ],
      [
        "పాల",
        "న"
      ],
      [
        "ఒక",
        "టి"
      ],
      [
        "చే",
        "య"
      ],
      [
        "దేశాల",
        "లో"
      ],
      [
        "కార",
        "ం"
      ],
      [
        "తు",
        "న్న"
      ],
      [
        "అధికార",
        "ిక"
      ],
      [
        "ట్",
        "లు"
      ],
      [
        "ప్రపంచ",
        "ంలో"
      ],
      [
        "భాష",
        "లు"
      ],
      [
        "వె",
        "బ"
      ],
      [
        "ప్రజ",
        "ా"
      ],
      [
        "ఉంట",
        "ాయి"
      ],
      [
        "కలి",
        "గి"
      ],
      [
        "జరి",
        "గిన"
      ],
      [
        "వంట",
        "ి"
      ],
      [
        "అనే",
        "క"
      ],
      [
        "ఎక్కువ",
        "గా"
      ],
      [
        "ప్రస్తు",
        "తం"
      ],
      [
        "కాంగ్రె",
        "సు"
      ],
      [
        "సము",
        "ద్ర"
      ],
      [
        "ప్రాచ",
        "ీన"
      ],
      [
        "జాబ",
        "ితా"
      ],
      [
        "రహ",
        "దారులు"
      ],
      [
        "అభ",
        "ి"
      ],
      [
        "చరి",
        "త్ర"
      ],
      [
        "శతాబ్",
        "దం"
      ],
      [
        "నిర్వ",
        "హ"
      ],
      [
        "వాతావర",
        "ణం"
      ],
      [
        "angu",
        "a"
      ],
      [
        "%",
        "),"
      ],
      [
        "1",
        "0"
      ],
      [
        "1",
        "7"
      ],
      [
        "1",
        "8"
      ],
      [
        "2",
        "3"
      ],
      [
        "4",
        "7"
      ],
      [
        "C",
        "I"
      ],
      [
        "a",
        "t"
      ],
      [
        "a",
        "tion"
      ],
      [
        "d",
        "e"
      ],
      [
        "f",
        "i"
      ],
      [
        "i",
        "l"
      ],
      [
        "k",
        "m"
      ],
      [
        "l",
        "angua"
      ],
      [
        "m",
        "i"
      ],
      [
        "s",
        "q"
      ],
      [
        "t",
        "h"
      ],
      [
        "t",
        "al"
      ],
      [
        "అ",
        "ని"
      ],
      [
        "ఆ",
        "ఫ"
      ],
      [
        "ఇ",
        "వ"
      ],
      [
        "క",
        "ల"
      ],
      [
        "ఖ",
        "ండ"
      ],
      [
        "చ",
        "ి"
      ],
      [
        "జ",
        "ి"
      ],
      [
        "జ",
        "న్"
      ],
      [
        "ట",
        "ా"
      ],
      [
        "డ",
        "ే"
      ],
      [
        "ణ",
        "ంగా"
      ],
      [
        "ద",
        "న"
      ],
      [
        "ద",
        "ీ"
      ],
      [
        "ద",
        "్య"
      ],
      [
        "న",
        "ాయ"
      ],
      [
        "న",
        "్యాయ"
      ],
      [
        "ప",
        "ద"
      ],
      [
        "ప",
        "శ"
      ],
      [
        "ప",
        "క్ష"
      ],
      [
        "మ",
        "ల"
      ],
      [
        "మ",
        "ాలు"
      ],
      [
        "మ",
        "్మ"
      ],
      [
        "య",
        "ాలు"
      ],
      [
        "ర",
        "ే"
      ],
      [
        "ర",
        "్య"
      ],
      [
        "ర",
        "కాల"
      ],
      [
        "ల",
        "క్ష"
      ],
      [
        "వ",
        "రి"
      ],
      [
        "స",
        "ర"
      ],
      [
        "స",
        "ూ"
      ],
      [
        "హ",
        "ా"
      ],
      [
        "ి",
        "ల్"
      ],
      [
        "ి",
        "స్త"
      ],
      [
        "ీ",
        "లు"
      ],
      [
        "ు",
        "ల"
      ],
      [
        "ె",
        "ల"
      ],
      [
        "ో",
        "ర"
      ],
      [
        "లో",
        "క్"
      ],
      [
        "స్",
        "లా"
      ],
      [
        "ది",
        "నాలు"
      ],
      [
        "ప్ర",
        "కారం"
      ],
      [
        "ాల",
        "ీ"
      ],
      [
        "ాల",
        "కు"
      ],
      [
        "ిక",
        "త"
      ],
      [
        "ిక",
        "్"
      ],
      [
        "కు",
        "ల"
      ],
      [
        "కు",
        "ంట"
      ],
      [
        "కు",
        "టు"
      ],
      [
        "ని",
        "ర్"
      ],
      [
        "ాయ",
        "ు"
      ],
      [
        "రా",
        "స్య"
      ],
      [
        "ము",
        "లో"
      ],
      [
        "ము",
        "ంబ"
      ],
      [
        "ద్",
        "వీ"
      ],
      [
        "ల్",
        "లో"
      ],
      [
        "సం",
        "ఘ"
      ],
      [
        "సం",
        "ప్రదాయ"
      ],
      [
        "సం",
        "వత్"
      ],
      [
        "స్థ",
        "ాన్"
      ],
      [
        "ంట",
        "ే"
      ],
      [
        "పా",
        "క్"
      ],
      [
        "పా",
        "టు"
      ],
      [
        "క్ష",
        "రాస్య"
      ],
      [
        "ఉన్న",
        "ారు"
      ],
      [
        "టి",
        "లో"
      ],
      [
        "19",
        "9"
      ],
      [
        "19",
        "50"
      ],
      [
        "ంచ",
        "ి"
      ],
      [
        "వ్య",
        "ా"
      ],
      [
        "రై",
        "ళ్ల"
      ],
      [
        "రాష్ట్ర",
        "ాల"
      ],
      [
        "వచ్చ",
        "ిన"
      ],
      [
        "భారతదేశ",
        "పు"
      ],
      [
        "కొ",
        "న్ని"
      ],
      [
        "పాల",
        "ిత"
      ],
      [
        "మైన",
        "ది"
      ],
      [
        "వే",
        "గంగా"
      ],
      [
        "ణా",
        "సియా"
      ],
      [
        "భారతదేశంలో",
        "ని"
      ],
      [
        "చె",
        "ందిన"
      ],
      [
        "డ్",
        "డు"
      ],
      [
        "వ్యవస్థ",
        "లో"
      ],
      [
        "కార",
        "్య"
      ],
      [
        "కర",
        "ణ"
      ],
      [
        "పర",
        "ంగా"
      ],
      [
        "పరి",
        "శ్ర"
      ],
      [
        "మే",
        "న"
      ],
      [
        "ప్రధాన",
        "మంత్రి"
      ],
      [
        "స్థాన",
        "ంలో"
      ],
      [
        "రాజ్య",
        "ాలు"
      ],
      [
        "వార",
        "స"
      ],
      [
        "సభ",
        "్య"
      ],
      [
        "ఆర్",
        "థిక"
      ],
      [
        "పూ",
        "ర్వ"
      ],
      [
        "రో",
        "డ్డు"
      ],
      [
        "ముఖ్య",
        "మైన"
      ],
      [
        "సాం",
        "ప్రదాయ"
      ],
      [
        "జన",
        "గణ"
      ],
      [
        "బా",
        "ద్"
      ],
      [
        "కేంద్ర",
        "పాలిత"
      ],
      [
        "ప్రభుత్వ",
        "ం"
      ],
      [
        "పాకి",
        "స్తాన్"
      ],
      [
        "పాకి",
        "స్థాన్"
      ],
      [
        "are",
        "a"
      ],
      [
        "దక్షిణ",
        "ాన"
      ],
      [
        "200",
        "4"
      ],
      [
        "పై",
        "గా"
      ],
      [
        "సంగీ",
        "తం"
      ],
      [
        "సంస్కృ",
        "తి"
      ],
      [
        "సిని",
        "మా"
      ],
      [
        "శాస్త్ర",
        "ం"
      ],
      [
        "lis",
        "t"
      ],
      [
        "to",
        "tal"
      ],
      [
        "ఆధ",
        "ార"
      ],
      [
        "మూడ",
        "ు"
      ],
      [
        "మాత్ర",
        "ం"
      ],
      [
        "స్వ",
        "తంత్ర"
      ],
      [
        "స్వా",
        "మ్య"
      ],
      [
        "సామ",
        "్రా"
      ],
      [
        "బెంగ",
        "ాలీ"
      ],
      [
        "బ్రి",
        "టి"
      ],
      [
        "ప్పటిక",
        "ీ"
      ],
      [
        "నడిప",
        "ించ"
      ],
      [
        "స్వాతంత్ర",
        "్య"
      ],
      [
        "వృ",
        "ద్ధి"
      ],
      [
        "సర్వ",
        "ీ"
      ],
      [
        "అభి",
        "వృద్ధి"
      ],
      [
        "langua",
        "ge"
      ],
      [
        "ఆఫ",
        "్"
      ],
      [
        "పశ",
        "్చ"
      ],
      [
        "కుటు",
        "ంబ"
      ],
      [
        "క్షరాస్య",
        "త"
      ],
      [
        "1",
        "2"
      ],
      [
        "2",
        "2"
      ],
      [
        "4",
        "0"
      ],
      [
        "4",
        "6"
      ],
      [
        "8",
        "7"
      ],
      [
        "B",
        "N"
      ],
      [
        "I",
        "S"
      ],
      [
        "T",
        "he"
      ],
      [
        "a",
        "ct"
      ],
      [
        "c",
        "h"
      ],
      [
        "c",
        "i"
      ],
      [
        "f",
        "f"
      ],
      [
        "g",
        "r"
      ],
      [
        "i",
        "v"
      ],
      [
        "l",
        "y"
      ],
      [
        "n",
        "g"
      ],
      [
        "n",
        "i"
      ],
      [
        "r",
        "i"
      ],
      [
        "r",
        "y"
      ],
      [
        "s",
        "e"
      ],
      [
        "s",
        "ti"
      ],
      [
        "t",
        "u"
      ],
      [
        "w",
        "i"
      ],
      [
        "ం",
        "భ"
      ],
      [
        "అ",
        "హ"
      ],
      [
        "అ",
        "వి"
      ],
      [
        "ఆ",
        "క్రమ"
      ],
      [
        "ఆ",
        "హార"
      ],
      [
        "ఇ",
        "వి"
      ],
      [
        "ఇ",
        "ంగ్ల"
      ],
      [
        "ఇ",
        "స్లా"
      ],
      [
        "ఉ",
        "ండ"
      ],
      [
        "క",
        "థ"
      ],
      [
        "క",
        "ూ"
      ],
      [
        "క",
        "న్న"
      ],
      [
        "క",
        "త్వ"
      ],
      [
        "క",
        "ింద"
      ],
      [
        "క",
        "ీర్"
      ],
      [
        "చ",
        "న"
      ],
      [
        "చ",
        "ు"
      ],
      [
        "చ",
        "ాల"
      ],
      [
        "చ",
        "ిత్ర"
      ],
      [
        "జ",
        "ీ"
      ],
      [
        "జ",
        "ాలు"
      ],
      [
        "జ",
        "రు"
      ],
      [
        "జ",
        "ంబ"
      ],
      [
        "ట",
        "ే"
      ],
      [
        "ట",
        "ై"
      ],
      [
        "ట",
        "ర్"
      ],
      [
        "ట",
        "ులు"
      ],
      [
        "డ",
        "ిన"
      ],
      [
        "త",
        "ల"
      ],
      [
        "త",
        "ీ"
      ],
      [
        "త",
        "ె"
      ],
      [
        "త",
        "ే"
      ],
      [
        "త",
        "ము"
      ],
      [
        "త",
        "ులు"
      ],
      [
        "త",
        "ంలో"
      ],
      [
        "త",
        "ెలు"
      ],
      [
        "ద",
        "ర"
      ],
      [
        "న",
        "ది"
      ],
      [
        "ప",
        "ీ"
      ],
      [
        "ప",
        "ార్"
      ],
      [
        "బ",
        "ి"
      ],
      [
        "బ",
        "ంగ్ల"
      ],
      [
        "బ",
        "ంధ"
      ],
      [
        "బ",
        "డ్డ"
      ],
      [
        "భ",
        "ర"
      ],
      [
        "భ",
        "ౌ"
      ],
      [
        "మ",
        "ర"
      ],
      [
        "మ",
        "ూ"
      ],
      [
        "మ",
        "ౌ"
      ],
      [
        "మ",
        "ాత"
      ],
      [
        "మ",
        "తి"
      ],
      [
        "మ",
        "ంది"
      ],
      [
        "మ",
        "ారు"
      ],
      [
        "య",
        "ం"
      ],
      [
        "య",
        "ింది"
      ],
      [
        "ర",
        "ీ"
      ],
      [
        "ల",
        "ీ"
      ],
      [
        "ల",
        "ె"
      ],
      [
        "ల",
        "ిం"
      ],
      [
        "ళ",
        "్"
      ],
      [
        "ళ",
        "ిక"
      ],
      [
        "వ",
        "ం"
      ],
      [
        "వ",
        "ులు"
      ],
      [
        "వ",
        "ల్ల"
      ],
      [
        "వ",
        "లం"
      ],
      [
        "శ",
        "ెల"
      ],
      [
        "స",
        "హ"
      ],
      [
        "స",
        "ే"
      ],
      [
        "స",
        "్ర"
      ],
      [
        "స",
        "ులు"
      ],
      [
        "స",
        "ైన"
      ],
      [
        "స",
        "ార్"
      ],
      [
        "హ",
        "ై"
      ],
      [
        "హ",
        "ిమ"
      ],
      [
        "ా",
        "దేశ"
      ],
      [
        "ా",
        "ంగ"
      ],
      [
        "ి",
        "గా"
      ],
      [
        "ు",
        "కొ"
      ],
      [
        "ూ",
        "రు"
      ],
      [
        "ె",
        "ట్"
      ],
      [
        "్",
        "వ"
      ],
      [
        "ార",
        "ంభ"
      ],
      [
        "లో",
        "య"
      ],
      [
        "్య",
        "ా"
      ],
      [
        "ప్ర",
        "ారంభ"
      ],
      [
        "దేశ",
        "పు"
      ],
      [
        "దేశ",
        "ానికి"
      ],
      [
        "ాల",
        "నే"
      ],
      [
        "ాల",
        "ెండ"
      ],
      [
        "ిక",
        "ా"
      ],
      [
        "ర్",
        "త"
      ],
      [
        "ర్",
        "ష"
      ],
      [
        "ర్",
        "‌"
      ],
      [
        "న్న",
        "ది"
      ],
      [
        "న్న",
        "ారు"
      ],
      [
        "గా",
        "ంధ"
      ],
      [
        "కు",
        "లు"
      ],
      [
        "ని",
        "స్తాన్"
      ],
      [
        "వి",
        "ధ్య"
      ],
      [
        "వి",
        "భిన్న"
      ],
      [
        "వి",
        "ద్య"
      ],
      [
        "ాత",
        "ో"
      ],
      [
        "క్",
        "తి"
      ],
      [
        "దేశం",
        "గా"
      ],
      [
        "ను",
        "లు"
      ],
      [
        "ను",
        "ంచి"
      ],
      [
        "ద్",
        "వార"
      ],
      [
        "త్",
        "వా"
      ],
      [
        "త్",
        "తా"
      ],
      [
        "సం",
        "కీర్"
      ],
      [
        "సం",
        "బంధ"
      ],
      [
        "పు",
        "రు"
      ],
      [
        "స్థ",
        "ి"
      ],
      [
        "ంట",
        "ు"
      ],
      [
        "పా",
        "దన"
      ],
      [
        "వా",
        "హ"
      ],
      [
        "వా",
        "ణి"
      ],
      [
        "జాత",
        "ి"
      ],
      [
        "కూడ",
        "ుకు"
      ],
      [
        "రాజ",
        "ు"
      ],
      [
        "కో",
        "ల్"
      ],
      [
        "ట్ట",
        "మొదటి"
      ],
      [
        "19",
        "47"
      ],
      [
        "కా",
        "గా"
      ],
      [
        "కా",
        "శ్"
      ],
      [
        "నే",
        "పాల"
      ],
      [
        "మొ",
        "ట్టమొదటి"
      ],
      [
        "మా",
        "బాద్"
      ],
      [
        "లి",
        "చ"
      ],
      [
        "తర",
        "ాలు"
      ],
      [
        "నా",
        "గర"
      ],
      [
        "గు",
        "వ"
      ],
      [
        "గు",
        "ర్త"
      ],
      [
        "వచ్చ",
        "ు"
      ],
      [
        "ద్ధ",
        "ం"
      ],
      [
        "పాల",
        "ించ"
      ],
      [
        "ఒక",
        "ే"
      ],
      [
        "చే",
        "సింది"
      ],
      [
        "్‌",
        "సై"
      ],
      [
        "of",
        "fi"
      ],
      [
        "ఎన్న",
        "ిక"
      ],
      [
        "పె",
        "నీ"
      ],
      [
        "కే",
        "వలం"
      ],
      [
        "కార",
        "ణంగా"
      ],
      [
        "తు",
        "ంది"
      ],
      [
        "దా",
        "పు"
      ],
      [
        "దా",
        "దాపు"
      ],
      [
        "హింద",
        "ీ"
      ],
      [
        "త్ర",
        "ి"
      ],
      [
        "మత",
        "ాలు"
      ],
      [
        "స్థాన",
        "ం"
      ],
      [
        "భాష",
        "ా"
      ],
      [
        "రాజ్య",
        "ాంగ"
      ],
      [
        "నాలు",
        "గు"
      ],
      [
        "వర్",
        "గ"
      ],
      [
        "వర్",
        "ణ"
      ],
      [
        "దక్షి",
        "ణాసియా"
      ],
      [
        "వె",
        "నుక"
      ],
      [
        "ప్రజ",
        "ల"
      ],
      [
        "హిందూ",
        "దేశం"
      ],
      [
        "వీ",
        "టిలో"
      ],
      [
        "శ్ర",
        "ీ"
      ],
      [
        "ష్",
        "ణ"
      ],
      [
        "స్కృ",
        "తిక"
      ],
      [
        "సాం",
        "స్కృతిక"
      ],
      [
        "nt",
        "ry"
      ],
      [
        "ఉంట",
        "ుంది"
      ],
      [
        "కలి",
        "సి"
      ],
      [
        "బడ",
        "త"
      ],
      [
        "బడ",
        "ిన"
      ],
      [
        "బడ",
        "ింది"
      ],
      [
        "మహ",
        "ా"
      ],
      [
        "ుకు",
        "ంట"
      ],
      [
        "క్రీడ",
        "లు"
      ],
      [
        "తరువాత",
        "ి"
      ],
      [
        "లే",
        "దా"
      ],
      [
        "సాధ",
        "ించ"
      ],
      [
        "ఉప",
        "ఖండ"
      ],
      [
        "క్య",
        "ాలెండ"
      ],
      [
        "ుకో",
        "వడ"
      ],
      [
        "ప్రతి",
        "పాదన"
      ],
      [
        "విస్త",
        "ారు"
      ],
      [
        "ిత్ర",
        "క"
      ],
      [
        "సిని",
        "మాలు"
      ],
      [
        "శాస్త్ర",
        "ీయ"
      ],
      [
        "ou",
        "ntry"
      ],
      [
        "వై",
        "విధ్య"
      ],
      [
        "సమా",
        "ఖ్య"
      ],
      [
        "కోర్",
        "టు"
      ],
      [
        "కోర్",
        "టులు"
      ],
      [
        "పేర్",
        "లు"
      ],
      [
        "పేర్",
        "కొ"
      ],
      [
        "మొదల",
        "ైన"
      ],
      [
        "పట్టణ",
        "ాలు"
      ],
      [
        "ఏర్ప",
        "డ్డ"
      ],
      [
        "బహు",
        "ళ"
      ],
      [
        "సింధ",
        "ు"
      ],
      [
        "Con",
        "sti"
      ],
      [
        "కం",
        "పెనీ"
      ],
      [
        "చార",
        "ిత్రక"
      ],
      [
        "తమి",
        "ళం"
      ],
      [
        "నగర",
        "ాలు"
      ],
      [
        "పత",
        "కాలు"
      ],
      [
        "పొ",
        "ందిన"
      ],
      [
        "పద్ధ",
        "తి"
      ],
      [
        "పండు",
        "గలు"
      ],
      [
        "ఒకటి",
        "గా"
      ],
      [
        "వెబ",
        "్‌సై"
      ],
      [
        "ప్రజా",
        "స్వామ్య"
      ],
      [
        "సముద్ర",
        "ం"
      ],
      [
        "నిర్వహ",
        "ణ"
      ],
      [
        "il",
        "e"
      ],
      [
        "జన్",
        "మ"
      ],
      [
        "ముంబ",
        "ై"
      ],
      [
        "సంప్రదాయ",
        "ాలు"
      ],
      [
        "వ్యా",
        "పార"
      ],
      [
        "రైళ్ల",
        "ను"
      ],
      [
        "కార్య",
        "క్రమ"
      ],
      [
        "పరిశ్ర",
        "మలు"
      ],
      [
        "వారస",
        "త్వ"
      ],
      [
        "సాంప్రదాయ",
        "ిక"
      ],
      [
        "list",
        "s"
      ],
      [
        "సర్వీ",
        "సులు"
      ],
      [
        "ఆఫ్",
        "ఘ"
      ],
      [
        "IS",
        "BN"
      ],
      [
        "ci",
        "al"
      ],
      [
        "ff",
        "er"
      ],
      [
        "ఇస్లా",
        "మాబాద్"
      ],
      [
        "కన్న",
        "డ"
      ],
      [
        "చాల",
        "ా"
      ],
      [
        "జరు",
        "పు"
      ],
      [
        "జంబ",
        "ూ"
      ],
      [
        "తెలు",
        "గు"
      ],
      [
        "పీ",
        "ఠ"
      ],
      [
        "బంగ్ల",
        "ాదేశ"
      ],
      [
        "ళ్",
        "ళ"
      ],
      [
        "శెల",
        "వు"
      ],
      [
        "హిమ",
        "ాల"
      ],
      [
        "గాంధ",
        "ీ"
      ],
      [
        "ద్వార",
        "ా"
      ],
      [
        "త్వా",
        "న్ని"
      ],
      [
        "వాణి",
        "జ్య"
      ],
      [
        "కాశ్",
        "మీ"
      ],
      [
        "నాగర",
        "ికత"
      ],
      [
        "offi",
        "cial"
      ],
      [
        "వెనుక",
        "టి"
      ],
      [
        "క్యాలెండ",
        "ర్"
      ],
      [
        "Consti",
        "tu"
      ],
      [
        "వెబ్‌సై",
        "టు"
      ],
      [
        "\"",
        "("
      ],
      [
        "\"",
        ","
      ],
      [
        "%",
        ","
      ],
      [
        "1",
        "6"
      ],
      [
        "1",
        "లో"
      ],
      [
        "2",
        "9"
      ],
      [
        "2",
        "87"
      ],
      [
        "3",
        "0"
      ],
      [
        "5",
        "6"
      ],
      [
        "5",
        "9"
      ],
      [
        "6",
        "0"
      ],
      [
        "6",
        "2"
      ],
      [
        "7",
        "లో"
      ],
      [
        "8",
        "3"
      ],
      [
        "8",
        "లో"
      ],
      [
        "A",
        "s"
      ],
      [
        "C",
        "E"
      ],
      [
        "C",
        "ountry"
      ],
      [
        "E",
        "F"
      ],
      [
        "E",
        "R"
      ],
      [
        "E",
        "th"
      ],
      [
        "E",
        "ng"
      ],
      [
        "F",
        "act"
      ],
      [
        "H",
        "i"
      ],
      [
        "L",
        "i"
      ],
      [
        "P",
        "r"
      ],
      [
        "S",
        "I"
      ],
      [
        "T",
        "ER"
      ],
      [
        "U",
        "ni"
      ],
      [
        "_",
        "of"
      ],
      [
        "b",
        "o"
      ],
      [
        "b",
        "r"
      ],
      [
        "b",
        "ly"
      ],
      [
        "e",
        "v"
      ],
      [
        "e",
        "x"
      ],
      [
        "e",
        "ct"
      ],
      [
        "h",
        "ar"
      ],
      [
        "l",
        "d"
      ],
      [
        "l",
        "o"
      ],
      [
        "l",
        "p"
      ],
      [
        "l",
        "and"
      ],
      [
        "m",
        "e"
      ],
      [
        "m",
        "bly"
      ],
      [
        "o",
        "k"
      ],
      [
        "o",
        "w"
      ],
      [
        "r",
        "or"
      ],
      [
        "t",
        "ar"
      ],
      [
        "t",
        "er"
      ],
      [
        "t",
        "ed"
      ],
      [
        "w",
        "h"
      ],
      [
        "ం",
        "క"
      ],
      [
        "అ",
        "ణ"
      ],
      [
        "అ",
        "వ"
      ],
      [
        "అ",
        "ంత"
      ],
      [
        "అ",
        "ంట"
      ],
      [
        "అ",
        "న్ని"
      ],
      [
        "అ",
        "ప్ప"
      ],
      [
        "అ",
        "మె"
      ],
      [
        "అ",
        "క్షరాస్యత"
      ],
      [
        "ఆ",
        "సియా"
      ],
      [
        "ఇ",
        "దే"
      ],
      [
        "ఇ",
        "ండ"
      ],
      [
        "ఇ",
        "క్క"
      ],
      [
        "ఇ",
        "టీ"
      ],
      [
        "ఈ",
        "శ"
      ],
      [
        "ఈ",
        "స్"
      ],
      [
        "ఎ",
        "డ"
      ],
      [
        "ఎ",
        "ల"
      ],
      [
        "ఏ",
        "ప్ర"
      ],
      [
        "ఐ",
        "రో"
      ],
      [
        "ఐ",
        "క్య"
      ],
      [
        "ఒ",
        "లం"
      ],
      [
        "క",
        "ీ"
      ],
      [
        "క",
        "లు"
      ],
      [
        "క",
        "ిక"
      ],
      [
        "క",
        "ాత"
      ],
      [
        "క",
        "ను"
      ],
      [
        "క",
        "నుక"
      ],
      [
        "క",
        "ంటే"
      ],
      [
        "క",
        "బడ్డ"
      ],
      [
        "ఖ",
        "ో"
      ],
      [
        "ఖ",
        "ని"
      ],
      [
        "గ",
        "త"
      ],
      [
        "గ",
        "మ"
      ],
      [
        "గ",
        "్ర"
      ],
      [
        "గ",
        "ర్"
      ],
      [
        "గ",
        "ంగ"
      ],
      [
        "గ",
        "మన"
      ],
      [
        "గ",
        "్రా"
      ],
      [
        "గ",
        "ెలు"
      ],
      [
        "చ",
        "ద"
      ],
      [
        "చ",
        "య"
      ],
      [
        "చ",
        "ీ"
      ],
      [
        "చ",
        "ూ"
      ],
      [
        "చ",
        "వి"
      ],
      [
        "చ",
        "ూడ"
      ],
      [
        "చ",
        "ించిన"
      ],
      [
        "చ",
        "ుకోవడ"
      ],
      [
        "జ",
        "ల"
      ],
      [
        "జ",
        "ో"
      ],
      [
        "జ",
        "్"
      ],
      [
        "జ",
        "ిక"
      ],
      [
        "జ",
        "్యం"
      ],
      [
        "జ",
        "మ్మ"
      ],
      [
        "ట",
        "క"
      ],
      [
        "ట",
        "్ర"
      ],
      [
        "ట",
        "లు"
      ],
      [
        "ట",
        "న్"
      ],
      [
        "ట",
        "ంలో"
      ],
      [
        "ట",
        "్‌"
      ],
      [
        "ట",
        "ాన్"
      ],
      [
        "ట",
        "ోర"
      ],
      [
        "డ",
        "ైన"
      ],
      [
        "ఢ",
        "ా"
      ],
      [
        "ణ",
        "ులు"
      ],
      [
        "త",
        "ర్"
      ],
      [
        "త",
        "ను"
      ],
      [
        "త",
        "ంగా"
      ],
      [
        "త",
        "త్వ"
      ],
      [
        "త",
        "క్కువ"
      ],
      [
        "థ",
        "ాలు"
      ],
      [
        "థ",
        "్యం"
      ],
      [
        "ద",
        "ర్"
      ],
      [
        "ద",
        "గా"
      ],
      [
        "ద",
        "రా"
      ],
      [
        "ద",
        "ండ"
      ],
      [
        "ద",
        "ులు"
      ],
      [
        "ధ",
        "ీన"
      ],
      [
        "న",
        "ం"
      ],
      [
        "న",
        "ూ"
      ],
      [
        "న",
        "ిక"
      ],
      [
        "ప",
        "లు"
      ],
      [
        "ప",
        "ిక"
      ],
      [
        "ప",
        "వి"
      ],
      [
        "ప",
        "్ల"
      ],
      [
        "ప",
        "ల్ల"
      ],
      [
        "ప",
        "డు"
      ],
      [
        "ప",
        "ర్వ"
      ],
      [
        "ప",
        "తా"
      ],
      [
        "ప",
        "క్క"
      ],
      [
        "ప",
        "డిన"
      ],
      [
        "ఫ",
        "ల"
      ],
      [
        "బ",
        "ు"
      ],
      [
        "బ",
        "ౌ"
      ],
      [
        "బ",
        "ంగ"
      ],
      [
        "భ",
        "వ"
      ],
      [
        "భ",
        "ాతో"
      ],
      [
        "భ",
        "క్తి"
      ],
      [
        "మ",
        "్"
      ],
      [
        "మ",
        "ించ"
      ],
      [
        "మ",
        "ిత"
      ],
      [
        "మ",
        "రో"
      ],
      [
        "య",
        "ాత్ర"
      ],
      [
        "య",
        "మించ"
      ],
      [
        "ర",
        "కాలు"
      ],
      [
        "ర",
        "ికా"
      ],
      [
        "ర",
        "చయ"
      ],
      [
        "ల",
        "ౌ"
      ],
      [
        "ల",
        "కొ"
      ],
      [
        "ల",
        "మె"
      ],
      [
        "ల",
        "స్య"
      ],
      [
        "ళ",
        "ా"
      ],
      [
        "ళ",
        "ి"
      ],
      [
        "వ",
        "ిం"
      ],
      [
        "వ",
        "ంత"
      ],
      [
        "వ",
        "రు"
      ],
      [
        "వ",
        "ైన"
      ],
      [
        "వ",
        "ార్"
      ],
      [
        "వ",
        "త్ర"
      ],
      [
        "వ",
        "నాలు"
      ],
      [
        "వ",
        "ాయు"
      ],
      [
        "శ",
        "క"
      ],
      [
        "శ",
        "ి"
      ],
      [
        "శ",
        "ీ"
      ],
      [
        "శ",
        "ై"
      ],
      [
        "శ",
        "ో"
      ],
      [
        "శ",
        "కు"
      ],
      [
        "ష",
        "ం"
      ],
      [
        "ష",
        "యాలు"
      ],
      [
        "స",
        "న"
      ],
      [
        "స",
        "ీ"
      ],
      [
        "స",
        "ె"
      ],
      [
        "స",
        "ాల"
      ],
      [
        "స",
        "ిక్"
      ],
      [
        "హ",
        "ో"
      ],
      [
        "హ",
        "్ర"
      ],
      [
        "ా",
        "మ"
      ],
      [
        "ా",
        "న్ని"
      ],
      [
        "ా",
        "డే"
      ],
      [
        "ి",
        "మాన"
      ],
      [
        "ీ",
        "ం"
      ],
      [
        "ీ",
        "క్ష"
      ],
      [
        "ీ",
        "షు"
      ],
      [
        "ు",
        "త్"
      ],
      [
        "ు",
        "పూర్వ"
      ],
      [
        "ూ",
        "నది"
      ],
      [
        "ో",
        "త్"
      ],
      [
        "ౌ",
        "ర"
      ],
      [
        "్",
        "మా"
      ],
      [
        "‌",
        "సభ"
      ],
      [
        "‌",
        "కాత"
      ],
      [
        "ార",
        "ి"
      ],
      [
        "లు",
        "గా"
      ],
      [
        "లో",
        "మీ"
      ],
      [
        "స్",
        "వీ"
      ],
      [
        "స్",
        "కరణ"
      ],
      [
        "స్",
        "లిం"
      ],
      [
        "ది",
        "న"
      ],
      [
        "దే",
        "మాత"
      ],
      [
        "ప్ర",
        "దేశ"
      ],
      [
        "ప్ర",
        "ాయ"
      ],
      [
        "ప్ర",
        "సి"
      ],
      [
        "ప్ర",
        "త్య"
      ],
      [
        "ప్ర",
        "యో"
      ],
      [
        "ప్ర",
        "ీం"
      ],
      [
        "దేశ",
        "ీ"
      ],
      [
        "దేశ",
        "ాలు"
      ],
      [
        "ాల",
        "ే"
      ],
      [
        "ర్",
        "తి"
      ],
      [
        "ర్",
        "పు"
      ],
      [
        "ర్",
        "జాతీయ"
      ],
      [
        "ర్",
        "చు"
      ],
      [
        "ర్",
        "థ్యం"
      ],
      [
        "భారత",
        "ం"
      ],
      [
        "భారత",
        "్‌"
      ],
      [
        "న్న",
        "ీ"
      ],
      [
        "న్న",
        "ై"
      ],
      [
        "గా",
        "న్ని"
      ],
      [
        "ని",
        "పు"
      ],
      [
        "ని",
        "డి"
      ],
      [
        "ని",
        "యమించ"
      ],
      [
        "వి",
        "లు"
      ],
      [
        "వి",
        "మాన"
      ],
      [
        "వి",
        "శ్"
      ],
      [
        "వి",
        "షయాలు"
      ],
      [
        "వి",
        "దేశీ"
      ],
      [
        "ాత",
        "ం"
      ],
      [
        "ాత",
        "ి"
      ],
      [
        "ాత",
        "్మా"
      ],
      [
        "క్",
        "టోర"
      ],
      [
        "ాన",
        "ీ"
      ],
      [
        "ాన",
        "ు"
      ],
      [
        "ాన",
        "్య"
      ],
      [
        "ము",
        "లు"
      ],
      [
        "ము",
        "డి"
      ],
      [
        "ము",
        "స్లిం"
      ],
      [
        "ండ",
        "్"
      ],
      [
        "ిన",
        "ీ"
      ],
      [
        "తి",
        "రు"
      ],
      [
        "స్త",
        "ులు"
      ],
      [
        "స్త",
        "ారు"
      ],
      [
        "ంది",
        "ంది"
      ],
      [
        "సం",
        "స్కరణ"
      ],
      [
        "పు",
        "కో"
      ],
      [
        "పు",
        "తూ"
      ],
      [
        "స్థ",
        "ాయి"
      ],
      [
        "స్థ",
        "ావర"
      ],
      [
        "ంట",
        "ి"
      ],
      [
        "భా",
        "విస్తారు"
      ],
      [
        "భా",
        "గాన్ని"
      ],
      [
        "పా",
        "వ"
      ],
      [
        "పా",
        "ంత"
      ],
      [
        "పా",
        "డు"
      ],
      [
        "వా",
        "దం"
      ],
      [
        "సా",
        "హ"
      ],
      [
        "సా",
        "మా"
      ],
      [
        "జాత",
        "ులు"
      ],
      [
        "కూడ",
        "ి"
      ],
      [
        "కూడ",
        "ుకొ"
      ],
      [
        "కో",
        "ట్ల"
      ],
      [
        "క్ర",
        "ి"
      ],
      [
        "కా",
        "హార"
      ],
      [
        "కా",
        "పాడు"
      ],
      [
        "చ్చ",
        "ే"
      ],
      [
        "నే",
        "రే"
      ],
      [
        "మొ",
        "గలు"
      ],
      [
        "ంచ",
        "ిన"
      ],
      [
        "దు",
        "గా"
      ],
      [
        "మా",
        "ట్ల"
      ],
      [
        "యా",
        "ళం"
      ],
      [
        "నా",
        "థ"
      ],
      [
        "గు",
        "బా"
      ],
      [
        "వచ్చ",
        "ని"
      ],
      [
        "di",
        "ffer"
      ],
      [
        "వే",
        "ద"
      ],
      [
        "వే",
        "ల"
      ],
      [
        "he",
        "lp"
      ],
      [
        "కాల",
        "ే"
      ],
      [
        "డి",
        "స్"
      ],
      [
        "ద్ర",
        "ా"
      ],
      [
        "ar",
        "y"
      ],
      [
        "శా",
        "సన"
      ],
      [
        "దేశాల",
        "ను"
      ],
      [
        "of",
        "ile"
      ],
      [
        "ఎన్న",
        "ుకో"
      ],
      [
        "ఎన్న",
        "ుకుంట"
      ],
      [
        "కి",
        "లోమీ"
      ],
      [
        "చె",
        "ప్"
      ],
      [
        "చె",
        "ంద"
      ],
      [
        "చె",
        "ందు"
      ],
      [
        "చె",
        "న్నై"
      ],
      [
        "వ్యవస్థ",
        "కు"
      ],
      [
        "కే",
        "తిక"
      ],
      [
        "తు",
        "లతో"
      ],
      [
        "అధికార",
        "ం"
      ],
      [
        "త్య",
        "ం"
      ],
      [
        "పర",
        "్యాయ"
      ],
      [
        "పర",
        "ీక్ష"
      ],
      [
        "పరి",
        "పాలన"
      ],
      [
        "మీ",
        "దగా"
      ],
      [
        "వర",
        "ీ"
      ],
      [
        "సు",
        "ప్రీం"
      ],
      [
        "ప్రపంచ",
        "ములో"
      ],
      [
        "స్థాన",
        "ాలను"
      ],
      [
        "భాష",
        "లను"
      ],
      [
        "ప్రాంత",
        "ీయ"
      ],
      [
        "ప్రాంత",
        "ాల్లో"
      ],
      [
        "రాజ్య",
        "ంగా"
      ],
      [
        "దాయ",
        "ంలో"
      ],
      [
        "వార",
        "ి"
      ],
      [
        "వర్",
        "తి"
      ],
      [
        "సభ",
        "ను"
      ],
      [
        "or",
        "ld"
      ],
      [
        "జనా",
        "భాతో"
      ],
      [
        "పూ",
        "ర్తి"
      ],
      [
        "పో",
        "రా"
      ],
      [
        "పో",
        "యింది"
      ],
      [
        "మన",
        "దేశం"
      ],
      [
        "మి",
        "స్తు"
      ],
      [
        "రెండ",
        "వ"
      ],
      [
        "రెండ",
        "ో"
      ],
      [
        "లం",
        "క"
      ],
      [
        "లా",
        "హో"
      ],
      [
        "వు",
        "తుంది"
      ],
      [
        "వె",
        "ల్ల"
      ],
      [
        "ప్రజ",
        "లు"
      ],
      [
        "ప్రభు",
        "త్వాన్ని"
      ],
      [
        "ముఖ్య",
        "ంగా"
      ],
      [
        "er",
        "n"
      ],
      [
        "er",
        "ror"
      ],
      [
        "గీ",
        "తం"
      ],
      [
        "స్త్ర",
        "ీలు"
      ],
      [
        "సాం",
        "కేతిక"
      ],
      [
        "gu",
        "e"
      ],
      [
        "అతి",
        "పెద్ద"
      ],
      [
        "జన",
        "తా"
      ],
      [
        "జన",
        "వరి"
      ],
      [
        "జరి",
        "గే"
      ],
      [
        "మహ",
        "ి"
      ],
      [
        "మహ",
        "ాత్మా"
      ],
      [
        "క్రీడ",
        "ా"
      ],
      [
        "క్రీడ",
        "లలో"
      ],
      [
        "అయిన",
        "ా"
      ],
      [
        "26",
        "3"
      ],
      [
        "26",
        "9"
      ],
      [
        "26",
        "న"
      ],
      [
        "es",
        "s"
      ],
      [
        "గో",
        "దా"
      ],
      [
        "గో",
        "ళిక"
      ],
      [
        "గిన",
        "ది"
      ],
      [
        "మాన",
        "ం"
      ],
      [
        "లే",
        "దు"
      ],
      [
        "ప్రస్తు",
        "తము"
      ],
      [
        "క్క",
        "ను"
      ],
      [
        "సాధ",
        "ించిన"
      ],
      [
        "కాంగ్రె",
        "స్"
      ],
      [
        "ాబ్",
        "ది"
      ],
      [
        "200",
        "3"
      ],
      [
        "ge",
        "t"
      ],
      [
        "ఉప",
        "యో"
      ],
      [
        "గణ",
        "తంత్ర"
      ],
      [
        "భూ",
        "భాగం"
      ],
      [
        "భూ",
        "టాన్"
      ],
      [
        "యు",
        "గ"
      ],
      [
        "రంగ",
        "ంలో"
      ],
      [
        "వల",
        "న"
      ],
      [
        "వల",
        "స"
      ],
      [
        "ప్రతి",
        "పక్ష"
      ],
      [
        "విస్త",
        "ీర్"
      ],
      [
        "in",
        "g"
      ],
      [
        "lis",
        "h"
      ],
      [
        "నె",
        "లకొ"
      ],
      [
        "మాత్ర",
        "మే"
      ],
      [
        "సమా",
        "జ"
      ],
      [
        "స్వ",
        "తం"
      ],
      [
        "సామ",
        "ర్థ్యం"
      ],
      [
        "ఉత్తర",
        "ాన"
      ],
      [
        "బ్రి",
        "టీ"
      ],
      [
        "ప్పటిక",
        "ినీ"
      ],
      [
        "సింధ",
        "ూనది"
      ],
      [
        "సరిహద్దు",
        "గా"
      ],
      [
        "సౌకర్య",
        "ాలు"
      ],
      [
        "సౌకర్య",
        "ాలలో"
      ],
      [
        "స్వాతంత్ర",
        "్యం"
      ],
      [
        "Con",
        "gr"
      ],
      [
        "no",
        "lo"
      ],
      [
        "కళ",
        "లు"
      ],
      [
        "చైన",
        "ా"
      ],
      [
        "చైన",
        "ాను"
      ],
      [
        "తూ",
        "ర్పు"
      ],
      [
        "తమి",
        "ళ"
      ],
      [
        "రూ",
        "పాంత"
      ],
      [
        "సమ",
        "రం"
      ],
      [
        "సార",
        "స్వతం"
      ],
      [
        "సంఖ్య",
        "ా"
      ],
      [
        "పుట్ట",
        "ుపూర్వ"
      ],
      [
        "రైల్వే",
        "శాఖ"
      ],
      [
        "పాలన",
        "లో"
      ],
      [
        "ప్రపంచంలో",
        "ని"
      ],
      [
        "వెబ",
        "్"
      ],
      [
        "ప్రజా",
        "దర"
      ],
      [
        "సముద్ర",
        "తీ"
      ],
      [
        "నిర్వహ",
        "ించింది"
      ],
      [
        "18",
        "5"
      ],
      [
        "CI",
        "A"
      ],
      [
        "CI",
        "TER"
      ],
      [
        "at",
        "e"
      ],
      [
        "చి",
        "రు"
      ],
      [
        "నాయ",
        "కత్వ"
      ],
      [
        "పద",
        "వి"
      ],
      [
        "మల",
        "యాళం"
      ],
      [
        "సూ",
        "చించిన"
      ],
      [
        "హా",
        "కీ"
      ],
      [
        "ిస్త",
        "ారు"
      ],
      [
        "లోక్",
        "‌సభ"
      ],
      [
        "కుల",
        "ాలు"
      ],
      [
        "కుంట",
        "ూ"
      ],
      [
        "కుంట",
        "ారు"
      ],
      [
        "నిర్",
        "మ"
      ],
      [
        "ాయు",
        "త"
      ],
      [
        "ద్వీ",
        "ప"
      ],
      [
        "సంవత్",
        "సర"
      ],
      [
        "మేన",
        "ని"
      ],
      [
        "రాజ్యాలు",
        "గా"
      ],
      [
        "సభ్య",
        "ు"
      ],
      [
        "సభ్య",
        "ులు"
      ],
      [
        "జనగణ",
        "న"
      ],
      [
        "జనగణ",
        "మన"
      ],
      [
        "ఆధార",
        "పడిన"
      ],
      [
        "సామ్రా",
        "జ్య"
      ],
      [
        "సామ్రా",
        "జ్యం"
      ],
      [
        "బ్రిటి",
        "ష్"
      ],
      [
        "బ్రిటి",
        "షు"
      ],
      [
        "పశ్చ",
        "ిమ"
      ],
      [
        "పశ్చ",
        "ిమాన"
      ],
      [
        "46",
        "1"
      ],
      [
        "se",
        "mbly"
      ],
      [
        "wi",
        "de"
      ],
      [
        "ఆహార",
        "ం"
      ],
      [
        "ఇంగ్ల",
        "ీషు"
      ],
      [
        "ఉండ",
        "టం"
      ],
      [
        "కింద",
        "కు"
      ],
      [
        "టై",
        "టి"
      ],
      [
        "టర్",
        "లకు"
      ],
      [
        "పార్",
        "లమె"
      ],
      [
        "భర",
        "త"
      ],
      [
        "భౌ",
        "గోళిక"
      ],
      [
        "మూ",
        "ల"
      ],
      [
        "మౌ",
        "ర్య"
      ],
      [
        "వం",
        "దేమాత"
      ],
      [
        "సహ",
        "స్ర"
      ],
      [
        "సైన",
        "ిక"
      ],
      [
        "సార్",
        "వత్ర"
      ],
      [
        "హై",
        "దరా"
      ],
      [
        "ప్రారంభ",
        "ించ"
      ],
      [
        "ర్ష",
        "ణ"
      ],
      [
        "ర్‌",
        "ల"
      ],
      [
        "విద్య",
        "ుత్"
      ],
      [
        "సంకీర్",
        "ణ"
      ],
      [
        "పురు",
        "షు"
      ],
      [
        "స్థి",
        "తి"
      ],
      [
        "కూడుకు",
        "ని"
      ],
      [
        "కోల్",
        "‌కాత"
      ],
      [
        "నేపాల",
        "్"
      ],
      [
        "పాలించ",
        "ారు"
      ],
      [
        "ఎన్నిక",
        "ల్లో"
      ],
      [
        "రాజ్యాంగ",
        "ం"
      ],
      [
        "బడత",
        "ారు"
      ],
      [
        "మహా",
        "సముద్రం"
      ],
      [
        "ప్రతిపాదన",
        "కు"
      ],
      [
        "మొదలైన",
        "వి"
      ],
      [
        "ఏర్పడ్డ",
        "ాయి"
      ],
      [
        "కార్యక్రమ",
        "ాలు"
      ],
      [
        "ఆఫ్ఘ",
        "నిస్తాన్"
      ],
      [
        "జరుపు",
        "కుంటారు"
      ],
      [
        "పీఠ",
        "భూ"
      ],
      [
        "బంగ్లాదేశ",
        "్‌"
      ],
      [
        "శెలవు",
        "దినాలు"
      ],
      [
        "హిమాల",
        "య"
      ],
      [
        "Constitu",
        "ent"
      ],
      [
        "As",
        "sembly"
      ],
      [
        "CE",
        "E"
      ],
      [
        "Eth",
        "nolo"
      ],
      [
        "Eng",
        "lish"
      ],
      [
        "Fact",
        "bo"
      ],
      [
        "Hi",
        "ndi"
      ],
      [
        "Li",
        "br"
      ],
      [
        "Pr",
        "ofile"
      ],
      [
        "_of",
        "_"
      ],
      [
        "ev",
        "an"
      ],
      [
        "har",
        "v"
      ],
      [
        "tar",
        "get"
      ],
      [
        "అంత",
        "ర్జాతీయ"
      ],
      [
        "అమె",
        "రికా"
      ],
      [
        "ఇండ",
        "ో"
      ],
      [
        "ఈశ",
        "ాన్య"
      ],
      [
        "ఈస్",
        "ట్"
      ],
      [
        "ఎల",
        "క్టోర"
      ],
      [
        "ఏప్ర",
        "ిల్"
      ],
      [
        "ఐరో",
        "పా"
      ],
      [
        "కను",
        "మలు"
      ],
      [
        "కబడ్డ",
        "ీ"
      ],
      [
        "ఖని",
        "జాలు"
      ],
      [
        "గెలు",
        "చుకోవడ"
      ],
      [
        "చూడ",
        "ండి"
      ],
      [
        "జమ్మ",
        "ూ"
      ],
      [
        "ట్ర",
        "ో"
      ],
      [
        "ఢా",
        "కా"
      ],
      [
        "తర్",
        "వాత"
      ],
      [
        "పిక",
        "్‌"
      ],
      [
        "పవి",
        "త్ర"
      ],
      [
        "పక్క",
        "న"
      ],
      [
        "బౌ",
        "ద్ధ"
      ],
      [
        "బంగ",
        "ారు"
      ],
      [
        "రచయ",
        "ిత"
      ],
      [
        "లౌ",
        "కిక"
      ],
      [
        "ోత్",
        "తరాలు"
      ],
      [
        "ప్రసి",
        "ద్ధి"
      ],
      [
        "భారత్‌",
        "లో"
      ],
      [
        "నిపు",
        "ణులు"
      ],
      [
        "నిడి",
        "వి"
      ],
      [
        "తిరు",
        "గుబా"
      ],
      [
        "స్థావర",
        "ాలు"
      ],
      [
        "సామా",
        "జిక"
      ],
      [
        "కూడుకొ",
        "ని"
      ],
      [
        "కాపాడు",
        "కుంటూ"
      ],
      [
        "నేరే",
        "డు"
      ],
      [
        "మాట్ల",
        "ాడే"
      ],
      [
        "ఎన్నుకో",
        "బడతారు"
      ],
      [
        "కిలోమీ",
        "టర్లకు"
      ],
      [
        "చెప్",
        "పుకో"
      ],
      [
        "చెంద",
        "ాయి"
      ],
      [
        "చెందు",
        "తున్న"
      ],
      [
        "పర్యాయ",
        "ాలు"
      ],
      [
        "పూర్తి",
        "గా"
      ],
      [
        "ఉపయో",
        "గి"
      ],
      [
        "Congr",
        "ess"
      ],
      [
        "పుట్టుపూర్వ",
        "ోత్తరాలు"
      ],
      [
        "ప్రజాదర",
        "ణ"
      ],
      [
        "CITER",
        "EF"
      ],
      [
        "సూచించిన",
        "ట్లు"
      ],
      [
        "వందేమాత",
        "రం"
      ],
      [
        "సహస్ర",
        "ాబ్ది"
      ],
      [
        "సార్వత్ర",
        "ిక"
      ],
      [
        "కోల్‌కాత",
        "ా"
      ],
      [
        "Ethnolo",
        "gue"
      ],
      [
        "Factbo",
        "ok"
      ],
      [
        "Libr",
        "ary"
      ],
      [
        "ఎలక్టోర",
        "ల్"
      ],
      [
        "గెలుచుకోవడ",
        "ం"
      ],
      [
        "తిరుగుబా",
        "టు"
      ],
      [
        "\"",
        "."
      ],
      [
        "%",
        ")"
      ],
      [
        "%",
        "."
      ],
      [
        "%",
        ")."
      ],
      [
        ")",
        ":"
      ],
      [
        ")",
        ";"
      ],
      [
        ".",
        ")."
      ],
      [
        "0",
        "1"
      ],
      [
        "0",
        "4"
      ],
      [
        "0",
        "5"
      ],
      [
        "0",
        "7"
      ],
      [
        "0",
        "60"
      ],
      [
        "1",
        "1"
      ],
      [
        "1",
        "5"
      ],
      [
        "1",
        "00"
      ],
      [
        "1",
        "000"
      ],
      [
        "2",
        "1"
      ],
      [
        "2",
        "5"
      ],
      [
        "2",
        "19"
      ],
      [
        "2",
        "20"
      ],
      [
        "3",
        "2"
      ],
      [
        "3",
        "6"
      ],
      [
        "4",
        "లో"
      ],
      [
        "4",
        "47"
      ],
      [
        "4",
        "22"
      ],
      [
        "4",
        "8లో"
      ],
      [
        "4",
        "21"
      ],
      [
        "5",
        "2"
      ],
      [
        "5",
        "00"
      ],
      [
        "5",
        "17"
      ],
      [
        "5",
        "46"
      ],
      [
        "6",
        "5"
      ],
      [
        "7",
        "0"
      ],
      [
        "7",
        "2"
      ],
      [
        "7",
        "3"
      ],
      [
        "7",
        "5"
      ],
      [
        "7",
        "00"
      ],
      [
        "7",
        "000"
      ],
      [
        "7",
        "40"
      ],
      [
        "8",
        "0"
      ],
      [
        "8",
        "1"
      ],
      [
        "8",
        "2"
      ],
      [
        "9",
        "3"
      ],
      [
        "9",
        "00"
      ],
      [
        "9",
        "12"
      ],
      [
        "9",
        "60"
      ],
      [
        "9",
        "73"
      ],
      [
        "A",
        "L"
      ],
      [
        "A",
        "c"
      ],
      [
        "A",
        "r"
      ],
      [
        "B",
        "B"
      ],
      [
        "B",
        "S"
      ],
      [
        "C",
        "h"
      ],
      [
        "D",
        "i"
      ],
      [
        "D",
        "ate"
      ],
      [
        "D",
        "evan"
      ],
      [
        "H",
        "Z"
      ],
      [
        "I",
        "I"
      ],
      [
        "I",
        "N"
      ],
      [
        "I",
        "nt"
      ],
      [
        "L",
        "angua"
      ],
      [
        "M",
        "a"
      ],
      [
        "N",
        "ation"
      ],
      [
        "P",
        "ar"
      ],
      [
        "P",
        "AL"
      ],
      [
        "P",
        "IN"
      ],
      [
        "S",
        "e"
      ],
      [
        "S",
        "t"
      ],
      [
        "T",
        "y"
      ],
      [
        "V",
        "II"
      ],
      [
        "W",
        "a"
      ],
      [
        "W",
        "orld"
      ],
      [
        "X",
        "VII"
      ],
      [
        "_",
        "Assembly"
      ],
      [
        "a",
        "c"
      ],
      [
        "a",
        "d"
      ],
      [
        "a",
        "g"
      ],
      [
        "a",
        "u"
      ],
      [
        "a",
        "v"
      ],
      [
        "b",
        "e"
      ],
      [
        "b",
        "j"
      ],
      [
        "b",
        "y"
      ],
      [
        "b",
        "or"
      ],
      [
        "b",
        "as"
      ],
      [
        "b",
        "ate"
      ],
      [
        "b",
        "ac"
      ],
      [
        "c",
        "an"
      ],
      [
        "c",
        "or"
      ],
      [
        "c",
        "es"
      ],
      [
        "c",
        "ed"
      ],
      [
        "c",
        "ri"
      ],
      [
        "c",
        "ountry"
      ],
      [
        "c",
        "au"
      ],
      [
        "d",
        "u"
      ],
      [
        "d",
        "er"
      ],
      [
        "e",
        "p"
      ],
      [
        "f",
        "or"
      ],
      [
        "f",
        "in"
      ],
      [
        "g",
        "o"
      ],
      [
        "g",
        "an"
      ],
      [
        "g",
        "es"
      ],
      [
        "g",
        "iv"
      ],
      [
        "h",
        "ow"
      ],
      [
        "h",
        "av"
      ],
      [
        "i",
        "r"
      ],
      [
        "i",
        "z"
      ],
      [
        "i",
        "es"
      ],
      [
        "i",
        "ch"
      ],
      [
        "l",
        "iv"
      ],
      [
        "m",
        "s"
      ],
      [
        "m",
        "ar"
      ],
      [
        "m",
        "ent"
      ],
      [
        "n",
        "ct"
      ],
      [
        "o",
        "the"
      ],
      [
        "o",
        "me"
      ],
      [
        "o",
        "du"
      ],
      [
        "p",
        "e"
      ],
      [
        "p",
        "r"
      ],
      [
        "p",
        "t"
      ],
      [
        "p",
        "u"
      ],
      [
        "p",
        "ed"
      ],
      [
        "p",
        "ri"
      ],
      [
        "r",
        "is"
      ],
      [
        "r",
        "es"
      ],
      [
        "r",
        "ces"
      ],
      [
        "r",
        "ep"
      ],
      [
        "s",
        "u"
      ],
      [
        "s",
        "ou"
      ],
      [
        "s",
        "cri"
      ],
      [
        "s",
        "iz"
      ],
      [
        "s",
        "ome"
      ],
      [
        "s",
        "pu"
      ],
      [
        "t",
        "on"
      ],
      [
        "t",
        "or"
      ],
      [
        "t",
        "ation"
      ],
      [
        "u",
        "ni"
      ],
      [
        "v",
        "ern"
      ],
      [
        "w",
        "orld"
      ],
      [
        "y",
        "bac"
      ],
      [
        "ం",
        "జ"
      ],
      [
        "ం",
        "తి"
      ],
      [
        "ం",
        "కా"
      ],
      [
        "ం",
        "కాగా"
      ],
      [
        "ం",
        "థాలు"
      ],
      [
        "అ",
        "ర"
      ],
      [
        "అ",
        "ల"
      ],
      [
        "అ",
        "స్"
      ],
      [
        "అ",
        "ది"
      ],
      [
        "అ",
        "న్న"
      ],
      [
        "అ",
        "ల్"
      ],
      [
        "అ",
        "ంది"
      ],
      [
        "అ",
        "రు"
      ],
      [
        "అ",
        "క్ష"
      ],
      [
        "అ",
        "వర"
      ],
      [
        "అ",
        "ద్ద"
      ],
      [
        "అ",
        "లం"
      ],
      [
        "అ",
        "ధి"
      ],
      [
        "అ",
        "ంద"
      ],
      [
        "అ",
        "ఖండ"
      ],
      [
        "అ",
        "మల"
      ],
      [
        "అ",
        "రే"
      ],
      [
        "అ",
        "ంటే"
      ],
      [
        "అ",
        "ంక"
      ],
      [
        "అ",
        "ధీన"
      ],
      [
        "అ",
        "శో"
      ],
      [
        "ఆ",
        "గ"
      ],
      [
        "ఆ",
        "లో"
      ],
      [
        "ఆ",
        "వి"
      ],
      [
        "ఆ",
        "తి"
      ],
      [
        "ఆ",
        "క్ర"
      ],
      [
        "ఆ",
        "యా"
      ],
      [
        "ఆ",
        "నా"
      ],
      [
        "ఆ",
        "డు"
      ],
      [
        "ఆ",
        "ధ్య"
      ],
      [
        "ఆ",
        "దాయ"
      ],
      [
        "ఆ",
        "గ్"
      ],
      [
        "ఆ",
        "వల"
      ],
      [
        "ఆ",
        "ంగ్ల"
      ],
      [
        "ఆ",
        "ణి"
      ],
      [
        "ఆ",
        "చార"
      ],
      [
        "ఆ",
        "ర్య"
      ],
      [
        "ఆ",
        "క్షరాస్యత"
      ],
      [
        "ఆ",
        "టలు"
      ],
      [
        "ఆ",
        "నం"
      ],
      [
        "ఆ",
        "లస్య"
      ],
      [
        "ఆ",
        "దేశాలు"
      ],
      [
        "ఇ",
        "య"
      ],
      [
        "ఇ",
        "న్"
      ],
      [
        "ఇ",
        "ను"
      ],
      [
        "ఇ",
        "ము"
      ],
      [
        "ఇ",
        "తి"
      ],
      [
        "ఇ",
        "స్త"
      ],
      [
        "ఇ",
        "ంది"
      ],
      [
        "ఇ",
        "తరు"
      ],
      [
        "ఇ",
        "ందు"
      ],
      [
        "ఇ",
        "ప్పటికీ"
      ],
      [
        "ఇ",
        "తను"
      ],
      [
        "ఇ",
        "ంటి"
      ],
      [
        "ఇ",
        "చ్చే"
      ],
      [
        "ఇ",
        "ంకా"
      ],
      [
        "ఉ",
        "ర్"
      ],
      [
        "ఉ",
        "ద్"
      ],
      [
        "ఉ",
        "పా"
      ],
      [
        "ఉ",
        "ండి"
      ],
      [
        "ఉ",
        "దా"
      ],
      [
        "ఉ",
        "ండు"
      ],
      [
        "ఉ",
        "ష్ణ"
      ],
      [
        "ఉ",
        "నిక"
      ],
      [
        "ఋ",
        "తు"
      ],
      [
        "ఎ",
        "మ"
      ],
      [
        "ఎ",
        "దు"
      ],
      [
        "ఎ",
        "గు"
      ],
      [
        "ఎ",
        "ల్ల"
      ],
      [
        "ఎ",
        "ంతో"
      ],
      [
        "ఎ",
        "గువ"
      ],
      [
        "ఏ",
        "క"
      ],
      [
        "ఏ",
        "డ"
      ],
      [
        "ఏ",
        "డు"
      ],
      [
        "ఏ",
        "టా"
      ],
      [
        "ఏ",
        "కత్వ"
      ],
      [
        "ఏ",
        "ళ్ళ"
      ],
      [
        "ఐ",
        "దు"
      ],
      [
        "ఒ",
        "క్"
      ],
      [
        "ఒ",
        "రి"
      ],
      [
        "ఒ",
        "లిం"
      ],
      [
        "ఒ",
        "డిస్"
      ],
      [
        "ఓ",
        "డ"
      ],
      [
        "ఓ",
        "టర్"
      ],
      [
        "ఔ",
        "ట్‌"
      ],
      [
        "క",
        "ిం"
      ],
      [
        "క",
        "ర్"
      ],
      [
        "క",
        "ని"
      ],
      [
        "క",
        "ాయ"
      ],
      [
        "క",
        "రా"
      ],
      [
        "క",
        "ము"
      ],
      [
        "క",
        "ంట"
      ],
      [
        "క",
        "ార్"
      ],
      [
        "క",
        "ిత"
      ],
      [
        "క",
        "ష్ట"
      ],
      [
        "క",
        "ట్ట"
      ],
      [
        "క",
        "మైన"
      ],
      [
        "క",
        "మీ"
      ],
      [
        "క",
        "్యం"
      ],
      [
        "క",
        "మల"
      ],
      [
        "క",
        "మేన"
      ],
      [
        "క",
        "ెట్"
      ],
      [
        "క",
        "ర్‌"
      ],
      [
        "క",
        "త్తా"
      ],
      [
        "క",
        "ానీ"
      ],
      [
        "క",
        "వరీ"
      ],
      [
        "ఖ",
        "ిక"
      ],
      [
        "ఖ",
        "గో"
      ],
      [
        "ఖ",
        "ర్చు"
      ],
      [
        "ఖ",
        "ాతం"
      ],
      [
        "గ",
        "ృ"
      ],
      [
        "గ",
        "ె"
      ],
      [
        "గ",
        "ించ"
      ],
      [
        "గ",
        "తి"
      ],
      [
        "గ",
        "ల్"
      ],
      [
        "గ",
        "ులు"
      ],
      [
        "గ",
        "ింది"
      ],
      [
        "గ",
        "లి"
      ],
      [
        "గ",
        "ిన్న"
      ],
      [
        "గ",
        "నులు"
      ],
      [
        "గ",
        "ౌర"
      ],
      [
        "ఘ",
        "న"
      ],
      [
        "ఘ",
        "ు"
      ],
      [
        "ఘ",
        "ిక"
      ],
      [
        "ఘ",
        "ట్ట"
      ],
      [
        "ఘ",
        "ోర"
      ],
      [
        "ఘ",
        "ర్షణ"
      ],
      [
        "చ",
        "ా"
      ],
      [
        "చ",
        "ో"
      ],
      [
        "చ",
        "్"
      ],
      [
        "చ",
        "ర్"
      ],
      [
        "చ",
        "ము"
      ],
      [
        "చ",
        "ిన"
      ],
      [
        "చ",
        "ులు"
      ],
      [
        "చ",
        "ింది"
      ],
      [
        "చ",
        "ిత"
      ],
      [
        "చ",
        "క్ర"
      ],
      [
        "చ",
        "ట్ట"
      ],
      [
        "ఛ",
        "ాయుత"
      ],
      [
        "జ",
        "ా"
      ],
      [
        "జ",
        "ె"
      ],
      [
        "జ",
        "ై"
      ],
      [
        "జ",
        "ౌ"
      ],
      [
        "జ",
        "్ర"
      ],
      [
        "జ",
        "ాన"
      ],
      [
        "జ",
        "ిన"
      ],
      [
        "జ",
        "ంత"
      ],
      [
        "జ",
        "ైన"
      ],
      [
        "జ",
        "పా"
      ],
      [
        "జ",
        "ిత"
      ],
      [
        "జ",
        "్‌"
      ],
      [
        "జ",
        "ెండ"
      ],
      [
        "జ",
        "నాలు"
      ],
      [
        "జ",
        "ిల్ల"
      ],
      [
        "జ",
        "వహ"
      ],
      [
        "జ",
        "ెట్"
      ],
      [
        "ఞ",
        "ాన"
      ],
      [
        "ట",
        "న"
      ],
      [
        "ట",
        "ో"
      ],
      [
        "ట",
        "స్"
      ],
      [
        "ట",
        "ండ"
      ],
      [
        "ట",
        "ిన"
      ],
      [
        "ట",
        "ాయి"
      ],
      [
        "ట",
        "చే"
      ],
      [
        "ట",
        "్యం"
      ],
      [
        "ట",
        "్రా"
      ],
      [
        "ట",
        "ంతో"
      ],
      [
        "ట",
        "మూ"
      ],
      [
        "ఠ",
        "ీ"
      ],
      [
        "డ",
        "్ర"
      ],
      [
        "డ",
        "్య"
      ],
      [
        "డ",
        "ాల"
      ],
      [
        "డ",
        "ాలు"
      ],
      [
        "డ",
        "ింది"
      ],
      [
        "డ",
        "్చ"
      ],
      [
        "డ",
        "్ల"
      ],
      [
        "డ",
        "్‌"
      ],
      [
        "డ",
        "ానికి"
      ],
      [
        "డ",
        "ించింది"
      ],
      [
        "డ",
        "బు"
      ],
      [
        "డ",
        "మ్"
      ],
      [
        "ఢ",
        "వి"
      ],
      [
        "ణ",
        "ే"
      ],
      [
        "ణ",
        "ిక"
      ],
      [
        "ణ",
        "ాలు"
      ],
      [
        "ణ",
        "ించ"
      ],
      [
        "ణ",
        "ంతో"
      ],
      [
        "ణ",
        "దారులు"
      ],
      [
        "ణ",
        "ుల"
      ],
      [
        "త",
        "ార"
      ],
      [
        "త",
        "ాయ"
      ],
      [
        "త",
        "ాన"
      ],
      [
        "త",
        "రా"
      ],
      [
        "త",
        "ాయి"
      ],
      [
        "త",
        "దు"
      ],
      [
        "త",
        "క్కు"
      ],
      [
        "త",
        "లం"
      ],
      [
        "త",
        "గ్"
      ],
      [
        "త",
        "మై"
      ],
      [
        "త",
        "మ్య"
      ],
      [
        "త",
        "ాలతో"
      ],
      [
        "త",
        "దేశపు"
      ],
      [
        "థ",
        "న"
      ],
      [
        "థ",
        "మ"
      ],
      [
        "థ",
        "ి"
      ],
      [
        "థ",
        "ాత"
      ],
      [
        "థ",
        "ాన"
      ],
      [
        "థ",
        "ార్"
      ],
      [
        "ద",
        "శ"
      ],
      [
        "ద",
        "స"
      ],
      [
        "ద",
        "ూ"
      ],
      [
        "ద",
        "ృ"
      ],
      [
        "ద",
        "ాన"
      ],
      [
        "ద",
        "ీయ"
      ],
      [
        "ద",
        "ైన"
      ],
      [
        "ద",
        "ారు"
      ],
      [
        "ద",
        "ాబ"
      ],
      [
        "ద",
        "ీన"
      ],
      [
        "ద",
        "గ్"
      ],
      [
        "ద",
        "ీర్"
      ],
      [
        "ద",
        "గినది"
      ],
      [
        "ద",
        "క్కను"
      ],
      [
        "ధ",
        "ం"
      ],
      [
        "ధ",
        "ర"
      ],
      [
        "ధ",
        "ు"
      ],
      [
        "ధ",
        "ాల"
      ],
      [
        "ధ",
        "ిన"
      ],
      [
        "ధ",
        "రి"
      ],
      [
        "ధ",
        "నా"
      ],
      [
        "ధ",
        "ిల్ల"
      ],
      [
        "న",
        "ృ"
      ],
      [
        "న",
        "ై"
      ],
      [
        "న",
        "ో"
      ],
      [
        "న",
        "లు"
      ],
      [
        "న",
        "్య"
      ],
      [
        "న",
        "ాల"
      ],
      [
        "న",
        "ర్"
      ],
      [
        "న",
        "వి"
      ],
      [
        "న",
        "ంలో"
      ],
      [
        "న",
        "సా"
      ],
      [
        "న",
        "ికి"
      ],
      [
        "న",
        "డు"
      ],
      [
        "న",
        "నీ"
      ],
      [
        "న",
        "ాలతో"
      ],
      [
        "న",
        "వచ్చు"
      ],
      [
        "న",
        "బడిన"
      ],
      [
        "న",
        "దులు"
      ],
      [
        "న",
        "ప్పటికినీ"
      ],
      [
        "ప",
        "క"
      ],
      [
        "ప",
        "బ"
      ],
      [
        "ప",
        "ి"
      ],
      [
        "ప",
        "స్"
      ],
      [
        "ప",
        "ది"
      ],
      [
        "ప",
        "ిన"
      ],
      [
        "ప",
        "ింది"
      ],
      [
        "ప",
        "ంలో"
      ],
      [
        "ప",
        "ూడ"
      ],
      [
        "ప",
        "ిత"
      ],
      [
        "ప",
        "రాజ"
      ],
      [
        "ప",
        "చ్చ"
      ],
      [
        "ప",
        "లి"
      ],
      [
        "ప",
        "ట్"
      ],
      [
        "ప",
        "ించింది"
      ],
      [
        "ప",
        "కళ"
      ],
      [
        "ప",
        "టం"
      ],
      [
        "ప",
        "ించే"
      ],
      [
        "ప",
        "ిక్"
      ],
      [
        "ప",
        "స్ర"
      ],
      [
        "ప",
        "ర్ష"
      ],
      [
        "ప",
        "బడింది"
      ],
      [
        "ప",
        "టంలో"
      ],
      [
        "ప",
        "వనాలు"
      ],
      [
        "ప",
        "ౌర"
      ],
      [
        "ప",
        "ండ్"
      ],
      [
        "ప",
        "త్యం"
      ],
      [
        "ఫ",
        "ు"
      ],
      [
        "ఫ",
        "్ర"
      ],
      [
        "ఫ",
        "ర్"
      ],
      [
        "ఫ",
        "రా"
      ],
      [
        "ఫ",
        "్ట"
      ],
      [
        "ఫ",
        "లం"
      ],
      [
        "ఫ",
        "ిక్"
      ],
      [
        "బ",
        "ల"
      ],
      [
        "బ",
        "ై"
      ],
      [
        "బ",
        "ొ"
      ],
      [
        "బ",
        "ాల"
      ],
      [
        "బ",
        "ండ"
      ],
      [
        "బ",
        "ంగా"
      ],
      [
        "బ",
        "డ్"
      ],
      [
        "బ",
        "ిన్న"
      ],
      [
        "బ",
        "ాబ్"
      ],
      [
        "బ",
        "్యా"
      ],
      [
        "బ",
        "ద్ధం"
      ],
      [
        "భ",
        "్య"
      ],
      [
        "భ",
        "ిం"
      ],
      [
        "భ",
        "ంగ"
      ],
      [
        "భ",
        "దాయ"
      ],
      [
        "భ",
        "జిత"
      ],
      [
        "మ",
        "య"
      ],
      [
        "మ",
        "ో"
      ],
      [
        "మ",
        "ార"
      ],
      [
        "మ",
        "స్"
      ],
      [
        "మ",
        "ిం"
      ],
      [
        "మ",
        "ాల"
      ],
      [
        "మ",
        "ాయ"
      ],
      [
        "మ",
        "రా"
      ],
      [
        "మ",
        "ిన"
      ],
      [
        "మ",
        "ంత"
      ],
      [
        "మ",
        "ంలో"
      ],
      [
        "మ",
        "లి"
      ],
      [
        "మ",
        "తం"
      ],
      [
        "మ",
        "ికి"
      ],
      [
        "మ",
        "్‌"
      ],
      [
        "మ",
        "ాల్"
      ],
      [
        "మ",
        "ిత్ర"
      ],
      [
        "మ",
        "ణి"
      ],
      [
        "మ",
        "ంచి"
      ],
      [
        "మ",
        "సాల"
      ],
      [
        "మ",
        "ద్రా"
      ],
      [
        "మ",
        "ంజ"
      ],
      [
        "య",
        "ి"
      ],
      [
        "య",
        "ూ"
      ],
      [
        "య",
        "స్"
      ],
      [
        "య",
        "ము"
      ],
      [
        "య",
        "ిన"
      ],
      [
        "య",
        "ులు"
      ],
      [
        "య",
        "ంలో"
      ],
      [
        "య",
        "ంతో"
      ],
      [
        "య",
        "నులు"
      ],
      [
        "య",
        "థాత"
      ],
      [
        "ర",
        "ొ"
      ],
      [
        "ర",
        "‌"
      ],
      [
        "ర",
        "లో"
      ],
      [
        "ర",
        "ాలు"
      ],
      [
        "ర",
        "కు"
      ],
      [
        "ర",
        "ాయ"
      ],
      [
        "ర",
        "ము"
      ],
      [
        "ర",
        "ద్"
      ],
      [
        "ర",
        "త్"
      ],
      [
        "ర",
        "ంగా"
      ],
      [
        "ర",
        "క్ష"
      ],
      [
        "ర",
        "మైన"
      ],
      [
        "ర",
        "వే"
      ],
      [
        "ర",
        "మే"
      ],
      [
        "ర",
        "ించిన"
      ],
      [
        "ర",
        "వీ"
      ],
      [
        "ర",
        "క్షరాస్యత"
      ],
      [
        "ర",
        "ారి"
      ],
      [
        "ర",
        "ాతి"
      ],
      [
        "ర",
        "తాయ"
      ],
      [
        "ర",
        "బద్ధం"
      ],
      [
        "ల",
        "ిక"
      ],
      [
        "ల",
        "ిన"
      ],
      [
        "ల",
        "ైన"
      ],
      [
        "ల",
        "కాల"
      ],
      [
        "ల",
        "బె"
      ],
      [
        "ల",
        "పై"
      ],
      [
        "ల",
        "హా"
      ],
      [
        "ల",
        "మానం"
      ],
      [
        "ల",
        "ఘు"
      ],
      [
        "ల",
        "బై"
      ],
      [
        "ల",
        "భ్య"
      ],
      [
        "ళ",
        "ల"
      ],
      [
        "ళ",
        "ు"
      ],
      [
        "ళ",
        "ులు"
      ],
      [
        "ళ",
        "ూరు"
      ],
      [
        "ళ",
        "విం"
      ],
      [
        "వ",
        "త"
      ],
      [
        "వ",
        "ూ"
      ],
      [
        "వ",
        "‌"
      ],
      [
        "వ",
        "లి"
      ],
      [
        "వ",
        "స్తు"
      ],
      [
        "వ",
        "ద్ద"
      ],
      [
        "వ",
        "మి"
      ],
      [
        "వ",
        "లను"
      ],
      [
        "వ",
        "స్థానంలో"
      ],
      [
        "వ",
        "నాథ"
      ],
      [
        "వ",
        "జ్ర"
      ],
      [
        "వ",
        "న్య"
      ],
      [
        "శ",
        "ే"
      ],
      [
        "శ",
        "ాల"
      ],
      [
        "శ",
        "క్"
      ],
      [
        "శ",
        "ంలో"
      ],
      [
        "శ",
        "ించే"
      ],
      [
        "శ",
        "ిల్"
      ],
      [
        "శ",
        "క్తి"
      ],
      [
        "శ",
        "ాతం"
      ],
      [
        "శ",
        "రద్"
      ],
      [
        "ష",
        "ే"
      ],
      [
        "ష",
        "న్"
      ],
      [
        "ష",
        "ాలు"
      ],
      [
        "ష",
        "ులు"
      ],
      [
        "ష",
        "కాహార"
      ],
      [
        "స",
        "ొ"
      ],
      [
        "స",
        "ాలు"
      ],
      [
        "స",
        "గా"
      ],
      [
        "స",
        "ాయ"
      ],
      [
        "స",
        "ిన"
      ],
      [
        "స",
        "ల్"
      ],
      [
        "స",
        "భా"
      ],
      [
        "స",
        "వా"
      ],
      [
        "స",
        "త్య"
      ],
      [
        "స",
        "మి"
      ],
      [
        "స",
        "మాన"
      ],
      [
        "స",
        "రం"
      ],
      [
        "స",
        "ీలు"
      ],
      [
        "స",
        "త్తా"
      ],
      [
        "స",
        "ాయుత"
      ],
      [
        "స",
        "లహా"
      ],
      [
        "హ",
        "ె"
      ],
      [
        "హ",
        "ొ"
      ],
      [
        "హ",
        "్"
      ],
      [
        "హ",
        "ిం"
      ],
      [
        "హ",
        "ర్"
      ],
      [
        "హ",
        "ాలు"
      ],
      [
        "హ",
        "ాయ"
      ],
      [
        "హ",
        "స్త"
      ],
      [
        "హ",
        "పు"
      ],
      [
        "హ",
        "క్కు"
      ],
      [
        "హ",
        "్మ"
      ],
      [
        "హ",
        "్వ"
      ],
      [
        "ా",
        "లో"
      ],
      [
        "ా",
        "ము"
      ],
      [
        "ా",
        "దు"
      ],
      [
        "ా",
        "ంబ"
      ],
      [
        "ా",
        "శ్ర"
      ],
      [
        "ా",
        "లోయ"
      ],
      [
        "ా",
        "నిస్తాన్"
      ],
      [
        "ా",
        "దాయంలో"
      ],
      [
        "ా",
        "ంతి"
      ],
      [
        "ా",
        "డ్‌"
      ],
      [
        "ా",
        "ధిన"
      ],
      [
        "ా",
        "పక"
      ],
      [
        "ి",
        "ని"
      ],
      [
        "ి",
        "చె"
      ],
      [
        "ి",
        "శ్ర"
      ],
      [
        "ి",
        "లే"
      ],
      [
        "ి",
        "రంగ"
      ],
      [
        "ి",
        "ద్ధి"
      ],
      [
        "ి",
        "ళ్ళ"
      ],
      [
        "ి",
        "టన్"
      ],
      [
        "ి",
        "యనులు"
      ],
      [
        "ీ",
        "కృ"
      ],
      [
        "ీ",
        "కరణ"
      ],
      [
        "ీ",
        "కులు"
      ],
      [
        "ు",
        "ని"
      ],
      [
        "ు",
        "ను"
      ],
      [
        "ు",
        "ల్"
      ],
      [
        "ు",
        "వు"
      ],
      [
        "ు",
        "ర్య"
      ],
      [
        "ు",
        "డైన"
      ],
      [
        "ు",
        "నిక"
      ],
      [
        "ు",
        "ళూరు"
      ],
      [
        "ూ",
        "లా"
      ],
      [
        "ూ",
        "పం"
      ],
      [
        "ృ",
        "తంగా"
      ],
      [
        "ె",
        "స్"
      ],
      [
        "ె",
        "ర్"
      ],
      [
        "ె",
        "న్న"
      ],
      [
        "ె",
        "నే"
      ],
      [
        "ె",
        "డ్"
      ],
      [
        "ె",
        "ల్లో"
      ],
      [
        "ె",
        "క్కను"
      ],
      [
        "ే",
        "త"
      ],
      [
        "ే",
        "ష్"
      ],
      [
        "ే",
        "కమైన"
      ],
      [
        "ే",
        "ననీ"
      ],
      [
        "ే",
        "యులు"
      ],
      [
        "ై",
        "క"
      ],
      [
        "ై",
        "స్త"
      ],
      [
        "ై",
        "పో"
      ],
      [
        "ై",
        "వరు"
      ],
      [
        "ో",
        "ంది"
      ],
      [
        "ో",
        "క్ష"
      ],
      [
        "ో",
        "ద్య"
      ],
      [
        "ో",
        "త్రి"
      ],
      [
        "ో",
        "ధాల"
      ],
      [
        "్",
        "లో"
      ],
      [
        "్",
        "తదేశపు"
      ],
      [
        "‌",
        "కు"
      ],
      [
        "‌",
        "టిక"
      ],
      [
        "‌",
        "తంలో"
      ],
      [
        "‌",
        "ఫర్"
      ],
      [
        "‌",
        "వ‌"
      ],
      [
        "్ర",
        "ిచె"
      ],
      [
        "ార",
        "ణంగా"
      ],
      [
        "ార",
        "మ్‌"
      ],
      [
        "లు",
        "పలి"
      ],
      [
        "లో",
        "న్"
      ],
      [
        "లో",
        "ని"
      ],
      [
        "లో",
        "ను"
      ],
      [
        "లో",
        "కాల"
      ],
      [
        "లో",
        "పం"
      ],
      [
        "స్",
        "లో"
      ],
      [
        "స్",
        "వే"
      ],
      [
        "స్",
        "వర"
      ],
      [
        "స్",
        "లే"
      ],
      [
        "స్",
        "టా"
      ],
      [
        "స్",
        "టే"
      ],
      [
        "స్",
        "వర్ణ"
      ],
      [
        "స్",
        "టలు"
      ],
      [
        "్య",
        "ులు"
      ],
      [
        "్య",
        "ంలో"
      ],
      [
        "న్",
        "మార్"
      ],
      [
        "న్",
        "సీ"
      ],
      [
        "న్",
        "లుగా"
      ],
      [
        "ది",
        "ర్"
      ],
      [
        "ది",
        "రి"
      ],
      [
        "ది",
        "కి"
      ],
      [
        "ది",
        "గ్"
      ],
      [
        "ది",
        "భాగం"
      ],
      [
        "ది",
        "గువ"
      ],
      [
        "ప్ర",
        "ార్"
      ],
      [
        "ప్ర",
        "మా"
      ],
      [
        "ప్ర",
        "యా"
      ],
      [
        "ప్ర",
        "ఖ్య"
      ],
      [
        "ప్ర",
        "ణా"
      ],
      [
        "ప్ర",
        "దేశాల"
      ],
      [
        "ప్ర",
        "గతి"
      ],
      [
        "ప్ర",
        "థమ"
      ],
      [
        "ిం",
        "పు"
      ],
      [
        "ిం",
        "సాయుత"
      ],
      [
        "దేశ",
        "ిక"
      ],
      [
        "దేశ",
        "ము"
      ],
      [
        "దేశ",
        "రాజకీయ"
      ],
      [
        "దేశ",
        "ాన్ని"
      ],
      [
        "దేశ",
        "మంత"
      ],
      [
        "దేశ",
        "ాధిన"
      ],
      [
        "ాల",
        "ని"
      ],
      [
        "ాల",
        "న్నీ"
      ],
      [
        "ాల",
        "ెక్కను"
      ],
      [
        "ిక",
        "ం"
      ],
      [
        "ిక",
        "లు"
      ],
      [
        "ిక",
        "ులు"
      ],
      [
        "ిక",
        "ూడ"
      ],
      [
        "ర్",
        "లు"
      ],
      [
        "ర్",
        "టి"
      ],
      [
        "ర్",
        "కొ"
      ],
      [
        "ర్",
        "తా"
      ],
      [
        "ర్",
        "సిం"
      ],
      [
        "ర్",
        "జాలు"
      ],
      [
        "ర్",
        "భవ"
      ],
      [
        "ర్",
        "జె"
      ],
      [
        "భార",
        "్తదేశపు"
      ],
      [
        "భార",
        "‌తంలో"
      ],
      [
        "భారత",
        "ంలో"
      ],
      [
        "ాలు",
        "న్నాయి"
      ],
      [
        "న్న",
        "త"
      ],
      [
        "న్న",
        "ా"
      ],
      [
        "గా",
        "ంచిన"
      ],
      [
        "గా",
        "యి"
      ],
      [
        "కు",
        "ండ"
      ],
      [
        "కు",
        "నే"
      ],
      [
        "కు",
        "డు"
      ],
      [
        "కు",
        "డి"
      ],
      [
        "కు",
        "మార్"
      ],
      [
        "కు",
        "లం"
      ],
      [
        "కు",
        "లను"
      ],
      [
        "కు",
        "మారు"
      ],
      [
        "కు",
        "డ్య"
      ],
      [
        "కు",
        "దిర్"
      ],
      [
        "కు",
        "ర్తా"
      ],
      [
        "ని",
        "వి"
      ],
      [
        "ని",
        "వా"
      ],
      [
        "ని",
        "చ్చ"
      ],
      [
        "ని",
        "యా"
      ],
      [
        "ని",
        "వార"
      ],
      [
        "ని",
        "యో"
      ],
      [
        "ని",
        "ధి"
      ],
      [
        "ని",
        "వల్ల"
      ],
      [
        "ని",
        "లిచ"
      ],
      [
        "ని",
        "రక్షరాస్యత"
      ],
      [
        "ని",
        "లబె"
      ],
      [
        "ని",
        "షే"
      ],
      [
        "వి",
        "డ"
      ],
      [
        "వి",
        "డి"
      ],
      [
        "వి",
        "ధాన"
      ],
      [
        "వి",
        "స్తు"
      ],
      [
        "వి",
        "వర"
      ],
      [
        "వి",
        "శాఖ"
      ],
      [
        "వి",
        "జన్"
      ],
      [
        "వి",
        "నాయ"
      ],
      [
        "వి",
        "తంలో"
      ],
      [
        "వి",
        "జ్"
      ],
      [
        "వి",
        "ఫల"
      ],
      [
        "వి",
        "శి"
      ],
      [
        "వి",
        "వాదం"
      ],
      [
        "వి",
        "భజిత"
      ],
      [
        "వి",
        "శే"
      ],
      [
        "వి",
        "సభా"
      ],
      [
        "ాత",
        "్మ"
      ],
      [
        "ాయ",
        "తి"
      ],
      [
        "ాయ",
        "కార"
      ],
      [
        "ాయ",
        "ీలు"
      ],
      [
        "క్",
        "త"
      ],
      [
        "క్",
        "నాల"
      ],
      [
        "క్",
        "‌టిక"
      ],
      [
        "ాన",
        "ెట్"
      ],
      [
        "రా",
        "మన"
      ],
      [
        "రా",
        "ణించ"
      ],
      [
        "రా",
        "మాయ"
      ],
      [
        "రా",
        "సిన"
      ],
      [
        "ను",
        "న్న"
      ],
      [
        "ము",
        "ద్ర"
      ],
      [
        "ము",
        "లకు"
      ],
      [
        "ము",
        "ందు"
      ],
      [
        "ము",
        "త్యం"
      ],
      [
        "ండ",
        "ర్"
      ],
      [
        "ండ",
        "మస్"
      ],
      [
        "ండ",
        "్యులు"
      ],
      [
        "ద్",
        "వై"
      ],
      [
        "ద్",
        "దిభాగం"
      ],
      [
        "ద్",
        "విసభా"
      ],
      [
        "త్",
        "త"
      ],
      [
        "త్",
        "తల"
      ],
      [
        "ించ",
        "ుకు"
      ],
      [
        "ించ",
        "వచ్చు"
      ],
      [
        "ించ",
        "బడింది"
      ],
      [
        "ించ",
        "ుకోవడ"
      ],
      [
        "తి",
        "రి"
      ],
      [
        "ల్",
        "స్"
      ],
      [
        "ల్",
        "తాన"
      ],
      [
        "స్త",
        "ూ"
      ],
      [
        "స్త",
        "ాయి"
      ],
      [
        "స్త",
        "ానీ"
      ],
      [
        "ంత",
        "ల"
      ],
      [
        "ంత",
        "ై"
      ],
      [
        "రి",
        "ట్ల"
      ],
      [
        "రి",
        "ట్లు"
      ],
      [
        "సం",
        "స్థ"
      ],
      [
        "సం",
        "క్ర"
      ],
      [
        "సం",
        "ధి"
      ],
      [
        "సం",
        "గమ"
      ],
      [
        "సం",
        "దర్"
      ],
      [
        "రు",
        "గా"
      ],
      [
        "రు",
        "ష్"
      ],
      [
        "రు",
        "చులు"
      ],
      [
        "పు",
        "రి"
      ],
      [
        "పు",
        "లి"
      ],
      [
        "పు",
        "తో"
      ],
      [
        "పు",
        "త్ర"
      ],
      [
        "పు",
        "లా"
      ],
      [
        "పు",
        "ష్"
      ],
      [
        "పు",
        "నర్"
      ],
      [
        "స్థ",
        "‌"
      ],
      [
        "స్థ",
        "ాపక"
      ],
      [
        "స్థ",
        "ూలా"
      ],
      [
        "ంట",
        "ో"
      ],
      [
        "ంట",
        "ుంది"
      ],
      [
        "ంట",
        "రీ"
      ],
      [
        "భా",
        "జపా"
      ],
      [
        "భా",
        "విస్తు"
      ],
      [
        "ైన",
        "ెర్"
      ],
      [
        "ంగ",
        "ల"
      ],
      [
        "పా",
        "ద"
      ],
      [
        "పా",
        "క్ష"
      ],
      [
        "పా",
        "ండి"
      ],
      [
        "పా",
        "ండ్యులు"
      ],
      [
        "వా",
        "ద"
      ],
      [
        "వా",
        "టి"
      ],
      [
        "వా",
        "దన"
      ],
      [
        "వా",
        "టిలో"
      ],
      [
        "వా",
        "మిత్ర"
      ],
      [
        "సా",
        "మీ"
      ],
      [
        "సా",
        "కర్‌"
      ],
      [
        "సా",
        "ఫ్ట"
      ],
      [
        "సా",
        "నియా"
      ],
      [
        "క్ష",
        "ం"
      ],
      [
        "క్ష",
        "ంగా"
      ],
      [
        "ఉన్న",
        "ట్లు"
      ],
      [
        "ఉన్న",
        "తంగా"
      ],
      [
        "ార్",
        "థాలు"
      ],
      [
        "ార్",
        "క్‌టిక"
      ],
      [
        "ిత",
        "ం"
      ],
      [
        "ిత",
        "ే"
      ],
      [
        "ిత",
        "ంగా"
      ],
      [
        "ిత",
        "్యం"
      ],
      [
        "ష్ట",
        "ి"
      ],
      [
        "ష్ట",
        "ు"
      ],
      [
        "ష్ట",
        "మైన"
      ],
      [
        "ష్ట",
        "్యా"
      ],
      [
        "ప్రా",
        "ముఖ్య"
      ],
      [
        "ప్రా",
        "సె"
      ],
      [
        "ప్రా",
        "జా"
      ],
      [
        "ప్రా",
        "ణుల"
      ],
      [
        "ప్రా",
        "బల"
      ],
      [
        "ప్రా",
        "దేశిక"
      ],
      [
        "రాజ",
        "ధాన"
      ],
      [
        "కో",
        "సం"
      ],
      [
        "కో",
        "టి"
      ],
      [
        "కో",
        "డు"
      ],
      [
        "కో",
        "వార"
      ],
      [
        "కో",
        "వడ"
      ],
      [
        "క్ర",
        "ైస్త"
      ],
      [
        "ట్ట",
        "ు"
      ],
      [
        "ట్ట",
        "ూ"
      ],
      [
        "ట్ట",
        "ారు"
      ],
      [
        "ట్ట",
        "ుకు"
      ],
      [
        "ట్ట",
        "ెల"
      ],
      [
        "19",
        "0"
      ],
      [
        "19",
        "56"
      ],
      [
        "19",
        "62"
      ],
      [
        "19",
        "48లో"
      ],
      [
        "19",
        "65"
      ],
      [
        "కా",
        "వడ"
      ],
      [
        "కా",
        "కుండ"
      ],
      [
        "నే",
        "య"
      ],
      [
        "నే",
        "సియా"
      ],
      [
        "నే",
        "రుగా"
      ],
      [
        "పే",
        "స్"
      ],
      [
        "పే",
        "దర"
      ],
      [
        "ంచ",
        "ే"
      ],
      [
        "దు",
        "వు"
      ],
      [
        "దు",
        "స్తులు"
      ],
      [
        "మా",
        "మి"
      ],
      [
        "మా",
        "దిరి"
      ],
      [
        "మా",
        "ండమస్"
      ],
      [
        "యా",
        "వత్"
      ],
      [
        "యా",
        "ండర్"
      ],
      [
        "లి",
        "సింది"
      ],
      [
        "లి",
        "థిక"
      ],
      [
        "లి",
        "యం"
      ],
      [
        "లి",
        "విజన్"
      ],
      [
        "లి",
        "యాండర్"
      ],
      [
        "వ్య",
        "యంతో"
      ],
      [
        "వ్య",
        "‌వ‌"
      ],
      [
        "భారతీయ",
        "ులు"
      ],
      [
        "భారతీయ",
        "ుల"
      ],
      [
        "భారతీయ",
        "ుడైన"
      ],
      [
        "తర",
        "ించింది"
      ],
      [
        "తర",
        "తరాలు"
      ],
      [
        "నా",
        "టి"
      ],
      [
        "నా",
        "డు"
      ],
      [
        "నా",
        "మాలు"
      ],
      [
        "నా",
        "ట్యం"
      ],
      [
        "సి",
        "ద్ధ"
      ],
      [
        "సి",
        "గ్"
      ],
      [
        "సి",
        "ద్ధం"
      ],
      [
        "్ల",
        "ను"
      ],
      [
        "త్వ",
        "ం"
      ],
      [
        "త్వ",
        "ాలు"
      ],
      [
        "త్వ",
        "ంలో"
      ],
      [
        "త్వ",
        "రలో"
      ],
      [
        "జాతీయ",
        "వాదం"
      ],
      [
        "జాతీయ",
        "గీతం"
      ],
      [
        "జాతీయ",
        "ాదాయంలో"
      ],
      [
        "తో",
        "ంది"
      ],
      [
        "తో",
        "ష్ణ"
      ],
      [
        "రాష్ట్ర",
        "పు"
      ],
      [
        "రాష్ట్ర",
        "ానికి"
      ],
      [
        "రాష్ట్ర",
        "పత"
      ],
      [
        "గు",
        "ప్"
      ],
      [
        "గు",
        "త్తా"
      ],
      [
        "గు",
        "తాయి"
      ],
      [
        "గు",
        "నవి"
      ],
      [
        "గు",
        "తోంది"
      ],
      [
        "వచ్చ",
        "ి"
      ],
      [
        "భారతదేశ",
        "ము"
      ],
      [
        "భారతదేశ",
        "మే"
      ],
      [
        "ద్ధ",
        "ాలు"
      ],
      [
        "ద్ధ",
        "లతో"
      ],
      [
        "ల్ల",
        "ీ"
      ],
      [
        "ల్ల",
        "ింది"
      ],
      [
        "ల్ల",
        "ాయి"
      ],
      [
        "ల్ల",
        "యిన"
      ],
      [
        "di",
        "al"
      ],
      [
        "di",
        "tion"
      ],
      [
        "di",
        "ng"
      ],
      [
        "di",
        "spu"
      ],
      [
        "on",
        "g"
      ],
      [
        "కొ",
        "క్క"
      ],
      [
        "కొ",
        "ంక"
      ],
      [
        "కొ",
        "నసా"
      ],
      [
        "కొ",
        "లమానం"
      ],
      [
        "కొ",
        "ద్దిభాగం"
      ],
      [
        "కొ",
        "త్త"
      ],
      [
        "డు",
        "ంబ"
      ],
      [
        "పాల",
        "యింది"
      ],
      [
        "పాల",
        "కులు"
      ],
      [
        "పాల",
        "ిటన్"
      ],
      [
        "పాల",
        "కులను"
      ],
      [
        "మైన",
        "దే"
      ],
      [
        "మైన",
        "వి"
      ],
      [
        "వే",
        "ర్"
      ],
      [
        "వే",
        "త్తల"
      ],
      [
        "ఒక",
        "టో"
      ],
      [
        "కాల",
        "పరి"
      ],
      [
        "కాల",
        "ాల్లో"
      ],
      [
        "డి",
        "గించ"
      ],
      [
        "ణా",
        "న్ని"
      ],
      [
        "ణా",
        "టక"
      ],
      [
        "ణా",
        "దికి"
      ],
      [
        "మార్",
        "కెట్"
      ],
      [
        "ar",
        "i"
      ],
      [
        "చే",
        "త"
      ],
      [
        "చే",
        "ర"
      ],
      [
        "చే",
        "సు"
      ],
      [
        "చే",
        "సే"
      ],
      [
        "టు",
        "వంటి"
      ],
      [
        "శా",
        "శ్"
      ],
      [
        "శా",
        "కాహార"
      ],
      [
        "్‌",
        "వేర్"
      ],
      [
        "దేశాల",
        "కు"
      ],
      [
        "దేశాల",
        "తో"
      ],
      [
        "దేశాల",
        "కూ"
      ],
      [
        "దేశాల",
        "్లో"
      ],
      [
        "వ్యవ",
        "హార"
      ],
      [
        "వ్యవ",
        "సాయ"
      ],
      [
        "ఎన్న",
        "ుకొ"
      ],
      [
        "కి",
        "మీ"
      ],
      [
        "పార",
        "ిశ్ర"
      ],
      [
        "పంచ",
        "ె"
      ],
      [
        "పంచ",
        "ుకుంట"
      ],
      [
        "పంచ",
        "ాయతి"
      ],
      [
        "ాబ",
        "ుని"
      ],
      [
        "ాన్",
        "స్"
      ],
      [
        "న్ని",
        "స్లో"
      ],
      [
        "చె",
        "ంది"
      ],
      [
        "చె",
        "ందింది"
      ],
      [
        "డ్",
        "స్"
      ],
      [
        "డ్",
        "మిం"
      ],
      [
        "పె",
        "ట్రో"
      ],
      [
        "పె",
        "ట్టారు"
      ],
      [
        "మార్గ",
        "ం"
      ],
      [
        "మార్గ",
        "ము"
      ],
      [
        "మార్గ",
        "ంలో"
      ],
      [
        "మార్గ",
        "ాలలో"
      ],
      [
        "మార్గ",
        "ాలను"
      ],
      [
        "మార్గ",
        "ాలే"
      ],
      [
        "వ్యవస్థ",
        "ల"
      ],
      [
        "వ్యవస్థ",
        "గా"
      ],
      [
        "వ్యవస్థ",
        "ీకరణ"
      ],
      [
        "ంబ",
        "ే"
      ],
      [
        "కృ",
        "ష్"
      ],
      [
        "కృ",
        "ష్ణ"
      ],
      [
        "కృ",
        "ష్టమైన"
      ],
      [
        "తు",
        "డు"
      ],
      [
        "తు",
        "లకాల"
      ],
      [
        "తు",
        "రుష్"
      ],
      [
        "దా",
        "టే"
      ],
      [
        "దా",
        "టిన"
      ],
      [
        "స్తు",
        "ంది"
      ],
      [
        "స్తు",
        "న్నారు"
      ],
      [
        "పేరు",
        "తో"
      ],
      [
        "పేరు",
        "మీ"
      ],
      [
        "అధికార",
        "క"
      ],
      [
        "అధికార",
        "ి"
      ],
      [
        "అధికార",
        "ాలు"
      ],
      [
        "అధికార",
        "ంలో"
      ],
      [
        "అధికార",
        "ాన్ని"
      ],
      [
        "the",
        "ir"
      ],
      [
        "కర",
        "ించింది"
      ],
      [
        "కర",
        "మేనని"
      ],
      [
        "కర",
        "ంతై"
      ],
      [
        "ట్",
        "కా"
      ],
      [
        "దక్ష",
        "ణాసియా"
      ],
      [
        "పర",
        "మైన"
      ],
      [
        "పర",
        "్యా"
      ],
      [
        "పర",
        "చింది"
      ],
      [
        "పర",
        "మో"
      ],
      [
        "పర",
        "ోక్ష"
      ],
      [
        "పరి",
        "ధి"
      ],
      [
        "పరి",
        "పాలించ"
      ],
      [
        "పరి",
        "శో"
      ],
      [
        "పరి",
        "స్థితి"
      ],
      [
        "పరి",
        "ఢవి"
      ],
      [
        "మత",
        "ాల"
      ],
      [
        "మత",
        "ాలతో"
      ],
      [
        "మత",
        "ాలకు"
      ],
      [
        "మత",
        "ములు"
      ],
      [
        "మత",
        "స్తులు"
      ],
      [
        "మత",
        "ములకు"
      ],
      [
        "మీ",
        "ర్జాలు"
      ],
      [
        "మే",
        "రో"
      ],
      [
        "మే",
        "రకు"
      ],
      [
        "మే",
        "ళవిం"
      ],
      [
        "మే",
        "షన్"
      ],
      [
        "మధ్య",
        "ల"
      ],
      [
        "మధ్య",
        "కాలంలో"
      ],
      [
        "మధ్య",
        "వర్తి"
      ],
      [
        "వర",
        "కూ"
      ],
      [
        "సు",
        "ను"
      ],
      [
        "సు",
        "మారు"
      ],
      [
        "సు",
        "దీర్"
      ],
      [
        "సు",
        "ల్తాన"
      ],
      [
        "ప్రపంచ",
        "దేశాలలో"
      ],
      [
        "ప్రధాన",
        "మంత్ర"
      ],
      [
        "ద్ద",
        "ులు"
      ],
      [
        "స్థాన",
        "ే"
      ],
      [
        "స్థాన",
        "ిక"
      ],
      [
        "స్థాన",
        "ాలు"
      ],
      [
        "స్థాన",
        "మైన"
      ],
      [
        "భాష",
        "లలో"
      ],
      [
        "భాష",
        "లతో"
      ],
      [
        "ప్రాంత",
        "ాల"
      ],
      [
        "ప్రాంత",
        "ాలతో"
      ],
      [
        "ప్రాంత",
        "ాలకు"
      ],
      [
        "రాజ్య",
        "ాలను"
      ],
      [
        "రాజ్య",
        "సమి"
      ],
      [
        "ti",
        "an"
      ],
      [
        "ti",
        "me"
      ],
      [
        "ti",
        "nct"
      ],
      [
        "వార",
        "ిగా"
      ],
      [
        "వర్",
        "గీ"
      ],
      [
        "వర్",
        "షం"
      ],
      [
        "వర్",
        "ధిల్ల"
      ],
      [
        "వర్",
        "షాలు"
      ],
      [
        "పార్టీ",
        "ల"
      ],
      [
        "పార్టీ",
        "లు"
      ],
      [
        "పార్టీ",
        "గా"
      ],
      [
        "పార్టీ",
        "కి"
      ],
      [
        "పార్టీ",
        "లతో"
      ],
      [
        "దక్షి",
        "ణాదికి"
      ],
      [
        "Indi",
        "an"
      ],
      [
        "al",
        "ong"
      ],
      [
        "or",
        "t"
      ],
      [
        "or",
        "gan"
      ],
      [
        "అయ",
        "ింది"
      ],
      [
        "అయ",
        "ితే"
      ],
      [
        "గి",
        "పోయింది"
      ],
      [
        "గి",
        "లిన"
      ],
      [
        "గి",
        "ల్లీ"
      ],
      [
        "పూ",
        "ణే"
      ],
      [
        "పో",
        "లో"
      ],
      [
        "పో",
        "టీ"
      ],
      [
        "పో",
        "తూ"
      ],
      [
        "పో",
        "ర్చు"
      ],
      [
        "పో",
        "షకాహార"
      ],
      [
        "పో",
        "స్టలు"
      ],
      [
        "మన",
        "మే"
      ],
      [
        "మన",
        "దేశంలో"
      ],
      [
        "మన",
        "ోర"
      ],
      [
        "మి",
        "గిలిన"
      ],
      [
        "రో",
        "డ్ల"
      ],
      [
        "రెండ",
        "ుకో"
      ],
      [
        "లా",
        "ంటి"
      ],
      [
        "లా",
        "గృ"
      ],
      [
        "లా",
        "భదాయ"
      ],
      [
        "వు",
        "ని"
      ],
      [
        "వు",
        "ంది"
      ],
      [
        "వు",
        "న్నా"
      ],
      [
        "వు",
        "ంటుంది"
      ],
      [
        "వె",
        "లుపలి"
      ],
      [
        "ప్రజ",
        "లకు"
      ],
      [
        "ించిన",
        "వే"
      ],
      [
        "ించిన",
        "ందు"
      ],
      [
        "హిందూ",
        "స్తాన్"
      ],
      [
        "హిందూ",
        "స్తానీ"
      ],
      [
        "is",
        "ation"
      ],
      [
        "ంద్ర",
        "నాథ"
      ],
      [
        "ఇతర",
        "దేశాలను"
      ],
      [
        "ఇతర",
        "దేశాలకు"
      ],
      [
        "తా",
        "మర"
      ],
      [
        "తా",
        "జ్‌"
      ],
      [
        "శ్ర",
        "ద్ధలతో"
      ],
      [
        "ీన",
        "ములో"
      ],
      [
[...]
