{
  "version": "1.0",
  "truncation": null,
  "padding": null,
  "added_tokens": [
    {
      "id": 0,
      "content": "<unk>",
      "single_word": false,
      "lstrip": false,
      "rstrip": false,
      "normalized": false,
      "special": true
    }
  ],
  "normalizer": {
    "type": "NFC"
  },
  "pre_tokenizer": {
    "type": "Whitespace"
  },
  "post_processor": null,
  "decoder": null,
  "model": {
    "type": "BPE",
    "dropout": null,
    "unk_token": "<unk>",
    "continuing_subword_prefix": null,
    "end_of_word_suffix": null,
    "fuse_unk": false,
    "byte_fallback": false,
    "ignore_merges": false,
    "vocab": {
      "<unk>": 0,
      " ": 1,
      "\"": 2,
      "$": 3,
      "%": 4,
      "&": 5,
      "'": 6,
      "(": 7,
      ")": 8,
      ",": 9,
      "-": 10,
      ".": 11,
      "/": 12,
      "0": 13,
      "1": 14,
      "2": 15,
      "3": 16,
      "4": 17,
      "5": 18,
      "6": 19,
      "7": 20,
      "8": 21,
      "9": 22,
      ":": 23,
      ";": 24,
      "?": 25,
      "A": 26,
      "B": 27,
      "C": 28,
      "D": 29,
      "E": 30,
      "F": 31,
      "G": 32,
      "H": 33,
      "I": 34,
      "J": 35,
      "K": 36,
      "L": 37,
      "M": 38,
      "N": 39,
      "O": 40,
      "P": 41,
      "Q": 42,
      "R": 43,
      "S": 44,
      "T": 45,
      "U": 46,
      "V": 47,
      "W": 48,
      "X": 49,
      "Y": 50,
      "Z": 51,
      "_": 52,
      "a": 53,
      "b": 54,
      "c": 55,
      "d": 56,
      "e": 57,
      "f": 58,
      "g": 59,
      "h": 60,
      "i": 61,
      "j": 62,
      "k": 63,
      "l": 64,
      "m": 65,
      "n": 66,
      "o": 67,
      "p": 68,
      "q": 69,
      "r": 70,
      "s": 71,
      "t": 72,
      "u": 73,
      "v": 74,
      "w": 75,
      "x": 76,
      "y": 77,
      "z": 78,
      "°": 79,
      "Ö": 80,
      "á": 81,
      "â": 82,
      "æ": 83,
      "è": 84,
      "é": 85,
      "í": 86,
      "ü": 87,
      "ā": 88,
      "ī": 89,
      "Ś": 90,
      "ś": 91,
      "ū": 92,
      "ș": 93,
      "ί": 94,
      "α": 95,
      "δ": 96,
      "ν": 97,
      "ς": 98,
      "ό": 99,
      "ṅ": 100,
      "ṇ": 101,
      "ṣ": 102,
      "ṭ": 103,
      "Ἰ": 104,
      "–": 105,
      "—": 106,
      "′": 107,
      "₹": 108,
      "ⓘ": 109,
      "﻿": 110,
      "an": 111,
      "th": 112,
      "in": 113,
      "er": 114,
      "on": 115,
      "the": 116,
      "al": 117,
      "en": 118,
      "ed": 119,
      "ar": 120,
      "es": 121,
      "or": 122,
      "ti": 123,
      "di": 124,
      "In": 125,
      "and": 126,
      "of": 127,
      "as": 128,
      "is": 129,
      "Indi": 130,
      "20": 131,
      "re": 132,
      "ri": 133,
      "at": 134,
      "om": 135,
      "India": 136,
      "ing": 137,
      "ent": 138,
      "tion": 139,
      "ic": 140,
      "it": 141,
      "to": 142,
      "ou": 143,
      "ec": 144,
      "ly": 145,
      "Th": 146,
      "ch": 147,
      "st": 148,
      "li": 149,
      "ur": 150,
      "et": 151,
      "am": 152,
      "ver": 153,
      "The": 154,
      ").": 155,
      "le": 156,
      "201": 157,
      "ra": 158,
      "19": 159,
      "for": 160,
      "ved": 161,
      "ter": 162,
      "em": 163,
      "ol": 164,
      "ation": 165,
      "ce": 166,
      "ig": 167,
      "il": 168,
      "ro": 169,
      "ad": 170,
      "ul": 171,
      "el": 172,
      "rom": 173,
      "res": 174,
      "200": 175,
      "ist": 176,
      "78": 177,
      "con": 178,
      "ge": 179,
      "Indian": 180,
      "from": 181,
      "us": 182,
      "un": 183,
      "978": 184,
      "op": 185,
      "ir": 186,
      "BN": 187,
      "IS": 188,
      "ISBN": 189,
      "by": 190,
      "ity": 191,
      "ow": 192,
      "si": 193,
      "tic": 194,
      "ve": 195,
      "ment": 196,
      "ast": 197,
      "ma": 198,
      "de": 199,
      "du": 200,
      "tu": 201,
      "est": 202,
      "wi": 203,
      "ci": 204,
      "ex": 205,
      "ber": 206,
      "der": 207,
      "ate": 208,
      "ay": 209,
      "2011": 210,
      "wh": 211,
      "Ar": 212,
      "with": 213,
      "over": 214,
      "su": 215,
      "ong": 216,
      "rie": 217,
      "se": 218,
      "sh": 219,
      "Ret": 220,
      "ab": 221,
      "ni": 222,
      "ts": 223,
      "ress": 224,
      "00": 225,
      "was": 226,
      "rieved": 227,
      "Retrieved": 228,
      "be": 229,
      "ary": 230,
      "ang": 231,
      "ere": 232,
      "ac": 233,
      "ag": 234,
      "ion": 235,
      "im": 236,
      "um": 237,
      "ld": 238,
      "inal": 239,
      "orig": 240,
      "ear": 241,
      "vers": 242,
      "Arch": 243,
      "gh": 244,
      "ived": 245,
      "inc": 246,
      "original": 247,
      "ich": 248,
      "ak": 249,
      "has": 250,
      "par": 251,
      "mo": 252,
      "og": 253,
      "ut": 254,
      "Archived": 255,
      "10": 256,
      "ally": 257,
      "versity": 258,
      "so": 259,
      "ther": 260,
      "are": 261,
      "orld": 262,
      "Ch": 263,
      "ain": 264,
      "pp": 265,
      "ory": 266,
      "which": 267,
      "Uni": 268,
      "lo": 269,
      "sp": 270,
      "21": 271,
      "cont": 272,
      "com": 273,
      "ew": 274,
      "per": 275,
      "ud": 276,
      "its": 277,
      "cent": 278,
      "id": 279,
      "ru": 280,
      "ence": 281,
      "oun": 282,
      "tern": 283,
      "Hin": 284,
      "me": 285,
      "end": 286,
      "ies": 287,
      "lar": 288,
      "our": 289,
      "co": 290,
      "od": 291,
      "ted": 292,
      "ism": 293,
      "overn": 294,
      "An": 295,
      "Ju": 296,
      "mil": 297,
      "outh": 298,
      "form": 299,
      "Press": 300,
      "University": 301,
      "Asi": 302,
      "econ": 303,
      "overnment": 304,
      "July": 305,
      "av": 306,
      "pl": 307,
      "were": 308,
      "all": 309,
      "199": 310,
      "istory": 311,
      "ry": 312,
      "sti": 313,
      "ture": 314,
      "age": 315,
      "gen": 316,
      "ans": 317,
      "ated": 318,
      "ical": 319,
      "pri": 320,
      "pro": 321,
      "gion": 322,
      "hi": 323,
      "low": 324,
      "mar": 325,
      "ot": 326,
      "por": 327,
      "ass": 328,
      "Hindu": 329,
      "Con": 330,
      "ff": 331,
      "ub": 332,
      "stitu": 333,
      "History": 334,
      "cul": 335,
      "ha": 336,
      "min": 337,
      ".;": 338,
      "do": 339,
      "ep": 340,
      "fter": 341,
      "ty": 342,
      "uc": 343,
      "vi": 344,
      "ance": 345,
      "ous": 346,
      "ough": 347,
      ".).": 348,
      "ati": 349,
      "fe": 350,
      "we": 351,
      "rid": 352,
      "ame": 353,
      "ember": 354,
      "CE": 355,
      "ok": 356,
      "any": 357,
      "ine": 358,
      "lion": 359,
      "angu": 360,
      "23": 361,
      "bec": 362,
      "uring": 363,
      "Asia": 364,
      "econom": 365,
      "17": 366,
      "South": 367,
      "nor": 368,
      "tra": 369,
      "rit": 370,
      "ome": 371,
      "ury": 372,
      "ational": 373,
      "dern": 374,
      "22": 375,
      "81": 376,
      "har": 377,
      "into": 378,
      "eral": 379,
      "ish": 380,
      "2010": 381,
      "opul": 382,
      "50": 383,
      "DF": 384,
      "PDF": 385,
      "ap": 386,
      "led": 387,
      "po": 388,
      "up": 389,
      "ant": 390,
      "row": 391,
      "sub": 392,
      "stitution": 393,
      "bo": 394,
      "cl": 395,
      "land": 396,
      "oc": 397,
      "qu": 398,
      "world": 399,
      "ates": 400,
      "ford": 401,
      "olog": 402,
      "tics": 403,
      "16": 404,
      "18": 405,
      "Ma": 406,
      "but": 407,
      "ser": 408,
      "xford": 409,
      "year": 410,
      "ore": 411,
      "tions": 412,
      "amb": 413,
      "irst": 414,
      "duc": 415,
      "ages": 416,
      "ubl": 417,
      "13": 418,
      "26": 419,
      "Oxford": 420,
      "World": 421,
      "ces": 422,
      "gan": 423,
      "government": 424,
      "langu": 425,
      "ph": 426,
      "ers": 427,
      "out": 428,
      "incl": 429,
      "25": 430,
      "Mar": 431,
      "Re": 432,
      "ban": 433,
      "dec": 434,
      "pe": 435,
      "pi": 436,
      "popul": 437,
      "sy": 438,
      "als": 439,
      "ork": 440,
      "region": 441,
      "lear": 442,
      "ations": 443,
      "igh": 444,
      "elec": 445,
      "larg": 446,
      "ridge": 447,
      "Ac": 448,
      "Com": 449,
      "Cong": 450,
      "Camb": 451,
      "Econ": 452,
      "first": 453,
      "ting": 454,
      "tical": 455,
      "contin": 456,
      "Congress": 457,
      "Cambridge": 458,
      "Econom": 459,
      "14": 460,
      "Mo": 461,
      "ca": 462,
      "dh": 463,
      "fl": 464,
      "mer": 465,
      "ral": 466,
      "tur": 467,
      "vel": 468,
      "war": 469,
      "eng": 470,
      "estern": 471,
      "ister": 472,
      "rec": 473,
      "reas": 474,
      "reli": 475,
      "cial": 476,
      "century": 477,
      "largest": 478,
      "\".": 479,
      "24": 480,
      "after": 481,
      "during": 482,
      "gre": 483,
      "had": 484,
      "ust": 485,
      "wo": 486,
      "ater": 487,
      "stem": 488,
      "2007": 489,
      "used": 490,
      "uclear": 491,
      "became": 492,
      "pire": 493,
      "system": 494,
      "28": 495,
      "Al": 496,
      "Bud": 497,
      "May": 498,
      "New": 499,
      "Pl": 500,
      "cast": 501,
      "fic": 502,
      "iv": 503,
      "ial": 504,
      "jor": 505,
      "more": 506,
      "thema": 507,
      "also": 508,
      "ord": 509,
      "ties": 510,
      "tive": 511,
      "ext": 512,
      "been": 513,
      "have": 514,
      "ublic": 515,
      "15": 516,
      "Jan": 517,
      "Oc": 518,
      "St": 519,
      "cy": 520,
      "les": 521,
      "pr": 522,
      "ss": 523,
      "that": 524,
      "ari": 525,
      "tober": 526,
      "196": 527,
      "2009": 528,
      "such": 529,
      "most": 530,
      "thern": 531,
      "ount": 532,
      "million": 533,
      "minister": 534,
      "years": 535,
      "October": 536,
      "40": 537,
      "Bri": 538,
      "BCE": 539,
      "De": 540,
      "Em": 541,
      "En": 542,
      "Eur": 543,
      "cal": 544,
      "cri": 545,
      "fi": 546,
      "long": 547,
      "num": 548,
      "edi": 549,
      "dition": 550,
      "life": 551,
      "ament": 552,
      "raph": 553,
      "ign": 554,
      "ell": 555,
      "istan": 556,
      "major": 557,
      "increas": 558,
      "modern": 559,
      "ound": 560,
      "class": 561,
      "continent": 562,
      "velop": 563,
      "80": 564,
      "Cent": 565,
      "Government": 566,
      "Ra": 567,
      "Un": 568,
      "aw": 569,
      "ever": 570,
      "grow": 571,
      "mon": 572,
      "not": 573,
      "ple": 574,
      "ta": 575,
      "two": 576,
      "ins": 577,
      "ens": 578,
      "isation": 579,
      "etwe": 580,
      "under": 581,
      "prime": 582,
      "doi": 583,
      "both": 584,
      "ology": 585,
      "etween": 586,
      "27": 587,
      "36": 588,
      "47": 589,
      "85": 590,
      "Pak": 591,
      "her": 592,
      "ob": 593,
      "ose": 594,
      "pan": 595,
      "rough": 596,
      "though": 597,
      "art": 598,
      "tish": 599,
      "lim": 600,
      "urban": 601,
      "197": 602,
      "main": 603,
      "cient": 604,
      "ack": 605,
      "ograph": 606,
      "spec": 607,
      "large": 608,
      "economic": 609,
      "includ": 610,
      "caste": 611,
      "British": 612,
      "Empire": 613,
      "Pakistan": 614,
      "29": 615,
      "Sep": 616,
      "air": 617,
      "bal": 618,
      "he": 619,
      "other": 620,
      "tec": 621,
      "tro": 622,
      "tember": 623,
      "uary": 624,
      "ange": 625,
      "than": 626,
      "this": 627,
      "ince": 628,
      "ons": 629,
      "their": 630,
      "Ind": 631,
      "ise": 632,
      "ement": 633,
      "ade": 634,
      "ower": 635,
      "part": 636,
      "language": 637,
      "population": 638,
      "January": 639,
      "Europ": 640,
      "number": 641,
      "September": 642,
      "):": 643,
      "11": 644,
      "30": 645,
      "Apri": 646,
      "Jun": 647,
      "Po": 648,
      "app": 649,
      "between": 650,
      "dance": 651,
      "fol": 652,
      "ik": 653,
      "lit": 654,
      "man": 655,
      "many": 656,
      "pre": 657,
      "rate": 658,
      "south": 659,
      "ten": 660,
      "ure": 661,
      "western": 662,
      "erg": 663,
      "ond": 664,
      "ard": 665,
      "2021": 666,
      "ries": 667,
      "ited": 668,
      "itary": 669,
      "ures": 670,
      "fore": 671,
      "old": 672,
      "ild": 673,
      "und": 674,
      "supp": 675,
      "able": 676,
      "began": 677,
      "anges": 678,
      "imal": 679,
      "Chin": 680,
      "peri": 681,
      "Hinduism": 682,
      "Constitution": 683,
      "culture": 684,
      "north": 685,
      "March": 686,
      "Buddh": 687,
      "ountry": 688,
      "Europe": 689,
      "April": 690,
      "After": 691,
      "Bi": 692,
      "Dec": 693,
      "Del": 694,
      "Is": 695,
      "It": 696,
      "Sans": 697,
      "US": 698,
      "ai": 699,
      "ach": 700,
      "bi": 701,
      "des": 702,
      "dom": 703,
      "eb": 704,
      "ev": 705,
      "gra": 706,
      "hum": 707,
      "ke": 708,
      "krit": 709,
      "lish": 710,
      "later": 711,
      "ne": 712,
      "non": 713,
      "new": 714,
      "pec": 715,
      "pres": 716,
      "some": 717,
      "tan": 718,
      "ugh": 719,
      "ven": 720,
      "ann": 721,
      "one": 722,
      "ali": 723,
      "enti": 724,
      "ort": 725,
      "tim": 726,
      "ash": 727,
      "ised": 728,
      "ree": 729,
      "urr": 730,
      "ural": 731,
      "leg": 732,
      "1950": 733,
      "2008": 734,
      "ople": 735,
      "own": 736,
      "000": 737,
      "lowing": 738,
      "economy": 739,
      "northern": 740,
      "tradition": 741,
      "subcontinent": 742,
      "thematics": 743,
      "Raj": 744,
      "China": 745,
      "Sanskrit": 746,
      "33": 747,
      "Au": 748,
      "By": 749,
      "Mugh": 750,
      "bas": 751,
      "ck": 752,
      "cre": 753,
      "ft": 754,
      "gi": 755,
      "pany": 756,
      "power": 757,
      "since": 758,
      "te": 759,
      "ani": 760,
      "there": 761,
      "infl": 762,
      "eration": 763,
      "eds": 764,
      "dis": 765,
      "diversity": 766,
      "cho": 767,
      "litical": 768,
      "liament": 769,
      "ety": 770,
      "among": 771,
      "ley": 772,
      "1947": 773,
      "2001": 774,
      "develop": 775,
      "mill": 776,
      "increased": 777,
      "classical": 778,
      "including": 779,
      "Indus": 780,
      "June": 781,
      "liter": 782,
      "Delhi": 783,
      "influ": 784,
      "521": 785,
      "Beng": 786,
      "For": 787,
      "Ge": 788,
      "No": 789,
      "National": 790,
      "Per": 791,
      "Pro": 792,
      "Pun": 793,
      "So": 794,
      "York": 795,
      "ace": 796,
      "cour": 797,
      "gr": 798,
      "gust": 799,
      "hn": 800,
      "high": 801,
      "jab": 802,
      "king": 803,
      "mus": 804,
      "mid": 805,
      "no": 806,
      "nuclear": 807,
      "ood": 808,
      "pt": 809,
      "pen": 810,
      "set": 811,
      "tr": 812,
      "tri": 813,
      "ves": 814,
      "ving": 815,
      "west": 816,
      "well": 817,
      "enni": 818,
      "arm": 819,
      "ess": 820,
      "Indo": 821,
      "ics": 822,
      "ite": 823,
      "sty": 824,
      "state": 825,
      "aman": 826,
      "2012": 827,
      "2017": 828,
      "forest": 829,
      "ular": 830,
      "2003": 831,
      "constitution": 832,
      "ird": 833,
      "sion": 834,
      "cience": 835,
      "ately": 836,
      "parliament": 837,
      "ains": 838,
      "rule": 839,
      "econd": 840,
      "general": 841,
      "mark": 842,
      "cultur": 843,
      "lands": 844,
      "occ": 845,
      "people": 846,
      "election": 847,
      "ensus": 848,
      "species": 849,
      "period": 850,
      "August": 851,
      "Mughal": 852,
      "Punjab": 853,
      "49": 854,
      "69": 855,
      "Am": 856,
      "From": 857,
      "Feb": 858,
      "Mus": 859,
      "Nuclear": 860,
      "Pr": 861,
      "Par": 862,
      "Pra": 863,
      "Sh": 864,
      "Sik": 865,
      "Tim": 866,
      "bil": 867,
      "bel": 868,
      "ced": 869,
      "country": 870,
      "dle": 871,
      "ia": 872,
      "pol": 873,
      "pend": 874,
      "public": 875,
      "ron": 876,
      "tor": 877,
      "ude": 878,
      "vement": 879,
      "ank": 880,
      "through": 881,
      "them": 882,
      "educ": 883,
      "arn": 884,
      "til": 885,
      "time": 886,
      "offic": 887,
      "rel": 888,
      "river": 889,
      "ata": 890,
      "ats": 891,
      "lead": 892,
      "2014": 893,
      "2015": 894,
      "emerg": 895,
      "ill": 896,
      "ultan": 897,
      "2004": 898,
      "2005": 899,
      "ments": 900,
      "wide": 901,
      "expor": 902,
      "soci": 903,
      "social": 904,
      "ruary": 905,
      "military": 906,
      "port": 907,
      "served": 908,
      "languages": 909,
      "Company": 910,
      "Economy": 911,
      "Economic": 912,
      "Modern": 913,
      "caused": 914,
      "religion": 915,
      "Plate": 916,
      "troduc": 917,
      "millenni": 918,
      "Bengal": 919,
      "February": 920,
      "millennium": 921,
      "31": 922,
      "37": 923,
      "45": 924,
      "51": 925,
      "53": 926,
      "87": 927,
      "Dem": 928,
      "East": 929,
      "Gand": 930,
      "Himal": 931,
      "Ne": 932,
      "Or": 933,
      "Rout": 934,
      "Science": 935,
      "can": 936,
      "cord": 937,
      "day": 938,
      "eth": 939,
      "eas": 940,
      "east": 941,
      "fam": 942,
      "ga": 943,
      "last": 944,
      "prom": 945,
      "ris": 946,
      "rural": 947,
      "sa": 948,
      "son": 949,
      "sing": 950,
      "second": 951,
      "uries": 952,
      "work": 953,
      "ya": 954,
      "ana": 955,
      "indu": 956,
      "ered": 957,
      "theast": 958,
      "ederal": 959,
      "ese": 960,
      "ori": 961,
      "disp": 962,
      "direc": 963,
      "2022": 964,
      "righ": 965,
      "ating": 966,
      "ature": 967,
      "ically": 968,
      "198": 969,
      "iron": 970,
      "owever": 971,
      "who": 972,
      "ago": 973,
      "contr": 974,
      "centuries": 975,
      "coast": 976,
      "cook": 977,
      "And": 978,
      "Asian": 979,
      "ative": 980,
      "ledge": 981,
      "ocra": 982,
      "Mathematics": 983,
      "religi": 984,
      "majority": 985,
      "Central": 986,
      "human": 987,
      "music": 988,
      "Muslim": 989,
      "billion": 990,
      "Gandhi": 991,
      "Himalay": 992,
      "Routledge": 993,
      "%.": 994,
      "),": 995,
      "..": 996,
      "100": 997,
      "43": 998,
      "44": 999,
      "BJ": 1000,
      "Co": 1001,
      "Cul": 1002,
      "Its": 1003,
      "Jain": 1004,
      "Sing": 1005,
      "Ur": 1006,
      "Western": 1007,
      "ath": 1008,
      "bu": 1009,
      "col": 1010,
      "found": 1011,
      "gar": 1012,
      "get": 1013,
      "ho": 1014,
      "ially": 1015,
      "line": 1016,
      "men": 1017,
      "made": 1018,
      "ned": 1019,
      "ram": 1020,
      "rates": 1021,
      "sec": 1022,
      "sur": 1023,
      "val": 1024,
      "vic": 1025,
      "vol": 1026,
      "viron": 1027,
      "wom": 1028,
      "yan": 1029,
      "ancient": 1030,
      "third": 1031,
      "ert": 1032,
      "2023": 1033,
      "reat": 1034,
      "ents": 1035,
      "itec": 1036,
      "str": 1037,
      "lies": 1038,
      "ades": 1039,
      "Indians": 1040,
      "use": 1041,
      "def": 1042,
      "ders": 1043,
      "acy": 1044,
      "agri": 1045,
      "ions": 1046,
      "early": 1047,
      "party": 1048,
      "areas": 1049,
      "lobal": 1050,
      "contri": 1051,
      "common": 1052,
      "central": 1053,
      "ternational": 1054,
      "Hindi": 1055,
      "Ancient": 1056,
      "forms": 1057,
      "1991": 1058,
      "gener": 1059,
      "harma": 1060,
      "political": 1061,
      "cess": 1062,
      "include": 1063,
      "Act": 1064,
      "United": 1065,
      "growth": 1066,
      "following": 1067,
      "Buddhist": 1068,
      "European": 1069,
      "times": 1070,
      "based": 1071,
      "influen": 1072,
      "trans": 1073,
      "Sikh": 1074,
      "Times": 1075,
      "emerged": 1076,
      "ultanate": 1077,
      "cording": 1078,
      "control": 1079,
      "Andaman": 1080,
      "religious": 1081,
      "BJP": 1082,
      "vironment": 1083,
      "women": 1084,
      "%,": 1085,
      "12": 1086,
      "2n": 1087,
      "39": 1088,
      "400": 1089,
      "55": 1090,
      "57": 1091,
      "500": 1092,
      "Ash": 1093,
      "Bh": 1094,
      "Bl": 1095,
      "Bhar": 1096,
      "Civ": 1097,
      "Ear": 1098,
      "Ganges": 1099,
      "Min": 1100,
      "Mal": 1101,
      "Public": 1102,
      "Se": 1103,
      "Stu": 1104,
      "Tam": 1105,
      "bre": 1106,
      "bir": 1107,
      "car": 1108,
      "cru": 1109,
      "census": 1110,
      "ds": 1111,
      "dra": 1112,
      "fer": 1113,
      "far": 1114,
      "fig": 1115,
      "fast": 1116,
      "fac": 1117,
      "glish": 1118,
      "hist": 1119,
      "hru": 1120,
      "ib": 1121,
      "ive": 1122,
      "ide": 1123,
      "kn": 1124,
      "lin": 1125,
      "lam": 1126,
      "mi": 1127,
      "mit": 1128,
      "medi": 1129,
      "ning": 1130,
      "national": 1131,
      "pain": 1132,
      "ren": 1133,
      "rul": 1134,
      "sou": 1135,
      "scul": 1136,
      "ton": 1137,
      "tem": 1138,
      "tex": 1139,
      "uch": 1140,
      "vis": 1141,
      "vast": 1142,
      "wor": 1143,
      "ances": 1144,
      "indi": 1145,
      "inter": 1146,
      "they": 1147,
      "ality": 1148,
      "ara": 1149,
      "arch": 1150,
      "espec": 1151,
      "diff": 1152,
      "remain": 1153,
      "icy": 1154,
      "ites": 1155,
      "ecu": 1156,
      "There": 1157,
      "ched": 1158,
      "ste": 1159,
      "states": 1160,
      "litics": 1161,
      "ets": 1162,
      "eton": 1163,
      "amp": 1164,
      "verse": 1165,
      "2013": 1166,
      "2018": 1167,
      "2019": 1168,
      "ration": 1169,
      "territ": 1170,
      "emp": 1171,
      "eld": 1172,
      "2000": 1173,
      "operation": 1174,
      "mathema": 1175,
      "depend": 1176,
      "movement": 1177,
      "Union": 1178,
      "lood": 1179,
      "local": 1180,
      "formed": 1181,
      "produc": 1182,
      "lower": 1183,
      "ffair": 1184,
      "view": 1185,
      "apit": 1186,
      "pos": 1187,
      "book": 1188,
      "ological": 1189,
      "regions": 1190,
      "grew": 1191,
      "Environment": 1192,
      "English": 1193,
      "fied": 1194,
      "five": 1195,
      "ography": 1196,
      "head": 1197,
      "ildlife": 1198,
      "December": 1199,
      "Islam": 1200,
      "chool": 1201,
      "literacy": 1202,
      "parliamentary": 1203,
      "cultural": 1204,
      "occup": 1205,
      "religions": 1206,
      "troduction": 1207,
      "Nehru": 1208,
      "fami": 1209,
      "indust": 1210,
      "Singh": 1211,
      "itecture": 1212,
      "2nd": 1213,
      "Civil": 1214,
      "Tamil": 1215,
      "painting": 1216,
      "especially": 1217,
      "ffairs": 1218,
      "35": 1219,
      "59": 1220,
      "60": 1221,
      "70": 1222,
      "76": 1223,
      "Af": 1224,
      "At": 1225,
      "Ara": 1226,
      "Ass": 1227,
      "Be": 1228,
      "Bo": 1229,
      "DP": 1230,
      "Des": 1231,
      "During": 1232,
      "Ex": 1233,
      "Gu": 1234,
      "GDP": 1235,
      "He": 1236,
      "Jo": 1237,
      "Jam": 1238,
      "Kash": 1239,
      "Langu": 1240,
      "Lond": 1241,
      "Mich": 1242,
      "Mid": 1243,
      "Nic": 1244,
      "Pol": 1245,
      "Publ": 1246,
      "Vol": 1247,
      "Wi": 1248,
      "au": 1249,
      "bod": 1250,
      "back": 1251,
      "den": 1252,
      "ded": 1253,
      "dem": 1254,
      "ef": 1255,
      "federal": 1256,
      "hy": 1257,
      "hen": 1258,
      "hou": 1259,
      "hav": 1260,
      "history": 1261,
      "ii": 1262,
      "iz": 1263,
      "jec": 1264,
      "ling": 1265,
      "lay": 1266,
      "mis": 1267,
      "now": 1268,
      "os": 1269,
      "pur": 1270,
      "pture": 1271,
      "pical": 1272,
      "ran": 1273,
      "sm": 1274,
      "sist": 1275,
      "sultanate": 1276,
      "tly": 1277,
      "uis": 1278,
      "ution": 1279,
      "ually": 1280,
      "wa": 1281,
      "won": 1282,
      "went": 1283,
      "andi": 1284,
      "ants": 1285,
      "inf": 1286,
      "ini": 1287,
      "ines": 1288,
      "ones": 1289,
      "alth": 1290,
      "ales": 1291,
      "along": 1292,
      "edic": 1293,
      "arti": 1294,
      "dies": 1295,
      "diverse": 1296,
      "International": 1297,
      "Introduction": 1298,
      "often": 1299,
      "isl": 1300,
      "2024": 1301,
      "reg": 1302,
      "republic": 1303,
      "atures": 1304,
      "inger": 1305,
      "ently": 1306,
      "oup": 1307,
      "ould": 1308,
      "These": 1309,
      "change": 1310,
      "lid": 1311,
      "liest": 1312,
      "urther": 1313,
      "rah": 1314,
      "term": 1315,
      "ters": 1316,
      "igni": 1317,
      "ross": 1318,
      "rock": 1319,
      "adv": 1320,
      "2006": 1321,
      "union": 1322,
      "sive": 1323,
      "cities": 1324,
      "ciety": 1325,
      "execu": 1326,
      "ays": 1327,
      "whose": 1328,
      "sum": 1329,
      "sever": 1330,
      "sequ": 1331,
      "ablish": 1332,
      "inceton": 1333,
      "parti": 1334,
      "Chand": 1335,
      "loy": 1336,
      "commer": 1337,
      "ruc": 1338,
      "ternal": 1339,
      "endem": 1340,
      "ourn": 1341,
      "alled": 1342,
      "1992": 1343,
      "1994": 1344,
      "gency": 1345,
      "marri": 1346,
      "ffec": 1347,
      "minist": 1348,
      "viol": 1349,
      "weap": 1350,
      "become": 1351,
      "serv": 1352,
      "popular": 1353,
      "regional": 1354,
      "elections": 1355,
      "According": 1356,
      "record": 1357,
      "All": 1358,
      "ficant": 1359,
      "Develop": 1360,
      "longer": 1361,
      "growing": 1362,
      "techn": 1363,
      "Politics": 1364,
      "undament": 1365,
      "Buddhism": 1366,
      "desh": 1367,
      "alition": 1368,
      "traditional": 1369,
      "created": 1370,
      "Persi": 1371,
      "Society": 1372,
      "penins": 1373,
      "styles": 1374,
      "Among": 1375,
      "Princeton": 1376,
      "Pradesh": 1377,
      "education": 1378,
      "official": 1379,
      "widely": 1380,
      "eastern": 1381,
      "Himalayas": 1382,
      "Urban": 1383,
      "Publications": 1384,
      "southern": 1385,
      "territor": 1386,
      "posed": 1387,
      "London": 1388,
      "Publish": 1389,
      "body": 1390,
      "ignificant": 1391,
      "Development": 1392,
      "05": 1393,
      "300": 1394,
      "317": 1395,
      "46": 1396,
      "4th": 1397,
      "63": 1398,
      "74": 1399,
      "79": 1400,
      "82": 1401,
      "94": 1402,
      "As": 1403,
      "Affairs": 1404,
      "Brah": 1405,
      "Col": 1406,
      "El": 1407,
      "Flood": 1408,
      "Gen": 1409,
      "Gav": 1410,
      "Har": 1411,
      "Hum": 1412,
      "Journ": 1413,
      "Long": 1414,
      "Mon": 1415,
      "Nor": 1416,
      "Out": 1417,
      "Pe": 1418,
      "Pal": 1419,
      "Popul": 1420,
      "Ro": 1421,
      "Rep": 1422,
      "Sri": 1423,
      "Sou": 1424,
      "Sur": 1425,
      "Shi": 1426,
      "Spr": 1427,
      "Va": 1428,
      "West": 1429,
      "aver": 1430,
      "ael": 1431,
      "bor": 1432,
      "bro": 1433,
      "bot": 1434,
      "clo": 1435,
      "coun": 1436,
      "curr": 1437,
      "dances": 1438,
      "equ": 1439,
      "four": 1440,
      "further": 1441,
      "gu": 1442,
      "however": 1443,
      "held": 1444,
      "ip": 1445,
      "ian": 1446,
      "jo": 1447,
      "ks": 1448,
      "kar": 1449,
      "la": 1450,
      "mir": 1451,
      "mary": 1452,
      "member": 1453,
      "nat": 1454,
      "nam": 1455,
      "odiversity": 1456,
      "pa": 1457,
      "pra": 1458,
      "pass": 1459,
      "pages": 1460,
      "red": 1461,
      "rise": 1462,
      "significant": 1463,
      "tal": 1464,
      "tes": 1465,
      "tle": 1466,
      "ue": 1467,
      "upp": 1468,
      "vo": 1469,
      "vid": 1470,
      "vember": 1471,
      "vari": 1472,
      "vill": 1473,
      "anted": 1474,
      "three": 1475,
      "independ": 1476,
      "onial": 1477,
      "enac": 1478,
      "ars": 1479,
      "around": 1480,
      "estim": 1481,
      "ors": 1482,
      "organ": 1483,
      "tice": 1484,
      "dist": 1485,
      "dish": 1486,
      "ditions": 1487,
      "off": 1488,
      "ising": 1489,
      "203": 1490,
      "read": 1491,
      "rig": 1492,
      "rich": 1493,
      "omin": 1494,
      "omet": 1495,
      "ice": 1496,
      "This": 1497,
      "char": 1498,
      "changes": 1499,
      "sts": 1500,
      "stan": 1501,
      "stat": 1502,
      "liber": 1503,
      "eter": 1504,
      "left": 1505,
      "2016": 1506,
      "empire": 1507,
      "rop": 1508,
      "administ": 1509,
      "ulti": 1510,
      "elf": 1511,
      "resent": 1512,
      "resid": 1513,
      "2002": 1514,
      "istry": 1515,
      "consi": 1516,
      "conduc": 1517,
      "ush": 1518,
      "uni": 1519,
      "until": 1520,
      "establish": 1521,
      "exp": 1522,
      "bert": 1523,
      "Art": 1524,
      "abil": 1525,
      "angered": 1526,
      "import": 1527,
      "earliest": 1528,
      "ake": 1529,
      "akh": 1530,
      "aksh": 1531,
      "spe": 1532,
      "spread": 1533,
      "compan": 1534,
      "endangered": 1535,
      "coalition": 1536,
      "ples": 1537,
      "plain": 1538,
      "place": 1539,
      "1998": 1540,
      "genous": 1541,
      "process": 1542,
      "ports": 1543,
      "Constitu": 1544,
      "230": 1545,
      "traditions": 1546,
      "subsequ": 1547,
      "1885": 1548,
      "ength": 1549,
      "Although": 1550,
      "States": 1551,
      "1965": 1552,
      "1967": 1553,
      "cript": 1554,
      "increasing": 1555,
      "every": 1556,
      "tax": 1557,
      "hered": 1558,
      "obar": 1559,
      "thought": 1560,
      "1970": 1561,
      "Constitutional": 1562,
      "Islands": 1563,
      "doms": 1564,
      "domin": 1565,
      "eval": 1566,
      "gradu": 1567,
      "present": 1568,
      "legisl": 1569,
      "developed": 1570,
      "November": 1571,
      "courts": 1572,
      "group": 1573,
      "kingdoms": 1574,
      "middle": 1575,
      "style": 1576,
      "market": 1577,
      "arna": 1578,
      "leading": 1579,
      "Democra": 1580,
      "Organ": 1581,
      "disput": 1582,
      "right": 1583,
      "cooked": 1584,
      "Culture": 1585,
      "Jainism": 1586,
      "influenced": 1587,
      "Bharat": 1588,
      "Ministry": 1589,
      "Studies": 1590,
      "birth": 1591,
      "figures": 1592,
      "histor": 1593,
      "known": 1594,
      "sculpture": 1595,
      "worn": 1596,
      "indigenous": 1597,
      "differ": 1598,
      "employ": 1599,
      "mathematical": 1600,
      "families": 1601,
      "industry": 1602,
      "Guj": 1603,
      "Kashmir": 1604,
      "Michael": 1605,
      "Middle": 1606,
      "Nicobar": 1607,
      "house": 1608,
      "ization": 1609,
      "mission": 1610,
      "executive": 1611,
      "technology": 1612,
      "undamental": 1613,
      "Persian": 1614,
      "peninsular": 1615,
      "Gavin": 1616,
      "Journal": 1617,
      "Southeast": 1618,
      "Springer": 1619,
      "consider": 1620,
      "1200": 1621,
      "219": 1622,
      "281": 1623,
      "415": 1624,
      "56": 1625,
      "84": 1626,
      "90": 1627,
      "91": 1628,
      "Ba": 1629,
      "Bar": 1630,
      "Bas": 1631,
      "Bang": 1632,
      "Cl": 1633,
      "Country": 1634,
      "Curr": 1635,
      "Census": 1636,
      "Dr": 1637,
      "Dy": 1638,
      "Dra": 1639,
      "Gh": 1640,
      "Gup": 1641,
      "Gree": 1642,
      "Global": 1643,
      "HO": 1644,
      "However": 1645,
      "Kar": 1646,
      "Law": 1647,
      "Lank": 1648,
      "Lib": 1649,
      "Me": 1650,
      "Man": 1651,
      "Met": 1652,
      "Many": 1653,
      "Old": 1654,
      "Off": 1655,
      "PA": 1656,
      "Pandi": 1657,
      "Ru": 1658,
      "Rob": 1659,
      "SA": 1660,
      "Sin": 1661,
      "Sum": 1662,
      "She": 1663,
      "TO": 1664,
      "Tec": 1665,
      "Tra": 1666,
      "Up": 1667,
      "UPA": 1668,
      "Vi": 1669,
      "Val": 1670,
      "Vis": 1671,
      "War": 1672,
      "Wildlife": 1673,
      "Year": 1674,
      "af": 1675,
      "adi": 1676,
      "ail": 1677,
      "bl": 1678,
      "bar": 1679,
      "band": 1680,
      "bly": 1681,
      "ble": 1682,
      "cis": 1683,
      "cover": 1684,
      "capit": 1685,
      "called": 1686,
      "ctice": 1687,
      "del": 1688,
      "dha": 1689,
      "down": 1690,
      "dram": 1691,
      "ee": 1692,
      "eigh": 1693,
      "fo": 1694,
      "fence": 1695,
      "fundamental": 1696,
      "ger": 1697,
      "good": 1698,
      "global": 1699,
      "his": 1700,
      "ians": 1701,
      "just": 1702,
      "kh": 1703,
      "ker": 1704,
      "ken": 1705,
      "kil": 1706,
      "lades": 1707,
      "ms": 1708,
      "mals": 1709,
      "ns": 1710,
      "pu": 1711,
      "ped": 1712,
      "pay": 1713,
      "pharma": 1714,
      "reduc": 1715,
      "sine": 1716,
      "sari": 1717,
      "sign": 1718,
      "school": 1719,
      "tre": 1720,
      "ual": 1721,
      "ued": 1722,
      "ues": 1723,
      "utical": 1724,
      "win": 1725,
      "wear": 1726,
      "writ": 1727,
      "xim": 1728,
      "anim": 1729,
      "animal": 1730,
      "throp": 1731,
      "ined": 1732,
      "ining": 1733,
      "invol": 1734,
      "era": 1735,
      "ale": 1736,
      "ened": 1737,
      "aries": 1738,
      "oral": 1739,
      "div": 1740,
      "dian": 1741,
      "anding": 1742,
      "associ": 1743,
      "istic": 1744,
      "2020": 1745,
      "2026": 1746,
      "reme": 1747,
      "reach": 1748,
      "rial": 1749,
      "rica": 1750,
      "atri": 1751,
      "took": 1752,
      "touch": 1753,
      "oul": 1754,
      "che": 1755,
      "lig": 1756,
      "liance": 1757,
      "etwork": 1758,
      "ama": 1759,
      "ams": 1760,
      "Their": 1761,
      "1980": 1762,
      "1951": 1763,
      "embly": 1764,
      "cept": 1765,
      "ceutical": 1766,
      "igration": 1767,
      "roxim": 1768,
      "ada": 1769,
      "ulting": 1770,
      "elites": 1771,
      "resulting": 1772,
      "conso": 1773,
      "consist": 1774,
      "six": 1775,
      "sions": 1776,
      "vey": 1777,
      "astri": 1778,
      "mathematics": 1779,
      "exist": 1780,
      "external": 1781,
      "when": 1782,
      "where": 1783,
      "within": 1784,
      "overty": 1785,
      "rief": 1786,
      "shar": 1787,
      "show": 1788,
      "ably": 1789,
      "about": 1790,
      "before": 1791,
      "anged": 1792,
      "act": 1793,
      "again": 1794,
      "Architecture": 1795,
      "aka": 1796,
      "aking": 1797,
      "soon": 1798,
      "ained": 1799,
      "pped": 1800,
      "composed": 1801,
      "meat": 1802,
      "Anthrop": 1803,
      "avour": 1804,
      "plate": 1805,
      "1996": 1806,
      "1999": 1807,
      "protec": 1808,
      "portion": 1809,
      "Conserv": 1810,
      "vidian": 1811,
      "ously": 1812,
      "features": 1813,
      "trade": 1814,
      "anta": 1815,
      "quality": 1816,
      "Mah": 1817,
      "Maury": 1818,
      "series": 1819,
      "Marri": 1820,
      "Review": 1821,
      "decades": 1822,
      "elected": 1823,
      "continued": 1824,
      "meric": 1825,
      "turned": 1826,
      "wars": 1827,
      "reasing": 1828,
      "great": 1829,
      "greater": 1830,
      "Buddha": 1831,
      "exten": 1832,
      "extant": 1833,
      "Janata": 1834,
      "Defence": 1835,
      "calf": 1836,
      "crip": 1837,
      "Century": 1838,
      "Under": 1839,
      "ackwell": 1840,
      "tropical": 1841,
      "numbers": 1842,
      "Political": 1843,
      "approxim": 1844,
      "ergy": 1845,
      "foreign": 1846,
      "oldest": 1847,
      "support": 1848,
      "bian": 1849,
      "vention": 1850,
      "anning": 1851,
      "traditionally": 1852,
      "Rajat": 1853,
      "development": 1854,
      "influence": 1855,
      "Forest": 1856,
      "court": 1857,
      "constitutional": 1858,
      "691": 1859,
      "Party": 1860,
      "Short": 1861,
      "below": 1862,
      "relations": 1863,
      "leader": 1864,
      "exports": 1865,
      "Plateau": 1866,
      "single": 1867,
      "directly": 1868,
      "rights": 1869,
      "cooking": 1870,
      "secular": 1871,
      "survi": 1872,
      "agriculture": 1873,
      "agricultural": 1874,
      "contribut": 1875,
      "contribu": 1876,
      "commonly": 1877,
      "Asher": 1878,
      "Blackwell": 1879,
      "Early": 1880,
      "Sea": 1881,
      "crust": 1882,
      "renew": 1883,
      "texts": 1884,
      "Africa": 1885,
      "Assembly": 1886,
      "Before": 1887,
      "Desert": 1888,
      "John": 1889,
      "Language": 1890,
      "Policy": 1891,
      "Wiley": 1892,
      "democra": 1893,
      "small": 1894,
      "waist": 1895,
      "artis": 1896,
      "partition": 1897,
      "commercial": 1898,
      "violence": 1899,
      "weapons": 1900,
      "recorded": 1901,
      "territories": 1902,
      "Publishing": 1903,
      "General": 1904,
      "Human": 1905,
      "Population": 1906,
      "Survey": 1907,
      "upper": 1908,
      "vided": 1909,
      "enacted": 1910,
      "estimated": 1911,
      "conducted": 1912,
      "established": 1913,
      "ability": 1914,
      "important": 1915,
      "Constituent": 1916,
      "Organization": 1917,
      "Gujar": 1918,
      "Banglades": 1919,
      "Current": 1920,
      "Dravidian": 1921,
      "Ghats": 1922,
      "Libr": 1923,
      "Metcalf": 1924,
      "Pandit": 1925,
      "Valley": 1926,
      "dramas": 1927,
      "pharmaceutical": 1928,
      "reduced": 1929,
      "consolid": 1930,
      "Anthropology": 1931,
      "Conservation": 1932,
      "approximately": 1933,
      "Bangladesh": 1934,
      ");": 1935,
      ".,": 1936,
      "06": 1937,
      "116": 1938,
      "114": 1939,
      "42": 1940,
      "54": 1941,
      "5th": 1942,
      "517": 1943,
      "540": 1944,
      "6th": 1945,
      "72": 1946,
      "7th": 1947,
      "86": 1948,
      "88": 1949,
      "93": 1950,
      "981": 1951,
      "Ad": 1952,
      "Ak": 1953,
      "Agre": 1954,
      "Agency": 1955,
      "Americ": 1956,
      "Bus": 1957,
      "Bay": 1958,
      "Between": 1959,
      "CN": 1960,
      "Cri": 1961,
      "City": 1962,
      "Crow": 1963,
      "Clim": 1964,
      "Capit": 1965,
      "DA": 1966,
      "Di": 1967,
      "Don": 1968,
      "Dal": 1969,
      "Dis": 1970,
      "Dance": 1971,
      "Eas": 1972,
      "Fi": 1973,
      "Fore": 1974,
      "First": 1975,
      "Fron": 1976,
      "Federal": 1977,
      "Fran": 1978,
      "GE": 1979,
      "Go": 1980,
      "Gar": 1981,
      "Gre": 1982,
      "Gange": 1983,
      "Gond": 1984,
      "Gold": 1985,
      "Home": 1986,
      "II": 1987,
      "Id": 1988,
      "Im": 1989,
      "JS": 1990,
      "Jhar": 1991,
      "Kal": 1992,
      "Kum": 1993,
      "Keral": 1994,
      "Le": 1995,
      "Laksh": 1996,
      "Mes": 1997,
      "Mad": 1998,
      "Mani": 1999,
      "Myan": 2000,
      "NJ": 2001,
      "Non": 2002,
      "Nag": 2003,
      "Nep": 2004,
      "NDA": 2005,
      "Over": 2006,
      "Py": 2007,
      "Pall": 2008,
      "Power": 2009,
      "Res": 2010,
      "Rig": 2011,
      "Rother": 2012,
      "Sp": 2013,
      "Sy": 2014,
      "San": 2015,
      "Ser": 2016,
      "Son": 2017,
      "Sab": 2018,
      "Sim": 2019,
      "Sub": 2020,
      "Some": 2021,
      "Sign": 2022,
      "Stil": 2023,
      "Sharma": 2024,
      "School": 2025,
      "Ter": 2026,
      "Tal": 2027,
      "Tri": 2028,
      "Tem": 2029,
      "Treat": 2030,
      "Ut": 2031,
      "Ver": 2032,
      "Win": 2033,
      "Wall": 2034,
      "WHO": 2035,
      "ae": 2036,
      "aic": 2037,
      "ather": 2038,
      "bes": 2039,
      "cing": 2040,
      "cli": 2041,
      "cro": 2042,
      "city": 2043,
      "ctic": 2044,
      "cut": 2045,
      "cav": 2046,
      "came": 2047,
      "count": 2048,
      "cise": 2049,
      "could": 2050,
      "dy": 2051,
      "dar": 2052,
      "dri": 2053,
      "dest": 2054,
      "ei": 2055,
      "ez": 2056,
      "ely": 2057,
      "etic": 2058,
      "eign": 2059,
      "effec": 2060,
      "fem": 2061,
      "fil": 2062,
      "fall": 2063,
      "feration": 2064,
      "fram": 2065,
      "gas": 2066,
      "god": 2067,
      "gins": 2068,
      "han": 2069,
      "ham": 2070,
      "hab": 2071,
      "here": 2072,
      "hub": 2073,
      "ira": 2074,
      "jur": 2075,
      "kes": 2076,
      "kame": 2077,
      "ls": 2078,
      "lor": 2079,
      "lat": 2080,
      "lab": 2081,
      "law": 2082,
      "mb": 2083,
      "mu": 2084,
      "med": 2085,
      "mam": 2086,
      "mund": 2087,
      "much": 2088,
      "multi": 2089,
      "ner": 2090,
      "nar": 2091,
      "nom": 2092,
      "nation": 2093,
      "near": 2094,
      "name": 2095,
      "oz": 2096,
      "oin": 2097,
      "oge": 2098,
      "ove": 2099,
      "pon": 2100,
      "pet": 2101,
      "pil": 2102,
      "pul": 2103,
      "put": 2104,
      "push": 2105,
      "poverty": 2106,
      "ring": 2107,
      "range": 2108,
      "sc": 2109,
      "sen": 2110,
      "sil": 2111,
      "sover": 2112,
      "slow": 2113,
      "sites": 2114,
      "sched": 2115,
      "tin": 2116,
      "tar": 2117,
      "test": 2118,
      "urid": 2119,
      "vil": 2120,
      "vity": 2121,
      "way": 2122,
      "wana": 2123,
      "wildlife": 2124,
      "would": 2125,
      "ys": 2126,
      "ze": 2127,
      "aning": 2128,
      "anag": 2129,
      "another": 2130,
      "anced": 2131,
      "thor": 2132,
      "those": 2133,
      "inated": 2134,
      "institution": 2135,
      "iness": 2136,
      "introduc": 2137,
      "then": 2138,
      "these": 2139,
      "ala": 2140,
      "ene": 2141,
      "enn": 2142,
      "ency": 2143,
      "energy": 2144,
      "edomin": 2145,
      "arter": 2146,
      "arts": 2147,
      "estic": 2148,
      "orally": 2149,
      "orted": 2150,
      "tian": 2151,
      "tially": 2152,
      "tiles": 2153,
      "dia": 2154,
      "dic": 2155,
      "ase": 2156,
      "isol": 2157,
      "ision": 2158,
      "Indira": 2159,
      "20th": 2160,
      "reet": 2161,
      "recent": 2162,
      "reven": 2163,
      "refer": 2164,
      "ric": 2165,
      "rivers": 2166,
      "oming": 2167,
      "ings": 2168,
      "enter": 2169,
      "icon": 2170,
      "icies": 2171,
      "icken": 2172,
      "itz": 2173,
      "itated": 2174,
      "tow": 2175,
      "today": 2176,
      "total": 2177,
      "Thar": 2178,
      "churid": 2179,
      "stand": 2180,
      "struc": 2181,
      "lian": 2182,
      "lied": 2183,
      "ligion": 2184,
      "like": 2185,
      "living": 2186,
      "lief": 2187,
      "liferation": 2188,
      "urta": 2189,
      "ames": 2190,
      "ample": 2191,
      "very": 2192,
      "lee": 2193,
      "leav": 2194,
      "level": 2195,
      "rag": 2196,
      "rail": 2197,
      "rather": 2198,
      "19th": 2199,
      "1935": 2200,
      "olved": 2201,
      "cean": 2202,
      "iger": 2203,
      "illi": 2204,
      "room": 2205,
      "role": 2206,
      "adem": 2207,
      "adop": 2208,
      "adwe": 2209,
      "addition": 2210,
      "added": 2211,
      "uled": 2212,
      "reser": 2213,
      "respon": 2214,
      "789": 2215,
      "uscript": 2216,
      "ung": 2217,
      "unres": 2218,
      "untouch": 2219,
      "unleav": 2220,
      "sia": 2221,
      "side": 2222,
      "tically": 2223,
      "veget": 2224,
      "makes": 2225,
      "defe": 2226,
      "devo": 2227,
      "due": 2228,
      "civil": 2229,
      "expan": 2230,
      "exchange": 2231,
      "example": 2232,
      "berg": 2233,
      "Aryan": 2234,
      "separ": 2235,
      "seals": 2236,
      "shor": 2237,
      "share": 2238,
      "ship": 2239,
      "abin": 2240,
      "abad": 2241,
      "ables": 2242,
      "ressed": 2243,
      "being": 2244,
      "belief": 2245,
      "anging": 2246,
      "aced": 2247,
      "action": 2248,
      "acter": 2249,
      "across": 2250,
      "impro": 2251,
      "ume": 2252,
      "income": 2253,
      "originally": 2254,
      "partic": 2255,
      "parts": 2256,
      "moist": 2257,
      "ogn": 2258,
      "ute": 2259,
      "107": 2260,
      "1080": 2261,
      "area": 2262,
      "Chris": 2263,
      "Champ": 2264,
      "loss": 2265,
      "loose": 2266,
      "spor": 2267,
      "spic": 2268,
      "contain": 2269,
      "contains": 2270,
      "compl": 2271,
      "comple": 2272,
      "comprom": 2273,
      "ework": 2274,
      "ident": 2275,
      "idly": 2276,
      "idel": 2277,
      "ends": 2278,
      "ending": 2279,
      "endments": 2280,
      "ourish": 2281,
      "ources": 2282,
      "cost": 2283,
      "formal": 2284,
      "formation": 2285,
      "play": 2286,
      "plains": 2287,
      "1995": 2288,
      "primary": 2289,
      "provided": 2290,
      "margins": 2291,
      "porary": 2292,
      "assert": 2293,
      "Hindustan": 2294,
      "atis": 2295,
      "wealth": 2296,
      "oka": 2297,
      "inequality": 2298,
      "becoming": 2299,
      "posi": 2300,
      "clop": 2301,
      "168": 2302,
      "13th": 2303,
      "governments": 2304,
      "Religion": 2305,
      "declar": 2306,
      "decade": 2307,
      "populous": 2308,
      "Compan": 2309,
      "Commission": 2310,
      "Mohen": 2311,
      "cause": 2312,
      "merch": 2313,
      "wards": 2314,
      "wood": 2315,
      "castes": 2316,
      "ival": 2317,
      "extinc": 2318,
      "Street": 2319,
      "cyclop": 2320,
      "less": 2321,
      "predomin": 2322,
      "1960": 2323,
      "1962": 2324,
      "ministers": 2325,
      "4020": 2326,
      "Depart": 2327,
      "Encyclop": 2328,
      "Euras": 2329,
      "crimin": 2330,
      "edia": 2331,
      "classes": 2332,
      "Centre": 2333,
      "Rao": 2334,
      "360": 2335,
      "476": 2336,
      "urbanisation": 2337,
      "1971": 2338,
      "1972": 2339,
      "maint": 2340,
      "ographical": 2341,
      "ographics": 2342,
      "others": 2343,
      "Indones": 2344,
      "appear": 2345,
      "folk": 2346,
      "follow": 2347,
      "prev": 2348,
      "ilding": 2349,
      "supported": 2350,
      "northwest": 2351,
      "Bib": 2352,
      "Bihar": 2353,
      "Biodiversity": 2354,
      "Deccan": 2355,
      "aith": 2356,
      "president": 2357,
      "sometimes": 2358,
      "urred": 2359,
      "1950s": 2360,
      "basin": 2361,
      "cket": 2362,
      "teen": 2363,
      "discrimin": 2364,
      "chosen": 2365,
      "Proliferation": 2366,
      "Social": 2367,
      "setting": 2368,
      "tribal": 2369,
      "arms": 2370,
      "armies": 2371,
      "forests": 2372,
      "marked": 2373,
      "cultures": 2374,
      "Practice": 2375,
      "belong": 2376,
      "bellion": 2377,
      "poll": 2378,
      "policy": 2379,
      "policies": 2380,
      "pending": 2381,
      "office": 2382,
      "related": 2383,
      "exporter": 2384,
      "society": 2385,
      "375": 2386,
      "Demographics": 2387,
      "gave": 2388,
      "safe": 2389,
      "1988": 2390,
      "coastline": 2391,
      "Himalayan": 2392,
      "1007": 2393,
      "colonial": 2394,
      "garh": 2395,
      "sector": 2396,
      "vice": 2397,
      "reatened": 2398,
      "strong": 2399,
      "strength": 2400,
      "generally": 2401,
      "influences": 2402,
      "transmit": 2403,
      "Sikhism": 2404,
      "Ashoka": 2405,
      "Malay": 2406,
      "breath": 2407,
      "crucial": 2408,
      "drain": 2409,
      "factor": 2410,
      "mediately": 2411,
      "medieval": 2412,
      "nings": 2413,
      "architecture": 2414,
      "remaining": 2415,
      "Environmental": 2416,
      "Islamic": 2417,
      "Civilisation": 2418,
      "Arabian": 2419,
      "Health": 2420,
      "Jammu": 2421,
      "Volume": 2422,
      "having": 2423,
      "regul": 2424,
      "summer": 2425,
      "endemic": 2426,
      "marriages": 2427,
      "Brahma": 2428,
      "Longman": 2429,
      "North": 2430,
      "Republic": 2431,
      "average": 2432,
      "broad": 2433,
      "currency": 2434,
      "guard": 2435,
      "natal": 2436,
      "practic": 2437,
      "passing": 2438,
      "village": 2439,
      "independence": 2440,
      "organisation": 2441,
      "distinc": 2442,
      "dishes": 2443,
      "ometres": 2444,
      "character": 2445,
      "status": 2446,
      "liberal": 2447,
      "administration": 2448,
      "residents": 2449,
      "companies": 2450,
      "subsequent": 2451,
      "increasingly": 2452,
      "gradually": 2453,
      "Democracy": 2454,
      "disputes": 2455,
      "different": 2456,
      "employed": 2457,
      "Class": 2458,
      "Dyson": 2459,
      "Gupta": 2460,
      "Greek": 2461,
      "SAGE": 2462,
      "TOR": 2463,
      "Tecton": 2464,
      "capita": 2465,
      "goods": 2466,
      "khand": 2467,
      "kilometres": 2468,
      "signed": 2469,
      "schools": 2470,
      "written": 2471,
      "animals": 2472,
      "reached": 2473,
      "oulder": 2474,
      "consists": 2475,
      "protected": 2476,
      "Maurya": 2477,
      "extensive": 2478,
      "contributions": 2479,
      "Gujarat": 2480,
      "Library": 2481,
      "American": 2482,
      "Business": 2483,
      "Capital": 2484,
      "Eastern": 2485,
      "Foreign": 2486,
      "Front": 2487,
      "Francis": 2488,
      "Gangetic": 2489,
      "Identi": 2490,
      "JSTOR": 2491,
      "Jharkhand": 2492,
      "Kumar": 2493,
      "Kerala": 2494,
      "Lakshadwe": 2495,
      "Myanmar": 2496,
      "Pallav": 2497,
      "Rothermund": 2498,
      "Sonia": 2499,
      "Sabha": 2500,
      "Still": 2501,
      "Talbot": 2502,
      "Treaty": 2503,
      "Uttar": 2504,
      "daro": 2505,
      "eignty": 2506,
      "framework": 2507,
      "habit": 2508,
      "kameez": 2509,
      "latter": 2510,
      "laws": 2511,
      "mammals": 2512,
      "sovereignty": 2513,
      "scheduled": 2514,
      "introduced": 2515,
      "revenues": 2516,
      "churidars": 2517,
      "devotion": 2518,
      "Christian": 2519,
      "compromise": 2520,
      "Mohenjo": 2521,
      "Department": 2522,
      "Indonesia": 2523,
      "transmitted": 2524,
      "practices": 2525,
      "Lakshadweep": 2526,
      "\")": 2527,
      ",\"": 2528,
      "-/": 2529,
      "07": 2530,
      "010": 2531,
      "120": 2532,
      "1st": 2533,
      "210": 2534,
      "2203": 2535,
      "32": 2536,
      "38": 2537,
      "387": 2538,
      "41": 2539,
      "52": 2540,
      "58": 2541,
      "582": 2542,
      "62": 2543,
      "64": 2544,
      "65": 2545,
      "68": 2546,
      "674": 2547,
      "77": 2548,
      "700": 2549,
      "714": 2550,
      "92": 2551,
      "96": 2552,
      "900": 2553,
      "936": 2554,
      "Aj": 2555,
      "Ach": 2556,
      "Aust": 2557,
      "BB": 2558,
      "Br": 2559,
      "Ban": 2560,
      "Ber": 2561,
      "Bal": 2562,
      "Bur": 2563,
      "Brid": 2564,
      "Brit": 2565,
      "Bank": 2566,
      "Bakh": 2567,
      "Brief": 2568,
      "Cr": 2569,
      "Can": 2570,
      "Cal": 2571,
      "Clo": 2572,
      "Cour": 2573,
      "Cav": 2574,
      "Cup": 2575,
      "Carna": 2576,
      "Cather": 2577,
      "Day": 2578,
      "Dut": 2579,
      "Dav": 2580,
      "Div": 2581,
      "Dunleav": 2582,
      "EU": 2583,
      "Ec": 2584,
      "Eg": 2585,
      "Ele": 2586,
      "Ety": 2587,
      "Educ": 2588,
      "Eigh": 2589,
      "Emer": 2590,
      "Ess": 2591,
      "Fr": 2592,
      "Fol": 2593,
      "Food": 2594,
      "Fact": 2595,
      "Faith": 2596,
      "Gil": 2597,
      "Gow": 2598,
      "Grow": 2599,
      "Gho": 2600,
      "Hand": 2601,
      "Hol": 2602,
      "Hist": 2603,
      "Hay": 2604,
      "Hag": 2605,
      "Hud": 2606,
      "IT": 2607,
      "IU": 2608,
      "Ide": 2609,
      "Jud": 2610,
      "Jap": 2611,
      "Jaw": 2612,
      "Ka": 2613,
      "Ki": 2614,
      "Ko": 2615,
      "Kul": 2616,
      "Karn": 2617,
      "Kaver": 2618,
      "LC": 2619,
      "Ling": 2620,
      "Lud": 2621,
      "Lok": 2622,
      "Mc": 2623,
      "Med": 2624,
      "Mor": 2625,
      "Mat": 2626,
      "Mate": 2627,
      "Mac": 2628,
      "Mum": 2629,
      "Medi": 2630,
      "Meas": 2631,
      "Multi": 2632,
      "Make": 2633,
      "Migration": 2634,
      "NA": 2635,
      "Ni": 2636,
      "Nar": 2637,
      "Nat": 2638,
      "Nad": 2639,
      "Num": 2640,
      "Not": 2641,
      "Nations": 2642,
      "Network": 2643,
      "Onew": 2644,
      "Open": 2645,
      "Odish": 2646,
      "Orig": 2647,
      "Ocean": 2648,
      "PP": 2649,
      "Pa": 2650,
      "Ph": 2651,
      "Pu": 2652,
      "Pre": 2653,
      "Pri": 2654,
      "Pet": 2655,
      "Past": 2656,
      "Pear": 2657,
      "Peng": 2658,
      "Peter": 2659,
      "Present": 2660,
      "Presid": 2661,
      "Qu": 2662,
      "Rv": 2663,
      "Rec": 2664,
      "Rus": 2665,
      "Row": 2666,
      "Redi": 2667,
      "Rural": 2668,
      "Sar": 2669,
      "Sch": 2670,
      "Sup": 2671,
      "Sant": 2672,
      "Sever": 2673,
      "Spen": 2674,
      "Second": 2675,
      "Selection": 2676,
      "Sultanate": 2677,
      "Spending": 2678,
      "To": 2679,
      "Tro": 2680,
      "Tel": 2681,
      "Tow": 2682,
      "Tay": 2683,
      "Tru": 2684,
      "Text": 2685,
      "Tib": 2686,
      "Twent": 2687,
      "Taka": 2688,
      "Tiger": 2689,
      "Ved": 2690,
      "Vedic": 2691,
      "Wol": 2692,
      "Way": 2693,
      "Yaksh": 2694,
      "Zor": 2695,
      "ah": 2696,
      "aem": 2697,
      "atic": 2698,
      "aim": 2699,
      "aut": 2700,
      "aff": 2701,
      "ahar": 2702,
      "ause": 2703,
      "affairs": 2704,
      "affec": 2705,
      "ba": 2706,
      "bs": 2707,
      "bur": 2708,
      "bra": 2709,
      "big": 2710,
      "bul": 2711,
      "best": 2712,
      "bour": 2713,
      "buc": 2714,
      "brough": 2715,
      "bond": 2716,
      "bai": 2717,
      "bron": 2718,
      "bara": 2719,
      "brief": 2720,
      "bably": 2721,
      "cu": 2722,
      "cin": 2723,
      "cat": 2724,
      "cra": 2725,
      "cil": 2726,
      "cere": 2727,
      "cend": 2728,
      "cap": 2729,
      "ctions": 2730,
      "clear": 2731,
      "cust": 2732,
      "cris": 2733,
      "cuis": 2734,
      "cake": 2735,
      "creasing": 2736,
      "das": 2737,
      "dre": 2738,
      "dro": 2739,
      "dus": 2740,
      "date": 2741,
      "dry": 2742,
      "dates": 2743,
      "data": 2744,
      "eously": 2745,
      "fes": 2746,
      "ful": 2747,
      "flow": 2748,
      "fty": 2749,
      "fish": 2750,
      "fell": 2751,
      "fash": 2752,
      "food": 2753,
      "farm": 2754,
      "flood": 2755,
      "flower": 2756,
      "favour": 2757,
      "gin": 2758,
      "gic": 2759,
      "gation": 2760,
      "gig": 2761,
      "gist": 2762,
      "gir": 2763,
      "govern": 2764,
      "gold": 2765,
      "gained": 2766,
      "groom": 2767,
      "hl": 2768,
      "hal": 2769,
      "hun": 2770,
      "hni": 2771,
      "hear": 2772,
      "hous": 2773,
      "hoc": 2774,
      "hood": 2775,
      "ier": 2776,
      "ili": 2777,
      "ile": 2778,
      "idu": 2779,
      "ials": 2780,
      "ific": 2781,
      "ja": 2782,
      "jam": 2783,
      "jay": 2784,
      "jack": 2785,
      "jpay": 2786,
      "ka": 2787,
      "ked": 2788,
      "ket": 2789,
      "kim": 2790,
      "kho": 2791,
      "kurta": 2792,
      "ll": 2793,
      "lv": 2794,
      "ler": 2795,
      "lal": 2796,
      "lic": 2797,
      "late": 2798,
      "lati": 2799,
      "lanted": 2800,
      "length": 2801,
      "mand": 2802,
      "mass": 2803,
      "mater": 2804,
      "mology": 2805,
      "males": 2806,
      "medic": 2807,
      "mns": 2808,
      "migration": 2809,
      "na": 2810,
      "nin": 2811,
      "nas": 2812,
      "nic": 2813,
      "nel": 2814,
      "next": 2815,
      "network": 2816,
      "oic": 2817,
      "och": 2818,
      "osp": 2819,
      "ook": 2820,
      "oastri": 2821,
      "pat": 2822,
      "ption": 2823,
      "pop": 2824,
      "past": 2825,
      "pot": 2826,
      "prec": 2827,
      "pite": 2828,
      "pically": 2829,
      "pidly": 2830,
      "rar": 2831,
      "rat": 2832,
      "rast": 2833,
      "round": 2834,
      "ranges": 2835,
      "ranged": 2836,
      "sto": 2837,
      "sch": 2838,
      "sol": 2839,
      "sci": 2840,
      "sex": 2841,
      "smo": 2842,
      "scal": 2843,
      "sedi": 2844,
      "saw": 2845,
      "science": 2846,
      "slid": 2847,
      "self": 2848,
      "script": 2849,
      "savour": 2850,
      "tw": 2851,
      "tand": 2852,
      "tom": 2853,
      "tel": 2854,
      "tun": 2855,
      "tak": 2856,
      "tory": 2857,
      "tled": 2858,
      "table": 2859,
      "treat": 2860,
      "uin": 2861,
      "uity": 2862,
      "uture": 2863,
      "ufac": 2864,
      "uters": 2865,
      "va": 2866,
      "vas": 2867,
      "vul": 2868,
      "vest": 2869,
      "vary": 2870,
      "vard": 2871,
      "varna": 2872,
      "wan": 2873,
      "wet": 2874,
      "ways": 2875,
      "wanted": 2876,
      "welf": 2877,
      "xed": 2878,
      "yal": 2879,
      "yond": 2880,
      "zed": 2881,
      "zes": 2882,
      "zens": 2883,
      "νδ": 2884,
      "Ἰνδ": 2885,
      "anth": 2886,
      "anat": 2887,
      "antic": 2888,
      "anism": 2889,
      "thing": 2890,
      "threatened": 2891,
      "int": 2892,
      "inst": 2893,
      "inder": 2894,
      "ints": 2895,
      "inary": 2896,
      "inno": 2897,
      "international": 2898,
      "information": 2899,
      "erry": 2900,
      "ont": 2901,
      "only": 2902,
      "onour": 2903,
      "onomet": 2904,
      "thes": 2905,
      "ald": 2906,
      "aled": 2907,
      "alliance": 2908,
      "alwars": 2909,
      "alys": 2910,
      "ening": 2911,
      "enab": 2912,
      "ences": 2913,
      "enhouse": 2914,
      "edd": 2915,
      "arc": 2916,
      "aris": 2917,
      "artic": 2918,
      "ardis": 2919,
      "ester": 2920,
      "org": 2921,
      "oration": 2922,
      "orce": 2923,
      "orama": 2924,
      "tile": 2925,
      "tives": 2926,
      "tival": 2927,
      "tified": 2928,
      "tiger": 2929,
      "tizens": 2930,
      "did": 2931,
      "died": 2932,
      "dici": 2933,
      "dise": 2934,
      "dives": 2935,
      "dified": 2936,
      "Inf": 2937,
      "Infor": 2938,
      "Inter": 2939,
      "Indu": 2940,
      "Increasing": 2941,
      "Intel": 2942,
      "andy": 2943,
      "ofker": 2944,
      "asing": 2945,
      "ashi": 2946,
      "asures": 2947,
      "asions": 2948,
      "ison": 2949,
      "issions": 2950,
      "isdic": 2951,
      "2025": 2952,
      "2030": 2953,
      "rep": 2954,
      "rev": 2955,
      "rece": 2956,
      "reform": 2957,
      "repe": 2958,
      "refl": 2959,
      "reement": 2960,
      "reforms": 2961,
      "represent": 2962,
      "returned": 2963,
      "rebellion": 2964,
      "riors": 2965,
      "atts": 2966,
      "atory": 2967,
      "attra": 2968,
      "ataka": 2969,
      "omo": 2970,
      "omy": 2971,
      "omas": 2972,
      "omic": 2973,
      "entually": 2974,
      "ica": 2975,
      "icial": 2976,
      "itor": 2977,
      "itch": 2978,
      "top": 2979,
      "ech": 2980,
      "ection": 2981,
      "ections": 2982,
      "lying": 2983,
      "Third": 2984,
      "Thail": 2985,
      "Thames": 2986,
      "Thomas": 2987,
      "chin": 2988,
      "chat": 2989,
      "chap": 2990,
      "child": 2991,
      "chains": 2992,
      "changed": 2993,
      "cherry": 2994,
      "stre": 2995,
      "stra": 2996,
      "stud": 2997,
      "stani": 2998,
      "lia": 2999,
      "liz": 3000,
      "lier": 3001,
      "lived": 3002,
      "live": 3003,
      "ured": 3004,
      "urable": 3005,
      "ettes": 3006,
      "etah": 3007,
      "amy": 3008,
      "amed": 3009,
      "amma": 3010,
      "amendments": 3011,
      "They": 3012,
      "rati": 3013,
      "rative": 3014,
      "raven": 3015,
      "rapidly": 3016,
      "1985": 3017,
      "1930": 3018,
      "1949": 3019,
      "force": 3020,
      "fortable": 3021,
      "fortified": 3022,
      "emer": 3023,
      "emper": 3024,
      "emissions": 3025,
      "olon": 3026,
      "olas": 3027,
      "olution": 3028,
      "cep": 3029,
      "ceed": 3030,
      "igar": 3031,
      "adher": 3032,
      "respec": 3033,
      "resources": 3034,
      "consum": 3035,
      "geolog": 3036,
      "using": 3037,
      "usive": 3038,
      "usually": 3039,
      "united": 3040,
      "unitary": 3041,
      "uncommon": 3042,
      "open": 3043,
      "irt": 3044,
      "sie": 3045,
      "simil": 3046,
      "ticians": 3047,
      "mented": 3048,
      "astal": 3049,
      "may": 3050,
      "matic": 3051,
      "matics": 3052,
      "make": 3053,
      "dev": 3054,
      "deleg": 3055,
      "devast": 3056,
      "duce": 3057,
      "ducherry": 3058,
      "tuber": 3059,
      "cipl": 3060,
      "civi": 3061,
      "citizens": 3062,
      "exer": 3063,
      "exts": 3064,
      "expec": 3065,
      "expres": 3066,
      "excav": 3067,
      "derived": 3068,
      "deriv": 3069,
      "ayat": 3070,
      "what": 3071,
      "Artic": 3072,
      "overran": 3073,
      "suc": 3074,
      "super": 3075,
      "supre": 3076,
      "seats": 3077,
      "sha": 3078,
      "shy": 3079,
      "shwar": 3080,
      "shali": 3081,
      "short": 3082,
      "shoulder": 3083,
      "above": 3084,
      "tspo": 3085,
      "009": 3086,
      "begin": 3087,
      "beyond": 3088,
      "angra": 3089,
      "access": 3090,
      "according": 3091,
      "accoun": 3092,
      "agana": 3093,
      "agreement": 3094,
      "ional": 3095,
      "imper": 3096,
      "impor": 3097,
      "imple": 3098,
      "immediately": 3099,
      "Archae": 3100,
      "inces": 3101,
      "akar": 3102,
      "akers": 3103,
      "pared": 3104,
      "parties": 3105,
      "parents": 3106,
      "model": 3107,
      "ogni": 3108,
      "ogamy": 3109,
      "utan": 3110,
      "102": 3111,
      "10th": 3112,
      "1017": 3113,
      "1093": 3114,
      "sole": 3115,
      "therers": 3116,
      "Chha": 3117,
      "Change": 3118,
      "Chess": 3119,
      "Changing": 3120,
      "look": 3121,
      "2126": 3122,
      "comm": 3123,
      "compr": 3124,
      "company": 3125,
      "commit": 3126,
      "comfortable": 3127,
      "percent": 3128,
      "persist": 3129,
      "centre": 3130,
      "Hindus": 3131,
      "mega": 3132,
      "meaning": 3133,
      "endra": 3134,
      "cot": 3135,
      "coal": 3136,
      "code": 3137,
      "cosine": 3138,
      "Anand": 3139,
      "Analys": 3140,
      "forming": 3141,
      "formally": 3142,
      "formance": 3143,
      "Asians": 3144,
      "avar": 3145,
      "plant": 3146,
      "placed": 3147,
      "allow": 3148,
      "alleng": 3149,
      "1990": 3150,
      "1993": 3151,
      "stiff": 3152,
      "gender": 3153,
      "generation": 3154,
      "atedly": 3155,
      "prov": 3156,
      "projec": 3157,
      "probably": 3158,
      "produce": 3159,
      "marry": 3160,
      "marshy": 3161,
      "ota": 3162,
      "otech": 3163,
      "assass": 3164,
      "Hindustani": 3165,
      "Contem": 3166,
      "Concept": 3167,
      "Concise": 3168,
      "Contin": 3169,
      "stitutes": 3170,
      "culos": 3171,
      "mini": 3172,
      "minor": 3173,
      "viet": 3174,
      "vide": 3175,
      "ousand": 3176,
      "ought": 3177,
      "atives": 3178,
      "atiya": 3179,
      "ativity": 3180,
      "feature": 3181,
      "economies": 3182,
      "172": 3183,
      "173": 3184,
      "17th": 3185,
      "1700": 3186,
      "ritory": 3187,
      "erals": 3188,
      "points": 3189,
      "subduc": 3190,
      "substan": 3191,
      "claim": 3192,
      "que": 3193,
      "worldwide": 3194,
      "184": 3195,
      "18th": 3196,
      "1858": 3197,
      "Major": 3198,
      "serving": 3199,
      "service": 3200,
      "138": 3201,
      "267": 3202,
      "2645": 3203,
      "251": 3204,
      "Marath": 3205,
      "Market": 3206,
      "Report": 3207,
      "Regist": 3208,
      "Reuters": 3209,
      "decis": 3210,
      "declin": 3211,
      "decreasing": 3212,
      "decidu": 3213,
      "peti": 3214,
      "peace": 3215,
      "ights": 3216,
      "ighbour": 3217,
      "electri": 3218,
      "larger": 3219,
      "Across": 3220,
      "Academ": 3221,
      "Common": 3222,
      "Competi": 3223,
      "Economist": 3224,
      "140": 3225,
      "149": 3226,
      "Modi": 3227,
      "Movement": 3228,
      "dhu": 3229,
      "flourish": 3230,
      "ralian": 3231,
      "turn": 3232,
      "tural": 3233,
      "warriors": 3234,
      "isters": 3235,
      "recogn": 3236,
      "relief": 3237,
      "greenhouse": 3238,
      "systems": 3239,
      "280": 3240,
      "Alan": 3241,
      "Alliance": 3242,
      "Budget": 3243,
      "News": 3244,
      "Plain": 3245,
      "Planning": 3246,
      "Plofker": 3247,
      "tively": 3248,
      "extreme": 3249,
      "extends": 3250,
      "Ste": 3251,
      "Step": 3252,
      "princes": 3253,
      "aria": 3254,
      "1964": 3255,
      "ountain": 3256,
      "4051": 3257,
      "Deal": 3258,
      "calend": 3259,
      "numerals": 3260,
      "8069": 3261,
      "awatts": 3262,
      "notable": 3263,
      "notably": 3264,
      "361": 3265,
      "85168": 3266,
      "obstruc": 3267,
      "pants": 3268,
      "limited": 3269,
      "1974": 3270,
      "1975": 3271,
      "mainly": 3272,
      "ackbuc": 3273,
      "ographic": 3274,
      "specific": 3275,
      "largely": 3276,
      "included": 3277,
      "includes": 3278,
      "tection": 3279,
      "techni": 3280,
      "onset": 3281,
      "Junk": 3282,
      "Post": 3283,
      "appoin": 3284,
      "applied": 3285,
      "manuscript": 3286,
      "manufac": 3287,
      "pread": 3288,
      "rategic": 3289,
      "ards": 3290,
      "supplanted": 3291,
      "perience": 3292,
      "biodiversity": 3293,
      "biotech": 3294,
      "domestic": 3295,
      "eventually": 3296,
      "gradi": 3297,
      "grave": 3298,
      "humans": 3299,
      "key": 3300,
      "neighbour": 3301,
      "nonviol": 3302,
      "presence": 3303,
      "annually": 3304,
      "annual": 3305,
      "annica": 3306,
      "ential": 3307,
      "entieth": 3308,
      "legal": 3309,
      "leges": 3310,
      "Rajiv": 3311,
      "Rajpu": 3312,
      "333": 3313,
      "creating": 3314,
      "creativity": 3315,
      "give": 3316,
      "thereafter": 3317,
      "therefore": 3318,
      "discipl": 3319,
      "millan": 3320,
      "literary": 3321,
      "literature": 3322,
      "Geological": 3323,
      "Geography": 3324,
      "Geographical": 3325,
      "Performance": 3326,
      "Protection": 3327,
      "Soviet": 3328,
      "grand": 3329,
      "highly": 3330,
      "highest": 3331,
      "settle": 3332,
      "essential": 3333,
      "markets": 3334,
      "occurred": 3335,
      "occasions": 3336,
      "Punjabi": 3337,
      "Shastri": 3338,
      "Sikkim": 3339,
      "ronic": 3340,
      "tories": 3341,
      "relative": 3342,
      "ultaneously": 3343,
      "exported": 3344,
      "373": 3345,
      "Ornel": 3346,
      "ethical": 3347,
      "ethnic": 3348,
      "gatherers": 3349,
      "lasted": 3350,
      "promin": 3351,
      "works": 3352,
      "orians": 3353,
      "oriography": 3354,
      "display": 3355,
      "1983": 3356,
      "1984": 3357,
      "1989": 3358,
      "coasts": 3359,
      "coastal": 3360,
      "Muslims": 3361,
      "...": 3362,
      "438": 3363,
      "Coastal": 3364,
      "Urdu": 3365,
      "building": 3366,
      "colleges": 3367,
      "garment": 3368,
      "garlic": 3369,
      "hotspo": 3370,
      "valley": 3371,
      "victories": 3372,
      "volcan": 3373,
      "volution": 3374,
      "defence": 3375,
      "defini": 3376,
      "defined": 3377,
      "generated": 3378,
      "transformed": 3379,
      "Sikhs": 3380,
      "Bhangra": 3381,
      "Bhutan": 3382,
      "Bharatiya": 3383,
      "Earth": 3384,
      "Maldives": 3385,
      "See": 3386,
      "bread": 3387,
      "break": 3388,
      "carri": 3389,
      "carved": 3390,
      "draw": 3391,
      "figure": 3392,
      "fastest": 3393,
      "historians": 3394,
      "knit": 3395,
      "nationalist": 3396,
      "ruled": 3397,
      "ruling": 3398,
      "rulers": 3399,
      "temper": 3400,
      "temples": 3401,
      "textiles": 3402,
      "visional": 3403,
      "intervention": 3404,
      "archaic": 3405,
      "diffused": 3406,
      "remained": 3407,
      "stead": 3408,
      "steamed": 3409,
      "amphi": 3410,
      "emphas": 3411,
      "mathematicians": 3412,
      "dependent": 3413,
      "producer": 3414,
      "produced": 3415,
      "headed": 3416,
      "occupy": 3417,
      "occupation": 3418,
      "family": 3419,
      "industrial": 3420,
      "paintings": 3421,
      "596": 3422,
      "7650": 3423,
      "Atl": 3424,
      "Atomic": 3425,
      "Assam": 3426,
      "Book": 3427,
      "Exp": 3428,
      "Heidel": 3429,
      "James": 3430,
      "Languages": 3431,
      "With": 3432,
      "dense": 3433,
      "hymns": 3434,
      "iii": 3435,
      "ject": 3436,
      "layer": 3437,
      "pura": 3438,
      "uistic": 3439,
      "initi": 3440,
      "edicts": 3441,
      "artists": 3442,
      "advent": 3443,
      "advanced": 3444,
      "several": 3445,
      "severely": 3446,
      "partially": 3447,
      "commerce": 3448,
      "ructure": 3449,
      "endemism": 3450,
      "married": 3451,
      "weapon": 3452,
      "Allchin": 3453,
      "territorial": 3454,
      "Publishers": 3455,
      "Colonial": 3456,
      "Harvard": 3457,
      "Monitor": 3458,
      "Northeast": 3459,
      "Outlook": 3460,
      "Peers": 3461,
      "People": 3462,
      "Palgrave": 3463,
      "Roy": 3464,
      "Robert": 3465,
      "Represent": 3466,
      "Shift": 3467,
      "Shiva": 3468,
      "Vajpay": 3469,
      "borne": 3470,
      "borders": 3471,
      "bottom": 3472,
      "cloth": 3473,
      "close": 3474,
      "namic": 3475,
      "voted": 3476,
      "various": 3477,
      "villages": 3478,
      "independent": 3479,
      "organised": 3480,
      "unities": 3481,
      "expanding": 3482,
      "speaking": 3483,
      "speakers": 3484,
      "spreading": 3485,
      "processes": 3486,
      "2307": 3487,
      "subsequently": 3488,
      "everyday": 3489,
      "taxes": 3490,
      "hereditary": 3491,
      "dominion": 3492,
      "dominance": 3493,
      "legislature": 3494,
      "groups": 3495,
      "Democratic": 3496,
      "disputed": 3497,
      "births": 3498,
      "historical": 3499,
      "historically": 3500,
      "904": 3501,
      "Barbara": 3502,
      "Karanth": 3503,
      "Lanka": 3504,
      "Lankan": 3505,
      "Manorama": 3506,
      "Office": 3507,
      "Official": 3508,
      "Rule": 3509,
      "Robb": 3510,
      "Sindhu": 3511,
      "Trade": 3512,
      "Upinder": 3513,
      "Vijay": 3514,
      "Visaria": 3515,
      "Years": 3516,
      "Yearbook": 3517,
      "blackbuc": 3518,
      "covery": 3519,
      "eight": 3520,
      "foetic": 3521,
      "winds": 3522,
      "involved": 3523,
      "involving": 3524,
      "divorce": 3525,
      "associate": 3526,
      "associated": 3527,
      "cheetah": 3528,
      "ligence": 3529,
      "sixteen": 3530,
      "existing": 3531,
      "existence": 3532,
      "whereas": 3533,
      "shared": 3534,
      "against": 3535,
      "Marriage": 3536,
      "Marriages": 3537,
      "cripts": 3538,
      "Forests": 3539,
      "survives": 3540,
      "contributed": 3541,
      "renewable": 3542,
      "democratic": 3543,
      "democracy": 3544,
      "artistic": 3545,
      "artisans": 3546,
      "Akbar": 3547,
      "Cricket": 3548,
      "Climate": 3549,
      "Discovery": 3550,
      "Fifty": 3551,
      "Green": 3552,
      "Gondwana": 3553,
      "Leg": 3554,
      "Madhav": 3555,
      "Nepal": 3556,
      "Overview": 3557,
      "Pylee": 3558,
      "Rigved": 3559,
      "Series": 3560,
      "Simultaneously": 3561,
      "Subcontinent": 3562,
      "Territory": 3563,
      "Temple": 3564,
      "Wind": 3565,
      "climatic": 3566,
      "countries": 3567,
      "either": 3568,
      "females": 3569,
      "gods": 3570,
      "hubs": 3571,
      "jurisdic": 3572,
      "mbol": 3573,
      "narrow": 3574,
      "nominal": 3575,
      "ozoic": 3576,
      "ogeography": 3577,
      "putra": 3578,
      "anagara": 3579,
      "thorn": 3580,
      "isolation": 3581,
      "ickening": 3582,
      "towns": 3583,
      "standardis": 3584,
      "levels": 3585,
      "raglia": 3586,
      "railways": 3587,
      "adopted": 3588,
      "additional": 3589,
      "response": 3590,
      "unresolved": 3591,
      "untouchability": 3592,
      "vegetari": 3593,
      "defeated": 3594,
      "expansion": 3595,
      "separati": 3596,
      "shores": 3597,
      "abinet": 3598,
      "particular": 3599,
      "Champion": 3600,
      "sports": 3601,
      "complet": 3602,
      "complex": 3603,
      "played": 3604,
      "position": 3605,
      "declared": 3606,
      "Companion": 3607,
      "Commissioner": 3608,
      "merchants": 3609,
      "extinct": 3610,
      "1960s": 3611,
      "Encyclopedia": 3612,
      "Eurasia": 3613,
      "followed": 3614,
      "prevent": 3615,
      "Bibcode": 3616,
      "discriminatory": 3617,
      "pollution": 3618,
      "safeguard": 3619,
      "strongly": 3620,
      "breathing": 3621,
      "Brahmaputra": 3622,
      "characteristic": 3623,
      "liberalisation": 3624,
      "Classical": 3625,
      "Tectonics": 3626,
      "extensively": 3627,
      "Pallavas": 3628,
      "habitat": 3629,
      "Christianity": 3630,
      "1206": 3631,
      "Ajanta": 3632,
      "Achaem": 3633,
      "Australian": 3634,
      "BBC": 3635,
      "Berlin": 3636,
      "Bridget": 3637,
      "Britannica": 3638,
      "Bakhshali": 3639,
      "Canada": 3640,
      "Clothing": 3641,
      "Court": 3642,
      "Caves": 3643,
      "Cups": 3644,
      "Carnatic": 3645,
      "Catherine": 3646,
      "Dutt": 3647,
      "Division": 3648,
      "Dunleavy": 3649,
      "Ecology": 3650,
      "Etymology": 3651,
      "Emergency": 3652,
      "Essays": 3653,
      "France": 3654,
      "Following": 3655,
      "Factbook": 3656,
      "Gilbert": 3657,
      "Ghosh": 3658,
      "Handbook": 3659,
      "Historiography": 3660,
      "Hayashi": 3661,
      "Hague": 3662,
      "Hudson": 3663,
      "IUCN": 3664,
      "Japan": 3665,
      "Jawahar": 3666,
      "Kaul": 3667,
      "Kiple": 3668,
      "Kosi": 3669,
      "Kulke": 3670,
      "Karnataka": 3671,
      "Kaveri": 3672,
      "Ludden": 3673,
      "Macmillan": 3674,
      "Mumbai": 3675,
      "Medieval": 3676,
      "Nadu": 3677,
      "Oneworld": 3678,
      "Odisha": 3679,
      "Paper": 3680,
      "Phil": 3681,
      "Puducherry": 3682,
      "Petraglia": 3683,
      "Pearson": 3684,
      "Penguin": 3685,
      "President": 3686,
      "Russia": 3687,
      "Rediff": 3688,
      "Sarkar": 3689,
      "Supreme": 3690,
      "Several": 3691,
      "Taylor": 3692,
      "Trust": 3693,
      "Tibet": 3694,
      "Twenty": 3695,
      "Takao": 3696,
      "Yakshagana": 3697,
      "Zoroastri": 3698,
      "affir": 3699,
      "bulk": 3700,
      "brought": 3701,
      "bonds": 3702,
      "briefly": 3703,
      "cattle": 3704,
      "cereal": 3705,
      "cleared": 3706,
      "custom": 3707,
      "drew": 3708,
      "farmers": 3709,
      "flowering": 3710,
      "gigawatts": 3711,
      "half": 3712,
      "hunter": 3713,
      "houses": 3714,
      "jackets": 3715,
      "latitu": 3716,
      "materials": 3717,
      "ninth": 3718,
      "osphere": 3719,
      "patron": 3720,
      "pastoral": 3721,
      "rastructure": 3722,
      "scale": 3723,
      "sediment": 3724,
      "savoury": 3725,
      "tando": 3726,
      "vasive": 3727,
      "vestment": 3728,
      "welfare": 3729,
      "innov": 3730,
      "arisen": 3731,
      "diciary": 3732,
      "disease": 3733,
      "Informatics": 3734,
      "Indust": 3735,
      "Intelligence": 3736,
      "repeatedly": 3737,
      "reflec": 3738,
      "attrac": 3739,
      "Thailand": 3740,
      "study": 3741,
      "1930s": 3742,
      "emperor": 3743,
      "consumption": 3744,
      "similar": 3745,
      "delegates": 3746,
      "tuberculos": 3747,
      "civilian": 3748,
      "expression": 3749,
      "excavated": 3750,
      "supercontinent": 3751,
      "supreme": 3752,
      "beginnings": 3753,
      "imperial": 3754,
      "importer": 3755,
      "Archaeology": 3756,
      "Chhau": 3757,
      "212640": 3758,
      "comprising": 3759,
      "committe": 3760,
      "percentage": 3761,
      "megadiverse": 3762,
      "allenges": 3763,
      "assassinated": 3764,
      "Contemporary": 3765,
      "substantially": 3766,
      "claiming": 3767,
      "2645149": 3768,
      "Registrar": 3769,
      "deciduous": 3770,
      "Commonwealth": 3771,
      "extremely": 3772,
      "nonviolent": 3773,
      "Rajputs": 3774,
      "disciplinary": 3775,
      "settlement": 3776,
      "Ornelas": 3777,
      "hotspots": 3778,
      "Heidelberg": 3779,
      "Representing": 3780,
      "Vajpayee": 3781,
      "Vijayanagara": 3782,
      "blackbuck": 3783,
      "foeticide": 3784,
      "sixteenth": 3785,
      "jurisdiction": 3786,
      "standardised": 3787,
      "Achaemen": 3788,
      "Jawaharlal": 3789,
      "Zoroastrianism": 3790,
      "tuberculosis": 3791,
      "\",": 3792,
      "%\"": 3793,
      "%:": 3794,
      "%;": 3795,
      "')": 3796,
      "'.": 3797,
      "':": 3798,
      "(\"": 3799,
      "('": 3800,
      "(\".": 3801,
      ")?": 3802,
      ")).": 3803,
      ")\".": 3804,
      ".)": 3805,
      ".:": 3806,
      ".\")": 3807,
      "01": 3808,
      "04": 3809,
      "08": 3810,
      "019": 3811,
      "081": 3812,
      "050": 3813,
      "026": 3814,
      "014": 3815,
      "085": 3816,
      "0521": 3817,
      "037": 3818,
      "045": 3819,
      "051": 3820,
      "087": 3821,
      "044": 3822,
      "094": 3823,
      "092": 3824,
      "0172": 3825,
      "110": 3826,
      "123": 3827,
      "113": 3828,
      "126": 3829,
      "115": 3830,
      "34": 3831,
      "3200": 3832,
      "321": 3833,
      "316": 3834,
      "318": 3835,
      "313": 3836,
      "324": 3837,
      "340": 3838,
      "380": 3839,
      "336": 3840,
      "385": 3841,
      "329": 3842,
      "345": 3843,
      "351": 3844,
      "343": 3845,
      "382": 3846,
      "3789": 3847,
      "3251": 3848,
      "423": 3849,
      "422": 3850,
      "413": 3851,
      "428": 3852,
      "480": 3853,
      "411": 3854,
      "4000": 3855,
      "449": 3856,
      "431": 3857,
      "4281": 3858,
      "486": 3859,
      "520": 3860,
      "510": 3861,
      "522": 3862,
      "516": 3863,
      "518": 3864,
      "514": 3865,
      "580": 3866,
      "536": 3867,
      "530": 3868,
      "545": 3869,
      "587": 3870,
      "678": 3871,
      "600": 3872,
      "616": 3873,
      "625": 3874,
      "615": 3875,
      "627": 3876,
      "685": 3877,
      "631": 3878,
      "653": 3879,
      "639": 3880,
      "6400": 3881,
      "6500": 3882,
      "663": 3883,
      "6476": 3884,
      "6102": 3885,
      "713": 3886,
      "736": 3887,
      "7000": 3888,
      "731": 3889,
      "759": 3890,
      "776": 3891,
      "7110": 3892,
      "7545": 3893,
      "89": 3894,
      "8th": 3895,
      "800": 3896,
      "869": 3897,
      "837": 3898,
      "844": 3899,
      "860": 3900,
      "8317": 3901,
      "884": 3902,
      "97": 3903,
      "9A": 3904,
      "9_": 3905,
      "9th": 3906,
      "950": 3907,
      "928": 3908,
      "940": 3909,
      "953": 3910,
      "905": 3911,
      "9281": 3912,
      "Ab": 3913,
      "Ah": 3914,
      "Ax": 3915,
      "Ay": 3916,
      "Az": 3917,
      "Aṣ": 3918,
      "Are": 3919,
      "Ali": 3920,
      "Aver": 3921,
      "Age": 3922,
      "Ani": 3923,
      "Aso": 3924,
      "App": 3925,
      "Amar": 3926,
      "Arid": 3927,
      "Aph": 3928,
      "Agra": 3929,
      "Ahead": 3930,
      "Adiv": 3931,
      "Alig": 3932,
      "Aitch": 3933,
      "BP": 3934,
      "Bu": 3935,
      "Bé": 3936,
      "Bin": 3937,
      "Bon": 3938,
      "Ben": 3939,
      "Bom": 3940,
      "Bol": 3941,
      "Big": 3942,
      "Bro": 3943,
      "Bul": 3944,
      "Bhas": 3945,
      "But": 3946,
      "Bour": 3947,
      "Bod": 3948,
      "Bot": 3949,
      "Brow": 3950,
      "Bound": 3951,
      "Back": 3952,
      "Barn": 3953,
      "Boulder": 3954,
      "Bedd": 3955,
      "CO": 3956,
      "Ci": 3957,
      "Cen": 3958,
      "Car": 3959,
      "Cur": 3960,
      "Cam": 3961,
      "Cop": 3962,
      "Cast": 3963,
      "Cru": 3964,
      "Coun": 3965,
      "Call": 3966,
      "Cass": 3967,
      "Ceng": 3968,
      "Cold": 3969,
      "Cali": 3970,
      "Cuis": 3971,
      "CHO": 3972,
      "Canning": 3973,
      "CLC": 3974,
      "Craven": 3975,
      "Cabinet": 3976,
      "DE": 3977,
      "Da": 3978,
      "Dh": 3979,
      "Do": 3980,
      "Du": 3981,
      "Den": 3982,
      "Dri": 3983,
      "Dom": 3984,
      "Dic": 3985,
      "Dig": 3986,
      "Dad": 3987,
      "Dist": 3988,
      "Dress": 3989,
      "Dog": 3990,
      "Dhar": 3991,
      "Dup": 3992,
      "Doc": 3993,
      "Dord": 3994,
      "Dik": 3995,
      "Daman": 3996,
      "Data": 3997,
      "Dharma": 3998,
      "Domin": 3999,
      "Deter": 4000,
      "DNA": 4001,
      "Durable": 4002,
      "ES": 4003,
      "Ep": 4004,
      "Ey": 4005,
      "Ech": 4006,
      "Est": 4007,
      "Equ": 4008,
      "Each": 4009,
      "Effec": 4010,
      "Evid": 4011,
      "Eric": 4012,
      "Esch": 4013,
      "Eshwar": 4014,
      "Evolution": 4015,
      "Fo": 4016,
      "Fin": 4017,
      "Fed": 4018,
      "Far": 4019,
      "Fic": 4020,
      "Fem": 4021,
      "Ful": 4022,
      "Fast": 4023,
      "Fut": 4024,
      "Four": 4025,
      "Fall": 4026,
      "Fish": 4027,
      "Foc": 4028,
      "Fund": 4029,
      "Free": 4030,
      "Fris": 4031,
      "Further": 4032,
      "Fundament": 4033,
      "Fundamental": 4034,
      "Filli": 4035,
      "Future": 4036,
      "G8": 4037,
      "Gi": 4038,
      "Gl": 4039,
      "Gr": 4040,
      "Gan": 4041,
      "Ger": 4042,
      "Gent": 4043,
      "Gra": 4044,
      "Gop": 4045,
      "Glo": 4046,
      "God": 4047,
      "Govern": 4048,
      "Game": 4049,
      "Gangu": 4050,
      "Gled": 4051,
      "Gron": 4052,
      "Gyan": 4053,
      "Give": 4054,
      "Gets": 4055,
      "Groom": 4056,
      "Ha": 4057,
      "Hi": 4058,
      "Hy": 4059,
      "Hen": 4060,
      "Ham": 4061,
      "Hun": 4062,
      "Hary": 4063,
      "Hall": 4064,
      "Hell": 4065,
      "Haw": 4066,
      "Honour": 4067,
      "Homo": 4068,
      "If": 4069,
      "Ir": 4070,
      "Ian": 4071,
      "Ire": 4072,
      "Ily": 4073,
      "Iow": 4074,
      "Iori": 4075,
      "Iran": 4076,
      "Ishwar": 4077,
      "Jü": 4078,
      "Jon": 4079,
      "Jas": 4080,
      "Jus": 4081,
      "Jose": 4082,
      "Jains": 4083,
      "Jones": 4084,
      "Ke": 4085,
      "Kr": 4086,
      "Ku": 4087,
      "Kin": 4088,
      "Kon": 4089,
      "Kat": 4090,
      "King": 4091,
      "Kent": 4092,
      "Kol": 4093,
      "Kad": 4094,
      "Ksh": 4095,
      "Kim": 4096,
      "Kut": 4097,
      "Knot": 4098,
      "Kann": 4099,
      "Know": 4100,
      "La": 4101,
      "Li": 4102,
      "Lal": 4103,
      "Land": 4104,
      "Lat": 4105,
      "Lit": 4106,
      "Lad": 4107,
      "List": 4108,
      "L978": 4109,
      "Low": 4110,
      "Lion": 4111,
      "Luc": 4112,
      "Lati": 4113,
      "Line": 4114,
      "Loc": 4115,
      "Liv": 4116,
      "Lord": 4117,
      "Lund": 4118,
      "Love": 4119,
      "Look": 4120,
      "Men": 4121,
      "Mit": 4122,
      "Mem": 4123,
      "Mol": 4124,
      "Mig": 4125,
      "Mil": 4126,
      "Mong": 4127,
      "Mary": 4128,
      "Member": 4129,
      "Map": 4130,
      "More": 4131,
      "Made": 4132,
      "Miz": 4133,
      "Makar": 4134,
      "Mountain": 4135,
      "NP": 4136,
      "NW": 4137,
      "Na": 4138,
      "Nu": 4139,
      "Nam": 4140,
      "Nay": 4141,
      "Nain": 4142,
      "Nav": 4143,
      "Next": 4144,
      "Nair": 4145,
      "Nai": 4146,
      "Narm": 4147,
      "Nature": 4148,
      "Names": 4149,
      "Ob": 4150,
      "Oj": 4151,
      "On": 4152,
      "Ot": 4153,
      "Ou": 4154,
      "Ow": 4155,
      "Ori": 4156,
      "Oly": 4157,
      "Oli": 4158,
      "Oni": 4159,
      "Opp": 4160,
      "Oral": 4161,
      "One": 4162,
      "OCLC": 4163,
      "Pp": 4164,
      "Pā": 4165,
      "Pan": 4166,
      "Ped": 4167,
      "Ping": 4168,
      "Prom": 4169,
      "Pain": 4170,
      "Phi": 4171,
      "Pub": 4172,
      "Pers": 4173,
      "Pose": 4174,
      "Part": 4175,
      "Pach": 4176,
      "Pali": 4177,
      "Pash": 4178,
      "Pace": 4179,
      "Path": 4180,
      "Phy": 4181,
      "Patri": 4182,
      "Poverty": 4183,
      "Penn": 4184,
      "Pier": 4185,
      "Pandy": 4186,
      "Ri": 4187,
      "Rā": 4188,
      "Ron": 4189,
      "Red": 4190,
      "Ror": 4191,
      "Ras": 4192,
      "Rat": 4193,
      "Rom": 4194,
      "Rit": 4195,
      "Ram": 4196,
      "Rel": 4197,
      "Rich": 4198,
      "Rog": 4199,
      "Rid": 4200,
      "Rub": 4201,
      "Rise": 4202,
      "Rann": 4203,
      "Raman": 4204,
      "Rice": 4205,
      "Rush": 4206,
      "Rakh": 4207,
      "Rams": 4208,
      "Renn": 4209,
      "Rabin": 4210,
      "Rival": 4211,
      "Rights": 4212,
      "SR": 4213,
      "SS": 4214,
      "Sr": 4215,
      "Sū": 4216,
      "Sis": 4217,
      "Sat": 4218,
      "Set": 4219,
      "Sem": 4220,
      "Sus": 4221,
      "Sci": 4222,
      "Sang": 4223,
      "Sour": 4224,
      "Slow": 4225,
      "Sha": 4226,
      "Srid": 4227,
      "Shar": 4228,
      "Sange": 4229,
      "Since": 4230,
      "Sons": 4231,
      "Sund": 4232,
      "Spec": 4233,
      "Sarn": 4234,
      "Smi": 4235,
      "Secu": 4236,
      "Sched": 4237,
      "Significant": 4238,
      "Supp": 4239,
      "Sports": 4240,
      "Sarna": 4241,
      "Savar": 4242,
      "Ti": 4243,
      "Tr": 4244,
      "Tw": 4245,
      "Tar": 4246,
      "T20": 4247,
      "Tir": 4248,
      "Test": 4249,
      "Tod": 4250,
      "Try": 4251,
      "Tot": 4252,
      "Tap": 4253,
      "Two": 4254,
      "Tai": 4255,
      "Tash": 4256,
      "Teth": 4257,
      "Trig": 4258,
      "Texts": 4259,
      "UK": 4260,
      "UN": 4261,
      "Upan": 4262,
      "Uday": 4263,
      "Ull": 4264,
      "Vin": 4265,
      "Var": 4266,
      "Vic": 4267,
      "Vir": 4268,
      "Vers": 4269,
      "Vert": 4270,
      "We": 4271,
      "Wid": 4272,
      "Wend": 4273,
      "Writ": 4274,
      "Work": 4275,
      "Word": 4276,
      "Whe": 4277,
      "Wik": 4278,
      "Web": 4279,
      "Wash": 4280,
      "Wood": 4281,
      "When": 4282,
      "Wright": 4283,
      "WTO": 4284,
      "Wee": 4285,
      "Witz": 4286,
      "Willi": 4287,
      "Whear": 4288,
      "Xav": 4289,
      "XII": 4290,
      "Yam": 4291,
      "Yog": 4292,
      "Youn": 4293,
      "Yep": 4294,
      "Yale": 4295,
      "Zones": 4296,
      "aṅ": 4297,
      "aud": 4298,
      "aism": 4299,
      "apor": 4300,
      "athan": 4301,
      "ahead": 4302,
      "a05": 4303,
      "bh": 4304,
      "bv": 4305,
      "bon": 4306,
      "bri": 4307,
      "bic": 4308,
      "bit": 4309,
      "bate": 4310,
      "bak": 4311,
      "bally": 4312,
      "blo": 4313,
      "bud": 4314,
      "bans": 4315,
      "bled": 4316,
      "bridge": 4317,
      "bust": 4318,
      "bade": 4319,
      "blowing": 4320,
      "bird": 4321,
      "bined": 4322,
      "baking": 4323,
      "bival": 4324,
      "cer": 4325,
      "cor": 4326,
      "cas": 4327,
      "cur": 4328,
      "cle": 4329,
      "cres": 4330,
      "ctu": 4331,
      "cum": 4332,
      "care": 4333,
      "cence": 4334,
      "call": 4335,
      "crow": 4336,
      "core": 4337,
      "cations": 4338,
      "clim": 4339,
      "card": 4340,
      "cited": 4341,
      "cold": 4342,
      "cised": 4343,
      "ctr": 4344,
      "cori": 4345,
      "camp": 4346,
      "cines": 4347,
      "coral": 4348,
      "curta": 4349,
      "cigar": 4350,
      "cabinet": 4351,
      "da": 4352,
      "dl": 4353,
      "dan": 4354,
      "dand": 4355,
      "dou": 4356,
      "det": 4357,
      "dol": 4358,
      "dress": 4359,
      "dated": 4360,
      "dhi": 4361,
      "dled": 4362,
      "daw": 4363,
      "dens": 4364,
      "drough": 4365,
      "dai": 4366,
      "done": 4367,
      "dden": 4368,
      "deter": 4369,
      "drop": 4370,
      "dining": 4371,
      "durable": 4372,
      "eat": 4373,
      "ele": 4374,
      "eper": 4375,
      "eans": 4376,
      "etics": 4377,
      "eties": 4378,
      "each": 4379,
      "eking": 4380,
      "eets": 4381,
      "fg": 4382,
      "fed": 4383,
      "fas": 4384,
      "fre": 4385,
      "fel": 4386,
      "fun": 4387,
      "fts": 4388,
      "final": 4389,
      "few": 4390,
      "foun": 4391,
      "fend": 4392,
      "fted": 4393,
      "fine": 4394,
      "foc": 4395,
      "figh": 4396,
      "free": 4397,
      "flowing": 4398,
      "fety": 4399,
      "face": 4400,
      "fined": 4401,
      "flee": 4402,
      "frag": 4403,
      "fables": 4404,
      "faith": 4405,
      "future": 4406,
      "fought": 4407,
      "gl": 4408,
      "go": 4409,
      "gent": 4410,
      "gres": 4411,
      "gain": 4412,
      "glo": 4413,
      "gence": 4414,
      "grid": 4415,
      "gap": 4416,
      "gup": 4417,
      "giv": 4418,
      "graph": 4419,
      "gative": 4420,
      "ginger": 4421,
      "gross": 4422,
      "gla": 4423,
      "gala": 4424,
      "gilli": 4425,
      "gonomet": 4426,
      "hr": 4427,
      "há": 4428,
      "hâ": 4429,
      "hor": 4430,
      "hri": 4431,
      "hat": 4432,
      "hom": 4433,
      "hic": 4434,
      "hel": 4435,
      "hary": 4436,
      "hour": 4437,
      "hism": 4438,
      "home": 4439,
      "hold": 4440,
      "hund": 4441,
      "hani": 4442,
      "hata": 4443,
      "hill": 4444,
      "hya": 4445,
      "hindu": 4446,
      "hori": 4447,
      "habil": 4448,
      "honour": 4449,
      "hdl": 4450,
      "hgala": 4451,
      "iw": 4452,
      "iș": 4453,
      "ith": 4454,
      "ied": 4455,
      "ily": 4456,
      "iem": 4457,
      "ider": 4458,
      "ither": 4459,
      "iper": 4460,
      "ihi": 4461,
      "iqu": 4462,
      "itions": 4463,
      "iens": 4464,
      "iev": 4465,
      "itime": 4466,
      "iders": 4467,
      "ifer": 4468,
      "ief": 4469,
      "iples": 4470,
      "iogeography": 4471,
      "ji": 4472,
      "ju": 4473,
      "jan": 4474,
      "jun": 4475,
      "jour": 4476,
      "jav": 4477,
      "journ": 4478,
      "jee": 4479,
      "jatis": 4480,
      "jeans": 4481,
      "kk": 4482,
      "ko": 4483,
      "kri": 4484,
      "kat": 4485,
      "kent": 4486,
      "kly": 4487,
      "kog": 4488,
      "kies": 4489,
      "khar": 4490,
      "kne": 4491,
      "kash": 4492,
      "kani": 4493,
      "kata": 4494,
      "kill": 4495,
      "kara": 4496,
      "kabad": 4497,
      "kirt": 4498,
      "ksha": 4499,
      "kmini": 4500,
      "lu": 4501,
      "lon": 4502,
      "len": 4503,
      "let": 4504,
      "lad": 4505,
      "list": 4506,
      "lop": 4507,
      "lag": 4508,
      "log": 4509,
      "lav": 4510,
      "lap": 4511,
      "lins": 4512,
      "lack": 4513,
      "lenti": 4514,
      "lani": 4515,
      "lately": 4516,
      "lating": 4517,
      "lision": 4518,
      "laced": 4519,
      "mp": 4520,
      "mā": 4521,
      "mal": 4522,
      "mes": 4523,
      "mas": 4524,
      "ming": 4525,
      "mic": 4526,
      "mol": 4527,
      "mig": 4528,
      "mul": 4529,
      "mel": 4530,
      "mud": 4531,
      "mant": 4532,
      "migh": 4533,
      "must": 4534,
      "mple": 4535,
      "mort": 4536,
      "meter": 4537,
      "mys": 4538,
      "morally": 4539,
      "mountain": 4540,
      "nut": 4541,
      "noun": 4542,
      "nav": 4543,
      "nine": 4544,
      "ners": 4545,
      "nell": 4546,
      "napp": 4547,
      "nold": 4548,
      "ncre": 4549,
      "ness": 4550,
      "native": 4551,
      "nearly": 4552,
      "nomin": 4553,
      "ntax": 4554,
      "ox": 4555,
      "oth": 4556,
      "oti": 4557,
      "oat": 4558,
      "otion": 4559,
      "oli": 4560,
      "oist": 4561,
      "oxford": 4562,
      "osome": 4563,
      "oven": 4564,
      "osa": 4565,
      "ooge": 4566,
      "odia": 4567,
      "odic": 4568,
      "ocean": 4569,
      "oRv": 4570,
      "ps": 4571,
      "py": 4572,
      "pas": 4573,
      "pow": 4574,
      "phi": 4575,
      "pati": 4576,
      "pting": 4577,
      "ptive": 4578,
      "pure": 4579,
      "patri": 4580,
      "poul": 4581,
      "pact": 4582,
      "ré": 4583,
      "rof": 4584,
      "run": 4585,
      "rong": 4586,
      "rum": 4587,
      "rare": 4588,
      "rence": 4589,
      "rgen": 4590,
      "redi": 4591,
      "rank": 4592,
      "rata": 4593,
      "rating": 4594,
      "rhy": 4595,
      "rush": 4596,
      "ratri": 4597,
      "san": 4598,
      "sal": 4599,
      "ses": 4600,
      "sis": 4601,
      "sit": 4602,
      "sem": 4603,
      "sus": 4604,
      "sby": 4605,
      "swi": 4606,
      "sse": 4607,
      "sac": 4608,
      "sence": 4609,
      "sical": 4610,
      "same": 4611,
      "sap": 4612,
      "selec": 4613,
      "scri": 4614,
      "surr": 4615,
      "slowing": 4616,
      "sindu": 4617,
      "smen": 4618,
      "swa": 4619,
      "sales": 4620,
      "sama": 4621,
      "sung": 4622,
      "sources": 4623,
      "sgarh": 4624,
      "sandy": 4625,
      "sought": 4626,
      "scripts": 4627,
      "skirt": 4628,
      "tz": 4629,
      "tas": 4630,
      "tch": 4631,
      "tam": 4632,
      "tment": 4633,
      "tab": 4634,
      "tang": 4635,
      "tag": 4636,
      "tain": 4637,
      "try": 4638,
      "turing": 4639,
      "tell": 4640,
      "tens": 4641,
      "trough": 4642,
      "tons": 4643,
      "tched": 4644,
      "tling": 4645,
      "tently": 4646,
      "taking": 4647,
      "ua": 4648,
      "uth": 4649,
      "uri": 4650,
      "ule": 4651,
      "ument": 4652,
      "uvi": 4653,
      "uous": 4654,
      "ugu": 4655,
      "urial": 4656,
      "uettes": 4657,
      "ujan": 4658,
      "ukk": 4659,
      "vate": 4660,
      "vac": 4661,
      "vived": 4662,
      "vich": 4663,
      "vall": 4664,
      "vot": 4665,
      "vati": 4666,
      "vals": 4667,
      "varn": 4668,
      "vara": 4669,
      "vanag": 4670,
      "vPub": 4671,
      "wer": 4672,
      "wal": 4673,
      "wat": 4674,
      "wing": 4675,
      "wra": 4676,
      "wil": 4677,
      "wad": 4678,
      "wab": 4679,
      "wage": 4680,
      "wati": 4681,
      "water": 4682,
      "wild": 4683,
      "wai": 4684,
      "wani": 4685,
      "will": 4686,
      "winter": 4687,
      "walled": 4688,
      "wedd": 4689,
      "wester": 4690,
      "wakar": 4691,
      "xal": 4692,
      "xture": 4693,
      "xvi": 4694,
      "xicon": 4695,
      "xiii": 4696,
      "xuri": 4697,
      "yi": 4698,
      "yā": 4699,
      "yī": 4700,
      "yed": 4701,
      "yam": 4702,
      "yce": 4703,
      "yab": 4704,
      "yog": 4705,
      "youn": 4706,
      "yani": 4707,
      "ypt": 4708,
      "ypically": 4709,
      "yards": 4710,
      "zz": 4711,
      "zer": 4712,
      "zeb": 4713,
      "zone": 4714,
      "zones": 4715,
      "zont": 4716,
      "zooge": 4717,
      "Ön": 4718,
      "ædia": 4719,
      "èze": 4720,
      "ément": 4721,
      "ādh": 4722,
      "āham": 4723,
      "ārat": 4724,
      "āstra": 4725,
      "ābh": 4726,
      "ārata": 4727,
      "Śul": 4728,
      "śāstra": 4729,
      "ία": 4730,
      "ός": 4731,
      "ṇa": 4732,
      "ṇini": 4733,
      "ṭādh": 4734,
      "anar": 4735,
      "anti": 4736,
      "anical": 4737,
      "antra": 4738,
      "antics": 4739,
      "ancy": 4740,
      "anistan": 4741,
      "anking": 4742,
      "anjav": 4743,
      "thin": 4744,
      "thre": 4745,
      "thic": 4746,
      "thus": 4747,
      "thag": 4748,
      "thme": 4749,
      "thaman": 4750,
      "thousand": 4751,
      "thickening": 4752,
      "thmic": 4753,
      "ink": 4754,
      "inci": 4755,
      "inate": 4756,
      "insp": 4757,
      "inations": 4758,
      "incial": 4759,
      "iniv": 4760,
      "inade": 4761,
      "inite": 4762,
      "inval": 4763,
      "indef": 4764,
      "introduction": 4765,
      "internal": 4766,
      "inaries": 4767,
      "invention": 4768,
      "inhoc": 4769,
      "instead": 4770,
      "invasive": 4771,
      "investment": 4772,
      "eras": 4773,
      "ering": 4774,
      "erly": 4775,
      "erous": 4776,
      "erations": 4777,
      "erves": 4778,
      "erature": 4779,
      "ereton": 4780,
      "erwan": 4781,
      "erjee": 4782,
      "onist": 4783,
      "onoun": 4784,
      "onwards": 4785,
      "onomy": 4786,
      "thew": 4787,
      "theor": 4788,
      "theory": 4789,
      "alo": 4790,
      "aland": 4791,
      "alam": 4792,
      "alle": 4793,
      "alge": 4794,
      "alus": 4795,
      "alay": 4796,
      "altern": 4797,
      "alism": 4798,
      "alry": 4799,
      "alty": 4800,
      "alwar": 4801,
      "almon": 4802,
      "although": 4803,
      "alised": 4804,
      "alms": 4805,
      "eny": 4806,
      "enes": 4807,
      "enas": 4808,
      "enli": 4809,
      "enge": 4810,
      "ende": 4811,
      "encom": 4812,
      "environment": 4813,
      "enistic": 4814,
      "encro": 4815,
      "enbur": 4816,
      "edom": 4817,
      "edent": 4818,
      "edalus": 4819,
      "aran": 4820,
      "aras": 4821,
      "arri": 4822,
      "arra": 4823,
      "arting": 4824,
      "arial": 4825,
      "arose": 4826,
      "arranged": 4827,
      "arbans": 4828,
      "arji": 4829,
      "arenas": 4830,
      "esh": 4831,
      "esi": 4832,
      "ession": 4833,
      "espread": 4834,
      "ora": 4835,
      "oram": 4836,
      "orad": 4837,
      "orge": 4838,
      "order": 4839,
      "orog": 4840,
      "orism": 4841,
      "orial": 4842,
      "orne": 4843,
      "orders": 4844,
      "orship": 4845,
      "tier": 4846,
      "tial": 4847,
      "tied": 4848,
      "tigh": 4849,
      "tivi": 4850,
      "tiqu": 4851,
      "tific": 4852,
      "tiven": 4853,
      "tivity": 4854,
      "tisgarh": 4855,
      "dial": 4856,
      "diment": 4857,
      "diture": 4858,
      "dicl": 4859,
      "diers": 4860,
      "diations": 4861,
      "divis": 4862,
      "divided": 4863,
      "dilian": 4864,
      "divide": 4865,
      "diox": 4866,
      "Institu": 4867,
      "Incl": 4868,
      "Indoi": 4869,
      "Inequ": 4870,
      "Information": 4871,
      "Ingold": 4872,
      "Instead": 4873,
      "Investment": 4874,
      "ander": 4875,
      "anded": 4876,
      "andard": 4877,
      "offer": 4878,
      "ofenac": 4879,
      "ofile": 4880,
      "ofession": 4881,
      "asa": 4882,
      "asi": 4883,
      "asis": 4884,
      "asad": 4885,
      "astic": 4886,
      "asim": 4887,
      "asthan": 4888,
      "aspec": 4889,
      "asants": 4890,
      "asured": 4891,
      "asaras": 4892,
      "isa": 4893,
      "isi": 4894,
      "ises": 4895,
      "isak": 4896,
      "island": 4897,
      "204": 4898,
      "209": 4899,
      "20s": 4900,
      "2050": 4901,
      "2033": 4902,
      "rech": 4903,
      "reve": 4904,
      "rement": 4905,
      "rema": 4906,
      "repor": 4907,
      "rety": 4908,
      "repr": 4909,
      "repres": 4910,
      "repower": 4911,
      "report": 4912,
      "remit": 4913,
      "rejec": 4914,
      "reports": 4915,
      "repul": 4916,
      "retreat": 4917,
      "recomm": 4918,
      "replaced": 4919,
      "return": 4920,
      "reorganised": 4921,
      "refined": 4922,
      "rehabil": 4923,
      "realms": 4924,
      "rition": 4925,
      "rice": 4926,
      "ritu": 4927,
      "rits": 4928,
      "riff": 4929,
      "rity": 4930,
      "rific": 4931,
      "rical": 4932,
      "rike": 4933,
      "ribu": 4934,
      "ator": 4935,
      "atol": 4936,
      "atop": 4937,
      "atma": 4938,
      "aturing": 4939,
      "attain": 4940,
      "atypically": 4941,
      "omically": 4942,
      "omerations": 4943,
      "inga": 4944,
      "ingen": 4945,
      "ingest": 4946,
      "ington": 4947,
      "ingual": 4948,
      "ingham": 4949,
      "ingredi": 4950,
      "ental": 4951,
      "entral": 4952,
      "entered": 4953,
      "entren": 4954,
      "entred": 4955,
      "entrepr": 4956,
      "tioned": 4957,
      "tionist": 4958,
      "tionary": 4959,
      "ict": 4960,
      "icated": 4961,
      "icking": 4962,
      "icago": 4963,
      "itan": 4964,
      "ital": 4965,
      "itation": 4966,
      "itage": 4967,
      "itous": 4968,
      "itude": 4969,
      "itants": 4970,
      "tour": 4971,
      "toad": 4972,
      "towards": 4973,
      "toler": 4974,
      "ouli": 4975,
      "ouse": 4976,
      "ece": 4977,
      "ecast": 4978,
      "ecolog": 4979,
      "ecology": 4980,
      "ecked": 4981,
      "ecogni": 4982,
      "lywood": 4983,
      "lyester": 4984,
      "Thir": 4985,
      "Thak": 4986,
      "Through": 4987,
      "Three": 4988,
      "Threatened": 4989,
      "Thousand": 4990,
      "Thiem": 4991,
      "Thanjav": 4992,
      "chi": 4993,
      "chal": 4994,
      "chem": 4995,
      "chain": 4996,
      "chine": 4997,
      "chta": 4998,
      "chose": 4999,
      "chik": 5000,
      "chicken": 5001,
      "changing": 5002,
      "chasing": 5003,
      "chayat": 5004,
      "chronic": 5005,
      "challenges": 5006,
      "checked": 5007,
      "ster": 5008,
      "ston": 5009,
      "sten": 5010,
      "stress": 5011,
      "story": 5012,
      "stage": 5013,
      "strid": 5014,
      "stup": 5015,
      "stable": 5016,
      "stone": 5017,
      "stamp": 5018,
      "standing": 5019,
      "stained": 5020,
      "stressed": 5021,
      "statis": 5022,
      "strategic": 5023,
      "starting": 5024,
      "strike": 5025,
      "lie": 5026,
      "lio": 5027,
      "lide": 5028,
      "lipp": 5029,
      "liers": 5030,
      "liography": 5031,
      "likar": 5032,
      "lila": 5033,
      "lihood": 5034,
      "lidified": 5035,
      "lique": 5036,
      "urt": 5037,
      "uru": 5038,
      "urgen": 5039,
      "urton": 5040,
      "uraṅ": 5041,
      "urgence": 5042,
      "etary": 5043,
      "etak": 5044,
      "etry": 5045,
      "etnam": 5046,
      "amom": 5047,
      "amid": 5048,
      "amia": 5049,
      "amples": 5050,
      "amtre": 5051,
      "amgir": 5052,
      "vert": 5053,
      "versi": 5054,
      "verbal": 5055,
      "Theory": 5056,
      "lewa": 5057,
      "leaf": 5058,
      "leasing": 5059,
      "lexicon": 5060,
      "20180": 5061,
      "raw": 5062,
      "raid": 5063,
      "raga": 5064,
      "rainf": 5065,
      "raising": 5066,
      "racot": 5067,
      "raiders": 5068,
      "raksha": 5069,
      "rachta": 5070,
      "193": 5071,
      "1920": 5072,
      "1900": 5073,
      "1921": 5074,
      "1981": 5075,
      "1928": 5076,
      "1911": 5077,
      "1957": 5078,
      "1946": 5079,
      "1956": 5080,
      "1901": 5081,
      "forni": 5082,
      "forces": 5083,
      "forced": 5084,
      "forays": 5085,
      "forbade": 5086,
      "tery": 5087,
      "tered": 5088,
      "terculture": 5089,
      "teria": 5090,
      "terracot": 5091,
      "ema": 5092,
      "ems": 5093,
      "emits": 5094,
      "embo": 5095,
      "embro": 5096,
      "emla": 5097,
      "emporary": 5098,
      "ola": 5099,
      "olence": 5100,
      "olav": 5101,
      "olish": 5102,
      "olving": 5103,
      "olars": 5104,
      "olitan": 5105,
      "cebook": 5106,
      "celer": 5107,
      "cealed": 5108,
      "cewater": 5109,
      "igai": 5110,
      "ils": 5111,
      "iled": 5112,
      "ille": 5113,
      "ilitated": 5114,
      "illegal": 5115,
      "root": 5116,
      "rospec": 5117,
      "roportion": 5118,
      "royal": 5119,
      "rochem": 5120,
      "ads": 5121,
      "ader": 5122,
      "adel": 5123,
      "adversity": 5124,
      "adru": 5125,
      "adcast": 5126,
      "administer": 5127,
      "adfast": 5128,
      "adverse": 5129,
      "adjo": 5130,
      "adhered": 5131,
      "adasis": 5132,
      "ula": 5133,
      "ulating": 5134,
      "ulaic": 5135,
      "ulgation": 5136,
      "elite": 5137,
      "elago": 5138,
      "elders": 5139,
      "romosome": 5140,
      "rest": 5141,
      "resist": 5142,
      "restri": 5143,
      "resolution": 5144,
      "resurgence": 5145,
      "istent": 5146,
      "7829": 5147,
      "consu": 5148,
      "conqu": 5149,
      "condition": 5150,
      "consequ": 5151,
      "conserv": 5152,
      "concept": 5153,
      "concise": 5154,
      "conspic": 5155,
      "consci": 5156,
      "concep": 5157,
      "constitutes": 5158,
      "conifer": 5159,
      "contour": 5160,
      "concealed": 5161,
      "geograph": 5162,
      "geographical": 5163,
      "uses": 5164,
      "usage": 5165,
      "ushered": 5166,
      "uscripts": 5167,
      "una": 5168,
      "units": 5169,
      "unach": 5170,
      "uneas": 5171,
      "unlin": 5172,
      "unanim": 5173,
      "unconstitutional": 5174,
      "unei": 5175,
      "unprec": 5176,
      "unwanted": 5177,
      "undisputed": 5178,
      "97813": 5179,
      "opy": 5180,
      "opot": 5181,
      "oppo": 5182,
      "opers": 5183,
      "oples": 5184,
      "ophy": 5185,
      "opposed": 5186,
      "opause": 5187,
      "opposition": 5188,
      "opolitan": 5189,
      "ired": 5190,
      "irts": 5191,
      "irrig": 5192,
      "irregul": 5193,
      "bylon": 5194,
      "owitz": 5195,
      "sided": 5196,
      "sible": 5197,
      "sidel": 5198,
      "size": 5199,
      "sizes": 5200,
      "simple": 5201,
      "ticiples": 5202,
      "ticoat": 5203,
      "veli": 5204,
      "veill": 5205,
      "vehic": 5206,
      "mentation": 5207,
      "asting": 5208,
      "astring": 5209,
      "mative": 5210,
      "making": 5211,
      "machal": 5212,
      "deal": 5213,
      "deep": 5214,
      "deforest": 5215,
      "death": 5216,
      "deposition": 5217,
      "debate": 5218,
      "deems": 5219,
      "dual": 5220,
      "dually": 5221,
      "tually": 5222,
      "tuck": 5223,
      "ests": 5224,
      "wides": 5225,
      "cies": 5226,
      "ciers": 5227,
      "cival": 5228,
      "cified": 5229,
      "exe": 5230,
      "excl": 5231,
      "expen": 5232,
      "except": 5233,
      "exchanged": 5234,
      "exceed": 5235,
      "exogamy": 5236,
      "experience": 5237,
      "excur": 5238,
      "bers": 5239,
      "beration": 5240,
      "dering": 5241,
      "derately": 5242,
      "derabad": 5243,
      "derecogni": 5244,
      "aying": 5245,
      "whim": 5246,
      "white": 5247,
      "while": 5248,
      "Ardh": 5249,
      "Arund": 5250,
      "Arranged": 5251,
      "Arnold": 5252,
      "Aryab": 5253,
      "Arunach": 5254,
      "overall": 5255,
      "overlap": 5256,
      "sue": 5257,
      "superi": 5258,
      "sukh": 5259,
      "sustained": 5260,
      "sey": 5261,
      "seal": 5262,
      "seen": 5263,
      "seas": 5264,
      "segre": 5265,
      "seven": 5266,
      "seaf": 5267,
      "seams": 5268,
      "sealed": 5269,
      "seeking": 5270,
      "shit": 5271,
      "shear": 5272,
      "shap": 5273,
      "shev": 5274,
      "shook": 5275,
      "shalwars": 5276,
      "shirt": 5277,
      "sheets": 5278,
      "sherwan": 5279,
      "shalwar": 5280,
      "Retrospec": 5281,
      "abach": 5282,
      "abjur": 5283,
      "abatic": 5284,
      "absol": 5285,
      "absence": 5286,
      "abolish": 5287,
      "tsch": 5288,
      "tsour": 5289,
      "ressing": 5290,
      "005": 5291,
      "0057": 5292,
      "00115": 5293,
      "00639": 5294,
      "beach": 5295,
      "bears": 5296,
      "angana": 5297,
      "aces": 5298,
      "acity": 5299,
      "accom": 5300,
      "accompan": 5301,
      "acute": 5302,
      "aged": 5303,
      "aging": 5304,
      "agro": 5305,
      "agement": 5306,
      "aggl": 5307,
      "imer": 5308,
      "imum": 5309,
      "immen": 5310,
      "imports": 5311,
      "imitated": 5312,
      "imedia": 5313,
      "imuth": 5314,
      "origin": 5315,
      "origins": 5316,
      "originated": 5317,
      "earth": 5318,
      "earch": 5319,
      "earsci": 5320,
      "earlier": 5321,
      "versal": 5322,
      "verskog": 5323,
      "ghten": 5324,
      "ghtens": 5325,
      "ghanistan": 5326,
      "ghalay": 5327,
      "gharial": 5328,
      "increment": 5329,
      "akti": 5330,
      "akening": 5331,
      "parel": 5332,
      "parity": 5333,
      "parks": 5334,
      "paralle": 5335,
      "moved": 5336,
      "moving": 5337,
      "mobil": 5338,
      "modest": 5339,
      "mohan": 5340,
      "modated": 5341,
      "uted": 5342,
      "uttu": 5343,
      "106": 5344,
      "108": 5345,
      "1016": 5346,
      "1025": 5347,
      "1027": 5348,
      "1053": 5349,
      "soons": 5350,
      "sojour": 5351,
      "solidified": 5352,
      "therlands": 5353,
      "Chang": 5354,
      "Chap": 5355,
      "Chord": 5356,
      "Child": 5357,
      "Chandi": 5358,
      "Chenn": 5359,
      "Cholas": 5360,
      "Chota": 5361,
      "Chronic": 5362,
      "Challenges": 5363,
      "Chaud": 5364,
      "Chhat": 5365,
      "Chief": 5366,
      "Cheras": 5367,
      "Charan": 5368,
      "Chicago": 5369,
      "Chemla": 5370,
      "Chola": 5371,
      "Chromosome": 5372,
      "aining": 5373,
      "pping": 5374,
      "ppayat": 5375,
      "Universal": 5376,
      "loor": 5377,
      "lost": 5378,
      "losing": 5379,
      "locations": 5380,
      "spok": 5381,
      "spons": 5382,
      "split": 5383,
      "sport": 5384,
      "spite": 5385,
      "spring": 5386,
      "spending": 5387,
      "211": 5388,
      "212": 5389,
      "215": 5390,
      "217": 5391,
      "21st": 5392,
      "2169": 5393,
      "2153": 5394,
      "content": 5395,
      "contraven": 5396,
      "contexts": 5397,
      "contemporary": 5398,
      "compos": 5399,
      "commission": 5400,
      "composi": 5401,
      "compared": 5402,
      "combined": 5403,
      "ewing": 5404,
      "pert": 5405,
      "perha": 5406,
      "perman": 5407,
      "person": 5408,
      "peratures": 5409,
      "perCol": 5410,
      "percep": 5411,
      "performing": 5412,
      "pervasive": 5413,
      "udal": 5414,
      "udra": 5415,
      "itself": 5416,
      "idli": 5417,
      "idate": 5418,
      "idence": 5419,
      "identi": 5420,
      "rupe": 5421,
      "ruments": 5422,
      "ruptive": 5423,
      "ternative": 5424,
      "meal": 5425,
      "meet": 5426,
      "meets": 5427,
      "measures": 5428,
      "measured": 5429,
      "ended": 5430,
      "endogamy": 5431,
      "laration": 5432,
      "larless": 5433,
      "ourse": 5434,
      "coins": 5435,
      "coher": 5436,
      "cooperation": 5437,
      "cosm": 5438,
      "coales": 5439,
      "codified": 5440,
      "coexistence": 5441,
      "codilian": 5442,
      "Any": 5443,
      "Andh": 5444,
      "Anmol": 5445,
      "Antiqu": 5446,
      "Just": 5447,
      "Judiciary": 5448,
      "militants": 5449,
      "formations": 5450,
      "formerly": 5451,
      "formulaic": 5452,
      "avor": 5453,
      "avati": 5454,
      "avari": 5455,
      "avily": 5456,
      "avenge": 5457,
      "pled": 5458,
      "plus": 5459,
      "plural": 5460,
      "plants": 5461,
      "plays": 5462,
      "planning": 5463,
      "places": 5464,
      "alling": 5465,
      "alluvi": 5466,
      "1997": 5467,
      "still": 5468,
      "stitched": 5469,
      "ageable": 5470,
      "genres": 5471,
      "genders": 5472,
      "genetic": 5473,
      "pride": 5474,
      "priori": 5475,
      "private": 5476,
      "priests": 5477,
      "proper": 5478,
      "proposed": 5479,
      "proportion": 5480,
      "prostitutes": 5481,
      "provide": 5482,
      "provisional": 5483,
      "proclaiming": 5484,
      "protag": 5485,
      "hike": 5486,
      "lows": 5487,
      "lowest": 5488,
      "lowered": 5489,
      "marma": 5490,
      "maries": 5491,
      "marine": 5492,
      "marries": 5493,
      "marble": 5494,
      "maritime": 5495,
      "marinade": 5496,
      "martial": 5497,
      "marital": 5498,
      "ote": 5499,
      "otpr": 5500,
      "portra": 5501,
      "asslands": 5502,
      "Confl": 5503,
      "Concurr": 5504,
      "Convention": 5505,
      "Contexts": 5506,
      "Coningham": 5507,
      "ffs": 5508,
      "ffed": 5509,
      "ffalo": 5510,
      "fficking": 5511,
      "ubiqu": 5512,
      "uborne": 5513,
      "culus": 5514,
      "mined": 5515,
      "minster": 5516,
      "dosa": 5517,
      "dovic": 5518,
      "docu": 5519,
      "doctr": 5520,
      "eping": 5521,
      "epic": 5522,
      "epul": 5523,
      "epics": 5524,
      "tying": 5525,
      "typical": 5526,
      "typically": 5527,
      "vious": 5528,
      "viliz": 5529,
      "vidual": 5530,
      "ousers": 5531,
      "atial": 5532,
      "atise": 5533,
      "atite": 5534,
      "featuring": 5535,
      "feudal": 5536,
      "web": 5537,
      "webs": 5538,
      "weights": 5539,
      "weakening": 5540,
      "ineering": 5541,
      "232": 5542,
      "235": 5543,
      "237": 5544,
      "239": 5545,
      "2320": 5546,
      "2321": 5547,
      "2333": 5548,
      "23210": 5549,
      "because": 5550,
      "Asiatic": 5551,
      "170": 5552,
      "1716": 5553,
      "1765": 5554,
      "norm": 5555,
      "northeast": 5556,
      "traders": 5557,
      "traded": 5558,
      "training": 5559,
      "rite": 5560,
      "derness": 5561,
      "dernourish": 5562,
      "225": 5563,
      "226": 5564,
      "2270": 5565,
      "8122": 5566,
      "8160": 5567,
      "haran": 5568,
      "harsh": 5569,
      "harash": 5570,
      "ishya": 5571,
      "ishna": 5572,
      "ishvara": 5573,
      "505": 5574,
      "5079": 5575,
      "50884": 5576,
      "apparel": 5577,
      "post": 5578,
      "poss": 5579,
      "politics": 5580,
      "posts": 5581,
      "poetry": 5582,
      "upon": 5583,
      "upati": 5584,
      "upsur": 5585,
      "antly": 5586,
      "antaged": 5587,
      "subord": 5588,
      "subcaste": 5589,
      "subtropical": 5590,
      "subdue": 5591,
      "subject": 5592,
      "bodies": 5593,
      "bodia": 5594,
      "clans": 5595,
      "landed": 5596,
      "landown": 5597,
      "landmark": 5598,
      "landmass": 5599,
      "ocene": 5600,
      "ques": 5601,
      "quate": 5602,
      "quite": 5603,
      "quely": 5604,
      "quarter": 5605,
      "quadru": 5606,
      "162": 5607,
      "16th": 5608,
      "1600": 5609,
      "1627": 5610,
      "1691": 5611,
      "1677": 5612,
      "169A": 5613,
      "189": 5614,
      "1800": 5615,
      "1857": 5616,
      "1891": 5617,
      "1820s": 5618,
      "Mail": 5619,
      "Mahav": 5620,
      "Maith": 5621,
      "Maoist": 5622,
      "Mathew": 5623,
      "Machine": 5624,
      "Maharash": 5625,
      "butaries": 5626,
      "servers": 5627,
      "serves": 5628,
      "orean": 5629,
      "amble": 5630,
      "ambhri": 5631,
      "ambitions": 5632,
      "130": 5633,
      "132": 5634,
      "134": 5635,
      "137": 5636,
      "1300": 5637,
      "264": 5638,
      "268": 5639,
      "269": 5640,
      "26037": 5641,
      "phin": 5642,
      "phies": 5643,
      "phine": 5644,
      "phries": 5645,
      "phanta": 5646,
      "output": 5647,
      "outside": 5648,
      "outcastes": 5649,
      "outposts": 5650,
      "inclusive": 5651,
      "254": 5652,
      "255": 5653,
      "2500": 5654,
      "2592": 5655,
      "Marc": 5656,
      "Martin": 5657,
      "Real": 5658,
      "Reform": 5659,
      "ReNew": 5660,
      "Refer": 5661,
      "Reality": 5662,
      "Rebellion": 5663,
      "Reorganisation": 5664,
      "Reforming": 5665,
      "Revolution": 5666,
      "Releasing": 5667,
      "Reader": 5668,
      "banned": 5669,
      "decimal": 5670,
      "decenni": 5671,
      "decline": 5672,
      "decoration": 5673,
      "decolon": 5674,
      "decentral": 5675,
      "peak": 5676,
      "pehl": 5677,
      "peasants": 5678,
      "peoples": 5679,
      "peepul": 5680,
      "pires": 5681,
      "pivot": 5682,
      "piece": 5683,
      "sylv": 5684,
      "symbol": 5685,
      "syncre": 5686,
      "regionally": 5687,
      "learned": 5688,
      "ighat": 5689,
      "Action": 5690,
      "Accord": 5691,
      "Account": 5692,
      "Activi": 5693,
      "Acceler": 5694,
      "Compre": 5695,
      "Compu": 5696,
      "Comtrade": 5697,
      "continue": 5698,
      "Economics": 5699,
      "1423": 5700,
      "1428": 5701,
      "14736": 5702,
      "Moon": 5703,
      "Most": 5704,
      "Move": 5705,
      "Mobi": 5706,
      "Moderately": 5707,
      "capped": 5708,
      "causing": 5709,
      "causes": 5710,
      "dhya": 5711,
      "dhamma": 5712,
      "dhoti": 5713,
      "flaw": 5714,
      "flank": 5715,
      "flats": 5716,
      "flung": 5717,
      "flanking": 5718,
      "tured": 5719,
      "tures": 5720,
      "turmeric": 5721,
      "velle": 5722,
      "ward": 5723,
      "wari": 5724,
      "warmer": 5725,
      "wartz": 5726,
      "engineering": 5727,
      "istered": 5728,
      "rectory": 5729,
      "recogni": 5730,
      "recourse": 5731,
      "relied": 5732,
      "afterwards": 5733,
      "hadur": 5734,
      "systematic": 5735,
      "286": 5736,
      "2826": 5737,
      "2855": 5738,
      "Alford": 5739,
      "Almost": 5740,
      "Altam": 5741,
      "Alamgir": 5742,
      "Alternative": 5743,
      "Newly": 5744,
      "Plan": 5745,
      "Plus": 5746,
      "Plains": 5747,
      "Playing": 5748,
      "ivite": 5749,
      "moreover": 5750,
      "157": 5751,
      "15th": 5752,
      "1500": 5753,
      "1525": 5754,
      "15685": 5755,
      "State": 5756,
      "Stress": 5757,
      "Stone": 5758,
      "Statis": 5759,
      "Strategic": 5760,
      "Strong": 5761,
      "Standard": 5762,
      "prince": 5763,
      "prise": 5764,
      "prana": 5765,
      "pronoun": 5766,
      "profession": 5767,
      "ssils": 5768,
      "arities": 5769,
      "arithme": 5770,
      "arippayat": 5771,
      "1966": 5772,
      "402": 5773,
      "40215": 5774,
      "Brian": 5775,
      "Brightens": 5776,
      "Deve": 5777,
      "Devi": 5778,
      "Devanag": 5779,
      "Embra": 5780,
      "Empires": 5781,
      "Energy": 5782,
      "calculus": 5783,
      "critical": 5784,
      "cribes": 5785,
      "critically": 5786,
      "cricket": 5787,
      "criteria": 5788,
      "fires": 5789,
      "field": 5790,
      "fixed": 5791,
      "firepower": 5792,
      "longest": 5793,
      "longitude": 5794,
      "numerous": 5795,
      "edible": 5796,
      "ignated": 5797,
      "ellate": 5798,
      "increase": 5799,
      "ounds": 5800,
      "continental": 5801,
      "8026": 5802,
      "80904": 5803,
      "Centred": 5804,
      "Radiations": 5805,
      "Until": 5806,
      "Untouch": 5807,
      "Unmaking": 5808,
      "Undernourish": 5809,
      "away": 5810,
      "everri": 5811,
      "grown": 5812,
      "mons": 5813,
      "monary": 5814,
      "montan": 5815,
      "monsoon": 5816,
      "monkey": 5817,
      "monsoons": 5818,
      "pleated": 5819,
      "pleasures": 5820,
      "taugh": 5821,
      "inson": 5822,
      "inscrip": 5823,
      "insurgen": 5824,
      "enslav": 5825,
      "undergr": 5826,
      "underwent": 5827,
      "underskirt": 5828,
      "276": 5829,
      "2755": 5830,
      "362": 5831,
      "3659": 5832,
      "471": 5833,
      "8533": 5834,
      "85402": 5835,
      "hera": 5836,
      "herbal": 5837,
      "herds": 5838,
      "heritage": 5839,
      "observed": 5840,
      "oblig": 5841,
      "obsc": 5842,
      "obase": 5843,
      "obiogeography": 5844,
      "pancake": 5845,
      "panchayat": 5846,
      "roughly": 5847,
      "limit": 5848,
      "1977": 5849,
      "mainland": 5850,
      "mainstre": 5851,
      "spects": 5852,
      "spective": 5853,
      "economics": 5854,
      "economically": 5855,
      "2905": 5856,
      "aircra": 5857,
      "balance": 5858,
      "balanced": 5859,
      "heimer": 5860,
      "heavily": 5861,
      "tecton": 5862,
      "trodden": 5863,
      "thankar": 5864,
      "adequate": 5865,
      "partners": 5866,
      "Europa": 5867,
      "1150": 5868,
      "11162": 5869,
      "301": 5870,
      "308": 5871,
      "3085": 5872,
      "Posse": 5873,
      "Polyester": 5874,
      "appa": 5875,
      "appellate": 5876,
      "little": 5877,
      "manism": 5878,
      "manuscripts": 5879,
      "management": 5880,
      "prefer": 5881,
      "prepared": 5882,
      "preexisting": 5883,
      "preyed": 5884,
      "previous": 5885,
      "southwest": 5886,
      "southwester": 5887,
      "tenheimer": 5888,
      "ondrial": 5889,
      "arded": 5890,
      "supplies": 5891,
      "supplied": 5892,
      "suppressed": 5893,
      "supplying": 5894,
      "supplier": 5895,
      "Chinese": 5896,
      "Biological": 5897,
      "Biota": 5898,
      "Biogeography": 5899,
      "Biosphere": 5900,
      "Decolon": 5901,
      "Decentred": 5902,
      "Declaration": 5903,
      "Delphine": 5904,
      "USSR": 5905,
      "achment": 5906,
      "achings": 5907,
      "achiev": 5908,
      "bias": 5909,
      "bians": 5910,
      "biological": 5911,
      "biosphere": 5912,
      "descrip": 5913,
      "descend": 5914,
      "despite": 5915,
      "describes": 5916,
      "designated": 5917,
      "ebrates": 5918,
      "evolved": 5919,
      "evolution": 5920,
      "evolving": 5921,
      "evidence": 5922,
      "grain": 5923,
      "grail": 5924,
      "grazed": 5925,
      "humid": 5926,
      "humped": 5927,
      "keeping": 5928,
      "need": 5929,
      "neem": 5930,
      "nekar": 5931,
      "negative": 5932,
      "neither": 5933,
      "neoli": 5934,
      "newly": 5935,
      "tances": 5936,
      "tancy": 5937,
      "vene": 5938,
      "annexe": 5939,
      "entiation": 5940,
      "entice": 5941,
      "entists": 5942,
      "entirety": 5943,
      "ortunities": 5944,
      "legraph": 5945,
      "legacy": 5946,
      "owned": 5947,
      "Raju": 5948,
      "Rajya": 5949,
      "Rajesh": 5950,
      "Rajasthan": 5951,
      "3339": 5952,
      "3352": 5953,
      "Auto": 5954,
      "Mughals": 5955,
      "basis": 5956,
      "create": 5957,
      "giant": 5958,
      "teak": 5959,
      "teams": 5960,
      "teille": 5961,
      "teachings": 5962,
      "telegraph": 5963,
      "ania": 5964,
      "anian": 5965,
      "thereby": 5966,
      "disadv": 5967,
      "disband": 5968,
      "discover": 5969,
      "discontent": 5970,
      "disruptive": 5971,
      "choli": 5972,
      "choice": 5973,
      "liamentary": 5974,
      "etymons": 5975,
      "developing": 5976,
      "literally": 5977,
      "Bengali": 5978,
      "Forum": 5979,
      "Forms": 5980,
      "Forecast": 5981,
      "Forsten": 5982,
      "Geology": 5983,
      "Georg": 5984,
      "Geographic": 5985,
      "GeoRv": 5986,
      "George": 5987,
      "Noted": 5988,
      "Notific": 5989,
      "Perko": 5990,
      "Percival": 5991,
      "Perspective": 5992,
      "Proble": 5993,
      "Provisional": 5994,
      "Project": 5995,
      "Proclaiming": 5996,
      "Progres": 5997,
      "Prospects": 5998,
      "course": 5999
    },
    "merges": [
      [
        "a",
        "n"
      ],
      [
        "t",
        "h"
      ],
      [
        "i",
        "n"
      ],
      [
        "e",
        "r"
      ],
      [
        "o",
        "n"
      ],
      [
        "th",
        "e"
      ],
      [
        "a",
        "l"
      ],
      [
        "e",
        "n"
      ],
      [
        "e",
        "d"
      ],
      [
        "a",
        "r"
      ],
      [
        "e",
        "s"
      ],
      [
        "o",
        "r"
      ],
      [
        "t",
        "i"
      ],
      [
        "d",
        "i"
      ],
      [
        "I",
        "n"
      ],
      [
        "an",
        "d"
      ],
      [
        "o",
        "f"
      ],
      [
        "a",
        "s"
      ],
      [
        "i",
        "s"
      ],
      [
        "In",
        "di"
      ],
      [
        "2",
        "0"
      ],
      [
        "r",
        "e"
      ],
      [
        "r",
        "i"
      ],
      [
        "a",
        "t"
      ],
      [
        "o",
        "m"
      ],
      [
        "Indi",
        "a"
      ],
      [
        "in",
        "g"
      ],
      [
        "en",
        "t"
      ],
      [
        "ti",
        "on"
      ],
      [
        "i",
        "c"
      ],
      [
        "i",
        "t"
      ],
      [
        "t",
        "o"
      ],
      [
        "o",
        "u"
      ],
      [
        "e",
        "c"
      ],
      [
        "l",
        "y"
      ],
      [
        "T",
        "h"
      ],
      [
        "c",
        "h"
      ],
      [
        "s",
        "t"
      ],
      [
        "l",
        "i"
      ],
      [
        "u",
        "r"
      ],
      [
        "e",
        "t"
      ],
      [
        "a",
        "m"
      ],
      [
        "v",
        "er"
      ],
      [
        "Th",
        "e"
      ],
      [
        ")",
        "."
      ],
      [
        "l",
        "e"
      ],
      [
        "20",
        "1"
      ],
      [
        "r",
        "a"
      ],
      [
        "1",
        "9"
      ],
      [
        "f",
        "or"
      ],
      [
        "v",
        "ed"
      ],
      [
        "t",
        "er"
      ],
      [
        "e",
        "m"
      ],
      [
        "o",
        "l"
      ],
      [
        "a",
        "tion"
      ],
      [
        "c",
        "e"
      ],
      [
        "i",
        "g"
      ],
      [
        "i",
        "l"
      ],
      [
        "r",
        "o"
      ],
      [
        "a",
        "d"
      ],
      [
        "u",
        "l"
      ],
      [
        "e",
        "l"
      ],
      [
        "r",
        "om"
      ],
      [
        "r",
        "es"
      ],
      [
        "20",
        "0"
      ],
      [
        "is",
        "t"
      ],
      [
        "7",
        "8"
      ],
      [
        "c",
        "on"
      ],
      [
        "g",
        "e"
      ],
      [
        "Indi",
        "an"
      ],
      [
        "f",
        "rom"
      ],
      [
        "u",
        "s"
      ],
      [
        "u",
        "n"
      ],
      [
        "9",
        "78"
      ],
      [
        "o",
        "p"
      ],
      [
        "i",
        "r"
      ],
      [
        "B",
        "N"
      ],
      [
        "I",
        "S"
      ],
      [
        "IS",
        "BN"
      ],
      [
        "b",
        "y"
      ],
      [
        "it",
        "y"
      ],
      [
        "o",
        "w"
      ],
      [
        "s",
        "i"
      ],
      [
        "ti",
        "c"
      ],
      [
        "v",
        "e"
      ],
      [
        "m",
        "ent"
      ],
      [
        "as",
        "t"
      ],
      [
        "m",
        "a"
      ],
      [
        "d",
        "e"
      ],
      [
        "d",
        "u"
      ],
      [
        "t",
        "u"
      ],
      [
        "es",
        "t"
      ],
      [
        "w",
        "i"
      ],
      [
        "c",
        "i"
      ],
      [
        "e",
        "x"
      ],
      [
        "b",
        "er"
      ],
      [
        "d",
        "er"
      ],
      [
        "at",
        "e"
      ],
      [
        "a",
        "y"
      ],
      [
        "201",
        "1"
      ],
      [
        "w",
        "h"
      ],
      [
        "A",
        "r"
      ],
      [
        "wi",
        "th"
      ],
      [
        "o",
        "ver"
      ],
      [
        "s",
        "u"
      ],
      [
        "on",
        "g"
      ],
      [
        "ri",
        "e"
      ],
      [
        "s",
        "e"
      ],
      [
        "s",
        "h"
      ],
      [
        "R",
        "et"
      ],
      [
        "a",
        "b"
      ],
      [
        "n",
        "i"
      ],
      [
        "t",
        "s"
      ],
      [
        "res",
        "s"
      ],
      [
        "0",
        "0"
      ],
      [
        "w",
        "as"
      ],
      [
        "rie",
        "ved"
      ],
      [
        "Ret",
        "rieved"
      ],
      [
        "b",
        "e"
      ],
      [
        "ar",
        "y"
      ],
      [
        "an",
        "g"
      ],
      [
        "er",
        "e"
      ],
      [
        "a",
        "c"
      ],
      [
        "a",
        "g"
      ],
      [
        "i",
        "on"
      ],
      [
        "i",
        "m"
      ],
      [
        "u",
        "m"
      ],
      [
        "l",
        "d"
      ],
      [
        "in",
        "al"
      ],
      [
        "or",
        "ig"
      ],
      [
        "e",
        "ar"
      ],
      [
        "ver",
        "s"
      ],
      [
        "Ar",
        "ch"
      ],
      [
        "g",
        "h"
      ],
      [
        "i",
        "ved"
      ],
      [
        "in",
        "c"
      ],
      [
        "orig",
        "inal"
      ],
      [
        "ic",
        "h"
      ],
      [
        "a",
        "k"
      ],
      [
        "h",
        "as"
      ],
      [
        "p",
        "ar"
      ],
      [
        "m",
        "o"
      ],
      [
        "o",
        "g"
      ],
      [
        "u",
        "t"
      ],
      [
        "Arch",
        "ived"
      ],
      [
        "1",
        "0"
      ],
      [
        "al",
        "ly"
      ],
      [
        "vers",
        "ity"
      ],
      [
        "s",
        "o"
      ],
      [
        "th",
        "er"
      ],
      [
        "ar",
        "e"
      ],
      [
        "or",
        "ld"
      ],
      [
        "C",
        "h"
      ],
      [
        "a",
        "in"
      ],
      [
        "p",
        "p"
      ],
      [
        "or",
        "y"
      ],
      [
        "wh",
        "ich"
      ],
      [
        "U",
        "ni"
      ],
      [
        "l",
        "o"
      ],
      [
        "s",
        "p"
      ],
      [
        "2",
        "1"
      ],
      [
        "con",
        "t"
      ],
      [
        "c",
        "om"
      ],
      [
        "e",
        "w"
      ],
      [
        "p",
        "er"
      ],
      [
        "u",
        "d"
      ],
      [
        "it",
        "s"
      ],
      [
        "c",
        "ent"
      ],
      [
        "i",
        "d"
      ],
      [
        "r",
        "u"
      ],
      [
        "en",
        "ce"
      ],
      [
        "ou",
        "n"
      ],
      [
        "ter",
        "n"
      ],
      [
        "H",
        "in"
      ],
      [
        "m",
        "e"
      ],
      [
        "en",
        "d"
      ],
      [
        "i",
        "es"
      ],
      [
        "l",
        "ar"
      ],
      [
        "ou",
        "r"
      ],
      [
        "c",
        "o"
      ],
      [
        "o",
        "d"
      ],
      [
        "t",
        "ed"
      ],
      [
        "is",
        "m"
      ],
      [
        "over",
        "n"
      ],
      [
        "A",
        "n"
      ],
      [
        "J",
        "u"
      ],
      [
        "m",
        "il"
      ],
      [
        "ou",
        "th"
      ],
      [
        "for",
        "m"
      ],
      [
        "P",
        "ress"
      ],
      [
        "Uni",
        "versity"
      ],
      [
        "A",
        "si"
      ],
      [
        "ec",
        "on"
      ],
      [
        "overn",
        "ment"
      ],
      [
        "Ju",
        "ly"
      ],
      [
        "a",
        "v"
      ],
      [
        "p",
        "l"
      ],
      [
        "w",
        "ere"
      ],
      [
        "al",
        "l"
      ],
      [
        "19",
        "9"
      ],
      [
        "ist",
        "ory"
      ],
      [
        "r",
        "y"
      ],
      [
        "s",
        "ti"
      ],
      [
        "tu",
        "re"
      ],
      [
        "a",
        "ge"
      ],
      [
        "g",
        "en"
      ],
      [
        "an",
        "s"
      ],
      [
        "at",
        "ed"
      ],
      [
        "ic",
        "al"
      ],
      [
        "p",
        "ri"
      ],
      [
        "p",
        "ro"
      ],
      [
        "g",
        "ion"
      ],
      [
        "h",
        "i"
      ],
      [
        "l",
        "ow"
      ],
      [
        "m",
        "ar"
      ],
      [
        "o",
        "t"
      ],
      [
        "p",
        "or"
      ],
      [
        "as",
        "s"
      ],
      [
        "Hin",
        "du"
      ],
      [
        "C",
        "on"
      ],
      [
        "f",
        "f"
      ],
      [
        "u",
        "b"
      ],
      [
        "sti",
        "tu"
      ],
      [
        "H",
        "istory"
      ],
      [
        "c",
        "ul"
      ],
      [
        "h",
        "a"
      ],
      [
        "m",
        "in"
      ],
      [
        ".",
        ";"
      ],
      [
        "d",
        "o"
      ],
      [
        "e",
        "p"
      ],
      [
        "f",
        "ter"
      ],
      [
        "t",
        "y"
      ],
      [
        "u",
        "c"
      ],
      [
        "v",
        "i"
      ],
      [
        "an",
        "ce"
      ],
      [
        "ou",
        "s"
      ],
      [
        "ou",
        "gh"
      ],
      [
        ".",
        ")."
      ],
      [
        "a",
        "ti"
      ],
      [
        "f",
        "e"
      ],
      [
        "w",
        "e"
      ],
      [
        "ri",
        "d"
      ],
      [
        "am",
        "e"
      ],
      [
        "em",
        "ber"
      ],
      [
        "C",
        "E"
      ],
      [
        "o",
        "k"
      ],
      [
        "an",
        "y"
      ],
      [
        "in",
        "e"
      ],
      [
        "li",
        "on"
      ],
      [
        "ang",
        "u"
      ],
      [
        "2",
        "3"
      ],
      [
        "b",
        "ec"
      ],
      [
        "ur",
        "ing"
      ],
      [
        "Asi",
        "a"
      ],
      [
        "econ",
        "om"
      ],
      [
        "1",
        "7"
      ],
      [
        "S",
        "outh"
      ],
      [
        "n",
        "or"
      ],
      [
        "t",
        "ra"
      ],
      [
        "ri",
        "t"
      ],
      [
        "om",
        "e"
      ],
      [
        "ur",
        "y"
      ],
      [
        "ation",
        "al"
      ],
      [
        "der",
        "n"
      ],
      [
        "2",
        "2"
      ],
      [
        "8",
        "1"
      ],
      [
        "h",
        "ar"
      ],
      [
        "in",
        "to"
      ],
      [
        "er",
        "al"
      ],
      [
        "is",
        "h"
      ],
      [
        "201",
        "0"
      ],
      [
        "op",
        "ul"
      ],
      [
        "5",
        "0"
      ],
      [
        "D",
        "F"
      ],
      [
        "P",
        "DF"
      ],
      [
        "a",
        "p"
      ],
      [
        "l",
        "ed"
      ],
      [
        "p",
        "o"
      ],
      [
        "u",
        "p"
      ],
      [
        "an",
        "t"
      ],
      [
        "ro",
        "w"
      ],
      [
        "su",
        "b"
      ],
      [
        "stitu",
        "tion"
      ],
      [
        "b",
        "o"
      ],
      [
        "c",
        "l"
      ],
      [
        "l",
        "and"
      ],
      [
        "o",
        "c"
      ],
      [
        "q",
        "u"
      ],
      [
        "w",
        "orld"
      ],
      [
        "at",
        "es"
      ],
      [
        "for",
        "d"
      ],
      [
        "ol",
        "og"
      ],
      [
        "tic",
        "s"
      ],
      [
        "1",
        "6"
      ],
      [
        "1",
        "8"
      ],
      [
        "M",
        "a"
      ],
      [
        "b",
        "ut"
      ],
      [
        "s",
        "er"
      ],
      [
        "x",
        "ford"
      ],
      [
        "y",
        "ear"
      ],
      [
        "or",
        "e"
      ],
      [
        "tion",
        "s"
      ],
      [
        "am",
        "b"
      ],
      [
        "ir",
        "st"
      ],
      [
        "du",
        "c"
      ],
      [
        "ag",
        "es"
      ],
      [
        "ub",
        "l"
      ],
      [
        "1",
        "3"
      ],
      [
        "2",
        "6"
      ],
      [
        "O",
        "xford"
      ],
      [
        "W",
        "orld"
      ],
      [
        "c",
        "es"
      ],
      [
        "g",
        "an"
      ],
      [
        "g",
        "overnment"
      ],
      [
        "l",
        "angu"
      ],
      [
        "p",
        "h"
      ],
      [
        "er",
        "s"
      ],
      [
        "ou",
        "t"
      ],
      [
        "inc",
        "l"
      ],
      [
        "2",
        "5"
      ],
      [
        "M",
        "ar"
      ],
      [
        "R",
        "e"
      ],
      [
        "b",
        "an"
      ],
      [
        "d",
        "ec"
      ],
      [
        "p",
        "e"
      ],
      [
        "p",
        "i"
      ],
      [
        "p",
        "opul"
      ],
      [
        "s",
        "y"
      ],
      [
        "al",
        "s"
      ],
      [
        "or",
        "k"
      ],
      [
        "re",
        "gion"
      ],
      [
        "le",
        "ar"
      ],
      [
        "ation",
        "s"
      ],
      [
        "ig",
        "h"
      ],
      [
        "el",
        "ec"
      ],
      [
        "lar",
        "g"
      ],
      [
        "rid",
        "ge"
      ],
      [
        "A",
        "c"
      ],
      [
        "C",
        "om"
      ],
      [
        "C",
        "ong"
      ],
      [
        "C",
        "amb"
      ],
      [
        "E",
        "con"
      ],
      [
        "f",
        "irst"
      ],
      [
        "t",
        "ing"
      ],
      [
        "tic",
        "al"
      ],
      [
        "cont",
        "in"
      ],
      [
        "Cong",
        "ress"
      ],
      [
        "Camb",
        "ridge"
      ],
      [
        "Econ",
        "om"
      ],
      [
        "1",
        "4"
      ],
      [
        "M",
        "o"
      ],
      [
        "c",
        "a"
      ],
      [
        "d",
        "h"
      ],
      [
        "f",
        "l"
      ],
      [
        "m",
        "er"
      ],
      [
        "r",
        "al"
      ],
      [
        "t",
        "ur"
      ],
      [
        "v",
        "el"
      ],
      [
        "w",
        "ar"
      ],
      [
        "en",
        "g"
      ],
      [
        "es",
        "tern"
      ],
      [
        "is",
        "ter"
      ],
      [
        "re",
        "c"
      ],
      [
        "re",
        "as"
      ],
      [
        "re",
        "li"
      ],
      [
        "ci",
        "al"
      ],
      [
        "cent",
        "ury"
      ],
      [
        "larg",
        "est"
      ],
      [
        "\"",
        "."
      ],
      [
        "2",
        "4"
      ],
      [
        "a",
        "fter"
      ],
      [
        "d",
        "uring"
      ],
      [
        "g",
        "re"
      ],
      [
        "h",
        "ad"
      ],
      [
        "u",
        "st"
      ],
      [
        "w",
        "o"
      ],
      [
        "at",
        "er"
      ],
      [
        "st",
        "em"
      ],
      [
        "200",
        "7"
      ],
      [
        "us",
        "ed"
      ],
      [
        "uc",
        "lear"
      ],
      [
        "bec",
        "ame"
      ],
      [
        "pi",
        "re"
      ],
      [
        "sy",
        "stem"
      ],
      [
        "2",
        "8"
      ],
      [
        "A",
        "l"
      ],
      [
        "B",
        "ud"
      ],
      [
        "M",
        "ay"
      ],
      [
        "N",
        "ew"
      ],
      [
        "P",
        "l"
      ],
      [
        "c",
        "ast"
      ],
      [
        "f",
        "ic"
      ],
      [
        "i",
        "v"
      ],
      [
        "i",
        "al"
      ],
      [
        "j",
        "or"
      ],
      [
        "m",
        "ore"
      ],
      [
        "the",
        "ma"
      ],
      [
        "al",
        "so"
      ],
      [
        "or",
        "d"
      ],
      [
        "ti",
        "es"
      ],
      [
        "ti",
        "ve"
      ],
      [
        "ex",
        "t"
      ],
      [
        "be",
        "en"
      ],
      [
        "ha",
        "ve"
      ],
      [
        "ubl",
        "ic"
      ],
      [
        "1",
        "5"
      ],
      [
        "J",
        "an"
      ],
      [
        "O",
        "c"
      ],
      [
        "S",
        "t"
      ],
      [
        "c",
        "y"
      ],
      [
        "l",
        "es"
      ],
      [
        "p",
        "r"
      ],
      [
        "s",
        "s"
      ],
      [
        "th",
        "at"
      ],
      [
        "ar",
        "i"
      ],
      [
        "to",
        "ber"
      ],
      [
        "19",
        "6"
      ],
      [
        "200",
        "9"
      ],
      [
        "su",
        "ch"
      ],
      [
        "mo",
        "st"
      ],
      [
        "ther",
        "n"
      ],
      [
        "oun",
        "t"
      ],
      [
        "mil",
        "lion"
      ],
      [
        "min",
        "ister"
      ],
      [
        "year",
        "s"
      ],
      [
        "Oc",
        "tober"
      ],
      [
        "4",
        "0"
      ],
      [
        "B",
        "ri"
      ],
      [
        "B",
        "CE"
      ],
      [
        "D",
        "e"
      ],
      [
        "E",
        "m"
      ],
      [
        "E",
        "n"
      ],
      [
        "E",
        "ur"
      ],
      [
        "c",
        "al"
      ],
      [
        "c",
        "ri"
      ],
      [
        "f",
        "i"
      ],
      [
        "l",
        "ong"
      ],
      [
        "n",
        "um"
      ],
      [
        "ed",
        "i"
      ],
      [
        "di",
        "tion"
      ],
      [
        "li",
        "fe"
      ],
      [
        "am",
        "ent"
      ],
      [
        "ra",
        "ph"
      ],
      [
        "ig",
        "n"
      ],
      [
        "el",
        "l"
      ],
      [
        "ist",
        "an"
      ],
      [
        "ma",
        "jor"
      ],
      [
        "inc",
        "reas"
      ],
      [
        "mo",
        "dern"
      ],
      [
        "oun",
        "d"
      ],
      [
        "cl",
        "ass"
      ],
      [
        "contin",
        "ent"
      ],
      [
        "vel",
        "op"
      ],
      [
        "8",
        "0"
      ],
      [
        "C",
        "ent"
      ],
      [
        "G",
        "overnment"
      ],
      [
        "R",
        "a"
      ],
      [
        "U",
        "n"
      ],
      [
        "a",
        "w"
      ],
      [
        "e",
        "ver"
      ],
      [
        "g",
        "row"
      ],
      [
        "m",
        "on"
      ],
      [
        "n",
        "ot"
      ],
      [
        "p",
        "le"
      ],
      [
        "t",
        "a"
      ],
      [
        "t",
        "wo"
      ],
      [
        "in",
        "s"
      ],
      [
        "en",
        "s"
      ],
      [
        "is",
        "ation"
      ],
      [
        "et",
        "we"
      ],
      [
        "un",
        "der"
      ],
      [
        "pri",
        "me"
      ],
      [
        "do",
        "i"
      ],
      [
        "bo",
        "th"
      ],
      [
        "olog",
        "y"
      ],
      [
        "etwe",
        "en"
      ],
      [
        "2",
        "7"
      ],
      [
        "3",
        "6"
      ],
      [
        "4",
        "7"
      ],
      [
        "8",
        "5"
      ],
      [
        "P",
        "ak"
      ],
      [
        "h",
        "er"
      ],
      [
        "o",
        "b"
      ],
      [
        "o",
        "se"
      ],
      [
        "p",
        "an"
      ],
      [
        "r",
        "ough"
      ],
      [
        "th",
        "ough"
      ],
      [
        "ar",
        "t"
      ],
      [
        "ti",
        "sh"
      ],
      [
        "li",
        "m"
      ],
      [
        "ur",
        "ban"
      ],
      [
        "19",
        "7"
      ],
      [
        "ma",
        "in"
      ],
      [
        "ci",
        "ent"
      ],
      [
        "ac",
        "k"
      ],
      [
        "og",
        "raph"
      ],
      [
        "sp",
        "ec"
      ],
      [
        "lar",
        "ge"
      ],
      [
        "econom",
        "ic"
      ],
      [
        "incl",
        "ud"
      ],
      [
        "cast",
        "e"
      ],
      [
        "Bri",
        "tish"
      ],
      [
        "Em",
        "pire"
      ],
      [
        "Pak",
        "istan"
      ],
      [
        "2",
        "9"
      ],
      [
        "S",
        "ep"
      ],
      [
        "a",
        "ir"
      ],
      [
        "b",
        "al"
      ],
      [
        "h",
        "e"
      ],
      [
        "o",
        "ther"
      ],
      [
        "t",
        "ec"
      ],
      [
        "t",
        "ro"
      ],
      [
        "t",
        "ember"
      ],
      [
        "u",
        "ary"
      ],
      [
        "an",
        "ge"
      ],
      [
        "th",
        "an"
      ],
      [
        "th",
        "is"
      ],
      [
        "in",
        "ce"
      ],
      [
        "on",
        "s"
      ],
      [
        "the",
        "ir"
      ],
      [
        "In",
        "d"
      ],
      [
        "is",
        "e"
      ],
      [
        "em",
        "ent"
      ],
      [
        "ad",
        "e"
      ],
      [
        "ow",
        "er"
      ],
      [
        "par",
        "t"
      ],
      [
        "langu",
        "age"
      ],
      [
        "popul",
        "ation"
      ],
      [
        "Jan",
        "uary"
      ],
      [
        "Eur",
        "op"
      ],
      [
        "num",
        "ber"
      ],
      [
        "Sep",
        "tember"
      ],
      [
        ")",
        ":"
      ],
      [
        "1",
        "1"
      ],
      [
        "3",
        "0"
      ],
      [
        "A",
        "pri"
      ],
      [
        "J",
        "un"
      ],
      [
        "P",
        "o"
      ],
      [
        "a",
        "pp"
      ],
      [
        "b",
        "etween"
      ],
      [
        "d",
        "ance"
      ],
      [
        "f",
        "ol"
      ],
      [
        "i",
        "k"
      ],
      [
        "l",
        "it"
      ],
      [
        "m",
        "an"
      ],
      [
        "m",
        "any"
      ],
      [
        "p",
        "re"
      ],
      [
        "r",
        "ate"
      ],
      [
        "s",
        "outh"
      ],
      [
        "t",
        "en"
      ],
      [
        "u",
        "re"
      ],
      [
        "w",
        "estern"
      ],
      [
        "er",
        "g"
      ],
      [
        "on",
        "d"
      ],
      [
        "ar",
        "d"
      ],
      [
        "20",
        "21"
      ],
      [
        "ri",
        "es"
      ],
      [
        "it",
        "ed"
      ],
      [
        "it",
        "ary"
      ],
      [
        "ur",
        "es"
      ],
      [
        "for",
        "e"
      ],
      [
        "ol",
        "d"
      ],
      [
        "il",
        "d"
      ],
      [
        "un",
        "d"
      ],
      [
        "su",
        "pp"
      ],
      [
        "ab",
        "le"
      ],
      [
        "be",
        "gan"
      ],
      [
        "ang",
        "es"
      ],
      [
        "im",
        "al"
      ],
      [
        "Ch",
        "in"
      ],
      [
        "per",
        "i"
      ],
      [
        "Hindu",
        "ism"
      ],
      [
        "Con",
        "stitution"
      ],
      [
        "cul",
        "ture"
      ],
      [
        "nor",
        "th"
      ],
      [
        "Mar",
        "ch"
      ],
      [
        "Bud",
        "dh"
      ],
      [
        "ount",
        "ry"
      ],
      [
        "Europ",
        "e"
      ],
      [
        "Apri",
        "l"
      ],
      [
        "A",
        "fter"
      ],
      [
        "B",
        "i"
      ],
      [
        "D",
        "ec"
      ],
      [
        "D",
        "el"
      ],
      [
        "I",
        "s"
      ],
      [
        "I",
        "t"
      ],
      [
        "S",
        "ans"
      ],
      [
        "U",
        "S"
      ],
      [
        "a",
        "i"
      ],
      [
        "a",
        "ch"
      ],
      [
        "b",
        "i"
      ],
      [
        "d",
        "es"
      ],
      [
        "d",
        "om"
      ],
      [
        "e",
        "b"
      ],
      [
        "e",
        "v"
      ],
      [
        "g",
        "ra"
      ],
      [
        "h",
        "um"
      ],
      [
        "k",
        "e"
      ],
      [
        "k",
        "rit"
      ],
      [
        "l",
        "ish"
      ],
      [
        "l",
        "ater"
      ],
      [
        "n",
        "e"
      ],
      [
        "n",
        "on"
      ],
      [
        "n",
        "ew"
      ],
      [
        "p",
        "ec"
      ],
      [
        "p",
        "res"
      ],
      [
        "s",
        "ome"
      ],
      [
        "t",
        "an"
      ],
      [
        "u",
        "gh"
      ],
      [
        "v",
        "en"
      ],
      [
        "an",
        "n"
      ],
      [
        "on",
        "e"
      ],
      [
        "al",
        "i"
      ],
      [
        "en",
        "ti"
      ],
      [
        "or",
        "t"
      ],
      [
        "ti",
        "m"
      ],
      [
        "as",
        "h"
      ],
      [
        "is",
        "ed"
      ],
      [
        "re",
        "e"
      ],
      [
        "ur",
        "r"
      ],
      [
        "ur",
        "al"
      ],
      [
        "le",
        "g"
      ],
      [
        "19",
        "50"
      ],
      [
        "200",
        "8"
      ],
      [
        "op",
        "le"
      ],
      [
        "ow",
        "n"
      ],
      [
        "00",
        "0"
      ],
      [
        "low",
        "ing"
      ],
      [
        "econom",
        "y"
      ],
      [
        "nor",
        "thern"
      ],
      [
        "tra",
        "dition"
      ],
      [
        "sub",
        "continent"
      ],
      [
        "thema",
        "tics"
      ],
      [
        "Ra",
        "j"
      ],
      [
        "Chin",
        "a"
      ],
      [
        "Sans",
        "krit"
      ],
      [
        "3",
        "3"
      ],
      [
        "A",
        "u"
      ],
      [
        "B",
        "y"
      ],
      [
        "M",
        "ugh"
      ],
      [
        "b",
        "as"
      ],
      [
        "c",
        "k"
      ],
      [
        "c",
        "re"
      ],
      [
        "f",
        "t"
      ],
      [
        "g",
        "i"
      ],
      [
        "p",
        "any"
      ],
      [
        "p",
        "ower"
      ],
      [
        "s",
        "ince"
      ],
      [
        "t",
        "e"
      ],
      [
        "an",
        "i"
      ],
      [
        "th",
        "ere"
      ],
      [
        "in",
        "fl"
      ],
      [
        "er",
        "ation"
      ],
      [
        "ed",
        "s"
      ],
      [
        "di",
        "s"
      ],
      [
        "di",
        "versity"
      ],
      [
        "ch",
        "o"
      ],
      [
        "li",
        "tical"
      ],
      [
        "li",
        "ament"
      ],
      [
        "et",
        "y"
      ],
      [
        "am",
        "ong"
      ],
      [
        "le",
        "y"
      ],
      [
        "19",
        "47"
      ],
      [
        "200",
        "1"
      ],
      [
        "de",
        "velop"
      ],
      [
        "mil",
        "l"
      ],
      [
        "increas",
        "ed"
      ],
      [
        "class",
        "ical"
      ],
      [
        "includ",
        "ing"
      ],
      [
        "Ind",
        "us"
      ],
      [
        "Jun",
        "e"
      ],
      [
        "lit",
        "er"
      ],
      [
        "Del",
        "hi"
      ],
      [
        "infl",
        "u"
      ],
      [
        "5",
        "21"
      ],
      [
        "B",
        "eng"
      ],
      [
        "F",
        "or"
      ],
      [
        "G",
        "e"
      ],
      [
        "N",
        "o"
      ],
      [
        "N",
        "ational"
      ],
      [
        "P",
        "er"
      ],
      [
        "P",
        "ro"
      ],
      [
        "P",
        "un"
      ],
      [
        "S",
        "o"
      ],
      [
        "Y",
        "ork"
      ],
      [
        "a",
        "ce"
      ],
      [
        "c",
        "our"
      ],
      [
        "g",
        "r"
      ],
      [
        "g",
        "ust"
      ],
      [
        "h",
        "n"
      ],
      [
        "h",
        "igh"
      ],
      [
        "j",
        "ab"
      ],
      [
        "k",
        "ing"
      ],
      [
        "m",
        "us"
      ],
      [
        "m",
        "id"
      ],
      [
        "n",
        "o"
      ],
      [
        "n",
        "uclear"
      ],
      [
        "o",
        "od"
      ],
      [
        "p",
        "t"
      ],
      [
        "p",
        "en"
      ],
      [
        "s",
        "et"
      ],
      [
        "t",
        "r"
      ],
      [
        "t",
        "ri"
      ],
      [
        "v",
        "es"
      ],
      [
        "v",
        "ing"
      ],
      [
        "w",
        "est"
      ],
      [
        "w",
        "ell"
      ],
      [
        "en",
        "ni"
      ],
      [
        "ar",
        "m"
      ],
      [
        "es",
        "s"
      ],
      [
        "In",
        "do"
      ],
      [
        "ic",
        "s"
      ],
      [
        "it",
        "e"
      ],
      [
        "st",
        "y"
      ],
      [
        "st",
        "ate"
      ],
      [
        "am",
        "an"
      ],
      [
        "201",
        "2"
      ],
      [
        "201",
        "7"
      ],
      [
        "for",
        "est"
      ],
      [
        "ul",
        "ar"
      ],
      [
        "200",
        "3"
      ],
      [
        "con",
        "stitution"
      ],
      [
        "ir",
        "d"
      ],
      [
        "si",
        "on"
      ],
      [
        "ci",
        "ence"
      ],
      [
        "ate",
        "ly"
      ],
      [
        "par",
        "liament"
      ],
      [
        "ain",
        "s"
      ],
      [
        "ru",
        "le"
      ],
      [
        "econ",
        "d"
      ],
      [
        "gen",
        "eral"
      ],
      [
        "mar",
        "k"
      ],
      [
        "cul",
        "tur"
      ],
      [
        "land",
        "s"
      ],
      [
        "oc",
        "c"
      ],
      [
        "pe",
        "ople"
      ],
      [
        "elec",
        "tion"
      ],
      [
        "ens",
        "us"
      ],
      [
        "spec",
        "ies"
      ],
      [
        "peri",
        "od"
      ],
      [
        "Au",
        "gust"
      ],
      [
        "Mugh",
        "al"
      ],
      [
        "Pun",
        "jab"
      ],
      [
        "4",
        "9"
      ],
      [
        "6",
        "9"
      ],
      [
        "A",
        "m"
      ],
      [
        "F",
        "rom"
      ],
      [
        "F",
        "eb"
      ],
      [
        "M",
        "us"
      ],
      [
        "N",
        "uclear"
      ],
      [
        "P",
        "r"
      ],
      [
        "P",
        "ar"
      ],
      [
        "P",
        "ra"
      ],
      [
        "S",
        "h"
      ],
      [
        "S",
        "ik"
      ],
      [
        "T",
        "im"
      ],
      [
        "b",
        "il"
      ],
      [
        "b",
        "el"
      ],
      [
        "c",
        "ed"
      ],
      [
        "c",
        "ountry"
      ],
      [
        "d",
        "le"
      ],
      [
        "i",
        "a"
      ],
      [
        "p",
        "ol"
      ],
      [
        "p",
        "end"
      ],
      [
        "p",
        "ublic"
      ],
      [
        "r",
        "on"
      ],
      [
        "t",
        "or"
      ],
      [
        "u",
        "de"
      ],
      [
        "v",
        "ement"
      ],
      [
        "an",
        "k"
      ],
      [
        "th",
        "rough"
      ],
      [
        "the",
        "m"
      ],
      [
        "ed",
        "uc"
      ],
      [
        "ar",
        "n"
      ],
      [
        "ti",
        "l"
      ],
      [
        "ti",
        "me"
      ],
      [
        "of",
        "fic"
      ],
      [
        "re",
        "l"
      ],
      [
        "ri",
        "ver"
      ],
      [
        "at",
        "a"
      ],
      [
        "at",
        "s"
      ],
      [
        "le",
        "ad"
      ],
      [
        "201",
        "4"
      ],
      [
        "201",
        "5"
      ],
      [
        "em",
        "erg"
      ],
      [
        "il",
        "l"
      ],
      [
        "ul",
        "tan"
      ],
      [
        "200",
        "4"
      ],
      [
        "200",
        "5"
      ],
      [
        "ment",
        "s"
      ],
      [
        "wi",
        "de"
      ],
      [
        "ex",
        "por"
      ],
      [
        "so",
        "ci"
      ],
      [
        "so",
        "cial"
      ],
      [
        "ru",
        "ary"
      ],
      [
        "mil",
        "itary"
      ],
      [
        "por",
        "t"
      ],
      [
        "ser",
        "ved"
      ],
      [
        "langu",
        "ages"
      ],
      [
        "Com",
        "pany"
      ],
      [
        "Econom",
        "y"
      ],
      [
        "Econom",
        "ic"
      ],
      [
        "Mo",
        "dern"
      ],
      [
        "ca",
        "used"
      ],
      [
        "reli",
        "gion"
      ],
      [
        "Pl",
        "ate"
      ],
      [
        "tro",
        "duc"
      ],
      [
        "mill",
        "enni"
      ],
      [
        "Beng",
        "al"
      ],
      [
        "Feb",
        "ruary"
      ],
      [
        "millenni",
        "um"
      ],
      [
        "3",
        "1"
      ],
      [
        "3",
        "7"
      ],
      [
        "4",
        "5"
      ],
      [
        "5",
        "1"
      ],
      [
        "5",
        "3"
      ],
      [
        "8",
        "7"
      ],
      [
        "D",
        "em"
      ],
      [
        "E",
        "ast"
      ],
      [
        "G",
        "and"
      ],
      [
        "H",
        "imal"
      ],
      [
        "N",
        "e"
      ],
      [
        "O",
        "r"
      ],
      [
        "R",
        "out"
      ],
      [
        "S",
        "cience"
      ],
      [
        "c",
        "an"
      ],
      [
        "c",
        "ord"
      ],
      [
        "d",
        "ay"
      ],
      [
        "e",
        "th"
      ],
      [
        "e",
        "as"
      ],
      [
        "e",
        "ast"
      ],
      [
        "f",
        "am"
      ],
      [
        "g",
        "a"
      ],
      [
        "l",
        "ast"
      ],
      [
        "p",
        "rom"
      ],
      [
        "r",
        "is"
      ],
      [
        "r",
        "ural"
      ],
      [
        "s",
        "a"
      ],
      [
        "s",
        "on"
      ],
      [
        "s",
        "ing"
      ],
      [
        "s",
        "econd"
      ],
      [
        "u",
        "ries"
      ],
      [
        "w",
        "ork"
      ],
      [
        "y",
        "a"
      ],
      [
        "an",
        "a"
      ],
      [
        "in",
        "du"
      ],
      [
        "er",
        "ed"
      ],
      [
        "the",
        "ast"
      ],
      [
        "ed",
        "eral"
      ],
      [
        "es",
        "e"
      ],
      [
        "or",
        "i"
      ],
      [
        "di",
        "sp"
      ],
      [
        "di",
        "rec"
      ],
      [
        "20",
        "22"
      ],
      [
        "ri",
        "gh"
      ],
      [
        "at",
        "ing"
      ],
      [
        "at",
        "ure"
      ],
      [
        "ic",
        "ally"
      ],
      [
        "19",
        "8"
      ],
      [
        "ir",
        "on"
      ],
      [
        "ow",
        "ever"
      ],
      [
        "wh",
        "o"
      ],
      [
        "ag",
        "o"
      ],
      [
        "cont",
        "r"
      ],
      [
        "cent",
        "uries"
      ],
      [
        "co",
        "ast"
      ],
      [
        "co",
        "ok"
      ],
      [
        "An",
        "d"
      ],
      [
        "Asi",
        "an"
      ],
      [
        "ati",
        "ve"
      ],
      [
        "led",
        "ge"
      ],
      [
        "oc",
        "ra"
      ],
      [
        "Ma",
        "thematics"
      ],
      [
        "reli",
        "gi"
      ],
      [
        "major",
        "ity"
      ],
      [
        "Cent",
        "ral"
      ],
      [
        "hum",
        "an"
      ],
      [
        "mus",
        "ic"
      ],
      [
        "Mus",
        "lim"
      ],
      [
        "bil",
        "lion"
      ],
      [
        "Gand",
        "hi"
      ],
      [
        "Himal",
        "ay"
      ],
      [
        "Rout",
        "ledge"
      ],
      [
        "%",
        "."
      ],
      [
        ")",
        ","
      ],
      [
        ".",
        "."
      ],
      [
        "1",
        "00"
      ],
      [
        "4",
        "3"
      ],
      [
        "4",
        "4"
      ],
      [
        "B",
        "J"
      ],
      [
        "C",
        "o"
      ],
      [
        "C",
        "ul"
      ],
      [
        "I",
        "ts"
      ],
      [
        "J",
        "ain"
      ],
      [
        "S",
        "ing"
      ],
      [
        "U",
        "r"
      ],
      [
        "W",
        "estern"
      ],
      [
        "a",
        "th"
      ],
      [
        "b",
        "u"
      ],
      [
        "c",
        "ol"
      ],
      [
        "f",
        "ound"
      ],
      [
        "g",
        "ar"
      ],
      [
        "g",
        "et"
      ],
      [
        "h",
        "o"
      ],
      [
        "i",
        "ally"
      ],
      [
        "l",
        "ine"
      ],
      [
        "m",
        "en"
      ],
      [
        "m",
        "ade"
      ],
      [
        "n",
        "ed"
      ],
      [
        "r",
        "am"
      ],
      [
        "r",
        "ates"
      ],
      [
        "s",
        "ec"
      ],
      [
        "s",
        "ur"
      ],
      [
        "v",
        "al"
      ],
      [
        "v",
        "ic"
      ],
      [
        "v",
        "ol"
      ],
      [
        "v",
        "iron"
      ],
      [
        "w",
        "om"
      ],
      [
        "y",
        "an"
      ],
      [
        "an",
        "cient"
      ],
      [
        "th",
        "ird"
      ],
      [
        "er",
        "t"
      ],
      [
        "20",
        "23"
      ],
      [
        "re",
        "at"
      ],
      [
        "ent",
        "s"
      ],
      [
        "it",
        "ec"
      ],
      [
        "st",
        "r"
      ],
      [
        "li",
        "es"
      ],
      [
        "ad",
        "es"
      ],
      [
        "Indian",
        "s"
      ],
      [
        "us",
        "e"
      ],
      [
        "de",
        "f"
      ],
      [
        "der",
        "s"
      ],
      [
        "ac",
        "y"
      ],
      [
        "ag",
        "ri"
      ],
      [
        "ion",
        "s"
      ],
      [
        "ear",
        "ly"
      ],
      [
        "par",
        "ty"
      ],
      [
        "are",
        "as"
      ],
      [
        "lo",
        "bal"
      ],
      [
        "cont",
        "ri"
      ],
      [
        "com",
        "mon"
      ],
      [
        "cent",
        "ral"
      ],
      [
        "tern",
        "ational"
      ],
      [
        "Hin",
        "di"
      ],
      [
        "An",
        "cient"
      ],
      [
        "form",
        "s"
      ],
      [
        "199",
        "1"
      ],
      [
        "gen",
        "er"
      ],
      [
        "har",
        "ma"
      ],
      [
        "po",
        "litical"
      ],
      [
        "ces",
        "s"
      ],
      [
        "incl",
        "ude"
      ],
      [
        "Ac",
        "t"
      ],
      [
        "Un",
        "ited"
      ],
      [
        "grow",
        "th"
      ],
      [
        "fol",
        "lowing"
      ],
      [
        "Buddh",
        "ist"
      ],
      [
        "Europe",
        "an"
      ],
      [
        "tim",
        "es"
      ],
      [
        "bas",
        "ed"
      ],
      [
        "influ",
        "en"
      ],
      [
        "tr",
        "ans"
      ],
      [
        "Sik",
        "h"
      ],
      [
        "Tim",
        "es"
      ],
      [
        "emerg",
        "ed"
      ],
      [
        "ultan",
        "ate"
      ],
      [
        "cord",
        "ing"
      ],
      [
        "contr",
        "ol"
      ],
      [
        "And",
        "aman"
      ],
      [
        "religi",
        "ous"
      ],
      [
        "BJ",
        "P"
      ],
      [
        "viron",
        "ment"
      ],
      [
        "wom",
        "en"
      ],
      [
        "%",
        ","
      ],
      [
        "1",
        "2"
      ],
      [
        "2",
        "n"
      ],
      [
        "3",
        "9"
      ],
      [
        "4",
        "00"
      ],
      [
        "5",
        "5"
      ],
      [
        "5",
        "7"
      ],
      [
        "5",
        "00"
      ],
      [
        "A",
        "sh"
      ],
      [
        "B",
        "h"
      ],
      [
        "B",
        "l"
      ],
      [
        "B",
        "har"
      ],
      [
        "C",
        "iv"
      ],
      [
        "E",
        "ar"
      ],
      [
        "G",
        "anges"
      ],
      [
        "M",
        "in"
      ],
      [
        "M",
        "al"
      ],
      [
        "P",
        "ublic"
      ],
      [
        "S",
        "e"
      ],
      [
        "S",
        "tu"
      ],
      [
        "T",
        "am"
      ],
      [
        "b",
        "re"
      ],
      [
        "b",
        "ir"
      ],
      [
        "c",
        "ar"
      ],
      [
        "c",
        "ru"
      ],
      [
        "c",
        "ensus"
      ],
      [
        "d",
        "s"
      ],
      [
        "d",
        "ra"
      ],
      [
        "f",
        "er"
      ],
      [
        "f",
        "ar"
      ],
      [
        "f",
        "ig"
      ],
      [
        "f",
        "ast"
      ],
      [
        "f",
        "ac"
      ],
      [
        "g",
        "lish"
      ],
      [
        "h",
        "ist"
      ],
      [
        "h",
        "ru"
      ],
      [
        "i",
        "b"
      ],
      [
        "i",
        "ve"
      ],
      [
        "i",
        "de"
      ],
      [
        "k",
        "n"
      ],
      [
        "l",
        "in"
      ],
      [
        "l",
        "am"
      ],
      [
        "m",
        "i"
      ],
      [
        "m",
        "it"
      ],
      [
        "m",
        "edi"
      ],
      [
        "n",
        "ing"
      ],
      [
        "n",
        "ational"
      ],
      [
        "p",
        "ain"
      ],
      [
        "r",
        "en"
      ],
      [
        "r",
        "ul"
      ],
      [
        "s",
        "ou"
      ],
      [
        "s",
        "cul"
      ],
      [
        "t",
        "on"
      ],
      [
        "t",
        "em"
      ],
      [
        "t",
        "ex"
      ],
      [
        "u",
        "ch"
      ],
      [
        "v",
        "is"
      ],
      [
        "v",
        "ast"
      ],
      [
        "w",
        "or"
      ],
      [
        "an",
        "ces"
      ],
      [
        "in",
        "di"
      ],
      [
        "in",
        "ter"
      ],
      [
        "the",
        "y"
      ],
      [
        "al",
        "ity"
      ],
      [
        "ar",
        "a"
      ],
      [
        "ar",
        "ch"
      ],
      [
        "es",
        "pec"
      ],
      [
        "di",
        "ff"
      ],
      [
        "re",
        "main"
      ],
      [
        "ic",
        "y"
      ],
      [
        "it",
        "es"
      ],
      [
        "ec",
        "u"
      ],
      [
        "Th",
        "ere"
      ],
      [
        "ch",
        "ed"
      ],
      [
        "st",
        "e"
      ],
      [
        "st",
        "ates"
      ],
      [
        "li",
        "tics"
      ],
      [
        "et",
        "s"
      ],
      [
        "et",
        "on"
      ],
      [
        "am",
        "p"
      ],
      [
        "ver",
        "se"
      ],
      [
        "201",
        "3"
      ],
      [
        "201",
        "8"
      ],
      [
        "201",
        "9"
      ],
      [
        "ra",
        "tion"
      ],
      [
        "ter",
        "rit"
      ],
      [
        "em",
        "p"
      ],
      [
        "el",
        "d"
      ],
      [
        "200",
        "0"
      ],
      [
        "op",
        "eration"
      ],
      [
        "ma",
        "thema"
      ],
      [
        "de",
        "pend"
      ],
      [
        "mo",
        "vement"
      ],
      [
        "Uni",
        "on"
      ],
      [
        "lo",
        "od"
      ],
      [
        "lo",
        "cal"
      ],
      [
        "form",
        "ed"
      ],
      [
        "pro",
        "duc"
      ],
      [
        "low",
        "er"
      ],
      [
        "ff",
        "air"
      ],
      [
        "vi",
        "ew"
      ],
      [
        "ap",
        "it"
      ],
      [
        "po",
        "s"
      ],
      [
        "bo",
        "ok"
      ],
      [
        "olog",
        "ical"
      ],
      [
        "region",
        "s"
      ],
      [
        "gre",
        "w"
      ],
      [
        "En",
        "vironment"
      ],
      [
        "En",
        "glish"
      ],
      [
        "fi",
        "ed"
      ],
      [
        "fi",
        "ve"
      ],
      [
        "ograph",
        "y"
      ],
      [
        "he",
        "ad"
      ],
      [
        "ild",
        "life"
      ],
      [
        "Dec",
        "ember"
      ],
      [
        "Is",
        "lam"
      ],
      [
        "cho",
        "ol"
      ],
      [
        "liter",
        "acy"
      ],
      [
        "parliament",
        "ary"
      ],
      [
        "cultur",
        "al"
      ],
      [
        "occ",
        "up"
      ],
      [
        "religion",
        "s"
      ],
      [
        "troduc",
        "tion"
      ],
      [
        "Ne",
        "hru"
      ],
      [
        "fam",
        "i"
      ],
      [
        "indu",
        "st"
      ],
      [
        "Sing",
        "h"
      ],
      [
        "itec",
        "ture"
      ],
      [
        "2n",
        "d"
      ],
      [
        "Civ",
        "il"
      ],
      [
        "Tam",
        "il"
      ],
      [
        "pain",
        "ting"
      ],
      [
        "espec",
        "ially"
      ],
      [
        "ffair",
        "s"
      ],
      [
        "3",
        "5"
      ],
      [
        "5",
        "9"
      ],
      [
        "6",
        "0"
      ],
      [
        "7",
        "0"
      ],
      [
        "7",
        "6"
      ],
      [
        "A",
        "f"
      ],
      [
        "A",
        "t"
      ],
      [
        "A",
        "ra"
      ],
      [
        "A",
        "ss"
      ],
      [
        "B",
        "e"
      ],
      [
        "B",
        "o"
      ],
      [
        "D",
        "P"
      ],
      [
        "D",
        "es"
      ],
      [
        "D",
        "uring"
      ],
      [
        "E",
        "x"
      ],
      [
        "G",
        "u"
      ],
      [
        "G",
        "DP"
      ],
      [
        "H",
        "e"
      ],
      [
        "J",
        "o"
      ],
      [
        "J",
        "am"
      ],
      [
        "K",
        "ash"
      ],
      [
        "L",
        "angu"
      ],
      [
        "L",
        "ond"
      ],
      [
        "M",
        "ich"
      ],
      [
        "M",
        "id"
      ],
      [
        "N",
        "ic"
      ],
      [
        "P",
        "ol"
      ],
      [
        "P",
        "ubl"
      ],
      [
        "V",
        "ol"
      ],
      [
        "W",
        "i"
      ],
      [
        "a",
        "u"
      ],
      [
        "b",
        "od"
      ],
      [
        "b",
        "ack"
      ],
      [
        "d",
        "en"
      ],
      [
        "d",
        "ed"
      ],
      [
        "d",
        "em"
      ],
      [
        "e",
        "f"
      ],
      [
        "f",
        "ederal"
      ],
      [
        "h",
        "y"
      ],
      [
        "h",
        "en"
      ],
      [
        "h",
        "ou"
      ],
      [
        "h",
        "av"
      ],
      [
        "h",
        "istory"
      ],
      [
        "i",
        "i"
      ],
      [
        "i",
        "z"
      ],
      [
        "j",
        "ec"
      ],
      [
        "l",
        "ing"
      ],
      [
        "l",
        "ay"
      ],
      [
        "m",
        "is"
      ],
      [
        "n",
        "ow"
      ],
      [
        "o",
        "s"
      ],
      [
        "p",
        "ur"
      ],
      [
        "p",
        "ture"
      ],
      [
        "p",
        "ical"
      ],
      [
        "r",
        "an"
      ],
      [
        "s",
        "m"
      ],
      [
        "s",
        "ist"
      ],
      [
        "s",
        "ultanate"
      ],
      [
        "t",
        "ly"
      ],
      [
        "u",
        "is"
      ],
      [
        "u",
        "tion"
      ],
      [
        "u",
        "ally"
      ],
      [
        "w",
        "a"
      ],
      [
        "w",
        "on"
      ],
      [
        "w",
        "ent"
      ],
      [
        "an",
        "di"
      ],
      [
        "an",
        "ts"
      ],
      [
        "in",
        "f"
      ],
      [
        "in",
        "i"
      ],
      [
        "in",
        "es"
      ],
      [
        "on",
        "es"
      ],
      [
        "al",
        "th"
      ],
      [
        "al",
        "es"
      ],
      [
        "al",
        "ong"
      ],
      [
        "ed",
        "ic"
      ],
      [
        "ar",
        "ti"
      ],
      [
        "di",
        "es"
      ],
      [
        "di",
        "verse"
      ],
      [
        "In",
        "ternational"
      ],
      [
        "In",
        "troduction"
      ],
      [
        "of",
        "ten"
      ],
      [
        "is",
        "l"
      ],
      [
        "20",
        "24"
      ],
      [
        "re",
        "g"
      ],
      [
        "re",
        "public"
      ],
      [
        "at",
        "ures"
      ],
      [
        "ing",
        "er"
      ],
      [
        "ent",
        "ly"
      ],
      [
        "ou",
        "p"
      ],
      [
        "ou",
        "ld"
      ],
      [
        "Th",
        "ese"
      ],
      [
        "ch",
        "ange"
      ],
      [
        "li",
        "d"
      ],
      [
        "li",
        "est"
      ],
      [
        "ur",
        "ther"
      ],
      [
        "ra",
        "h"
      ],
      [
        "ter",
        "m"
      ],
      [
        "ter",
        "s"
      ],
      [
        "ig",
        "ni"
      ],
      [
        "ro",
        "ss"
      ],
      [
        "ro",
        "ck"
      ],
      [
        "ad",
        "v"
      ],
      [
        "200",
        "6"
      ],
      [
        "un",
        "ion"
      ],
      [
        "si",
        "ve"
      ],
      [
        "ci",
        "ties"
      ],
      [
        "ci",
        "ety"
      ],
      [
        "ex",
        "ecu"
      ],
      [
        "ay",
        "s"
      ],
      [
        "wh",
        "ose"
      ],
      [
        "su",
        "m"
      ],
      [
        "se",
        "ver"
      ],
      [
        "se",
        "qu"
      ],
      [
        "ab",
        "lish"
      ],
      [
        "inc",
        "eton"
      ],
      [
        "par",
        "ti"
      ],
      [
        "Ch",
        "and"
      ],
      [
        "lo",
        "y"
      ],
      [
        "com",
        "mer"
      ],
      [
        "ru",
        "c"
      ],
      [
        "tern",
        "al"
      ],
      [
        "end",
        "em"
      ],
      [
        "our",
        "n"
      ],
      [
        "all",
        "ed"
      ],
      [
        "199",
        "2"
      ],
      [
        "199",
        "4"
      ],
      [
        "gen",
        "cy"
      ],
      [
        "mar",
        "ri"
      ],
      [
        "ff",
        "ec"
      ],
      [
        "min",
        "ist"
      ],
      [
        "vi",
        "ol"
      ],
      [
        "we",
        "ap"
      ],
      [
        "bec",
        "ome"
      ],
      [
        "ser",
        "v"
      ],
      [
        "popul",
        "ar"
      ],
      [
        "region",
        "al"
      ],
      [
        "elec",
        "tions"
      ],
      [
        "Ac",
        "cording"
      ],
      [
        "rec",
        "ord"
      ],
      [
        "Al",
        "l"
      ],
      [
        "fic",
        "ant"
      ],
      [
        "De",
        "velop"
      ],
      [
        "long",
        "er"
      ],
      [
        "grow",
        "ing"
      ],
      [
        "tec",
        "hn"
      ],
      [
        "Po",
        "litics"
      ],
      [
        "und",
        "ament"
      ],
      [
        "Buddh",
        "ism"
      ],
      [
        "des",
        "h"
      ],
      [
        "ali",
        "tion"
      ],
      [
        "tradition",
        "al"
      ],
      [
        "cre",
        "ated"
      ],
      [
        "Per",
        "si"
      ],
      [
        "So",
        "ciety"
      ],
      [
        "pen",
        "ins"
      ],
      [
        "sty",
        "les"
      ],
      [
        "Am",
        "ong"
      ],
      [
        "Pr",
        "inceton"
      ],
      [
        "Pra",
        "desh"
      ],
      [
        "educ",
        "ation"
      ],
      [
        "offic",
        "ial"
      ],
      [
        "wide",
        "ly"
      ],
      [
        "eas",
        "tern"
      ],
      [
        "Himalay",
        "as"
      ],
      [
        "Ur",
        "ban"
      ],
      [
        "Public",
        "ations"
      ],
      [
        "sou",
        "thern"
      ],
      [
        "territ",
        "or"
      ],
      [
        "pos",
        "ed"
      ],
      [
        "Lond",
        "on"
      ],
      [
        "Publ",
        "ish"
      ],
      [
        "bod",
        "y"
      ],
      [
        "igni",
        "ficant"
      ],
      [
        "Develop",
        "ment"
      ],
      [
        "0",
        "5"
      ],
      [
        "3",
        "00"
      ],
      [
        "3",
        "17"
      ],
      [
        "4",
        "6"
      ],
      [
        "4",
        "th"
      ],
      [
        "6",
        "3"
      ],
      [
        "7",
        "4"
      ],
      [
        "7",
        "9"
      ],
      [
        "8",
        "2"
      ],
      [
        "9",
        "4"
      ],
      [
        "A",
        "s"
      ],
      [
        "A",
        "ffairs"
      ],
      [
        "B",
        "rah"
      ],
      [
        "C",
        "ol"
      ],
      [
        "E",
        "l"
      ],
      [
        "F",
        "lood"
      ],
      [
        "G",
        "en"
      ],
      [
        "G",
        "av"
      ],
      [
        "H",
        "ar"
      ],
      [
        "H",
        "um"
      ],
      [
        "J",
        "ourn"
      ],
      [
        "L",
        "ong"
      ],
      [
        "M",
        "on"
      ],
      [
        "N",
        "or"
      ],
      [
        "O",
        "ut"
      ],
      [
        "P",
        "e"
      ],
      [
        "P",
        "al"
      ],
      [
        "P",
        "opul"
      ],
      [
        "R",
        "o"
      ],
      [
        "R",
        "ep"
      ],
      [
        "S",
        "ri"
      ],
      [
        "S",
        "ou"
      ],
      [
        "S",
        "ur"
      ],
      [
        "S",
        "hi"
      ],
      [
        "S",
        "pr"
      ],
      [
        "V",
        "a"
      ],
      [
        "W",
        "est"
      ],
      [
        "a",
        "ver"
      ],
      [
        "a",
        "el"
      ],
      [
        "b",
        "or"
      ],
      [
        "b",
        "ro"
      ],
      [
        "b",
        "ot"
      ],
      [
        "c",
        "lo"
      ],
      [
        "c",
        "oun"
      ],
      [
        "c",
        "urr"
      ],
      [
        "d",
        "ances"
      ],
      [
        "e",
        "qu"
      ],
      [
        "f",
        "our"
      ],
      [
        "f",
        "urther"
      ],
      [
        "g",
        "u"
      ],
      [
        "h",
        "owever"
      ],
      [
        "h",
        "eld"
      ],
      [
        "i",
        "p"
      ],
      [
        "i",
        "an"
      ],
      [
        "j",
        "o"
      ],
      [
        "k",
        "s"
      ],
      [
        "k",
        "ar"
      ],
      [
        "l",
        "a"
      ],
      [
        "m",
        "ir"
      ],
      [
        "m",
        "ary"
      ],
      [
        "m",
        "ember"
      ],
      [
        "n",
        "at"
      ],
      [
        "n",
        "am"
      ],
      [
        "o",
        "diversity"
      ],
      [
        "p",
        "a"
      ],
      [
        "p",
        "ra"
      ],
      [
        "p",
        "ass"
      ],
      [
        "p",
        "ages"
      ],
      [
        "r",
        "ed"
      ],
      [
        "r",
        "ise"
      ],
      [
        "s",
        "ignificant"
      ],
      [
        "t",
        "al"
      ],
      [
        "t",
        "es"
      ],
      [
        "t",
        "le"
      ],
      [
        "u",
        "e"
      ],
      [
        "u",
        "pp"
      ],
      [
        "v",
        "o"
      ],
      [
        "v",
        "id"
      ],
      [
        "v",
        "ember"
      ],
      [
        "v",
        "ari"
      ],
      [
        "v",
        "ill"
      ],
      [
        "an",
        "ted"
      ],
      [
        "th",
        "ree"
      ],
      [
        "in",
        "depend"
      ],
      [
        "on",
        "ial"
      ],
      [
        "en",
        "ac"
      ],
      [
        "ar",
        "s"
      ],
      [
        "ar",
        "ound"
      ],
      [
        "es",
        "tim"
      ],
      [
        "or",
        "s"
      ],
      [
        "or",
        "gan"
      ],
      [
        "ti",
        "ce"
      ],
      [
        "di",
        "st"
      ],
      [
        "di",
        "sh"
      ],
      [
        "di",
        "tions"
      ],
      [
        "of",
        "f"
      ],
      [
        "is",
        "ing"
      ],
      [
        "20",
        "3"
      ],
      [
        "re",
        "ad"
      ],
      [
        "ri",
        "g"
      ],
      [
        "ri",
        "ch"
      ],
      [
        "om",
        "in"
      ],
      [
        "om",
        "et"
      ],
      [
        "ic",
        "e"
      ],
      [
        "Th",
        "is"
      ],
      [
        "ch",
        "ar"
      ],
      [
        "ch",
        "anges"
      ],
      [
        "st",
        "s"
      ],
      [
        "st",
        "an"
      ],
      [
        "st",
        "at"
      ],
      [
        "li",
        "ber"
      ],
      [
        "et",
        "er"
      ],
      [
        "le",
        "ft"
      ],
      [
        "201",
        "6"
      ],
      [
        "em",
        "pire"
      ],
      [
        "ro",
        "p"
      ],
      [
        "ad",
        "minist"
      ],
      [
        "ul",
        "ti"
      ],
      [
        "el",
        "f"
      ],
      [
        "res",
        "ent"
      ],
      [
        "res",
        "id"
      ],
      [
        "200",
        "2"
      ],
      [
        "ist",
        "ry"
      ],
      [
        "con",
        "si"
      ],
      [
        "con",
        "duc"
      ],
      [
        "us",
        "h"
      ],
      [
        "un",
        "i"
      ],
      [
        "un",
        "til"
      ],
      [
        "est",
        "ablish"
      ],
      [
        "ex",
        "p"
      ],
      [
        "ber",
        "t"
      ],
      [
        "Ar",
        "t"
      ],
      [
        "ab",
        "il"
      ],
      [
        "ang",
        "ered"
      ],
      [
        "im",
        "port"
      ],
      [
        "ear",
        "liest"
      ],
      [
        "ak",
        "e"
      ],
      [
        "ak",
        "h"
      ],
      [
        "ak",
        "sh"
      ],
      [
        "sp",
        "e"
      ],
      [
        "sp",
        "read"
      ],
      [
        "com",
        "pan"
      ],
      [
        "end",
        "angered"
      ],
      [
        "co",
        "alition"
      ],
      [
        "pl",
        "es"
      ],
      [
        "pl",
        "ain"
      ],
      [
        "pl",
        "ace"
      ],
      [
        "199",
        "8"
      ],
      [
        "gen",
        "ous"
      ],
      [
        "pro",
        "cess"
      ],
      [
        "por",
        "ts"
      ],
      [
        "Con",
        "stitu"
      ],
      [
        "23",
        "0"
      ],
      [
        "tra",
        "ditions"
      ],
      [
        "sub",
        "sequ"
      ],
      [
        "18",
        "85"
      ],
      [
        "eng",
        "th"
      ],
      [
        "Al",
        "though"
      ],
      [
        "St",
        "ates"
      ],
      [
        "196",
        "5"
      ],
      [
        "196",
        "7"
      ],
      [
        "cri",
        "pt"
      ],
      [
        "increas",
        "ing"
      ],
      [
        "ever",
        "y"
      ],
      [
        "ta",
        "x"
      ],
      [
        "her",
        "ed"
      ],
      [
        "ob",
        "ar"
      ],
      [
        "though",
        "t"
      ],
      [
        "197",
        "0"
      ],
      [
        "Constitution",
        "al"
      ],
      [
        "Is",
        "lands"
      ],
      [
        "dom",
        "s"
      ],
      [
        "dom",
        "in"
      ],
      [
        "ev",
        "al"
      ],
      [
        "gra",
        "du"
      ],
      [
        "pres",
        "ent"
      ],
      [
        "leg",
        "isl"
      ],
      [
        "develop",
        "ed"
      ],
      [
        "No",
        "vember"
      ],
      [
        "cour",
        "ts"
      ],
      [
        "gr",
        "oup"
      ],
      [
        "king",
        "doms"
      ],
      [
        "mid",
        "dle"
      ],
      [
        "sty",
        "le"
      ],
      [
        "mark",
        "et"
      ],
      [
        "arn",
        "a"
      ],
      [
        "lead",
        "ing"
      ],
      [
        "Dem",
        "ocra"
      ],
      [
        "Or",
        "gan"
      ],
      [
        "disp",
        "ut"
      ],
      [
        "righ",
        "t"
      ],
      [
        "cook",
        "ed"
      ],
      [
        "Cul",
        "ture"
      ],
      [
        "Jain",
        "ism"
      ],
      [
        "influen",
        "ced"
      ],
      [
        "Bhar",
        "at"
      ],
      [
        "Min",
        "istry"
      ],
      [
        "Stu",
        "dies"
      ],
      [
        "bir",
        "th"
      ],
      [
        "fig",
        "ures"
      ],
      [
        "hist",
        "or"
      ],
      [
        "kn",
        "own"
      ],
      [
        "scul",
        "pture"
      ],
      [
        "wor",
        "n"
      ],
      [
        "indi",
        "genous"
      ],
      [
        "diff",
        "er"
      ],
      [
        "emp",
        "loy"
      ],
      [
        "mathema",
        "tical"
      ],
      [
        "fami",
        "lies"
      ],
      [
        "indust",
        "ry"
      ],
      [
        "Gu",
        "j"
      ],
      [
        "Kash",
        "mir"
      ],
      [
        "Mich",
        "ael"
      ],
      [
        "Mid",
        "dle"
      ],
      [
        "Nic",
        "obar"
      ],
      [
        "hou",
        "se"
      ],
      [
        "iz",
        "ation"
      ],
      [
        "mis",
        "sion"
      ],
      [
        "execu",
        "tive"
      ],
      [
        "techn",
        "ology"
      ],
      [
        "undament",
        "al"
      ],
      [
        "Persi",
        "an"
      ],
      [
        "penins",
        "ular"
      ],
      [
        "Gav",
        "in"
      ],
      [
        "Journ",
        "al"
      ],
      [
        "Sou",
        "theast"
      ],
      [
        "Spr",
        "inger"
      ],
      [
        "consi",
        "der"
      ],
      [
        "1",
        "200"
      ],
      [
        "2",
        "19"
      ],
      [
        "2",
        "81"
      ],
      [
        "4",
        "15"
      ],
      [
        "5",
        "6"
      ],
      [
        "8",
        "4"
      ],
      [
        "9",
        "0"
      ],
      [
        "9",
        "1"
      ],
      [
        "B",
        "a"
      ],
      [
        "B",
        "ar"
      ],
      [
        "B",
        "as"
      ],
      [
        "B",
        "ang"
      ],
      [
        "C",
        "l"
      ],
      [
        "C",
        "ountry"
      ],
      [
        "C",
        "urr"
      ],
      [
        "C",
        "ensus"
      ],
      [
        "D",
        "r"
      ],
      [
        "D",
        "y"
      ],
      [
        "D",
        "ra"
      ],
      [
        "G",
        "h"
      ],
      [
        "G",
        "up"
      ],
      [
        "G",
        "ree"
      ],
      [
        "G",
        "lobal"
      ],
      [
        "H",
        "O"
      ],
      [
        "H",
        "owever"
      ],
      [
        "K",
        "ar"
      ],
      [
        "L",
        "aw"
      ],
      [
        "L",
        "ank"
      ],
      [
        "L",
        "ib"
      ],
      [
        "M",
        "e"
      ],
      [
        "M",
        "an"
      ],
      [
        "M",
        "et"
      ],
      [
        "M",
        "any"
      ],
      [
        "O",
        "ld"
      ],
      [
        "O",
        "ff"
      ],
      [
        "P",
        "A"
      ],
      [
        "P",
        "andi"
      ],
      [
        "R",
        "u"
      ],
      [
        "R",
        "ob"
      ],
      [
        "S",
        "A"
      ],
      [
        "S",
        "in"
      ],
      [
        "S",
        "um"
      ],
      [
        "S",
        "he"
      ],
      [
        "T",
        "O"
      ],
      [
        "T",
        "ec"
      ],
      [
        "T",
        "ra"
      ],
      [
        "U",
        "p"
      ],
      [
        "U",
        "PA"
      ],
      [
        "V",
        "i"
      ],
      [
        "V",
        "al"
      ],
      [
        "V",
        "is"
      ],
      [
        "W",
        "ar"
      ],
      [
        "W",
        "ildlife"
      ],
      [
        "Y",
        "ear"
      ],
      [
        "a",
        "f"
      ],
      [
        "a",
        "di"
      ],
      [
        "a",
        "il"
      ],
      [
        "b",
        "l"
      ],
      [
        "b",
        "ar"
      ],
      [
        "b",
        "and"
      ],
      [
        "b",
        "ly"
      ],
      [
        "b",
        "le"
      ],
      [
        "c",
        "is"
      ],
      [
        "c",
        "over"
      ],
      [
        "c",
        "apit"
      ],
      [
        "c",
        "alled"
      ],
      [
        "c",
        "tice"
      ],
      [
        "d",
        "el"
      ],
      [
        "d",
        "ha"
      ],
      [
        "d",
        "own"
      ],
      [
        "d",
        "ram"
      ],
      [
        "e",
        "e"
      ],
      [
        "e",
        "igh"
      ],
      [
        "f",
        "o"
      ],
      [
        "f",
        "ence"
      ],
      [
        "f",
        "undamental"
      ],
      [
        "g",
        "er"
      ],
      [
        "g",
        "ood"
      ],
      [
        "g",
        "lobal"
      ],
      [
        "h",
        "is"
      ],
      [
        "i",
        "ans"
      ],
      [
        "j",
        "ust"
      ],
      [
        "k",
        "h"
      ],
      [
        "k",
        "er"
      ],
      [
        "k",
        "en"
      ],
      [
        "k",
        "il"
      ],
      [
        "l",
        "ades"
      ],
      [
        "m",
        "s"
      ],
      [
        "m",
        "als"
      ],
      [
        "n",
        "s"
      ],
      [
        "p",
        "u"
      ],
      [
        "p",
        "ed"
      ],
      [
        "p",
        "ay"
      ],
      [
        "p",
        "harma"
      ],
      [
        "r",
        "educ"
      ],
      [
        "s",
        "ine"
      ],
      [
        "s",
        "ari"
      ],
      [
        "s",
        "ign"
      ],
      [
        "s",
        "chool"
      ],
      [
        "t",
        "re"
      ],
      [
        "u",
        "al"
      ],
      [
        "u",
        "ed"
      ],
      [
        "u",
        "es"
      ],
      [
        "u",
        "tical"
      ],
      [
        "w",
        "in"
      ],
      [
        "w",
        "ear"
      ],
      [
        "w",
        "rit"
      ],
      [
        "x",
        "im"
      ],
      [
        "an",
        "im"
      ],
      [
        "an",
        "imal"
      ],
      [
        "th",
        "rop"
      ],
      [
        "in",
        "ed"
      ],
      [
        "in",
        "ing"
      ],
      [
        "in",
        "vol"
      ],
      [
        "er",
        "a"
      ],
      [
        "al",
        "e"
      ],
      [
        "en",
        "ed"
      ],
      [
        "ar",
        "ies"
      ],
      [
        "or",
        "al"
      ],
      [
        "di",
        "v"
      ],
      [
        "di",
        "an"
      ],
      [
        "and",
        "ing"
      ],
      [
        "as",
        "soci"
      ],
      [
        "is",
        "tic"
      ],
      [
        "20",
        "20"
      ],
      [
        "20",
        "26"
      ],
      [
        "re",
        "me"
      ],
      [
        "re",
        "ach"
      ],
      [
        "ri",
        "al"
      ],
      [
        "ri",
        "ca"
      ],
      [
        "at",
        "ri"
      ],
      [
        "to",
        "ok"
      ],
      [
        "to",
        "uch"
      ],
      [
        "ou",
        "l"
      ],
      [
        "ch",
        "e"
      ],
      [
        "li",
        "g"
      ],
      [
        "li",
        "ance"
      ],
      [
        "et",
        "work"
      ],
      [
        "am",
        "a"
      ],
      [
        "am",
        "s"
      ],
      [
        "The",
        "ir"
      ],
      [
        "19",
        "80"
      ],
      [
        "19",
        "51"
      ],
      [
        "em",
        "bly"
      ],
      [
        "ce",
        "pt"
      ],
      [
        "ce",
        "utical"
      ],
      [
        "ig",
        "ration"
      ],
      [
        "ro",
        "xim"
      ],
      [
        "ad",
        "a"
      ],
      [
        "ul",
        "ting"
      ],
      [
        "el",
        "ites"
      ],
      [
        "res",
        "ulting"
      ],
      [
        "con",
        "so"
      ],
      [
        "con",
        "sist"
      ],
      [
        "si",
        "x"
      ],
      [
        "si",
        "ons"
      ],
      [
        "ve",
        "y"
      ],
      [
        "ast",
        "ri"
      ],
      [
        "ma",
        "thematics"
      ],
      [
        "ex",
        "ist"
      ],
      [
        "ex",
        "ternal"
      ],
      [
        "wh",
        "en"
      ],
      [
        "wh",
        "ere"
      ],
      [
        "with",
        "in"
      ],
      [
        "over",
        "ty"
      ],
      [
        "rie",
        "f"
      ],
      [
        "sh",
        "ar"
      ],
      [
        "sh",
        "ow"
      ],
      [
        "ab",
        "ly"
      ],
      [
        "ab",
        "out"
      ],
      [
        "be",
        "fore"
      ],
      [
        "ang",
        "ed"
      ],
      [
        "ac",
        "t"
      ],
      [
        "ag",
        "ain"
      ],
      [
        "Arch",
        "itecture"
      ],
      [
        "ak",
        "a"
      ],
      [
        "ak",
        "ing"
      ],
      [
        "so",
        "on"
      ],
      [
        "ain",
        "ed"
      ],
      [
        "pp",
        "ed"
      ],
      [
        "com",
        "posed"
      ],
      [
        "me",
        "at"
      ],
      [
        "An",
        "throp"
      ],
      [
        "av",
        "our"
      ],
      [
        "pl",
        "ate"
      ],
      [
        "199",
        "6"
      ],
      [
        "199",
        "9"
      ],
      [
        "pro",
        "tec"
      ],
      [
        "por",
        "tion"
      ],
      [
        "Con",
        "serv"
      ],
      [
        "vi",
        "dian"
      ],
      [
        "ous",
        "ly"
      ],
      [
        "fe",
        "atures"
      ],
      [
        "tra",
        "de"
      ],
      [
        "ant",
        "a"
      ],
      [
        "qu",
        "ality"
[...]
