{
  "version": "1.0",
  "truncation": null,
  "padding": null,
  "added_tokens": [
    {
      "id": 0,
      "content": "<unk>",
      "single_word": false,
      "lstrip": false,
      "rstrip": false,
      "normalized": false,
      "special": true
    }
  ],
  "normalizer": {
    "type": "NFC"
  },
  "pre_tokenizer": {
    "type": "Whitespace"
  },
  "post_processor": null,
  "decoder": null,
  "model": {
    "type": "BPE",
    "dropout": null,
    "unk_token": "<unk>",
    "continuing_subword_prefix": null,
    "end_of_word_suffix": null,
    "fuse_unk": false,
    "byte_fallback": false,
    "ignore_merges": false,
    "vocab": {
      "<unk>": 0,
      " ": 1,
      "\"": 2,
      "%": 3,
      "'": 4,
      "(": 5,
      ")": 6,
      ",": 7,
      "-": 8,
      ".": 9,
      "/": 10,
      ":": 11,
      ";": 12,
      "A": 13,
      "C": 14,
      "F": 15,
      "I": 16,
      "M": 17,
      "N": 18,
      "O": 19,
      "R": 20,
      "T": 21,
      "U": 22,
      "W": 23,
      "a": 24,
      "b": 25,
      "c": 26,
      "d": 27,
      "e": 28,
      "f": 29,
      "g": 30,
      "h": 31,
      "i": 32,
      "k": 33,
      "l": 34,
      "m": 35,
      "n": 36,
      "o": 37,
      "p": 38,
      "r": 39,
      "s": 40,
      "t": 41,
      "u": 42,
      "v": 43,
      "y": 44,
      "ँ": 45,
      "ं": 46,
      "ः": 47,
      "अ": 48,
      "आ": 49,
      "इ": 50,
      "ई": 51,
      "उ": 52,
      "ऊ": 53,
      "ऋ": 54,
      "ए": 55,
      "ऑ": 56,
      "ओ": 57,
      "औ": 58,
      "क": 59,
      "ख": 60,
      "ग": 61,
      "घ": 62,
      "च": 63,
      "छ": 64,
      "ज": 65,
      "झ": 66,
      "ञ": 67,
      "ट": 68,
      "ठ": 69,
      "ड": 70,
      "ढ": 71,
      "ण": 72,
      "त": 73,
      "थ": 74,
      "द": 75,
      "ध": 76,
      "न": 77,
      "प": 78,
      "फ": 79,
      "ब": 80,
      "भ": 81,
      "म": 82,
      "य": 83,
      "र": 84,
      "ऱ": 85,
      "ल": 86,
      "ळ": 87,
      "व": 88,
      "श": 89,
      "ष": 90,
      "स": 91,
      "ह": 92,
      "़": 93,
      "ा": 94,
      "ि": 95,
      "ी": 96,
      "ु": 97,
      "ू": 98,
      "ृ": 99,
      "ॅ": 100,
      "े": 101,
      "ै": 102,
      "ॉ": 103,
      "ो": 104,
      "ौ": 105,
      "्": 106,
      "ॠ": 107,
      "।": 108,
      "०": 109,
      "१": 110,
      "२": 111,
      "३": 112,
      "४": 113,
      "५": 114,
      "६": 115,
      "७": 116,
      "८": 117,
      "९": 118,
      "ॲ": 119,
      "‌": 120,
      "‍": 121,
      "–": 122,
      "’": 123,
      "्य": 124,
      "्या": 125,
      "ार": 126,
      "्र": 127,
      "ात": 128,
      "हे": 129,
      "र्": 130,
      "ारत": 131,
      "ां": 132,
      "भारत": 133,
      "स्": 134,
      "आहे": 135,
      "प्र": 136,
      "ाल": 137,
      "ाच": 138,
      "िक": 139,
      "ान": 140,
      "ील": 141,
      "ले": 142,
      "रा": 143,
      "सा": 144,
      "ला": 145,
      "वि": 146,
      "वा": 147,
      "ती": 148,
      "या": 149,
      "ना": 150,
      "मु": 151,
      "च्या": 152,
      "ून": 153,
      "का": 154,
      "ष्": 155,
      "ित": 156,
      "ीय": 157,
      "क्": 158,
      "तर": 159,
      "ने": 160,
      "ली": 161,
      "सं": 162,
      "चे": 163,
      "अस": 164,
      "मध": 165,
      "ही": 166,
      "ते": 167,
      "दे": 168,
      "्ये": 169,
      "त्": 170,
      "के": 171,
      "हो": 172,
      "ची": 173,
      "द्": 174,
      "हा": 175,
      "र्व": 176,
      "राज": 177,
      "क्ष": 178,
      "भा": 179,
      "्यां": 180,
      "आहेत": 181,
      "ंग": 182,
      "ष्ट": 183,
      "त्र": 184,
      "भारतीय": 185,
      "ाच्या": 186,
      "देश": 187,
      "वर": 188,
      "स्थ": 189,
      "वे": 190,
      "ातील": 191,
      "कार": 192,
      "मा": 193,
      "चा": 194,
      "झाल": 195,
      "पा": 196,
      "त्या": 197,
      "तात": 198,
      "पु": 199,
      "जात": 200,
      "पू": 201,
      "हि": 202,
      "भारतात": 203,
      "मध्ये": 204,
      "ंद": 205,
      "कर": 206,
      "ल्या": 207,
      "मि": 208,
      "मान": 209,
      "ाची": 210,
      "ति": 211,
      "मो": 212,
      "ता": 213,
      "वी": 214,
      "्रा": 215,
      "पर": 216,
      "मी": 217,
      "ळे": 218,
      "्यात": 219,
      "द्ध": 220,
      "नि": 221,
      "स्त": 222,
      "विध": 223,
      "णे": 224,
      "ये": 225,
      "्रप": 226,
      "ंड": 227,
      "सु": 228,
      "ंत": 229,
      "नी": 230,
      "म्": 231,
      "ल्": 232,
      "वर्": 233,
      "भारताच्या": 234,
      "ाचे": 235,
      "कि": 236,
      "कृ": 237,
      "ास": 238,
      "ोक": 239,
      "काळ": 240,
      "नेक": 241,
      "स्था": 242,
      "अनेक": 243,
      "दि": 244,
      "री": 245,
      "हार": 246,
      "शि": 247,
      "र्थ": 248,
      "र्म": 249,
      "ाला": 250,
      "ाने": 251,
      "मुख": 252,
      "भाग": 253,
      "पूर्व": 254,
      "एक": 255,
      "चित": 256,
      "दा": 257,
      "णा": 258,
      "दी": 259,
      "शी": 260,
      "से": 261,
      "ाली": 262,
      "मुळे": 263,
      "मिळ": 264,
      "्रपट": 265,
      "चित्रपट": 266,
      "गे": 267,
      "ठी": 268,
      "भू": 269,
      "श्": 270,
      "ाचा": 271,
      "िक्": 272,
      "साह": 273,
      "विविध": 274,
      "ंतर": 275,
      "आण": 276,
      "कड": 277,
      "धर्म": 278,
      "लोक": 279,
      "वै": 280,
      "स्कृ": 281,
      "ंत्र": 282,
      "क्र": 283,
      "णी": 284,
      "दार": 285,
      "म्रा": 286,
      "सर": 287,
      "सि": 288,
      "सर्व": 289,
      "हर": 290,
      "१९": 291,
      "संस्कृ": 292,
      "जा": 293,
      "ठा": 294,
      "तो": 295,
      "दल": 296,
      "द्या": 297,
      "लि": 298,
      "व्य": 299,
      "वार": 300,
      "प्रा": 301,
      "प्रकार": 302,
      "असे": 303,
      "म्ह": 304,
      "वर्ष": 305,
      "स्थाप": 306,
      "साहित": 307,
      "उत्": 308,
      "की": 309,
      "जी": 310,
      "द्र": 311,
      "धिक": 312,
      "यां": 313,
      "रु": 314,
      "शिक्": 315,
      "ांत": 316,
      "नाव": 317,
      "ष्ट्र": 318,
      "झाले": 319,
      "शिक्ष": 320,
      "जे": 321,
      "मार": 322,
      "ऱ्या": 323,
      "वन": 324,
      "शा": 325,
      "स्व": 326,
      "काही": 327,
      "मधील": 328,
      "स्थान": 329,
      "जाती": 330,
      "म्हण": 331,
      "गर": 332,
      "टि": 333,
      "्रि": 334,
      "प्रदेश": 335,
      "शिक्षण": 336,
      "टक्": 337,
      "ण्यात": 338,
      "बा": 339,
      "रो": 340,
      "हु": 341,
      "प्रजाती": 342,
      "साम्रा": 343,
      "ष्ठ": 344,
      "राज्य": 345,
      "ाचीन": 346,
      "पूर्वी": 347,
      "आणि": 348,
      "संस्कृती": 349,
      "साम्राज": 350,
      "ंध": 351,
      "इंग": 352,
      "इंड": 353,
      "तील": 354,
      "तसे": 355,
      "दक्ष": 356,
      "धार": 357,
      "यु": 358,
      "वळ": 359,
      "व्या": 360,
      "प्राचीन": 361,
      "साठी": 362,
      "पास": 363,
      "तसेच": 364,
      "दक्षि": 365,
      "को": 366,
      "गो": 367,
      "त्य": 368,
      "प्": 369,
      "पार": 370,
      "बहु": 371,
      "मू": 372,
      "रू": 373,
      "रे": 374,
      "ांच्या": 375,
      "विद्या": 376,
      "केले": 377,
      "होते": 378,
      "हिम": 379,
      "येथ": 380,
      "मुख्य": 381,
      "श्च": 382,
      "टक्के": 383,
      "he": 384,
      "आज": 385,
      "इति": 386,
      "घे": 387,
      "जग": 388,
      "ण्या": 389,
      "पड": 390,
      "पद": 391,
      "पृ": 392,
      "ब्रि": 393,
      "सो": 394,
      "सार": 395,
      "ांचा": 396,
      "ालय": 397,
      "असते": 398,
      "होता": 399,
      "झाला": 400,
      "हिंद": 401,
      "साहित्य": 402,
      "उत्तर": 403,
      "टिश": 404,
      "पासून": 405,
      "इतिहा": 406,
      "ब्रिटिश": 407,
      "),": 408,
      "ंब": 409,
      "अज": 410,
      "इतर": 411,
      "उप": 412,
      "खास": 413,
      "ज्": 414,
      "न्": 415,
      "नंतर": 416,
      "बंग": 417,
      "महार": 418,
      "समु": 419,
      "हवा": 420,
      "िया": 421,
      "ृष्ट": 422,
      "्याने": 423,
      "प्रमा": 424,
      "त्व": 425,
      "केली": 426,
      "झाली": 427,
      "व्यव": 428,
      "महारा": 429,
      "हवामान": 430,
      "अर्थ": 431,
      "आहार": 432,
      "उदा": 433,
      "दिक": 434,
      "पै": 435,
      "बां": 436,
      "भर": 437,
      "मे": 438,
      "सण": 439,
      "सर्": 440,
      "ांमध्ये": 441,
      "स्त्र": 442,
      "लाग": 443,
      "होती": 444,
      "मोठ": 445,
      "पर्य": 446,
      "निर्": 447,
      "वैदिक": 448,
      "सिंध": 449,
      "इंडिया": 450,
      "हिमालय": 451,
      "पृष्ठ": 452,
      "इतिहास": 453,
      "पैकी": 454,
      "the": 455,
      "गण": 456,
      "गा": 457,
      "गु": 458,
      "च्": 459,
      "णात": 460,
      "तु": 461,
      "तां": 462,
      "त्ये": 463,
      "पक्ष": 464,
      "बन": 465,
      "बौ": 466,
      "मह": 467,
      "वली": 468,
      "षा": 469,
      "सी": 470,
      "००": 471,
      "्रे": 472,
      "ाले": 473,
      "िका": 474,
      "राष्ट्र": 475,
      "विष": 476,
      "वाधिक": 477,
      "नाट": 478,
      "असले": 479,
      "असून": 480,
      "द्वी": 481,
      "वेग": 482,
      "जातो": 483,
      "ंद्र": 484,
      "ल्ली": 485,
      "किल्": 486,
      "काळात": 487,
      "इंग्र": 488,
      "बंगाल": 489,
      "सर्वाधिक": 490,
      "पर्यंत": 491,
      "सिंधू": 492,
      "बौद्ध": 493,
      "द्वीप": 494,
      "nd": 495,
      "अति": 496,
      "अधिक": 497,
      "काली": 498,
      "गी": 499,
      "टी": 500,
      "डी": 501,
      "दो": 502,
      "धान": 503,
      "निक": 504,
      "पठ": 505,
      "बदल": 506,
      "भे": 507,
      "मस": 508,
      "महा": 509,
      "मंत्र": 510,
      "यं": 511,
      "लाल": 512,
      "ळू": 513,
      "व्": 514,
      "शत": 515,
      "शे": 516,
      "सभा": 517,
      "ह्या": 518,
      "ांनी": 519,
      "प्रत्ये": 520,
      "साय": 521,
      "राज्यां": 522,
      "वरील": 523,
      "पुर": 524,
      "पूर्": 525,
      "करून": 526,
      "दिल्ली": 527,
      "क्रम": 528,
      "विद्यार्थ": 529,
      "येथील": 530,
      "जगातील": 531,
      "समुद्र": 532,
      "महाराष्ट्र": 533,
      "उदाहर": 534,
      "बांध": 535,
      "अतिश": 536,
      "कालीन": 537,
      "प्रत्येक": 538,
      "ंच": 539,
      "आले": 540,
      "इम": 541,
      "इस्": 542,
      "ओळ": 543,
      "कर्": 544,
      "ग्": 545,
      "जै": 546,
      "ज्या": 547,
      "डा": 548,
      "त्यां": 549,
      "तमिळ": 550,
      "दु": 551,
      "ध्या": 552,
      "नु": 553,
      "नृ": 554,
      "नदी": 555,
      "पश्च": 556,
      "बी": 557,
      "मत": 558,
      "यार": 559,
      "यात": 560,
      "ळी": 561,
      "वड": 562,
      "वृ": 563,
      "सद": 564,
      "हळू": 565,
      "्थ": 566,
      "ातंत्र": 567,
      "ांचे": 568,
      "ानंतर": 569,
      "राष्ट": 570,
      "सागर": 571,
      "मध्य": 572,
      "क्षण": 573,
      "वरून": 574,
      "जाते": 575,
      "परंत": 576,
      "निवड": 577,
      "्रपती": 578,
      "सरकार": 579,
      "सर्वांत": 580,
      "वर्षां": 581,
      "रुव": 582,
      "शास्त्र": 583,
      "स्वातंत्र": 584,
      "दक्षिणे": 585,
      "प्त": 586,
      "बहुतां": 587,
      "ज्ञ": 588,
      "ृष्ट्या": 589,
      "अर्थव्यव": 590,
      "मोठ्या": 591,
      "पूर्ण": 592,
      "अतिशय": 593,
      "इमारत": 594,
      "इस्ला": 595,
      "ओळख": 596,
      "पश्चि": 597,
      "राष्ट्रपती": 598,
      "परंतु": 599,
      "बहुतांशी": 600,
      "of": 601,
      "अथ": 602,
      "आढ": 603,
      "आप": 604,
      "आली": 605,
      "आक्रम": 606,
      "कला": 607,
      "ख्": 608,
      "गंग": 609,
      "घल": 610,
      "जिक": 611,
      "टा": 612,
      "णार": 613,
      "ण्यां": 614,
      "तयार": 615,
      "दृष्ट्या": 616,
      "पी": 617,
      "पे": 618,
      "मरा": 619,
      "यी": 620,
      "शै": 621,
      "शास": 622,
      "सभे": 623,
      "सध्या": 624,
      "्म": 625,
      "्त्व": 626,
      "ांची": 627,
      "भारताचे": 628,
      "वाद": 629,
      "वाह": 630,
      "मुघल": 631,
      "तरी": 632,
      "संख": 633,
      "होत": 634,
      "राज्यात": 635,
      "क्षा": 636,
      "वेश": 637,
      "पुरा": 638,
      "ंदि": 639,
      "मोठा": 640,
      "सुरू": 641,
      "सुरुव": 642,
      "शिया": 643,
      "शिष्ट": 644,
      "मुख्याने": 645,
      "भागात": 646,
      "गेट": 647,
      "कडे": 648,
      "प्रामुख्याने": 649,
      "स्थानिक": 650,
      "म्हणून": 651,
      "दक्षिण": 652,
      "अजून": 653,
      "खासदार": 654,
      "निर्मि": 655,
      "राष्ट्रीय": 656,
      "वेगळे": 657,
      "किल्ला": 658,
      "पठार": 659,
      "मंत्री": 660,
      "उदाहरण": 661,
      "ia": 662,
      "mo": 663,
      "st": 664,
      "अभ": 665,
      "अशी": 666,
      "उद": 667,
      "कथ": 668,
      "कमी": 669,
      "खन": 670,
      "चळ": 671,
      "ठिका": 672,
      "डू": 673,
      "दर्": 674,
      "दख्": 675,
      "न्या": 676,
      "पो": 677,
      "पती": 678,
      "पंत": 679,
      "बत": 680,
      "बर": 681,
      "भार": 682,
      "भवन": 683,
      "रंग": 684,
      "वस": 685,
      "शक": 686,
      "सम": 687,
      "समा": 688,
      "हात": 689,
      "िय": 690,
      "ूर": 691,
      "ेत्र": 692,
      "ोग": 693,
      "१२": 694,
      "५०": 695,
      "ांना": 696,
      "भारताची": 697,
      "भारताने": 698,
      "स्ट": 699,
      "प्रांत": 700,
      "प्रधान": 701,
      "सामा": 702,
      "वाळ": 703,
      "वापर": 704,
      "नाडू": 705,
      "संगी": 706,
      "संसद": 707,
      "त्तर": 708,
      "क्षेत्र": 709,
      "त्याचे": 710,
      "पुत्र": 711,
      "करतात": 712,
      "करण्यात": 713,
      "मानवी": 714,
      "गेली": 715,
      "भूमी": 716,
      "कडील": 717,
      "वैशिष्ट": 718,
      "सिद्ध": 719,
      "जास्त": 720,
      "प्राण्यां": 721,
      "म्हणजे": 722,
      "पूर्वीचे": 723,
      "साम्राज्य": 724,
      "युद्ध": 725,
      "गोल": 726,
      "ण्यास": 727,
      "हिंदू": 728,
      "भरत": 729,
      "च्छ": 730,
      "इंग्रजी": 731,
      "दोन": 732,
      "विद्यार्थ्यां": 733,
      "तमिळनाडू": 734,
      "नृत्य": 735,
      "अर्थव्यवस्था": 736,
      "इस्लामी": 737,
      "अथवा": 738,
      "आढळ": 739,
      "पेक्षा": 740,
      "निर्मिती": 741,
      "चळवळ": 742,
      "पंतप्रधान": 743,
      "सामाजिक": 744,
      "%;": 745,
      "ra": 746,
      "ंट": 747,
      "ंची": 748,
      "अर": 749,
      "अस्त": 750,
      "आर्": 751,
      "आर्थ": 752,
      "आधार": 753,
      "इत्या": 754,
      "ऋष": 755,
      "ऑफ": 756,
      "खो": 757,
      "ग्रा": 758,
      "घट": 759,
      "घड": 760,
      "घो": 761,
      "चि": 762,
      "जवळ": 763,
      "जयं": 764,
      "ट्": 765,
      "डे": 766,
      "णू": 767,
      "द्यां": 768,
      "द्रा": 769,
      "नार": 770,
      "नद्यां": 771,
      "पात": 772,
      "बि": 773,
      "मर": 774,
      "मै": 775,
      "मंदि": 776,
      "रि": 777,
      "लु": 778,
      "ळा": 779,
      "विक": 780,
      "वसाय": 781,
      "वंट": 782,
      "शह": 783,
      "शो": 784,
      "शहर": 785,
      "षे": 786,
      "सात": 787,
      "सस्त": 788,
      "साली": 789,
      "सम्रा": 790,
      "सऱ्या": 791,
      "हज": 792,
      "ाळ": 793,
      "ृत": 794,
      "१८": 795,
      "्याच्या": 796,
      "ातून": 797,
      "र्ज": 798,
      "ांग": 799,
      "ांवर": 800,
      "भारताला": 801,
      "स्वी": 802,
      "स्मार": 803,
      "स्पती": 804,
      "लेला": 805,
      "वाघ": 806,
      "नाम": 807,
      "काम": 808,
      "ित्त्व": 809,
      "त्त्व": 810,
      "केला": 811,
      "द्दल": 812,
      "राज्ये": 813,
      "पाकि": 814,
      "त्यामुळे": 815,
      "पूर": 816,
      "मान्य": 817,
      "स्तान": 818,
      "विधान": 819,
      "येतात": 820,
      "ल्प": 821,
      "किनार": 822,
      "णाऱ्या": 823,
      "गेल्या": 824,
      "वैविध": 825,
      "व्यु": 826,
      "वारी": 827,
      "वारे": 828,
      "प्रकारच्या": 829,
      "वर्षात": 830,
      "स्थापत्य": 831,
      "वनस्पती": 832,
      "प्रदेशात": 833,
      "इंग्": 834,
      "धारण": 835,
      "धार्म": 836,
      "व्यावसाय": 837,
      "पारं": 838,
      "ण्याची": 839,
      "पडले": 840,
      "पदवी": 841,
      "सोयी": 842,
      "सोबत": 843,
      "हिंदी": 844,
      "उपसागर": 845,
      "सीमा": 846,
      "नाटके": 847,
      "बंगालच्या": 848,
      "व्ह": 849,
      "शतक": 850,
      "जैन": 851,
      "नुसार": 852,
      "वर्षांपूर्वी": 853,
      "स्वातंत्र्य": 854,
      "पश्चिम": 855,
      "गंगे": 856,
      "अजूनही": 857,
      "दख्खन": 858,
      "वाळवंट": 859,
      "संगीत": 860,
      "अस्तित्त्व": 861,
      "आर्थिक": 862,
      "इत्यादी": 863,
      "जयंती": 864,
      "शहरी": 865,
      "सस्तन": 866,
      "सम्राट": 867,
      "पाकिस्तान": 868,
      "धार्मिक": 869,
      "व्यावसायिक": 870,
      "Ind": 871,
      "er": 872,
      "ma": 873,
      "om": 874,
      "re": 875,
      "ter": 876,
      "ंचा": 877,
      "ंनी": 878,
      "अल": 879,
      "अशिया": 880,
      "आर": 881,
      "आला": 882,
      "कल": 883,
      "कु": 884,
      "कू": 885,
      "काल": 886,
      "कच्छ": 887,
      "कल्प": 888,
      "खाली": 889,
      "गत": 890,
      "ग्र": 891,
      "गती": 892,
      "घात": 893,
      "जु": 894,
      "जो": 895,
      "जरा": 896,
      "जवा": 897,
      "जंग": 898,
      "डि": 899,
      "णु": 900,
      "तन": 901,
      "तंत्र": 902,
      "थे": 903,
      "थार": 904,
      "धा": 905,
      "धु": 906,
      "धो": 907,
      "नवी": 908,
      "नद्या": 909,
      "पत्": 910,
      "पर्व": 911,
      "पहि": 912,
      "पद्ध": 913,
      "पणे": 914,
      "पदार": 915,
      "फे": 916,
      "बे": 917,
      "बॉ": 918,
      "बार": 919,
      "बरो": 920,
      "बद्दल": 921,
      "भी": 922,
      "भदे": 923,
      "मंच": 924,
      "यश": 925,
      "यातील": 926,
      "रच": 927,
      "वू": 928,
      "वणात": 929,
      "शन": 930,
      "श्र": 931,
      "शाले": 932,
      "षित": 933,
      "षभू": 934,
      "सह": 935,
      "सू": 936,
      "सै": 937,
      "समू": 938,
      "सृष्ट": 939,
      "सह्या": 940,
      "ीच्या": 941,
      "ूण": 942,
      "ौर": 943,
      "११": 944,
      "१५": 945,
      "१६": 946,
      "१७": 947,
      "२६": 948,
      "्योग": 949,
      "्याचे": 950,
      "्यानंतर": 951,
      "ारी": 952,
      "ातन": 953,
      "ांतात": 954,
      "ांपैकी": 955,
      "भारताचा": 956,
      "स्वर": 957,
      "स्कार": 958,
      "प्रसिद्ध": 959,
      "प्रांतात": 960,
      "लेल्या": 961,
      "लेणी": 962,
      "साद": 963,
      "विले": 964,
      "विभाग": 965,
      "वाढ": 966,
      "वाटा": 967,
      "तीय": 968,
      "यास": 969,
      "नाही": 970,
      "मुल": 971,
      "मुंब": 972,
      "संब": 973,
      "असल्या": 974,
      "केवळ": 975,
      "केंद्र": 976,
      "होत्या": 977,
      "चीन": 978,
      "भाषा": 979,
      "भाषे": 980,
      "्यांचे": 981,
      "वेद": 982,
      "वेषभू": 983,
      "कारभार": 984,
      "माण": 985,
      "त्यात": 986,
      "जातात": 987,
      "करणे": 988,
      "येते": 989,
      "कृष्ट": 990,
      "काळातील": 991,
      "दिवस": 992,
      "एकूण": 993,
      "मिळते": 994,
      "मिळतात": 995,
      "गेले": 996,
      "धर्मीय": 997,
      "सर्वो": 998,
      "१९७": 999,
      "१९९": 1000,
      "संस्कृत": 1001,
      "लिवू": 1002,
      "स्थापन": 1003,
      "जीव": 1004,
      "द्री": 1005,
      "यांच्या": 1006,
      "नावाने": 1007,
      "नावाचा": 1008,
      "जेवणात": 1009,
      "मार्": 1010,
      "वन्य": 1011,
      "म्हणतात": 1012,
      "कोटी": 1013,
      "पारिक": 1014,
      "येथे": 1015,
      "पदव्यु": 1016,
      "उत्तरे": 1017,
      "प्रमाणात": 1018,
      "लागले": 1019,
      "गणला": 1020,
      "गुप्त": 1021,
      "च्च": 1022,
      "महत्त्व": 1023,
      "विषय": 1024,
      "नाटक": 1025,
      "असलेली": 1026,
      "इंग्रज": 1027,
      "द्वीपसमू": 1028,
      "व्हा": 1029,
      "शेती": 1030,
      "पुरातन": 1031,
      "पुरस्कार": 1032,
      "हळूहळू": 1033,
      "क्षणिक": 1034,
      "ओळखले": 1035,
      "णारे": 1036,
      "शैली": 1037,
      "सुरुवात": 1038,
      "ठिकाणी": 1039,
      "समावेश": 1040,
      "वैशिष्ट्य": 1041,
      "युद्धात": 1042,
      "आढळतात": 1043,
      "आधारित": 1044,
      "मंदिरे": 1045,
      "वैविध्य": 1046,
      "पारंपारिक": 1047,
      "India": 1048,
      "अशियाई": 1049,
      "थारचे": 1050,
      "पद्धती": 1051,
      "पदार्थ": 1052,
      "बॉलिवू": 1053,
      "बरोबर": 1054,
      "शालेय": 1055,
      "सृष्टी": 1056,
      "सह्याद्री": 1057,
      "स्वरू": 1058,
      "मुंबई": 1059,
      "पदव्युत्तर": 1060,
      "द्वीपसमूह": 1061,
      "बॉलिवूड": 1062,
      "eter": 1063,
      "il": 1064,
      "in": 1065,
      "kil": 1066,
      "le": 1067,
      "or": 1068,
      "ंप": 1069,
      "ंह": 1070,
      "ंजा": 1071,
      "अश": 1072,
      "अरा": 1073,
      "अंद": 1074,
      "अग्": 1075,
      "अनु": 1076,
      "अणु": 1077,
      "आम": 1078,
      "आसा": 1079,
      "आकर्": 1080,
      "आधु": 1081,
      "ईश": 1082,
      "उष्": 1083,
      "उठा": 1084,
      "ऊन": 1085,
      "ओघात": 1086,
      "ओडि": 1087,
      "कले": 1088,
      "कीय": 1089,
      "कमान": 1090,
      "खक": 1091,
      "ख्या": 1092,
      "खाल": 1093,
      "खील": 1094,
      "खंड": 1095,
      "गड": 1096,
      "गि": 1097,
      "ग्रे": 1098,
      "घा": 1099,
      "चल": 1100,
      "चाल": 1101,
      "छा": 1102,
      "जन": 1103,
      "जाने": 1104,
      "टो": 1105,
      "ड्रा": 1106,
      "णि": 1107,
      "तत्": 1108,
      "दह": 1109,
      "धी": 1110,
      "ध्र": 1111,
      "नै": 1112,
      "नात": 1113,
      "नमु": 1114,
      "नमार": 1115,
      "नगर": 1116,
      "पट": 1117,
      "पां": 1118,
      "पाच": 1119,
      "पान": 1120,
      "पसं": 1121,
      "पंजा": 1122,
      "ब्": 1123,
      "बंद": 1124,
      "म्या": 1125,
      "महि": 1126,
      "मंड": 1127,
      "मौर": 1128,
      "यो": 1129,
      "यत्": 1130,
      "रण": 1131,
      "रणा": 1132,
      "लो": 1133,
      "लग्": 1134,
      "वान": 1135,
      "वतात": 1136,
      "ववृ": 1137,
      "षिक": 1138,
      "सव": 1139,
      "सां": 1140,
      "सित": 1141,
      "सदे": 1142,
      "समी": 1143,
      "हान": 1144,
      "िं": 1145,
      "ुष्": 1146,
      "ृह": 1147,
      "१०": 1148,
      "१३": 1149,
      "‍नी": 1150,
      "्याची": 1151,
      "ांमुळे": 1152,
      "स्वा": 1153,
      "प्रे": 1154,
      "प्रमुख": 1155,
      "प्रश्": 1156,
      "प्रिय": 1157,
      "प्रगती": 1158,
      "ीला": 1159,
      "लेले": 1160,
      "लेली": 1161,
      "लेखक": 1162,
      "राण": 1163,
      "साधारण": 1164,
      "लाभ": 1165,
      "विस्त": 1166,
      "वादी": 1167,
      "यामुळे": 1168,
      "नाथ": 1169,
      "नाभ": 1170,
      "नाऱ्या": 1171,
      "काश्": 1172,
      "संपूर्ण": 1173,
      "संलग्": 1174,
      "असली": 1175,
      "असतात": 1176,
      "असतो": 1177,
      "देखील": 1178,
      "त्वे": 1179,
      "त्ता": 1180,
      "होतो": 1181,
      "राजव": 1182,
      "राजा": 1183,
      "राजस्थान": 1184,
      "राजकीय": 1185,
      "भाव": 1186,
      "्यांच्या": 1187,
      "्यांचा": 1188,
      "्यांमध्ये": 1189,
      "भारतीयांनी": 1190,
      "देशात": 1191,
      "ातीला": 1192,
      "पाठ": 1193,
      "पावली": 1194,
      "त्याला": 1195,
      "पुढ": 1196,
      "पुत": 1197,
      "हिं": 1198,
      "करत": 1199,
      "तिसऱ्या": 1200,
      "मोठी": 1201,
      "मोसमी": 1202,
      "मीण": 1203,
      "निध्र": 1204,
      "स्तरा": 1205,
      "सुमार": 1206,
      "किनाऱ्या": 1207,
      "काळाच्या": 1208,
      "दिला": 1209,
      "णामुळे": 1210,
      "सेव": 1211,
      "मिळाले": 1212,
      "चित्रपटसृष्टी": 1213,
      "भूभाग": 1214,
      "भूगोल": 1215,
      "आणली": 1216,
      "कडून": 1217,
      "धर्माचा": 1218,
      "लोकसभा": 1219,
      "लोकसभे": 1220,
      "सरस्व": 1221,
      "सिंह": 1222,
      "१९२": 1223,
      "लिश": 1224,
      "प्रकारचे": 1225,
      "साहित्यात": 1226,
      "उत्कृष्ट": 1227,
      "यांना": 1228,
      "यांचा": 1229,
      "यांनी": 1230,
      "झालेले": 1231,
      "जेचे": 1232,
      "शाहज": 1233,
      "गरजेचे": 1234,
      "प्रदेशातील": 1235,
      "शिक्षणपद्धती": 1236,
      "रोप": 1237,
      "रोजी": 1238,
      "राज्यसभे": 1239,
      "पूर्वीच्या": 1240,
      "इंडो": 1241,
      "युग": 1242,
      "युरोप": 1243,
      "प्पा": 1244,
      "मूळ": 1245,
      "विद्यापी": 1246,
      "मुख्यत्वे": 1247,
      "घेत": 1248,
      "घेण्यास": 1249,
      "सारख्या": 1250,
      "न्स": 1251,
      "प्रमाण": 1252,
      "प्रमाणा": 1253,
      "व्यवसाय": 1254,
      "आहारात": 1255,
      "मोठे": 1256,
      "पृष्ठीय": 1257,
      "ther": 1258,
      "पक्षास": 1259,
      "बनविले": 1260,
      "किल्ल्या": 1261,
      "द्वीपकल्प": 1262,
      "अधिकृत": 1263,
      "मसाल": 1264,
      "मसाले": 1265,
      "महासागर": 1266,
      "विद्यार्थी": 1267,
      "महाराष्ट्रातील": 1268,
      "आलेल्या": 1269,
      "कर्नाटक": 1270,
      "जैव": 1271,
      "ज्याचा": 1272,
      "त्यांची": 1273,
      "वृक्ष": 1274,
      "निवडणू": 1275,
      "शास्त्रीय": 1276,
      "दक्षिणेकडील": 1277,
      "ज्ञान": 1278,
      "इमारती": 1279,
      "पश्चिमे": 1280,
      "आपले": 1281,
      "आक्रमणे": 1282,
      "मराठा": 1283,
      "शैक्षणिक": 1284,
      "शासन": 1285,
      "शासित": 1286,
      "संख्या": 1287,
      "राज्यातील": 1288,
      "सुरुवातीला": 1289,
      "mother": 1290,
      "अभि": 1291,
      "उद्योग": 1292,
      "कथा": 1293,
      "रंगमंच": 1294,
      "चळवळी": 1295,
      "अरबी": 1296,
      "ऋषभदे": 1297,
      "ग्रामीण": 1298,
      "ट्ट": 1299,
      "मैल": 1300,
      "विकसित": 1301,
      "शोध": 1302,
      "शहरे": 1303,
      "स्मारक": 1304,
      "इंग्लिश": 1305,
      "उपसागराला": 1306,
      "शतकात": 1307,
      "गंगेच्या": 1308,
      "दख्खनच्या": 1309,
      "अस्तित्त्वात": 1310,
      "man": 1311,
      "ometer": 1312,
      "जंगले": 1313,
      "पत्‍नी": 1314,
      "पर्वत": 1315,
      "यशस्वी": 1316,
      "रचना": 1317,
      "सैनिक": 1318,
      "केंद्रशासित": 1319,
      "वेषभूषा": 1320,
      "सर्वोच्च": 1321,
      "kilometer": 1322,
      "अरावली": 1323,
      "अग्निध्र": 1324,
      "आमदार": 1325,
      "आसाम": 1326,
      "आधुनिक": 1327,
      "ईशान": 1328,
      "उष्ण": 1329,
      "उठाव": 1330,
      "जानेवारी": 1331,
      "तत्कालीन": 1332,
      "दहशत": 1333,
      "नमुने": 1334,
      "पंजाब": 1335,
      "बंदर": 1336,
      "म्यानमार": 1337,
      "ुष्क": 1338,
      "प्रश्न": 1339,
      "साधारणपणे": 1340,
      "विस्तार": 1341,
      "संलग्न": 1342,
      "सरस्वती": 1343,
      "शाहजहान": 1344,
      "kilometers": 1345,
      "Ar": 1346,
      "and": 1347,
      "ce": 1348,
      "ch": 1349,
      "gra": 1350,
      "hi": 1351,
      "hu": 1352,
      "it": 1353,
      "on": 1354,
      "uc": 1355,
      "ँग्रे": 1356,
      "ंश": 1357,
      "ंवा": 1358,
      "ंवर": 1359,
      "ंपी": 1360,
      "ंजो": 1361,
      "अख": 1362,
      "अव": 1363,
      "अ‍": 1364,
      "असा": 1365,
      "अमे": 1366,
      "आकार": 1367,
      "आल्या": 1368,
      "आदि": 1369,
      "आशि": 1370,
      "आद्र": 1371,
      "आंब": 1372,
      "आघा": 1373,
      "इट": 1374,
      "इत": 1375,
      "इस": 1376,
      "इंद्र": 1377,
      "इव्ह": 1378,
      "इराण": 1379,
      "ईस्ट": 1380,
      "उन": 1381,
      "उम": 1382,
      "उर्": 1383,
      "उर्व": 1384,
      "ऋत्य": 1385,
      "एका": 1386,
      "ऑग": 1387,
      "ऑस्": 1388,
      "ऑस्ट": 1389,
      "कम": 1390,
      "कॅ": 1391,
      "कान": 1392,
      "कनि": 1393,
      "कांच्या": 1394,
      "कन्या": 1395,
      "कंप": 1396,
      "खु": 1397,
      "खात": 1398,
      "खून": 1399,
      "खित": 1400,
      "ख्रि": 1401,
      "गम": 1402,
      "गल": 1403,
      "गां": 1404,
      "गला": 1405,
      "गरी": 1406,
      "गडा": 1407,
      "गळी": 1408,
      "गपूर": 1409,
      "गव्ह": 1410,
      "घरा": 1411,
      "चर": 1412,
      "चो": 1413,
      "चक्र": 1414,
      "चस्व": 1415,
      "चतु": 1416,
      "चांग": 1417,
      "जड": 1418,
      "जम": 1419,
      "जर": 1420,
      "जल": 1421,
      "जॉ": 1422,
      "ज्य": 1423,
      "जम्": 1424,
      "जंब": 1425,
      "जमह": 1426,
      "झर्व": 1427,
      "टे": 1428,
      "डॉ": 1429,
      "डकर": 1430,
      "ढऱ्या": 1431,
      "णयुग": 1432,
      "तृ": 1433,
      "तिक": 1434,
      "तान": 1435,
      "तच्या": 1436,
      "तही": 1437,
      "तद्": 1438,
      "तज्ञ": 1439,
      "थंड": 1440,
      "दान": 1441,
      "दली": 1442,
      "दगड": 1443,
      "धड": 1444,
      "धर": 1445,
      "ध्य": 1446,
      "नो": 1447,
      "नौ": 1448,
      "न्य": 1449,
      "नां": 1450,
      "नष्ट": 1451,
      "नमू": 1452,
      "पण": 1453,
      "पर्": 1454,
      "पाल": 1455,
      "परा": 1456,
      "पहा": 1457,
      "पहात": 1458,
      "पर्ज": 1459,
      "पतन": 1460,
      "फळ": 1461,
      "फ्": 1462,
      "फ्रे": 1463,
      "फाळ": 1464,
      "बट": 1465,
      "बळ": 1466,
      "बती": 1467,
      "बद्ध": 1468,
      "बरी": 1469,
      "बदार": 1470,
      "बंध": 1471,
      "भु": 1472,
      "भौ": 1473,
      "मन": 1474,
      "मृ": 1475,
      "मां": 1476,
      "मित": 1477,
      "मते": 1478,
      "मरी": 1479,
      "मलि": 1480,
      "ममाण": 1481,
      "मणि": 1482,
      "यण": 1483,
      "यन": 1484,
      "याच": 1485,
      "यमु": 1486,
      "याचे": 1487,
      "यदा": 1488,
      "याचा": 1489,
      "यानंतर": 1490,
      "योग": 1491,
      "रत": 1492,
      "रळ": 1493,
      "रका": 1494,
      "रित": 1495,
      "रक्षण": 1496,
      "रडे": 1497,
      "रममाण": 1498,
      "ऱ्यां": 1499,
      "ऱ्यात": 1500,
      "लय": 1501,
      "लू": 1502,
      "लंड": 1503,
      "लंब": 1504,
      "लगत": 1505,
      "लब्": 1506,
      "ळची": 1507,
      "ळकार": 1508,
      "वत": 1509,
      "वला": 1510,
      "वने": 1511,
      "वाच्या": 1512,
      "वाला": 1513,
      "वालय": 1514,
      "शृ": 1515,
      "शिक": 1516,
      "शुष्क": 1517,
      "षणा": 1518,
      "सन": 1519,
      "साच": 1520,
      "सरा": 1521,
      "सभाग": 1522,
      "सिक्": 1523,
      "स्रि": 1524,
      "सचि": 1525,
      "ह्य": 1526,
      "हळे": 1527,
      "हंपी": 1528,
      "ावर": 1529,
      "ामध्ये": 1530,
      "ासाठी": 1531,
      "ाप्रमा": 1532,
      "ावरील": 1533,
      "िप": 1534,
      "िल": 1535,
      "ीक": 1536,
      "ीन": 1537,
      "ुस्थान": 1538,
      "ुसार": 1539,
      "ुववृ": 1540,
      "ूद्वीप": 1541,
      "ेत": 1542,
      "ेडकर": 1543,
      "ोबार": 1544,
      "२८": 1545,
      "२००": 1546,
      "३८": 1547,
      "४५": 1548,
      "४७": 1549,
      "४८": 1550,
      "५५": 1551,
      "५७": 1552,
      "५००": 1553,
      "्याचा": 1554,
      "हेब": 1555,
      "हेंजो": 1556,
      "ांक": 1557,
      "ांवि": 1558,
      "ांसाठी": 1559,
      "ांपासून": 1560,
      "ांसोबत": 1561,
      "ांचल": 1562,
      "भारतभर": 1563,
      "स्फे": 1564,
      "प्रण": 1565,
      "प्रभा": 1566,
      "प्रति": 1567,
      "प्रवेश": 1568,
      "ान्": 1569,
      "रामा": 1570,
      "साडी": 1571,
      "साजरा": 1572,
      "साहेब": 1573,
      "वाट": 1574,
      "वास्त": 1575,
      "वामुळे": 1576,
      "वाजी": 1577,
      "तीनंतर": 1578,
      "यादी": 1579,
      "यासाठी": 1580,
      "नागर": 1581,
      "नाइट": 1582,
      "नागपूर": 1583,
      "मुद्": 1584,
      "कावे": 1585,
      "काहार": 1586,
      "काबी": 1587,
      "कावरून": 1588,
      "काँग्रे": 1589,
      "ष्ठा": 1590,
      "नेहर": 1591,
      "नेशिया": 1592,
      "संत": 1593,
      "संप": 1594,
      "संदर्": 1595,
      "संविधान": 1596,
      "संसदे": 1597,
      "संशोध": 1598,
      "संरक्षण": 1599,
      "असत": 1600,
      "असणे": 1601,
      "मधे": 1602,
      "तेथे": 1603,
      "्येकडील": 1604,
      "केल्या": 1605,
      "केरळ": 1606,
      "होय": 1607,
      "द्वारे": 1608,
      "क्षणामुळे": 1609,
      "भावार": 1610,
      "भाज्या": 1611,
      "्यांची": 1612,
      "त्रि": 1613,
      "देश्य": 1614,
      "देशातील": 1615,
      "देशाचे": 1616,
      "देशांमध्ये": 1617,
      "वरी": 1618,
      "स्थित": 1619,
      "स्थेत": 1620,
      "वेढ": 1621,
      "वेरू": 1622,
      "वेळा": 1623,
      "माग": 1624,
      "माश": 1625,
      "माध्य": 1626,
      "झाल्यानंतर": 1627,
      "पाट": 1628,
      "पाव": 1629,
      "पाठी": 1630,
      "त्याने": 1631,
      "त्याची": 1632,
      "त्यासाठी": 1633,
      "पुरी": 1634,
      "पुरु": 1635,
      "पुन्": 1636,
      "हिमा": 1637,
      "हिनी": 1638,
      "ंदी": 1639,
      "मिश्र": 1640,
      "मानले": 1641,
      "मानला": 1642,
      "मोगल": 1643,
      "मोहेंजो": 1644,
      "तासाठी": 1645,
      "ताजमह": 1646,
      "परि": 1647,
      "परिक": 1648,
      "मीर": 1649,
      "द्धा": 1650,
      "येणारे": 1651,
      "ंडवन": 1652,
      "सुवर्": 1653,
      "सुधारण": 1654,
      "सुद्धा": 1655,
      "म्म": 1656,
      "वर्तु": 1657,
      "वर्चस्व": 1658,
      "किंवा": 1659,
      "ोकाने": 1660,
      "दिस": 1661,
      "शिख": 1662,
      "शिरका": 1663,
      "शिवाजी": 1664,
      "पूर्वे": 1665,
      "एकच": 1666,
      "एकनाथ": 1667,
      "दाख": 1668,
      "मिळाला": 1669,
      "चित्रपटाला": 1670,
      "चित्रपटांची": 1671,
      "कडा": 1672,
      "कडधान": 1673,
      "लोकशा": 1674,
      "लोकनृ": 1675,
      "लोकसंख": 1676,
      "क्री": 1677,
      "सरे": 1678,
      "सरपट": 1679,
      "सर्वात": 1680,
      "हरि": 1681,
      "हरलाल": 1682,
      "१९५०": 1683,
      "१९१३": 1684,
      "१९४७": 1685,
      "जाऊ": 1686,
      "दलदली": 1687,
      "द्याने": 1688,
      "लिह": 1689,
      "लिखित": 1690,
      "प्राणी": 1691,
      "प्राप्": 1692,
      "प्रकारात": 1693,
      "प्रकारची": 1694,
      "असेही": 1695,
      "वर्षे": 1696,
      "स्थापना": 1697,
      "स्थापत्याचे": 1698,
      "कीम": 1699,
      "द्रे": 1700,
      "रुंद": 1701,
      "रुद्ध": 1702,
      "नावाची": 1703,
      "झालेला": 1704,
      "झालेली": 1705,
      "शिक्षणा": 1706,
      "शाकाहार": 1707,
      "स्थानिक्": 1708,
      "टिळ": 1709,
      "प्रदेशांत": 1710,
      "शिक्षणाच्या": 1711,
      "बाज": 1712,
      "बाद": 1713,
      "बायो": 1714,
      "बाबती": 1715,
      "बाह्य": 1716,
      "रोवली": 1717,
      "रोखून": 1718,
      "राज्यसभा": 1719,
      "राज्यकर्": 1720,
      "संस्कृतीची": 1721,
      "साम्राज्ये": 1722,
      "साम्राज्याच्या": 1723,
      "साम्राज्याची": 1724,
      "व्यापार": 1725,
      "कोरडे": 1726,
      "गोड": 1727,
      "गोंडवन": 1728,
      "बहुसंख": 1729,
      "रूकू": 1730,
      "विद्याल": 1731,
      "केलेल्या": 1732,
      "श्चन": 1733,
      "आजही": 1734,
      "घेऊ": 1735,
      "घेण्यात": 1736,
      "जगात": 1737,
      "पडतो": 1738,
      "पृष्ठा": 1739,
      "हिंदुस्थान": 1740,
      "उत्तरांचल": 1741,
      "इतिहासा": 1742,
      "ब्रिटिशकालीन": 1743,
      "ब्रिटिशांवि": 1744,
      "अजिं": 1745,
      "अजनाभ": 1746,
      "उपप्रकार": 1747,
      "उपयोग": 1748,
      "उपलब्": 1749,
      "ज्वाला": 1750,
      "न्ही": 1751,
      "समुद्रा": 1752,
      "महाराज": 1753,
      "बांगला": 1754,
      "लागू": 1755,
      "लागते": 1756,
      "निर्माण": 1757,
      "हिमालयीन": 1758,
      "पृष्ठाचा": 1759,
      "इतिहासातील": 1760,
      "इतिहासकार": 1761,
      "गणतंत्र": 1762,
      "गुजरा": 1763,
      "गुजर": 1764,
      "गुरूकू": 1765,
      "तुल": 1766,
      "तांद": 1767,
      "बनला": 1768,
      "बनली": 1769,
      "मह्त्व": 1770,
      "०००": 1771,
      "्रेलि": 1772,
      "विषुववृ": 1773,
      "असलेला": 1774,
      "असलेल्या": 1775,
      "वेगवेगळे": 1776,
      "काळातच": 1777,
      "ndmother": 1778,
      "अधिकार": 1779,
      "गीरी": 1780,
      "दोन्ही": 1781,
      "निकोबार": 1782,
      "बदलांमुळे": 1783,
      "मसाला": 1784,
      "महाखंड": 1785,
      "महाविद्याल": 1786,
      "शेष": 1787,
      "सभासद": 1788,
      "राज्यांत": 1789,
      "राज्यांच्या": 1790,
      "राज्यांमध्ये": 1791,
      "दिल्लीतील": 1792,
      "उदाहरणे": 1793,
      "बांधले": 1794,
      "बांधून": 1795,
      "बांधली": 1796,
      "बांधणी": 1797,
      "त्यांचा": 1798,
      "त्यांनी": 1799,
      "दुसऱ्या": 1800,
      "यातून": 1801,
      "मध्यप्रदेशातील": 1802,
      "निवडले": 1803,
      "निवडतात": 1804,
      "शास्त्रातील": 1805,
      "दक्षिणेतील": 1806,
      "अर्थव्यवस्थेत": 1807,
      "इस्लाम": 1808,
      "ओळखला": 1809,
      "आपल्या": 1810,
      "आक्रमण": 1811,
      "गंगा": 1812,
      "मराठी": 1813,
      "्मक": 1814,
      "पुराण": 1815,
      "पुराव": 1816,
      "गेटवे": 1817,
      "पठारावरील": 1818,
      "मंत्रीमंड": 1819,
      "ial": 1820,
      "most": 1821,
      "stor": 1822,
      "उदयास": 1823,
      "दर्श": 1824,
      "शक्य": 1825,
      "शकतात": 1826,
      "समज": 1827,
      "हाताळ": 1828,
      "प्रांताचे": 1829,
      "क्षेत्रात": 1830,
      "क्षेत्रामध्ये": 1831,
      "वैशिष्ट्ये": 1832,
      "प्राण्यांच्या": 1833,
      "प्राण्यांमध्ये": 1834,
      "गोलिक": 1835,
      "विद्यार्थ्यांची": 1836,
      "तमिळनाडूतील": 1837,
      "नृत्यप्रकार": 1838,
      "rad": 1839,
      "आर्क": 1840,
      "आर्द्र": 1841,
      "खोरे": 1842,
      "घटना": 1843,
      "घटने": 1844,
      "घडल्या": 1845,
      "घोषित": 1846,
      "घोषणा": 1847,
      "जवळपास": 1848,
      "नद्यांमध्ये": 1849,
      "रिझर्व": 1850,
      "लुप्त": 1851,
      "विकि": 1852,
      "हजार": 1853,
      "स्वीकार": 1854,
      "स्मारकावरून": 1855,
      "नामशेष": 1856,
      "स्थापत्यशास्त्रातील": 1857,
      "वनस्पतीं": 1858,
      "इंग्लंड": 1859,
      "स्वातंत्र्यप्राप्": 1860,
      "गंगेचे": 1861,
      "दख्खनचे": 1862,
      "rea": 1863,
      "अलिक": 1864,
      "आरक्षणामुळे": 1865,
      "ग्रीक": 1866,
      "जुन्या": 1867,
      "जवाबदार": 1868,
      "जवाहरलाल": 1869,
      "धाड": 1870,
      "धोरण": 1871,
      "पहिला": 1872,
      "१६३८": 1873,
      "१६४८": 1874,
      "सादर": 1875,
      "मुलगा": 1876,
      "असल्याने": 1877,
      "असल्याची": 1878,
      "मार्ग": 1879,
      "वन्यजीव": 1880,
      "वन्यसंप": 1881,
      "महत्त्वाच्या": 1882,
      "इंग्रजांनी": 1883,
      "व्हावे": 1884,
      "पदार्थांचा": 1885,
      "स्वरूप": 1886,
      "स्वरूपात": 1887,
      "अशोकाने": 1888,
      "अंदमान": 1889,
      "आकर्षित": 1890,
      "ओडिशा": 1891,
      "गिधाड": 1892,
      "चालतो": 1893,
      "ड्राइव्ह": 1894,
      "नैऋत्य": 1895,
      "पांढऱ्या": 1896,
      "पानगळी": 1897,
      "पसंती": 1898,
      "महिन": 1899,
      "मौर्य": 1900,
      "प्रेम": 1901,
      "काश्मीर": 1902,
      "राजवट": 1903,
      "पुढार": 1904,
      "पुतळा": 1905,
      "हिंसाच": 1906,
      "स्तरावर": 1907,
      "सुमारास": 1908,
      "किनाऱ्यालगत": 1909,
      "सेवांचा": 1910,
      "१९२०": 1911,
      "राज्यसभेतील": 1912,
      "इंडोनेशिया": 1913,
      "युरोपीय": 1914,
      "विद्यापीठ": 1915,
      "जैववैविध्य": 1916,
      "निवडणूक": 1917,
      "पश्चिमेकडे": 1918,
      "ऋषभदेव": 1919,
      "ईशान्येकडील": 1920,
      "दहशतवाद": 1921,
      "शाहजहानने": 1922,
      "grandmother": 1923,
      "histor": 1924,
      "human": 1925,
      "अवलंब": 1926,
      "अ‍ॅ": 1927,
      "अमेर": 1928,
      "आशियातील": 1929,
      "आंबेडकर": 1930,
      "आघाडी": 1931,
      "इतका": 1932,
      "इसवी": 1933,
      "उमट": 1934,
      "उर्वरित": 1935,
      "ऑगस्ट": 1936,
      "ऑस्कर": 1937,
      "ऑस्ट्रेलि": 1938,
      "कमाली": 1939,
      "कनिष्ठ": 1940,
      "कंपनी": 1941,
      "ख्रिश्चन": 1942,
      "गांधी": 1943,
      "चोल": 1944,
      "जॉर्ज": 1945,
      "जम्मू": 1946,
      "जंबूद्वीप": 1947,
      "धरतो": 1948,
      "नमूद": 1949,
      "पहाता": 1950,
      "फ्रेंच": 1951,
      "बरीच": 1952,
      "भौगोलिक": 1953,
      "मरीन": 1954,
      "यमुना": 1955,
      "शिकारी": 1956,
      "सभागृह": 1957,
      "सिक्कीम": 1958,
      "सचिवालय": 1959,
      "ाप्रमाणे": 1960,
      "स्फेअर": 1961,
      "रामायण": 1962,
      "काबीज": 1963,
      "काँग्रेस": 1964,
      "संदर्भ": 1965,
      "भावार्थ": 1966,
      "माध्यम": 1967,
      "पुरुष": 1968,
      "पुन्हा": 1969,
      "ताजमहाल": 1970,
      "सुधारणांचा": 1971,
      "वर्तुळकार": 1972,
      "कडधान्ये": 1973,
      "लोकशाही": 1974,
      "लोकसंख्ये": 1975,
      "बायोस्फेअर": 1976,
      "बाबतीत": 1977,
      "बहुसंख्य": 1978,
      "ब्रिटिशांविरुद्ध": 1979,
      "अजिंठा": 1980,
      "अजनाभवर्ष": 1981,
      "उपलब्ध": 1982,
      "ज्वालामुख": 1983,
      "बांगलादेश": 1984,
      "गुजराथ": 1985,
      "गुजरात": 1986,
      "गुरूकूल": 1987,
      "सभासदांना": 1988,
      "मंत्रीमंडळ": 1989,
      "हाताळून": 1990,
      "स्वातंत्र्यप्राप्तीनंतर": 1991,
      "१६३८ला": 1992,
      "हिंसाचार": 1993,
      "history": 1994,
      "\".": 1995,
      "%.": 1996,
      ").": 1997,
      "):": 1998,
      ".\"": 1999,
      "Al": 2000,
      "CN": 2001,
      "For": 2002,
      "IU": 2003,
      "Me": 2004,
      "Ou": 2005,
      "Re": 2006,
      "Tr": 2007,
      "The": 2008,
      "Tit": 2009,
      "Wa": 2010,
      "ab": 2011,
      "al": 2012,
      "are": 2013,
      "ace": 2014,
      "bi": 2015,
      "co": 2016,
      "crad": 2017,
      "de": 2018,
      "ee": 2019,
      "em": 2020,
      "end": 2021,
      "eco": 2022,
      "grea": 2023,
      "gend": 2024,
      "hp": 2025,
      "is": 2026,
      "iv": 2027,
      "iom": 2028,
      "ion": 2029,
      "ly": 2030,
      "lace": 2031,
      "nt": 2032,
      "ouc": 2033,
      "phe": 2034,
      "pee": 2035,
      "rt": 2036,
      "ruc": 2037,
      "rial": 2038,
      "su": 2039,
      "sy": 2040,
      "spee": 2041,
      "trad": 2042,
      "trea": 2043,
      "tiv": 2044,
      "up": 2045,
      "us": 2046,
      "uab": 2047,
      "unt": 2048,
      "val": 2049,
      "ँट": 2050,
      "ंज": 2051,
      "ंथ": 2052,
      "ंभ": 2053,
      "ंम": 2054,
      "ंका": 2055,
      "ंता": 2056,
      "ंकी": 2057,
      "ंसाठी": 2058,
      "ंपैकी": 2059,
      "ंभी": 2060,
      "ःख": 2061,
      "ःसीमा": 2062,
      "अग": 2063,
      "अध": 2064,
      "अप": 2065,
      "अफ": 2066,
      "अम": 2067,
      "अह": 2068,
      "अले": 2069,
      "अक्ष": 2070,
      "अंग": 2071,
      "अशि": 2072,
      "अलि": 2073,
      "अरु": 2074,
      "अप्": 2075,
      "अन्": 2076,
      "अध्या": 2077,
      "अमरा": 2078,
      "अन्या": 2079,
      "अपो": 2080,
      "अमर": 2081,
      "अहिं": 2082,
      "अट्ट": 2083,
      "अयशस्वी": 2084,
      "अतिक": 2085,
      "अतुल": 2086,
      "अंम": 2087,
      "आख": 2088,
      "आठ": 2089,
      "आफ": 2090,
      "आव": 2091,
      "आपा": 2092,
      "आता": 2093,
      "आंतर": 2094,
      "आंध": 2095,
      "आमू": 2096,
      "आश्च": 2097,
      "आग्": 2098,
      "आशिया": 2099,
      "आकडे": 2100,
      "आगम": 2101,
      "आकडा": 2102,
      "इच्छ": 2103,
      "ईड": 2104,
      "ईद": 2105,
      "उभ": 2106,
      "उस": 2107,
      "उद्": 2108,
      "उभा": 2109,
      "उंच": 2110,
      "उभार": 2111,
      "उगम": 2112,
      "उदेश्य": 2113,
      "उद्याने": 2114,
      "ऊस": 2115,
      "ऊर्": 2116,
      "एड": 2117,
      "एतद्": 2118,
      "ऑल": 2119,
      "ऑक्": 2120,
      "ओण": 2121,
      "ओसा": 2122,
      "ओव्या": 2123,
      "औद": 2124,
      "औष": 2125,
      "कळ": 2126,
      "क़": 2127,
      "कौ": 2128,
      "क्या": 2129,
      "कात": 2130,
      "करा": 2131,
      "कोक": 2132,
      "काने": 2133,
      "कसे": 2134,
      "कलि": 2135,
      "कटि": 2136,
      "कपड": 2137,
      "कल्ली": 2138,
      "कांचे": 2139,
      "ककला": 2140,
      "कूर": 2141,
      "कांपैकी": 2142,
      "कत्ता": 2143,
      "क्यांचा": 2144,
      "कट्ट": 2145,
      "खट": 2146,
      "खड": 2147,
      "खल": 2148,
      "खा": 2149,
      "खी": 2150,
      "खू": 2151,
      "ख्य": 2152,
      "खले": 2153,
      "खजु": 2154,
      "गझ": 2155,
      "गट": 2156,
      "गढ": 2157,
      "गध": 2158,
      "गळ": 2159,
      "गू": 2160,
      "गिक": 2161,
      "गान": 2162,
      "गणे": 2163,
      "गंड": 2164,
      "गच्छ": 2165,
      "गमर": 2166,
      "गृत": 2167,
      "गवान": 2168,
      "गृह": 2169,
      "गतासाठी": 2170,
      "गंभी": 2171,
      "घू": 2172,
      "घ्र": 2173,
      "घतात": 2174,
      "घांत": 2175,
      "घडा": 2176,
      "घकाल": 2177,
      "चव": 2178,
      "चू": 2179,
      "चार": 2180,
      "चाच": 2181,
      "चिक": 2182,
      "चला": 2183,
      "चाली": 2184,
      "चंद्र": 2185,
      "चपात": 2186,
      "चंदी": 2187,
      "छो": 2188,
      "छित": 2189,
      "छत्र": 2190,
      "जय": 2191,
      "जव": 2192,
      "जि": 2193,
      "जार": 2194,
      "जना": 2195,
      "जून": 2196,
      "ज्ये": 2197,
      "जत्र": 2198,
      "ज्यात": 2199,
      "जास": 2200,
      "जर्म": 2201,
      "जशी": 2202,
      "जरे": 2203,
      "ज्याने": 2204,
      "जव्यव": 2205,
      "जनिक": 2206,
      "जारी": 2207,
      "जवान": 2208,
      "ज्यांची": 2209,
      "जकूर": 2210,
      "झां": 2211,
      "झिक": 2212,
      "झगड": 2213,
      "झपाट": 2214,
      "टत": 2215,
      "टन": 2216,
      "टर": 2217,
      "टस": 2218,
      "टॉ": 2219,
      "टला": 2220,
      "टून": 2221,
      "टका": 2222,
      "टवे": 2223,
      "ट्रा": 2224,
      "टये": 2225,
      "टोक": 2226,
      "टीला": 2227,
      "टंकी": 2228,
      "टक्या": 2229,
      "ठर": 2230,
      "ठसा": 2231,
      "ठला": 2232,
      "ठची": 2233,
      "ठ्याचे": 2234,
      "डच": 2235,
      "डर": 2236,
      "डॅ": 2237,
      "डो": 2238,
      "डारत": 2239,
      "डया": 2240,
      "डच्या": 2241,
      "डून": 2242,
      "डल्या": 2243,
      "डाचे": 2244,
      "डतो": 2245,
      "डण्यात": 2246,
      "डिया": 2247,
      "ड्यांच्या": 2248,
      "डप्पा": 2249,
      "डान्": 2250,
      "ढो": 2251,
      "ढण्यात": 2252,
      "ढांमुळे": 2253,
      "ढीला": 2254,
      "ण्": 2255,
      "णाच": 2256,
      "णत्या": 2257,
      "णकाळ": 2258,
      "णांच्या": 2259,
      "तः": 2260,
      "तू": 2261,
      "तै": 2262,
      "तून": 2263,
      "ताच्या": 2264,
      "तस्थ": 2265,
      "तमा": 2266,
      "तति": 2267,
      "तशी": 2268,
      "तमे": 2269,
      "तत्त्व": 2270,
      "ततच्या": 2271,
      "था": 2272,
      "दश": 2273,
      "दाल": 2274,
      "दित": 2275,
      "दंत": 2276,
      "दूर": 2277,
      "दगडा": 2278,
      "दसरा": 2279,
      "दडो": 2280,
      "धन": 2281,
      "धले": 2282,
      "ध्ये": 2283,
      "धातील": 2284,
      "धोक": 2285,
      "धम्म": 2286,
      "नई": 2287,
      "नन": 2288,
      "नॅ": 2289,
      "न‍": 2290,
      "नर्": 2291,
      "नाल": 2292,
      "नका": 2293,
      "नीय": 2294,
      "नक्ष": 2295,
      "नवर": 2296,
      "नंत": 2297,
      "नर्म": 2298,
      "नव्या": 2299,
      "नरे": 2300,
      "नंदि": 2301,
      "नातून": 2302,
      "नयाचे": 2303,
      "पच": 2304,
      "पथ": 2305,
      "पि": 2306,
      "पॅ": 2307,
      "पौ": 2308,
      "पिक": 2309,
      "पला": 2310,
      "पत्र": 2311,
      "पल्या": 2312,
      "पमान": 2313,
      "पंड": 2314,
      "पणा": 2315,
      "पाली": 2316,
      "पसर": 2317,
      "पन्": 2318,
      "पट्": 2319,
      "पगडा": 2320,
      "पऱ्यात": 2321,
      "पँट": 2322,
      "फर": 2323,
      "फा": 2324,
      "फु": 2325,
      "फॉ": 2326,
      "फो": 2327,
      "फिक": 2328,
      "फळे": 2329,
      "बस": 2330,
      "बु": 2331,
      "ब्र": 2332,
      "बोक": 2333,
      "बदा": 2334,
      "बजा": 2335,
      "बऱ्या": 2336,
      "ब्रे": 2337,
      "बघतात": 2338,
      "भव": 2339,
      "भ्र": 2340,
      "भवा": 2341,
      "भित": 2342,
      "भव्य": 2343,
      "भपुत्र": 2344,
      "भद्रा": 2345,
      "भांग": 2346,
      "भगवान": 2347,
      "म्य": 2348,
      "मात": 2349,
      "मती": 2350,
      "मची": 2351,
      "मकर": 2352,
      "मल्या": 2353,
      "मदा": 2354,
      "मांच्या": 2355,
      "मिका": 2356,
      "मद्रा": 2357,
      "मंचा": 2358,
      "मबे": 2359,
      "मणामुळे": 2360,
      "मजल": 2361,
      "मडॉ": 2362,
      "मंदी": 2363,
      "मतासाठी": 2364,
      "मंज": 2365,
      "मगध": 2366,
      "मजकूर": 2367,
      "यक": 2368,
      "यॅ": 2369,
      "यक्ष": 2370,
      "यत्र": 2371,
      "याच्या": 2372,
      "यंड": 2373,
      "यम्": 2374,
      "यव्य": 2375,
      "याचीन": 2376,
      "यसी": 2377,
      "यचर": 2378,
      "यक्री": 2379,
      "यद्याने": 2380,
      "यटस": 2381,
      "रल": 2382,
      "रव": 2383,
      "रां": 2384,
      "रील": 2385,
      "रवि": 2386,
      "रत्": 2387,
      "रहा": 2388,
      "रणे": 2389,
      "रनिर्": 2390,
      "रपे": 2391,
      "रक्षा": 2392,
      "रांग": 2393,
      "रधा": 2394,
      "र्यांमध्ये": 2395,
      "ऱ्य": 2396,
      "लव": 2397,
      "ल्य": 2398,
      "लात": 2399,
      "लवि": 2400,
      "लद्": 2401,
      "लक्ष": 2402,
      "लवार": 2403,
      "लक्षण": 2404,
      "लवाद": 2405,
      "लूर": 2406,
      "लयो": 2407,
      "लीला": 2408,
      "लतान": 2409,
      "लगीरी": 2410,
      "लकात": 2411,
      "लगान": 2412,
      "लमडॉ": 2413,
      "ळम": 2414,
      "ळु": 2415,
      "ळ्या": 2416,
      "ळून": 2417,
      "ळ्यां": 2418,
      "ळाच्या": 2419,
      "ळातील": 2420,
      "ळाने": 2421,
      "ळपुरी": 2422,
      "वॉ": 2423,
      "व्र": 2424,
      "वां": 2425,
      "वस्": 2426,
      "वती": 2427,
      "वते": 2428,
      "वाने": 2429,
      "वसे": 2430,
      "वसाह": 2431,
      "वणी": 2432,
      "वजा": 2433,
      "विका": 2434,
      "वटी": 2435,
      "वण्याची": 2436,
      "वजयंती": 2437,
      "वयास": 2438,
      "वजनिक": 2439,
      "शर्": 2440,
      "शतर": 2441,
      "शही": 2442,
      "शांत": 2443,
      "शस्त्र": 2444,
      "श्रे": 2445,
      "शब्": 2446,
      "शल्य": 2447,
      "षण": 2448,
      "षद": 2449,
      "षी": 2450,
      "ष्य": 2451,
      "षभदे": 2452,
      "सॉ": 2453,
      "स्य": 2454,
      "साल": 2455,
      "सान": 2456,
      "सत्": 2457,
      "सत्र": 2458,
      "समो": 2459,
      "सल्": 2460,
      "सरी": 2461,
      "सक्र": 2462,
      "सस्थान": 2463,
      "सज्": 2464,
      "सन्": 2465,
      "समस": 2466,
      "सृष्ट्या": 2467,
      "सूर": 2468,
      "सत्तर": 2469,
      "सांग": 2470,
      "सकल": 2471,
      "सत्ता": 2472,
      "सपाट": 2473,
      "सततच्या": 2474,
      "सलवार": 2475,
      "सळून": 2476,
      "हू": 2477,
      "है": 2478,
      "हर्": 2479,
      "हाल": 2480,
      "हाच": 2481,
      "हस्त": 2482,
      "हल्": 2483,
      "हडा": 2484,
      "हम्म": 2485,
      "हडप्पा": 2486,
      "हलवि": 2487,
      "ाजे": 2488,
      "ास्त्र": 2489,
      "ापर्यंत": 2490,
      "ाखाली": 2491,
      "ाबद्दल": 2492,
      "ामंच": 2493,
      "ाबरोबर": 2494,
      "ामांच्या": 2495,
      "िला": 2496,
      "िष्ठ": 2497,
      "िन्स": 2498,
      "ीण": 2499,
      "ीत": 2500,
      "ीस": 2501,
      "ीया": 2502,
      "ीचे": 2503,
      "ीराज": 2504,
      "ींग": 2505,
      "ीपासून": 2506,
      "ींब": 2507,
      "ीदृष्ट्या": 2508,
      "ींची": 2509,
      "ीनुसार": 2510,
      "ुक": 2511,
      "ुण": 2512,
      "ुकार": 2513,
      "ुति": 2514,
      "ुंत": 2515,
      "ुनंतर": 2516,
      "ुडे": 2517,
      "ुझिक": 2518,
      "ूळ": 2519,
      "ूला": 2520,
      "ूची": 2521,
      "ूपा": 2522,
      "ूंनी": 2523,
      "ॅम्": 2524,
      "ॅनाइट": 2525,
      "ेतील": 2526,
      "ेशन": 2527,
      "ैव": 2528,
      "ैसूर": 2529,
      "ॉये": 2530,
      "ोण": 2531,
      "ोती": 2532,
      "ोचे": 2533,
      "ोची": 2534,
      "ोबत": 2535,
      "ोत्तर": 2536,
      "ोखाल": 2537,
      "ोषिक": 2538,
      "ोपाठ": 2539,
      "ोजड": 2540,
      "ोधले": 2541,
      "ौघात": 2542,
      "्क": 2543,
      "्त": 2544,
      "्ले": 2545,
      "्ती": 2546,
      "्मा": 2547,
      "्हि": 2548,
      "्छा": 2549,
      "्लो": 2550,
      "्षिक": 2551,
      "्धातील": 2552,
      "्वजनिक": 2553,
      "ॠग्": 2554,
      "ॠषभदे": 2555,
      "।।": 2556,
      "०१": 2557,
      "०८": 2558,
      "०९": 2559,
      "१४": 2560,
      "१००": 2561,
      "२३": 2562,
      "२५७": 2563,
      "३१": 2564,
      "३३": 2565,
      "३४": 2566,
      "३७": 2567,
      "३५००": 2568,
      "३०१": 2569,
      "४३": 2570,
      "४६": 2571,
      "४५०": 2572,
      "४२३": 2573,
      "५१७": 2574,
      "५४५": 2575,
      "६५": 2576,
      "६७": 2577,
      "७५": 2578,
      "७९": 2579,
      "७वा": 2580,
      "८४": 2581,
      "९०": 2582,
      "९०००": 2583,
      "ॲक्": 2584,
      "ॲंग": 2585,
      "ॲण्": 2586,
      "‍स्थापन": 2587,
      "्यम्": 2588,
      "्यंतर": 2589,
      "्याल": 2590,
      "्याला": 2591,
      "्यावर": 2592,
      "्यापैकी": 2593,
      "्यासक्र": 2594,
      "ार्धातील": 2595,
      "्री": 2596,
      "्रिका": 2597,
      "्रमणामुळे": 2598,
      "ातच": 2599,
      "ात्य": 2600,
      "ातांमध्ये": 2601,
      "ात्यांचे": 2602,
      "ात्मक": 2603,
      "ातींब": 2604,
      "ात्मा": 2605,
      "ात्री": 2606,
      "हेमी": 2607,
      "र्ती": 2608,
      "र्गा": 2609,
      "र्तु": 2610,
      "र्फे": 2611,
      "र्घकाल": 2612,
      "र्तमे": 2613,
      "र्न‍": 2614,
      "ांती": 2615,
      "ांका": 2616,
      "ांतर": 2617,
      "ांशी": 2618,
      "ांपर्यंत": 2619,
      "ांपेक्षा": 2620,
      "ांनुसार": 2621,
      "ांसह": 2622,
      "ांछित": 2623,
      "भारतं": 2624,
      "भारती": 2625,
      "भारतील": 2626,
      "भारतचे": 2627,
      "भारतास": 2628,
      "भारतभूमी": 2629,
      "भारतरत्": 2630,
      "भारताबद्दल": 2631,
      "स्तर": 2632,
      "स्लि": 2633,
      "स्मर": 2634,
      "स्मृ": 2635,
      "स्फो": 2636,
      "स्लमडॉ": 2637,
      "आहेत्": 2638,
      "प्रवर्": 2639,
      "प्रस्थाप": 2640,
      "प्रसार": 2641,
      "प्रंच": 2642,
      "प्रशास": 2643,
      "प्रवाह": 2644,
      "प्रकल्प": 2645,
      "प्रचल": 2646,
      "प्रयत्": 2647,
      "प्रशासन": 2648,
      "प्रबळ": 2649,
      "प्रदर्श": 2650,
      "प्रजास": 2651,
      "प्रिन्स": 2652,
      "प्रातांमध्ये": 2653,
      "प्रस्तर": 2654,
      "ालया": 2655,
      "ालये": 2656,
      "ाचित": 2657,
      "ाच्छा": 2658,
      "िकन": 2659,
      "िकार": 2660,
      "िकीनुसार": 2661,
      "िकोण": 2662,
      "ानदी": 2663,
      "ानुसार": 2664,
      "ीली": 2665,
      "ीलंका": 2666,
      "लेस": 2667,
      "लेण्यां": 2668,
      "राहो": 2669,
      "राहि": 2670,
      "रामलि": 2671,
      "राखले": 2672,
      "रायसी": 2673,
      "साग": 2674,
      "साव्या": 2675,
      "साडे": 2676,
      "सामान्य": 2677,
      "सापडले": 2678,
      "सागरी": 2679,
      "साजरे": 2680,
      "लाक्षणिक": 2681,
      "लावणी": 2682,
      "वित": 2683,
      "विन": 2684,
      "विष्": 2685,
      "विष्ट": 2686,
      "विंद": 2687,
      "विश्": 2688,
      "विवाह": 2689,
      "विशिष्ट": 2690,
      "विजय": 2691,
      "विसाव्या": 2692,
      "वाज": 2693,
      "वाळू": 2694,
      "वाळी": 2695,
      "वावरून": 2696,
      "वाखाली": 2697,
      "वाणि": 2698,
      "वामित": 2699,
      "वाऱ्यां": 2700,
      "वाहिनी": 2701,
      "वाडया": 2702,
      "वायव्य": 2703,
      "वासस्थान": 2704,
      "तीन": 2705,
      "तीरि": 2706,
      "तींचा": 2707,
      "यामध्ये": 2708,
      "यावरून": 2709,
      "यापाठ": 2710,
      "याबद्ध": 2711,
      "नामध्ये": 2712,
      "नाबरोबर": 2713,
      "नाद्वारे": 2714,
      "नावावरून": 2715,
      "मुली": 2716,
      "मुत्": 2717,
      "मुहू": 2718,
      "मुस्लि": 2719,
      "च्यामधील": 2720,
      "कापा": 2721,
      "काठी": 2722,
      "कापासून": 2723,
      "कासी": 2724,
      "काटे": 2725,
      "कायदा": 2726,
      "काठची": 2727,
      "काढण्यात": 2728,
      "कायद्याने": 2729,
      "ष्प": 2730,
      "ष्णा": 2731,
      "ष्मती": 2732,
      "ितोषिक": 2733,
      "ीयांचे": 2734,
      "क्त": 2735,
      "क्ती": 2736,
      "क्मि": 2737,
      "क्वी": 2738,
      "क्काने": 2739,
      "क्झां": 2740,
      "नेट": 2741,
      "नेय": 2742,
      "नेर": 2743,
      "नेने": 2744,
      "नेचे": 2745,
      "नेचा": 2746,
      "नेपा": 2747,
      "नेमधील": 2748,
      "नेशन": 2749,
      "नेऊन": 2750,
      "नेतृ": 2751,
      "नेहेमी": 2752,
      "संके": 2753,
      "संस्थ": 2754,
      "संपु": 2755,
      "संवर्": 2756,
      "संस्था": 2757,
      "संक्र": 2758,
      "संवाद": 2759,
      "संजीव": 2760,
      "संधी": 2761,
      "संमिश्र": 2762,
      "संगमर": 2763,
      "संघांत": 2764,
      "चेरी": 2765,
      "चेन्": 2766,
      "असला": 2767,
      "असणा": 2768,
      "असणाऱ्या": 2769,
      "मधून": 2770,
      "हीतात": 2771,
      "तेक": 2772,
      "तेज": 2773,
      "तेत": 2774,
      "तेवर": 2775,
      "तेजात": 2776,
      "तेरु": 2777,
      "तेपेक्षा": 2778,
      "तेलु": 2779,
      "तेखाली": 2780,
      "तेव्हा": 2781,
      "तेढांमुळे": 2782,
      "देड": 2783,
      "देचे": 2784,
      "देतात": 2785,
      "देवी": 2786,
      "देतो": 2787,
      "देण्यात": 2788,
      "देसू": 2789,
      "देवाच्या": 2790,
      "त्म": 2791,
      "त्पत्": 2792,
      "त्तीय": 2793,
      "त्कृष्ट": 2794,
      "त्वाखाली": 2795,
      "होऊ": 2796,
      "होंद": 2797,
      "होळी": 2798,
      "होणार": 2799,
      "होऊन": 2800,
      "होउन": 2801,
      "होचला": 2802,
      "चीपर्": 2803,
      "द्वार": 2804,
      "द्दु": 2805,
      "र्वी": 2806,
      "र्वाचित": 2807,
      "राजकार": 2808,
      "राजधान": 2809,
      "राज्याच्या": 2810,
      "राजकु": 2811,
      "राज्याचे": 2812,
      "राज्याला": 2813,
      "राजवाडया": 2814,
      "क्षीण": 2815,
      "भाकर": 2816,
      "भाषिक": 2817,
      "्यांना": 2818,
      "्यांपैकी": 2819,
      "्यांसोबत": 2820,
      "ंगल": 2821,
      "ंगी": 2822,
      "ंगने": 2823,
      "ंगाच्या": 2824,
      "ंगभद्रा": 2825,
      "ष्टात": 2826,
      "ष्ट्रा": 2827,
      "त्रे": 2828,
      "त्रिकोण": 2829,
      "भारतीयांच्या": 2830,
      "देशी": 2831,
      "देशिक": 2832,
      "देशित": 2833,
      "देशाच्या": 2834,
      "देशाची": 2835,
      "देशाला": 2836,
      "देशाने": 2837,
      "देशांच्या": 2838,
      "देशांनी": 2839,
      "देशापर्यंत": 2840,
      "देशीयांचे": 2841,
      "वरचा": 2842,
      "वरळी": 2843,
      "वरांना": 2844,
      "वरिष्ठ": 2845,
      "वेन": 2846,
      "वेळ": 2847,
      "वेल्": 2848,
      "वेरु": 2849,
      "वेलूर": 2850,
      "कारामांच्या": 2851,
      "मावारी": 2852,
      "मासां": 2853,
      "झाल्याची": 2854,
      "झाल्यावर": 2855,
      "पाश्च": 2856,
      "पाषा": 2857,
      "पावस": 2858,
      "पाण्याची": 2859,
      "पाउस": 2860,
      "पाऊस": 2861,
      "पाककला": 2862,
      "पाडण्यात": 2863,
      "पायंड": 2864,
      "त्यास": 2865,
      "त्यारी": 2866,
      "त्यामधील": 2867,
      "त्यातील": 2868,
      "त्यावरून": 2869,
      "त्याखाली": 2870,
      "पुस्त": 2871,
      "पुणे": 2872,
      "पुरे": 2873,
      "पुडी": 2874,
      "पुडा": 2875,
      "पुरुव": 2876,
      "पुनर्": 2877,
      "पुर्न‍": 2878,
      "पुद्दु": 2879,
      "पुर्वी": 2880,
      "जातीय": 2881,
      "पूना": 2882,
      "पूरी": 2883,
      "पूजा": 2884,
      "हिवाळ": 2885,
      "भारतातच": 2886,
      "भारतातून": 2887,
      "करण": 2888,
      "करते": 2889,
      "करता": 2890,
      "करण्या": 2891,
      "करणार": 2892,
      "करणाऱ्या": 2893,
      "करप्रण": 2894,
      "ल्याने": 2895,
      "मिण": 2896,
      "मिर": 2897,
      "मिरी": 2898,
      "मिठा": 2899,
      "मिडिया": 2900,
      "मिलयो": 2901,
      "मिसळून": 2902,
      "मानाचे": 2903,
      "मानाने": 2904,
      "मानण्यात": 2905,
      "मानचि": 2906,
      "मानुसार": 2907,
      "मानवाने": 2908,
      "तिन": 2909,
      "तिच्या": 2910,
      "तिचे": 2911,
      "तिचा": 2912,
      "तियां": 2913,
      "तिथे": 2914,
      "तिसरे": 2915,
      "तिखट": 2916,
      "मोदी": 2917,
      "मोडी": 2918,
      "मोरि": 2919,
      "मोच्च": 2920,
      "मोहिमा": 2921,
      "मोहिनी": 2922,
      "मोडतो": 2923,
      "मोहम्म": 2924,
      "मोहोंद": 2925,
      "तावर": 2926,
      "तामध्ये": 2927,
      "तामुळे": 2928,
      "तावादी": 2929,
      "तापमान": 2930,
      "वीत": 2931,
      "परंप": 2932,
      "परदेशात": 2933,
      "परदेशातील": 2934,
      "परदेशी": 2935,
      "परमोच्च": 2936,
      "मीमधील": 2937,
      "मीटर": 2938,
      "्यातील": 2939,
      "्यातून": 2940,
      "्यातही": 2941,
      "द्धींग": 2942,
      "निर्म": 2943,
      "नियु": 2944,
      "निमंत्र": 2945,
      "निमित": 2946,
      "नियॅ": 2947,
      "निरपे": 2948,
      "निलगीरी": 2949,
      "निवासस्थान": 2950,
      "निर्वाचित": 2951,
      "स्तंभ": 2952,
      "येमुळे": 2953,
      "येतो": 2954,
      "येणाऱ्या": 2955,
      "येण्याची": 2956,
      "ंडीराज": 2957,
      "सुन": 2958,
      "सुती": 2959,
      "सुरे": 2960,
      "सुसह": 2961,
      "सुरत": 2962,
      "सुरक्षा": 2963,
      "सुलतान": 2964,
      "सुत्रे": 2965,
      "ंतील": 2966,
      "ंतत्र": 2967,
      "म्‌": 2968,
      "म्ध्ये": 2969,
      "ल्वे": 2970,
      "ल्लीला": 2971,
      "वर्ती": 2972,
      "किशो": 2973,
      "कृषी": 2974,
      "कृष्णा": 2975,
      "ासोबत": 2976,
      "काळाप्रमाणे": 2977,
      "नेकलेस": 2978,
      "अनेकांचे": 2979,
      "दिन": 2980,
      "दिले": 2981,
      "दिशे": 2982,
      "दिलेले": 2983,
      "दिवसे": 2984,
      "दिवाळी": 2985,
      "दिल्लीला": 2986,
      "रीव": 2987,
      "रीस": 2988,
      "रीची": 2989,
      "रीकरण": 2990,
      "हारी": 2991,
      "शिय": 2992,
      "शियन": 2993,
      "शिवजयंती": 2994,
      "र्थी": 2995,
      "र्मेशन": 2996,
      "ानेश्": 2997,
      "भागातील": 2998,
      "भागवत": 2999,
      "भागावर": 3000,
      "पूर्वोत्तर": 3001,
      "एकता": 3002,
      "एकाचे": 3003,
      "चित्रे": 3004,
      "दादा": 3005,
      "दायां": 3006,
      "दावरी": 3007,
      "दायक": 3008,
      "णाबरोबर": 3009,
      "णाद्वारे": 3010,
      "णावते": 3011,
      "दीपी": 3012,
      "दीर्घकाल": 3013,
      "शीख": 3014,
      "सेचा": 3015,
      "सेतू": 3016,
      "सेनेमधील": 3017,
      "मिळू": 3018,
      "मिळवतात": 3019,
      "मिळवण्याची": 3020,
      "चित्रपटात": 3021,
      "चित्रपटांना": 3022,
      "चित्रपटासाठी": 3023,
      "चित्रपटसृष्ट्या": 3024,
      "गेला": 3025,
      "भूळ": 3026,
      "भूषा": 3027,
      "भूर्ज": 3028,
      "भूतान": 3029,
      "भूमिका": 3030,
      "भूप्रस्तर": 3031,
      "श्लोक": 3032,
      "साहजिक": 3033,
      "साहक्काने": 3034,
      "विविधता": 3035,
      "विविधतेत": 3036,
      "आणले": 3037,
      "आणलेल्या": 3038,
      "आणखी": 3039,
      "कडक": 3040,
      "कडी": 3041,
      "धर्माची": 3042,
      "धर्मांचा": 3043,
      "धर्मसम": 3044,
      "धर्मांपैकी": 3045,
      "धर्मनिरपे": 3046,
      "लोकजी": 3047,
      "लोकांच्या": 3048,
      "लोकांचा": 3049,
      "लोकमान्य": 3050,
      "लोकसंगीत": 3051,
      "लोकांपैकी": 3052,
      "लोकप्रिय": 3053,
      "स्कृतिक": 3054,
      "क्रमी": 3055,
      "क्रूर": 3056,
      "क्रौर": 3057,
      "क्रान्": 3058,
      "क्रांती": 3059,
      "क्रमावारी": 3060,
      "णीचा": 3061,
      "दारुण": 3062,
      "दारोचे": 3063,
      "दारसंघांत": 3064,
      "सरते": 3065,
      "सरकू": 3066,
      "सरमिसळून": 3067,
      "सियाचीन": 3068,
      "सर्वश्रे": 3069,
      "सर्वधर्मसम": 3070,
      "हरप्पा": 3071,
      "१९१२": 3072,
      "१९३१": 3073,
      "१९६५": 3074,
      "१९८४": 3075,
      "संस्कृतील": 3076,
      "जाट": 3077,
      "जागा": 3078,
      "जाऊन": 3079,
      "जाउन": 3080,
      "जागृत": 3081,
      "ठाणे": 3082,
      "ठाशी": 3083,
      "तोल": 3084,
      "दलीय": 3085,
      "दलातील": 3086,
      "दलदल": 3087,
      "लिहु": 3088,
      "लिहीतात": 3089,
      "व्यक्ती": 3090,
      "वारसा": 3091,
      "वार्षिक": 3092,
      "वारसाहक्काने": 3093,
      "प्राण्यात": 3094,
      "प्राप्त": 3095,
      "प्रादेशिक": 3096,
      "प्रकारचा": 3097,
      "असेल": 3098,
      "म्हपुत्र": 3099,
      "म्हैसूर": 3100,
      "वर्षं": 3101,
      "वर्षाचे": 3102,
      "वर्षभर": 3103,
      "स्थापल्या": 3104,
      "स्थापत्ये": 3105,
      "स्थापण्यास": 3106,
      "स्थापत्यांची": 3107,
      "स्थापनेचा": 3108,
      "स्थापत्यामधील": 3109,
      "साहित्या": 3110,
      "साहित्याने": 3111,
      "साहित्याचे": 3112,
      "साहित्यांचे": 3113,
      "उत्खन": 3114,
      "उत्सव": 3115,
      "उत्पन्": 3116,
      "कीनंतर": 3117,
      "कीतून": 3118,
      "जीन्स": 3119,
      "यांचे": 3120,
      "यांमध्ये": 3121,
      "यांमुळे": 3122,
      "यांसाठी": 3123,
      "रुक्मि": 3124,
      "रुदेवी": 3125,
      "झालेल्या": 3126,
      "जेदार": 3127,
      "जेव्हा": 3128,
      "मारली": 3129,
      "मारलेली": 3130,
      "ऱ्याच्या": 3131,
      "ऱ्यापाण्याची": 3132,
      "स्वस्त": 3133,
      "स्वराज्य": 3134,
      "स्वयं": 3135,
      "स्वतः": 3136,
      "स्वंतत्र": 3137,
      "काहीच्या": 3138,
      "स्थानी": 3139,
      "म्हणले": 3140,
      "गरम": 3141,
      "टिपू": 3142,
      "शिक्षणात": 3143,
      "शिक्षणही": 3144,
      "शिक्षणानंतर": 3145,
      "शिक्षणतज्ञ": 3146,
      "शिक्षणसंस्थ": 3147,
      "टक्कर": 3148,
      "टक्क्यांचा": 3149,
      "बाबा": 3150,
      "बाॅम्": 3151,
      "बाष्प": 3152,
      "बाभूळ": 3153,
      "रोमन": 3154,
      "रोनेशन": 3155,
      "प्रजातीचे": 3156,
      "प्रजातींची": 3157,
      "प्रजातींचा": 3158,
      "राज्यमंत्री": 3159,
      "राज्यतंत्र": 3160,
      "राज्यकारभार": 3161,
      "राज्यपाल": 3162,
      "राज्यघटना": 3163,
      "पूर्वीची": 3164,
      "पूर्वीचा": 3165,
      "संस्कृतीचे": 3166,
      "संस्कृतीचा": 3167,
      "संस्कृतीमध्ये": 3168,
      "संस्कृतींपैकी": 3169,
      "साम्राज्याने": 3170,
      "साम्राज्याचा": 3171,
      "साम्राज्यांची": 3172,
      "साम्राज्यातील": 3173,
      "ंधित": 3174,
      "इंडिय": 3175,
      "युती": 3176,
      "युरे": 3177,
      "व्याघ्र": 3178,
      "प्राचीनकाळातील": 3179,
      "कोंब": 3180,
      "कोसी": 3181,
      "कोचीन": 3182,
      "कोणत्या": 3183,
      "कोपऱ्यात": 3184,
      "कोलकात": 3185,
      "कोरीव": 3186,
      "कोरोनेशन": 3187,
      "गोर": 3188,
      "गोडा": 3189,
      "गोविंद": 3190,
      "गोदावरी": 3191,
      "त्युनंतर": 3192,
      "पार्क": 3193,
      "पारितोषिक": 3194,
      "बहुमत": 3195,
      "बहुमुल": 3196,
      "बहुमतासाठी": 3197,
      "बहुतेक": 3198,
      "मूरल": 3199,
      "मूर्ती": 3200,
      "रूपां": 3201,
      "रेटत": 3202,
      "रेल्वे": 3203,
      "केलेले": 3204,
      "केलेला": 3205,
      "हिमनदी": 3206,
      "हिमालया": 3207,
      "हिमाच्छा": 3208,
      "येथपासून": 3209,
      "मुख्यमंत्री": 3210,
      "मुख्यभूमी": 3211,
      "श्चंद्र": 3212,
      "श्चैव": 3213,
      "hed": 3214,
      "आजच्या": 3215,
      "आजचा": 3216,
      "आजवरचा": 3217,
      "घेही": 3218,
      "घेतात": 3219,
      "घेणे": 3220,
      "जगाच्या": 3221,
      "जगाला": 3222,
      "ण्याने": 3223,
      "पडत": 3224,
      "पडला": 3225,
      "पडतात": 3226,
      "पडण्यास": 3227,
      "पडसाद": 3228,
      "पदविका": 3229,
      "सोळा": 3230,
      "सोहळे": 3231,
      "सोडून": 3232,
      "सारंग": 3233,
      "सार्वजनिक": 3234,
      "साहित्यही": 3235,
      "साहित्यनिर्मिती": 3236,
      "उत्तरं": 3237,
      "ब्रिटिशांच्या": 3238,
      "अजस्त्र": 3239,
      "उपनद्यांमध्ये": 3240,
      "खासकरून": 3241,
      "ज्वारी": 3242,
      "न्हे": 3243,
      "नंतरचे": 3244,
      "बंगाली": 3245,
      "बंगळु": 3246,
      "समुदायां": 3247,
      "झालीत": 3248,
      "महाराष्ट्रा": 3249,
      "हवामानातील": 3250,
      "हवामानाचा": 3251,
      "अर्थात": 3252,
      "आहाराच्या": 3253,
      "आहारातील": 3254,
      "आहाराला": 3255,
      "आहारासोबत": 3256,
      "भरलेला": 3257,
      "भरतामुळे": 3258,
      "मेनका": 3259,
      "मेमोरि": 3260,
      "मेनियॅ": 3261,
      "मेरुदेवी": 3262,
      "सणवार": 3263,
      "सणांमध्ये": 3264,
      "सणांसोबत": 3265,
      "सर्गिक": 3266,
      "लाग्र": 3267,
      "लागली": 3268,
      "लागतात": 3269,
      "पर्यटन": 3270,
      "निर्देशित": 3271,
      "हिमालयात": 3272,
      "हिमालयाच्या": 3273,
      "हिमालयाची": 3274,
      "हिमालयातून": 3275,
      "पृष्ठाचे": 3276,
      "पृष्ठाला": 3277,
      "इतिहासाची": 3278,
      "इतिहासातच": 3279,
      "गणले": 3280,
      "गणित": 3281,
      "गणली": 3282,
      "गाण": 3283,
      "गाईड": 3284,
      "गाजव": 3285,
      "गाठला": 3286,
      "गाथा": 3287,
      "गाळाने": 3288,
      "णातला": 3289,
      "तुकडा": 3290,
      "तुंगभद्रा": 3291,
      "तुकारामांच्या": 3292,
      "पक्षी": 3293,
      "पक्षाने": 3294,
      "पक्ष्यांच्या": 3295,
      "पक्ष्यांमध्ये": 3296,
      "पक्ष्यापैकी": 3297,
      "पक्षांशी": 3298,
      "बनले": 3299,
      "बनवतात": 3300,
      "बनवला": 3301,
      "महात्मा": 3302,
      "महानदी": 3303,
      "षाख": 3304,
      "सीमां": 3305,
      "विषवृ": 3306,
      "विषववृ": 3307,
      "विषमते": 3308,
      "विषयातून": 3309,
      "नाट्यम्": 3310,
      "असलेले": 3311,
      "वेगळ्या": 3312,
      "ंद्रनाथ": 3313,
      "बंगालमधील": 3314,
      "बंगालपासून": 3315,
      "अधिकारी": 3316,
      "गीज": 3317,
      "टीत": 3318,
      "टीच्या": 3319,
      "टीचे": 3320,
      "डीचे": 3321,
      "दोघेही": 3322,
      "पठण": 3323,
      "पठणाद्वारे": 3324,
      "बदलत": 3325,
      "बदलत्या": 3326,
      "बदलांमध्ये": 3327,
      "बदललेल्या": 3328,
      "भेद": 3329,
      "भेटीला": 3330,
      "महाभारत": 3331,
      "महायुद्धात": 3332,
      "मंत्रालये": 3333,
      "यंते": 3334,
      "यंभु": 3335,
      "यंच्यामधील": 3336,
      "शतकापासून": 3337,
      "शेजारी": 3338,
      "शेवटी": 3339,
      "सायली": 3340,
      "राज्यांना": 3341,
      "राज्यांची": 3342,
      "राज्यांपेक्षा": 3343,
      "पूर्त": 3344,
      "क्रमांक": 3345,
      "क्रमांका": 3346,
      "समुद्री": 3347,
      "समुद्रातील": 3348,
      "समुद्राला": 3349,
      "समुद्रकिनार": 3350,
      "समुद्रकिनाऱ्या": 3351,
      "समुद्रस्य": 3352,
      "महाराष्ट्रात": 3353,
      "महाराष्ट्राचा": 3354,
      "बांधकाम": 3355,
      "अतिशुष्क": 3356,
      "ज्याला": 3357,
      "त्यांना": 3358,
      "दुवे": 3359,
      "दुमत": 3360,
      "दुःख": 3361,
      "दुष्य": 3362,
      "दुर्गा": 3363,
      "नदीच्या": 3364,
      "नदीचा": 3365,
      "बीड": 3366,
      "बीमुळे": 3367,
      "मतदान": 3368,
      "मतप्रवाह": 3369,
      "मतदारसंघांत": 3370,
      "मतभेद": 3371,
      "यारण्याची": 3372,
      "ळीवर": 3373,
      "वृद्धींग": 3374,
      "्थक": 3375,
      "क्षणाच्या": 3376,
      "निवडणु": 3377,
      "सरकारे": 3378,
      "सरकारकडे": 3379,
      "वर्षांपूर्वीचे": 3380,
      "वर्षांपेक्षा": 3381,
      "वर्षांपुर्वी": 3382,
      "शास्त्रिय": 3383,
      "स्वातंत्र्याचे": 3384,
      "स्वातंत्र्यानंतर": 3385,
      "दक्षिणेत": 3386,
      "दक्षिणेला": 3387,
      "दक्षिणेमधील": 3388,
      "प्ततावादी": 3389,
      "ज्ञात": 3390,
      "ज्ञानेश्": 3391,
      "राष्ट्रपतीचे": 3392,
      "राष्ट्रपतीभवन": 3393,
      "राष्ट्रपतींची": 3394,
      "अथक": 3395,
      "आढरणा": 3396,
      "आपली": 3397,
      "आपपल्या": 3398,
      "आक्रमणात": 3399,
      "आक्रमणाबरोबर": 3400,
      "कलाकार": 3401,
      "ख्नन": 3402,
      "टायटस": 3403,
      "टागोर": 3404,
      "णार्थ": 3405,
      "पीठ": 3406,
      "मराठ्याचे": 3407,
      "यीन": 3408,
      "सभेच्या": 3409,
      "सध्याचे": 3410,
      "सध्याची": 3411,
      "वाद्यांना": 3412,
      "वाहत": 3413,
      "वाहन": 3414,
      "वाहू": 3415,
      "वाहतात": 3416,
      "मुघलकालीन": 3417,
      "तरीपण": 3418,
      "वेशभूषा": 3419,
      "पुराणे": 3420,
      "पुराणातला": 3421,
      "ंदिवस": 3422,
      "गेटसमो": 3423,
      "म्हणूनच": 3424,
      "म्हणून्": 3425,
      "दक्षिणम्": 3426,
      "खासदारकी": 3427,
      "खासदारांचा": 3428,
      "निर्मिलेला": 3429,
      "वेगळेपणा": 3430,
      "पठाराला": 3431,
      "morial": 3432,
      "stem": 3433,
      "struc": 3434,
      "अभंग": 3435,
      "अभ्यासक्र": 3436,
      "अभयारण्याची": 3437,
      "उदरनिर्": 3438,
      "कथकल्ली": 3439,
      "कथेतील": 3440,
      "कथ्थक": 3441,
      "कमीझ": 3442,
      "ठिकाण": 3443,
      "ठिकाणे": 3444,
      "दर्जा": 3445,
      "दर्जेदार": 3446,
      "दख्ख्नन": 3447,
      "न्याच्या": 3448,
      "पोळी": 3449,
      "पोर्तु": 3450,
      "पोहोचला": 3451,
      "पोंगल": 3452,
      "पोषाख": 3453,
      "बराच": 3454,
      "भारुडे": 3455,
      "रंगमंचा": 3456,
      "रंगामंच": 3457,
      "शकते": 3458,
      "शकुंत": 3459,
      "समविषुववृ": 3460,
      "समांतर": 3461,
      "समतोल": 3462,
      "समाजव्यव": 3463,
      "समाविष्ट": 3464,
      "हाती": 3465,
      "हातखंड": 3466,
      "१२वी": 3467,
      "१२व्या": 3468,
      "१२०८": 3469,
      "प्रांतातील": 3470,
      "प्रांतवार": 3471,
      "प्रांतानुसार": 3472,
      "वापरून": 3473,
      "वापरलेल्या": 3474,
      "संगीतावर": 3475,
      "संसदीय": 3476,
      "संसदही": 3477,
      "क्षेत्रातील": 3478,
      "क्षेत्रफळ": 3479,
      "त्याचेच": 3480,
      "पुत्राचे": 3481,
      "भूमीत": 3482,
      "भूमीपासून": 3483,
      "भूमीगत": 3484,
      "प्राण्यांपैकी": 3485,
      "प्राण्यांम्ध्ये": 3486,
      "म्हणजेच": 3487,
      "साम्राज्यवादी": 3488,
      "साम्राज्यवाद्यांना": 3489,
      "युद्धे": 3490,
      "युद्धकौ": 3491,
      "गोलार्धातील": 3492,
      "भरतनाट्यम्": 3493,
      "विद्यार्थ्यांच्या": 3494,
      "विद्यार्थ्यांचा": 3495,
      "विद्यार्थ्यांपेक्षा": 3496,
      "विद्यार्थ्यांनाही": 3497,
      "तमिळनाडूच्या": 3498,
      "आढळून": 3499,
      "आढळणारे": 3500,
      "निर्मितीचे": 3501,
      "चळवळीच्या": 3502,
      "पंतप्रधानांच्या": 3503,
      "race": 3504,
      "ंचीच": 3505,
      "आर्मीमधील": 3506,
      "ऋषभपुत्र": 3507,
      "ऋषींची": 3508,
      "खोल्या": 3509,
      "खोऱ्यात": 3510,
      "खोऱ्याच्या": 3511,
      "ग्राम": 3512,
      "ग्रामिण": 3513,
      "घटनात": 3514,
      "घडले": 3515,
      "घडला": 3516,
      "घडवली": 3517,
      "घोड्यांच्या": 3518,
      "चिनी": 3519,
      "चिपुडी": 3520,
      "जवळील": 3521,
      "ट्वेन": 3522,
      "णूक": 3523,
      "द्राबाद": 3524,
      "नद्यांना": 3525,
      "नद्यांच्या": 3526,
      "नद्यांनी": 3527,
      "पातळीवर": 3528,
      "बिन": 3529,
      "बिहार": 3530,
      "बिहु": 3531,
      "बिबट": 3532,
      "बिनेट": 3533,
      "मरण": 3534,
      "मैसुरू": 3535,
      "मैदान": 3536,
      "मंदिरां": 3537,
      "रितीरि": 3538,
      "लुटये": 3539,
      "लुंगी": 3540,
      "शोले": 3541,
      "शहरात": 3542,
      "शहराच्या": 3543,
      "षेतही": 3544,
      "सातत्याने": 3545,
      "सातपुडा": 3546,
      "सातवाहन": 3547,
      "ृतसर": 3548,
      "१८५०": 3549,
      "१८१८": 3550,
      "१८५७": 3551,
      "वाघांचे": 3552,
      "वाघांसह": 3553,
      "नामांक": 3554,
      "नामदेवाच्या": 3555,
      "कामगि": 3556,
      "द्दलच्या": 3557,
      "मान्यवर": 3558,
      "मान्यता": 3559,
      "मान्यतेपेक्षा": 3560,
      "विधानसभा": 3561,
      "विधानसभेच्या": 3562,
      "ल्पना": 3563,
      "किनारी": 3564,
      "किनारे": 3565,
      "किनाराला": 3566,
      "किनारपट्": 3567,
      "वैविध्यात": 3568,
      "व्युत्पत्": 3569,
      "वनस्पतींची": 3570,
      "वनस्पतींचा": 3571,
      "वनस्पतींतील": 3572,
      "पारंपरिक": 3573,
      "पदवीसाठी": 3574,
      "सोयींवर": 3575,
      "सोयीकरता": 3576,
      "सोबतच": 3577,
      "हिंदीमधील": 3578,
      "उपसागरातील": 3579,
      "उपसागराने": 3580,
      "व्हॉये": 3581,
      "शतकाच्या": 3582,
      "शतकानंतर": 3583,
      "वर्षांपूर्वीपर्यंत": 3584,
      "स्वातंत्र्यदिवस": 3585,
      "वाळवंटाने": 3586,
      "अस्तित्त्वाचे": 3587,
      "पाकिस्ताना": 3588,
      "पाकिस्तानात": 3589,
      "पाकिस्तानची": 3590,
      "व्यावसायिकांपेक्षा": 3591,
      "mater": 3592,
      "red": 3593,
      "अलांछित": 3594,
      "आर्य": 3595,
      "आरक्षणाच्या": 3596,
      "कलकत्ता": 3597,
      "कलात्मक": 3598,
      "कुरंग": 3599,
      "कुळातील": 3600,
      "कुचिपुडी": 3601,
      "कूट्ट": 3602,
      "कालात": 3603,
      "कालौघात": 3604,
      "कच्छच्या": 3605,
      "कच्छचे": 3606,
      "ग्रंथ": 3607,
      "ग्रॅनाइट": 3608,
      "गतीने": 3609,
      "जुना": 3610,
      "जंगल": 3611,
      "डिफ्": 3612,
      "तनत": 3613,
      "तंत्रज्ञ": 3614,
      "धामुळे": 3615,
      "धुंडीराज": 3616,
      "धोतर": 3617,
      "धोरणे": 3618,
      "पर्वतामध्ये": 3619,
      "पहिले": 3620,
      "पहिल्या": 3621,
      "बेल": 3622,
      "बेसुमार": 3623,
      "बारकावे": 3624,
      "बार्हि": 3625,
      "बद्दलही": 3626,
      "भीमा": 3627,
      "भीडल्या": 3628,
      "भीमबे": 3629,
      "रचनेचे": 3630,
      "शनल": 3631,
      "शनपट": 3632,
      "श्रुति": 3633,
      "श्रीलंका": 3634,
      "सहसा": 3635,
      "सहकार": 3636,
      "सूरू": 3637,
      "सूचीपर्": 3638,
      "सूपूर्त": 3639,
      "सैन्य": 3640,
      "१५००": 3641,
      "्योगिक": 3642,
      "सादरीकरण": 3643,
      "विभागणी": 3644,
      "वाढला": 3645,
      "वाढत्या": 3646,
      "वाढता": 3647,
      "वाढल्याने": 3648,
      "मुलांपैकी": 3649,
      "संबध": 3650,
      "संबळपुरी": 3651,
      "संबोधले": 3652,
      "संबंधित": 3653,
      "चीनला": 3654,
      "चीनची": 3655,
      "भाषावार": 3656,
      "भाषेचे": 3657,
      "भाषेतील": 3658,
      "भाषेखाल": 3659,
      "भाषेतही": 3660,
      "वेदकालीन": 3661,
      "वेदांची": 3662,
      "वेदांसोबत": 3663,
      "वेषभूषेतही": 3664,
      "कारभाराखाली": 3665,
      "त्यातून": 3666,
      "दिवसात": 3667,
      "दिवसाचे": 3668,
      "धर्मीयांचे": 3669,
      "सर्वोत्कृष्ट": 3670,
      "१९७०": 3671,
      "१९७१": 3672,
      "१९७२": 3673,
      "१९७४": 3674,
      "१९९०": 3675,
      "१९९१": 3676,
      "१९९८": 3677,
      "१९९९": 3678,
      "जीवांना": 3679,
      "यांच्यात": 3680,
      "मार्क": 3681,
      "मार्जार": 3682,
      "उत्तरेला": 3683,
      "उत्तरेकडे": 3684,
      "उत्तरेकडील": 3685,
      "उत्तरेकडून": 3686,
      "महत्त्वाची": 3687,
      "महत्त्वाचा": 3688,
      "विषयक": 3689,
      "नाटकांच्या": 3690,
      "इंग्रजांच्या": 3691,
      "इंग्रजांपासून": 3692,
      "शेतीवर": 3693,
      "शेतीचा": 3694,
      "शेतीशी": 3695,
      "पुरस्कारासाठी": 3696,
      "शैलीबरोबर": 3697,
      "शैलींचीच": 3698,
      "सुरुवातीच्या": 3699,
      "वैशिष्ट्यपूर्ण": 3700,
      "वैविध्यता": 3701,
      "पद्धतीवरून": 3702,
      "सह्याद्रीतील": 3703,
      "द्वीपसमूहांमध्ये": 3704,
      "बॉलिवूडमध्ये": 3705,
      "instruc": 3706,
      "legend": 3707,
      "अश्या": 3708,
      "अंदाजे": 3709,
      "अनुवाद": 3710,
      "अनुभवा": 3711,
      "अनुश्रुति": 3712,
      "अणुचाच": 3713,
      "अणुसज्": 3714,
      "अणुस्फो": 3715,
      "आकर्षण": 3716,
      "ओडिसी": 3717,
      "कलेचे": 3718,
      "कलेतील": 3719,
      "कमानी": 3720,
      "कमानवजा": 3721,
      "खाल्ले": 3722,
      "ग्रेनाइट": 3723,
      "घाट": 3724,
      "छाऊ": 3725,
      "छायेमुळे": 3726,
      "जनक": 3727,
      "जनपथ": 3728,
      "जनतेवर": 3729,
      "टोळी": 3730,
      "टोबर": 3731,
      "टोळ्यां": 3732,
      "ड्रामात": 3733,
      "नैसर्गिक": 3734,
      "नाताळ": 3735,
      "नगरचे": 3736,
      "पाचवा": 3737,
      "पाचवे": 3738,
      "पानिप": 3739,
      "पसंत": 3740,
      "महिने": 3741,
      "मंडपात": 3742,
      "मौर्याने": 3743,
      "यत्त": 3744,
      "यत्समुद्रस्य": 3745,
      "रणापर्यंत": 3746,
      "लोमेनियॅ": 3747,
      "वानर": 3748,
      "सवदी": 3749,
      "सवयी": 3750,
      "सांख्य": 3751,
      "सांस्कृतिक": 3752,
      "सदेगीरी": 3753,
      "िंबा": 3754,
      "१०वी": 3755,
      "स्वागतासाठी": 3756,
      "स्वायंभु": 3757,
      "स्वायत्त": 3758,
      "प्रेरणा": 3759,
      "प्रियव्र": 3760,
      "प्रगतीनुसार": 3761,
      "लेखकांनी": 3762,
      "राणिक": 3763,
      "लाभले": 3764,
      "लाभला": 3765,
      "लाभलेली": 3766,
      "नाभि": 3767,
      "काश्मिर": 3768,
      "त्ताक": 3769,
      "राजवटीत": 3770,
      "राजकीयदृष्ट्या": 3771,
      "भावई": 3772,
      "भावाचे": 3773,
      "भावनाही": 3774,
      "पाठिंबा": 3775,
      "पुढे": 3776,
      "पुतळे": 3777,
      "स्तरावरील": 3778,
      "सेवांवर": 3779,
      "चित्रपटसृष्टीचे": 3780,
      "चित्रपटसृष्टीही": 3781,
      "भूभागावर": 3782,
      "भूगोलाचा": 3783,
      "लोकसभेत": 3784,
      "लोकसभेची": 3785,
      "लोकसभेतील": 3786,
      "१९२९": 3787,
      "साहित्यातील": 3788,
      "शिक्षणपद्धतीचा": 3789,
      "राज्यसभेत": 3790,
      "युगातील": 3791,
      "मूळच्या": 3792,
      "विद्यापीठाशी": 3793,
      "घेतले": 3794,
      "घेतला": 3795,
      "प्रमाणातील": 3796,
      "प्रमाणावर": 3797,
      "प्रमाणावरील": 3798,
      "प्रमाणाबद्दलही": 3799,
      "व्यवसायही": 3800,
      "किल्ल्याचे": 3801,
      "किल्ल्याची": 3802,
      "किल्ल्यावरून": 3803,
      "द्वीपकल्पीय": 3804,
      "अधिकृतपणे": 3805,
      "मसाल्यांचे": 3806,
      "मसाल्यांचा": 3807,
      "मसाल्यांसोबत": 3808,
      "मसालेदार": 3809,
      "महासागरात": 3810,
      "महासागरातून": 3811,
      "कर्नाटकातील": 3812,
      "जैववैविध्यात": 3813,
      "वृक्षाची": 3814,
      "वृक्षांचे": 3815,
      "निवडणूकीनंतर": 3816,
      "ज्ञानपीठ": 3817,
      "इमारतीत": 3818,
      "इमारतीचे": 3819,
      "इमारतीची": 3820,
      "पश्चिमेला": 3821,
      "शासनातील": 3822,
      "शासननियु": 3823,
      "अभिनयाचे": 3824,
      "अभिव्यक्ती": 3825,
      "अभियंते": 3826,
      "उद्योगांचा": 3827,
      "उद्योगांवर": 3828,
      "रंगमंचाची": 3829,
      "रंगमंचाचे": 3830,
      "चळवळीची": 3831,
      "चळवळींसाठी": 3832,
      "ऋषभदेवामुळे": 3833,
      "शोधात": 3834,
      "स्मारकाची": 3835,
      "पर्वताची": 3836,
      "सैनिकांच्या": 3837,
      "सैनिकांनी": 3838,
      "सैनिकांसाठी": 3839,
      "अरावलीच्या": 3840,
      "अग्निध्राला": 3841,
      "अग्निध्राचा": 3842,
      "आमदारांच्या": 3843,
      "आमदारांची": 3844,
      "ईशान्य": 3845,
      "उठावानंतर": 3846,
      "दहशतवादी": 3847,
      "पंजाबमधील": 3848,
      "बंदराच्या": 3849,
      "प्रश्नांचे": 3850,
      "विस्ताराचे": 3851,
      "विस्ताराबरोबर": 3852,
      "Arc": 3853,
      "Arch": 3854,
      "ition": 3855,
      "only": 3856,
      "ंशीय": 3857,
      "अखिल": 3858,
      "अखत्यारी": 3859,
      "आकारात": 3860,
      "आकारमान": 3861,
      "आल्यानंतर": 3862,
      "आदिमानवाने": 3863,
      "इंद्रकन्या": 3864,
      "इंद्रपूरी": 3865,
      "इराणच्या": 3866,
      "इराणमधील": 3867,
      "उर्फ": 3868,
      "उर्मी": 3869,
      "कॅडॅ": 3870,
      "कॅबिनेट": 3871,
      "कानडी": 3872,
      "कानपूर": 3873,
      "खुल्या": 3874,
      "खुपच": 3875,
      "खात्यांचे": 3876,
      "खात्याचा": 3877,
      "गरीबीमुळे": 3878,
      "गव्हाच्या": 3879,
      "गव्हाची": 3880,
      "घराणी": 3881,
      "घराण्याने": 3882,
      "चक्रवर्ती": 3883,
      "चतुःसीमा": 3884,
      "चतुर्थी": 3885,
      "चांगले": 3886,
      "चांगली": 3887,
      "जडभरत": 3888,
      "जमलेले": 3889,
      "जमातींब": 3890,
      "जलचर": 3891,
      "ज्योती": 3892,
      "टेकडी": 3893,
      "णयुगात": 3894,
      "णयुगातील": 3895,
      "तृतियां": 3896,
      "तद्भारतं": 3897,
      "तज्ञांनुसार": 3898,
      "दगडांचे": 3899,
      "दगडांपासून": 3900,
      "धडकले": 3901,
      "धडपडत": 3902,
      "नोंद": 3903,
      "नोबेल": 3904,
      "नौटंकी": 3905,
      "नौदलीय": 3906,
      "न्यछायेमुळे": 3907,
      "नांव": 3908,
      "नांदेड": 3909,
      "पर्शियन": 3910,
      "पालवा": 3911,
      "पराभव": 3912,
      "पराक्रमी": 3913,
      "पहावयास": 3914,
      "पर्जन्याच्या": 3915,
      "पर्जन्यछायेमुळे": 3916,
      "पतनानंतर": 3917,
      "फळभाज्या": 3918,
      "फ्टवे": 3919,
      "फाळके": 3920,
      "फाळणीचा": 3921,
      "बळमानाने": 3922,
      "बद्धता": 3923,
      "बंधातील": 3924,
      "भुज": 3925,
      "मनूची": 3926,
      "मृत्युनंतर": 3927,
      "मांस": 3928,
      "मलिन": 3929,
      "मणिपुर": 3930,
      "मणिपुरी": 3931,
      "यानंतरचा": 3932,
      "ऱ्यांना": 3933,
      "लयाला": 3934,
      "लयबद्धता": 3935,
      "लूट": 3936,
      "लूटीच्या": 3937,
      "शृती": 3938,
      "शृखल": 3939,
      "सरासरी": 3940,
      "स्रिया": 3941,
      "स्रियांसाठी": 3942,
      "हळेबीड": 3943,
      "हंपीचे": 3944,
      "िपत्याखाली": 3945,
      "२००१": 3946,
      "२००९": 3947,
      "प्रणयक्री": 3948,
      "प्रभावामुळे": 3949,
      "प्रभावित": 3950,
      "प्रतिमा": 3951,
      "प्रतिबंध": 3952,
      "प्रवेशद्वार": 3953,
      "वाटचाल": 3954,
      "वास्तू": 3955,
      "वास्तुकार": 3956,
      "यादीत": 3957,
      "नागरिक": 3958,
      "नागपूरचे": 3959,
      "मुद्दा": 3960,
      "मुद्देसू": 3961,
      "कावेरी": 3962,
      "नेहरु": 3963,
      "नेहरूंनी": 3964,
      "संतती": 3965,
      "संसदेत": 3966,
      "संसदेचे": 3967,
      "संशोधकांच्या": 3968,
      "संशोधकांचे": 3969,
      "तेथेच": 3970,
      "केल्यानंत": 3971,
      "त्रिपुरा": 3972,
      "त्रिभुज": 3973,
      "स्थित्यंतर": 3974,
      "वेढलेला": 3975,
      "वेढलेले": 3976,
      "वेरूळ": 3977,
      "वेरूळची": 3978,
      "मागील": 3979,
      "मागणी": 3980,
      "माशांचा": 3981,
      "माश्यांच्या": 3982,
      "पावल्या": 3983,
      "पावलेल्या": 3984,
      "पाठीच्या": 3985,
      "पाठीचे": 3986,
      "हिमाद्रे": 3987,
      "मिश्रण": 3988,
      "मोगलांपर्यंत": 3989,
      "मोहेंजोदडो": 3990,
      "मोहेंजोदारोचे": 3991,
      "परिपूर्ण": 3992,
      "परिषद": 3993,
      "परिकल्पना": 3994,
      "सुवर्णकाळ": 3995,
      "सुवर्णयुगात": 3996,
      "दिसून": 3997,
      "दिसतात": 3998,
      "शिरकाण": 3999,
      "शिरकाव": 4000,
      "पूर्वेस": 4001,
      "पूर्वेकडे": 4002,
      "एकनाथी": 4003,
      "एकनाथांची": 4004,
      "दाखवली": 4005,
      "लोकनृत्या": 4006,
      "लोकनृत्याचे": 4007,
      "क्रीडा": 4008,
      "सरेपासून": 4009,
      "सरपटणाऱ्या": 4010,
      "सरपटणारे": 4011,
      "हरिणांच्या": 4012,
      "हरिश्चंद्र": 4013,
      "दलदलीचा": 4014,
      "दलदलींनी": 4015,
      "लिहण्याची": 4016,
      "लिहीली": 4017,
      "रुंदीच्या": 4018,
      "शिक्षणावर": 4019,
      "शिक्षणाबद्दल": 4020,
      "शाकाहारी": 4021,
      "शाकाहाराचा": 4022,
      "टिळक": 4023,
      "टिळकांच्या": 4024,
      "बाजूला": 4025,
      "बाजरीची": 4026,
      "राज्यकर्त्याने": 4027,
      "राज्यकर्त्यांनी": 4028,
      "व्यापाराचे": 4029,
      "व्यापारीदृष्ट्या": 4030,
      "गोडसे": 4031,
      "जगातिल": 4032,
      "पृष्ठाशी": 4033,
      "पृष्ठामधील": 4034,
      "इतिहासामध्ये": 4035,
      "इतिहासाशी": 4036,
      "उपप्रकाराची": 4037,
      "समुद्रापासून": 4038,
      "समुद्रापर्यंत": 4039,
      "महाराजांनी": 4040,
      "इतिहासकारांमध्ये": 4041,
      "तुलनेने": 4042,
      "तांदळाच्या": 4043,
      "तांदूळ": 4044,
      "मह्त्वाच्या": 4045,
      "मह्त्वाचे": 4046,
      "विषुववृत्तीय": 4047,
      "अधिकारात": 4048,
      "महाखंडाचा": 4049,
      "महाखंडातून": 4050,
      "महाविद्यालयात": 4051,
      "महाविद्यालयांमध्ये": 4052,
      "आक्रमणानंतर": 4053,
      "पुराणांवर": 4054,
      "पुराणतज्ञांनुसार": 4055,
      "पुराव्यांपैकी": 4056,
      "पुराव्यातून": 4057,
      "ials": 4058,
      "दर्शवतात": 4059,
      "शक्यता": 4060,
      "समजण्यात": 4061,
      "क्षेत्रातही": 4062,
      "नृत्यप्रकाराचा": 4063,
      "नृत्यप्रकारांना": 4064,
      "घटनेत": 4065,
      "घटनेनुसार": 4066,
      "घडल्याचे": 4067,
      "विकिमिडिया": 4068,
      "विकिव्हॉये": 4069,
      "हजारो": 4070,
      "वनस्पतींच्या": 4071,
      "वनस्पतींमध्ये": 4072,
      "इंग्लंडचे": 4073,
      "अलिकडे": 4074,
      "अलिकडच्या": 4075,
      "आरक्षणामुळेच": 4076,
      "जवाबदारीचे": 4077,
      "मार्गाने": 4078,
      "वन्यजीवांच्या": 4079,
      "वन्यसंपदा": 4080,
      "वन्यसंपदेचे": 4081,
      "स्वरूपांची": 4082,
      "पसंतीचा": 4083,
      "महिन्यांमध्ये": 4084,
      "महिन्यातही": 4085,
      "प्रेमकथा": 4086,
      "प्रेमकथेतील": 4087,
      "पुढारलेला": 4088,
      "पुढारलेली": 4089,
      "किनाऱ्यालगतच्या": 4090,
      "सेवांचाही": 4091,
      "इंडोनेशियाजवळील": 4092,
      "युरोपीयन": 4093,
      "विद्यापीठे": 4094,
      "विद्यापीठांमध्ये": 4095,
      "जैववैविध्यपूर्ण": 4096,
      "ऋषभदेवाची": 4097,
      "दहशतवादही": 4098,
      "अवलंबला": 4099,
      "अवलंबून": 4100,
      "अ‍ॅटला": 4101,
      "अ‍ॅकॅडॅ": 4102,
      "अमेरिका": 4103,
      "अमेरिकन": 4104,
      "आघाडीवर": 4105,
      "इसवीसन": 4106,
      "उमटले": 4107,
      "उमटवला": 4108,
      "ऑस्ट्रेलिया": 4109,
      "ऑस्ट्रेलियन": 4110,
      "कमालीचे": 4111,
      "कमालीची": 4112,
      "कंपनीच्या": 4113,
      "कंपनीकडून": 4114,
      "गांधींनी": 4115,
      "जंबूद्वीपाला": 4116,
      "भौगोलिकदृष्ट्या": 4117,
      "शिकारींनी": 4118,
      "शिकारींवर": 4119,
      "काँग्रेसने": 4120,
      "संदर्भात": 4121,
      "माध्यमातून": 4122,
      "माध्यमांवर": 4123,
      "पुरुषांचा": 4124,
      "पुरुषांसाठी": 4125,
      "लोकसंख्येच्या": 4126,
      "लोकसंख्येवर": 4127,
      "ब्रिटिशांविरुद्धचा": 4128,
      "उपलब्धता": 4129,
      "ज्वालामुखीच्या": 4130,
      "ज्वालामुखीपासून": 4131,
      "बांगलादेशास": 4132,
      "गुजराथमधील": 4133,
      "गुजराथीत": 4134,
      "मंत्रीमंडळात": 4135,
      "All": 4136,
      "Fort": 4137,
      "IUCN": 4138,
      "Memorial": 4139,
      "Our": 4140,
      "Red": 4141,
      "Triom": 4142,
      "Titus": 4143,
      "War": 4144,
      "birt": 4145,
      "cradle": 4146,
      "ecosy": 4147,
      "great": 4148,
      "hplace": 4149,
      "ouched": 4150,
      "sured": 4151,
      "speech": 4152,
      "tradition": 4153,
      "treasured": 4154,
      "tive": 4155,
      "uable": 4156,
      "untouched": 4157,
      "valuable": 4158,
      "ंताशी": 4159,
      "अगदी": 4160,
      "अधिपत्याखाली": 4161,
      "अपभ्र": 4162,
      "अफगाण": 4163,
      "अमृतसर": 4164,
      "अहमदा": 4165,
      "अलेक्झां": 4166,
      "अक्षरधा": 4167,
      "अंगिकार": 4168,
      "अशियातून": 4169,
      "अलिप्ततावादी": 4170,
      "अरुणाच": 4171,
      "अप्सरेपासून": 4172,
      "अध्यात्म": 4173,
      "अमरावती": 4174,
      "अन्याय": 4175,
      "अपोलो": 4176,
      "अहिंसेचा": 4177,
      "अट्टम्‌": 4178,
      "अतिक्रमणामुळे": 4179,
      "अतुलनीय": 4180,
      "अंमलात": 4181,
      "आखल्या": 4182,
      "आफ्रिका": 4183,
      "आवडीचे": 4184,
      "आपापला": 4185,
      "आंतरराष्ट्रीय": 4186,
      "आंध्र": 4187,
      "आमूलाग्र": 4188,
      "आश्चर्यांमध्ये": 4189,
      "आग्नेय": 4190,
      "आशियामधील": 4191,
      "आगमनाबरोबर": 4192,
      "इच्छुक": 4193,
      "ईदचे": 4194,
      "उभयचर": 4195,
      "उद्देश्य": 4196,
      "उभारणी": 4197,
      "ऊर्फ": 4198,
      "एडविन": 4199,
      "एतद्देशीयांचे": 4200,
      "ऑक्टोबर": 4201,
      "ओणम": 4202,
      "ओसाड": 4203,
      "औद्योगिक": 4204,
      "औषधामुळे": 4205,
      "कळस": 4206,
      "क़िला": 4207,
      "करावे": 4208,
      "कोकण": 4209,
      "कलिंगाच्या": 4210,
      "कटिबंधातील": 4211,
      "कपड्यांचा": 4212,
      "कट्टर": 4213,
      "खडकाळ": 4214,
      "खाऱ्यापाण्याची": 4215,
      "खूणावते": 4216,
      "खजुराहो": 4217,
      "गझनी": 4218,
      "गटातील": 4219,
      "गळती": 4220,
      "गणेश": 4221,
      "गंडक": 4222,
      "गच्छीस": 4223,
      "गंभीर": 4224,
      "घूमर": 4225,
      "घडामोडी": 4226,
      "चूणूक": 4227,
      "चिकटून": 4228,
      "चंद्रगुप्त": 4229,
      "चपाती": 4230,
      "चंदीगढ": 4231,
      "छोटा": 4232,
      "छत्रपती": 4233,
      "जिथे": 4234,
      "जनावरांना": 4235,
      "ज्येष्ठ": 4236,
      "जत्रा": 4237,
      "जर्मनी": 4238,
      "जशीच्या": 4239,
      "झगडत": 4240,
      "झपाट्याने": 4241,
      "टॉप": 4242,
      "ट्रायम्": 4243,
      "टोकांमध्ये": 4244,
      "टक्यापेक्षा": 4245,
      "ठरले": 4246,
      "डरच्या": 4247,
      "डान्स": 4248,
      "ढोबळमानाने": 4249,
      "तैमूरल": 4250,
      "तस्थळ": 4251,
      "तमाशा": 4252,
      "ततिः": 4253,
      "तत्त्वज्ञान": 4254,
      "दशकापा": 4255,
      "दालचिनी": 4256,
      "दंतकथा": 4257,
      "दगडावरून": 4258,
      "धोक्यात": 4259,
      "धम्मचक्र": 4260,
      "नॅशनल": 4261,
      "नाल्याच्या": 4262,
      "नक्षलवाद": 4263,
      "नवरात्री": 4264,
      "नर्मदा": 4265,
      "नरेंद्र": 4266,
      "नंदिग्राम": 4267,
      "पिढीला": 4268,
      "पॅरीस": 4269,
      "पौराणिक": 4270,
      "पिकणाऱ्या": 4271,
      "पत्रांवर": 4272,
      "पंडित": 4273,
      "पसरली": 4274,
      "फरक": 4275,
      "फायदा": 4276,
      "फुटीचे": 4277,
      "फॉर्मेशन": 4278,
      "फिक्या": 4279,
      "बसविले": 4280,
      "बुद्ध": 4281,
      "ब्रम्हपुत्र": 4282,
      "बोकडाचे": 4283,
      "बदामी": 4284,
      "बजावत": 4285,
      "बऱ्यापैकी": 4286,
      "ब्रेकर": 4287,
      "भित्ती": 4288,
      "भांगडा": 4289,
      "म्युझिक": 4290,
      "मकरसंक्र": 4291,
      "मल्याळम": 4292,
      "मद्रास": 4293,
      "मंदीरे": 4294,
      "मंजूर": 4295,
      "मगधच्या": 4296,
      "यक्षगण": 4297,
      "याच्याशी": 4298,
      "रवयीन": 4299,
      "रविंद्रनाथ": 4300,
      "रहावीत": 4301,
      "लवंग": 4302,
      "लद्दाख": 4303,
      "लक्षद्वीप": 4304,
      "लक्षणिय": 4305,
      "वॉर": 4306,
      "वांद्रे": 4307,
      "वस्ती": 4308,
      "वसाहती": 4309,
      "शर्ट": 4310,
      "शतरूपा": 4311,
      "शहीद": 4312,
      "शांतता": 4313,
      "शस्त्रास्त्र": 4314,
      "शब्द": 4315,
      "सॉफ्टवे": 4316,
      "सान्याल": 4317,
      "सत्तेखाली": 4318,
      "सत्रीया": 4319,
      "सल्तनत": 4320,
      "सन्ततिः": 4321,
      "समस्या": 4322,
      "सांगण्यात": 4323,
      "हैद्राबाद": 4324,
      "हर्बट": 4325,
      "हालचाली": 4326,
      "हस्तगत": 4327,
      "हल्ले": 4328,
      "हडाप्पा": 4329,
      "हलविण्यात": 4330,
      "ोजडोची": 4331,
      "ॠग्वेदकालीन": 4332,
      "ॠषभदेवाच्या": 4333,
      "०९४": 4334,
      "३४०": 4335,
      "३७०": 4336,
      "६७१": 4337,
      "ॲक्शनपट": 4338,
      "ॲंग्लो": 4339,
      "ॲण्ड": 4340,
      "र्तमेढ": 4341,
      "भारतभूमीची": 4342,
      "भारतरत्न": 4343,
      "स्मरणार्थ": 4344,
      "स्मृतींचा": 4345,
      "स्लमडॉग": 4346,
      "प्रवर्तन": 4347,
      "प्रस्थापकांपैकी": 4348,
      "प्रंचड": 4349,
      "प्रशासनाद्वारे": 4350,
      "प्रकल्पांची": 4351,
      "प्रचलित": 4352,
      "प्रयत्नातून": 4353,
      "प्रशासनाच्या": 4354,
      "प्रदर्शित": 4355,
      "प्रजासत्ताक": 4356,
      "लेण्यांमधील": 4357,
      "राहिलेला": 4358,
      "रामलिला": 4359,
      "रायसीना": 4360,
      "साडेसात": 4361,
      "सापडलेली": 4362,
      "सागरीसेतू": 4363,
      "विष्णू": 4364,
      "विश्वामित": 4365,
      "विजयनगरचे": 4366,
      "वाळूचे": 4367,
      "वाणिज्य": 4368,
      "वाऱ्यांमुळे": 4369,
      "यापाठोपाठ": 4370,
      "याबद्धल": 4371,
      "मुलींत": 4372,
      "मुत्सदेगीरी": 4373,
      "मुहूर्तमेढ": 4374,
      "मुस्लिम": 4375,
      "कासीम": 4376,
      "काटेरी": 4377,
      "क्वीन": 4378,
      "नेपाळची": 4379,
      "नेतृत्वाखाली": 4380,
      "नेहेमीच्या": 4381,
      "संकेतस्थळ": 4382,
      "संपुष्टात": 4383,
      "संवर्धन": 4384,
      "संवादातील": 4385,
      "संगमरवरी": 4386,
      "चेन्नई": 4387,
      "असणाऱ्यांना": 4388,
      "तेरुकूट्ट": 4389,
      "तेलुगू": 4390,
      "होणारी": 4391,
      "राजकारण": 4392,
      "राजधानी": 4393,
      "राजकुमार": 4394,
      "राजवाडयापैकी": 4395,
      "भाकरी": 4396,
      "भारतीयांच्यात": 4397,
      "वेल्स": 4398,
      "वेरुळ": 4399,
      "मासांहारी": 4400,
      "पाश्चात्य": 4401,
      "पाषाणयुगातील": 4402,
      "पावसाचे": 4403,
      "पायंडा": 4404,
      "पुस्तके": 4405,
      "पुरेपूर": 4406,
      "पुरुवंशीय": 4407,
      "पुनर्बांधणी": 4408,
      "पुर्न‍‍स्थापन": 4409,
      "पुद्दुचेरी": 4410,
      "हिवाळ्याच्या": 4411,
      "करण्यासाठी": 4412,
      "करणारा": 4413,
      "करप्रणाली": 4414,
      "मिठाया": 4415,
      "मिलयोनेर": 4416,
      "मानचिन्हे": 4417,
      "मोहिनीअट्टम्‌": 4418,
      "मोहम्मद": 4419,
      "मोहोंदोजडोची": 4420,
      "परंपरा": 4421,
      "निर्मात्यांचे": 4422,
      "निमंत्रण": 4423,
      "निमित्त": 4424,
      "स्तंभांचा": 4425,
      "सुरेख": 4426,
      "सुसह्य": 4427,
      "सुरक्षाविषयक": 4428,
      "किशोरवयीन": 4429,
      "दिशेला": 4430,
      "दिवसेंदिवस": 4431,
      "दादासाहेब": 4432,
      "दीपीका": 4433,
      "भूर्जपत्रांवर": 4434,
      "भूप्रस्तराचे": 4435,
      "साहजिकच": 4436,
      "धर्मनिरपेक्ष": 4437,
      "लोकजीवन": 4438,
      "क्रौर्यानंतर": 4439,
      "क्रान्ति": 4440,
      "क्रमावारीत": 4441,
      "सर्वश्रेष्ठ": 4442,
      "सर्वधर्मसमभावाचे": 4443,
      "संस्कृतीला": 4444,
      "लिहुन": 4445,
      "म्हैसूरचा": 4446,
      "उत्खननात": 4447,
      "उत्सवप्रिय": 4448,
      "उत्पन्नामध्ये": 4449,
      "रुक्मिणी": 4450,
      "स्वयंवर": 4451,
      "शिक्षणसंस्थांमध्ये": 4452,
      "बाबासाहेब": 4453,
      "बाॅम्बे": 4454,
      "इंडियन": 4455,
      "युरेशिय": 4456,
      "व्याघ्रप्रकल्पांची": 4457,
      "कोंबडी": 4458,
      "कोणत्याही": 4459,
      "कोपऱ्यातून": 4460,
      "कोलकाता": 4461,
      "बहुमुल्य": 4462,
      "रूपांतर": 4463,
      "हिमनदीपासून": 4464,
      "हिमालयापासून": 4465,
      "हिमाच्छादित": 4466,
      "मुख्यभूमीमधील": 4467,
      "सोळाव्या": 4468,
      "साहित्यनिर्मितीसाठी": 4469,
      "ज्वारीची": 4470,
      "बंगळुरू": 4471,
      "समुदायांमधील": 4472,
      "महाराष्ट्रामधील": 4473,
      "मेमोरिअल": 4474,
      "सणांसोबतच": 4475,
      "गाजवण्यास": 4476,
      "सीमांबद्दल": 4477,
      "विषवृतीय": 4478,
      "विषववृतीय": 4479,
      "विषमतेमुळे": 4480,
      "अधिकारीक": 4481,
      "पठणाद्वारेच": 4482,
      "शतकापासूनच": 4483,
      "क्रमांकाची": 4484,
      "क्रमांकावर": 4485,
      "समुद्रकिनारा": 4486,
      "समुद्रकिनाऱ्यामध्ये": 4487,
      "बांधकामाचे": 4488,
      "दुःखदायक": 4489,
      "दुष्यंताशी": 4490,
      "दुर्गापूजा": 4491,
      "मतदानाप्रमाणे": 4492,
      "मतदारसंघांतून": 4493,
      "वृद्धींगत": 4494,
      "निवडणुकीतून": 4495,
      "वर्षांपेक्षाही": 4496,
      "ज्ञानेश्वर": 4497,
      "आढरणाऱ्य": 4498,
      "गेटसमोरील": 4499,
      "stems": 4500,
      "अभ्यासक्रमानुसार": 4501,
      "उदरनिर्वाह": 4502,
      "दख्ख्ननचे": 4503,
      "पोर्तुगीज": 4504,
      "रंगमंचामध्ये": 4505,
      "रंगामंचाची": 4506,
      "शकुंतला": 4507,
      "समविषुववृतीय": 4508,
      "समाजव्यवस्था": 4509,
      "हातखंडा": 4510,
      "क्षेत्रफळाने": 4511,
      "प्राण्यांम्ध्येही": 4512,
      "युद्धकौशल्य": 4513,
      "घटनात्मक": 4514,
      "बिबट्या": 4515,
      "मैदानी": 4516,
      "मंदिरांवरील": 4517,
      "रितीरिवाज": 4518,
      "लुटयेन्स": 4519,
      "नामांकन": 4520,
      "कामगिरी": 4521,
      "किनारपट्टी": 4522,
      "व्युत्पत्ती": 4523,
      "materials": 4524,
      "डिफ्लोमेनियॅ": 4525,
      "बार्हिष्मती": 4526,
      "भीमबेटका": 4527,
      "सूचीपर्णी": 4528,
      "सैन्यदलातील": 4529,
      "भाषेखालोखाल": 4530,
      "instructive": 4531,
      "अनुभवायास": 4532,
      "अनुश्रुतिनुसार": 4533,
      "अणुचाचणी": 4534,
      "अणुसज्ज": 4535,
      "अणुस्फोट": 4536,
      "टोळ्यांनी": 4537,
      "ड्रामातर्फे": 4538,
      "पानिपतच्या": 4539,
      "सांख्यिकीनुसार": 4540,
      "स्वायंभुव": 4541,
      "प्रियव्रताच्या": 4542,
      "शासननियुक्त": 4543,
      "विस्ताराबरोबरच": 4544,
      "अखत्यारीत": 4545,
      "जमातींबद्दलच्या": 4546,
      "तृतियांश": 4547,
      "पराभवानंतर": 4548,
      "मणिपुरी‌": 4549,
      "शृखलांमध्ये": 4550,
      "प्रणयक्रीडारत": 4551,
      "प्रवेशद्वाराची": 4552,
      "मुद्देसूद": 4553,
      "केल्यानंतर्": 4554,
      "स्थित्यंतरे": 4555,
      "हिमाद्रेश्चैव": 4556,
      "विकिव्हॉयेज": 4557,
      "अ‍ॅटलास": 4558,
      "अ‍ॅकॅडॅमी": 4559,
      "Triomphe": 4560,
      "birthplace": 4561,
      "ecosystems": 4562,
      "अपभ्रंश": 4563,
      "अहमदाबाद": 4564,
      "अलेक्झांडरच्या": 4565,
      "अक्षरधामची": 4566,
      "अरुणाचल": 4567,
      "ट्रायम्फे": 4568,
      "तैमूरलंगने": 4569,
      "दशकापासुन": 4570,
      "ब्रम्हपुत्रा": 4571,
      "भित्तीचित्रे": 4572,
      "मकरसंक्रांत": 4573,
      "शस्त्रास्त्रे": 4574,
      "सॉफ्टवेर": 4575,
      "विश्वामित्र": 4576,
      "तेरुकूट्टू": 4577,
      "डिफ्लोमेनियॅक": 4578
    },
    "merges": [
      [
        "्",
        "य"
      ],
      [
        "्य",
        "ा"
      ],
      [
        "ा",
        "र"
      ],
      [
        "्",
        "र"
      ],
      [
        "ा",
        "त"
      ],
      [
        "ह",
        "े"
      ],
      [
        "र",
        "्"
      ],
      [
        "ार",
        "त"
      ],
      [
        "ा",
        "ं"
      ],
      [
        "भ",
        "ारत"
      ],
      [
        "स",
        "्"
      ],
      [
        "आ",
        "हे"
      ],
      [
        "प",
        "्र"
      ],
      [
        "ा",
        "ल"
      ],
      [
        "ा",
        "च"
      ],
      [
        "ि",
        "क"
      ],
      [
        "ा",
        "न"
      ],
      [
        "ी",
        "ल"
      ],
      [
        "ल",
        "े"
      ],
      [
        "र",
        "ा"
      ],
      [
        "स",
        "ा"
      ],
      [
        "ल",
        "ा"
      ],
      [
        "व",
        "ि"
      ],
      [
        "व",
        "ा"
      ],
      [
        "त",
        "ी"
      ],
      [
        "य",
        "ा"
      ],
      [
        "न",
        "ा"
      ],
      [
        "म",
        "ु"
      ],
      [
        "च",
        "्या"
      ],
      [
        "ू",
        "न"
      ],
      [
        "क",
        "ा"
      ],
      [
        "ष",
        "्"
      ],
      [
        "ि",
        "त"
      ],
      [
        "ी",
        "य"
      ],
      [
        "क",
        "्"
      ],
      [
        "त",
        "र"
      ],
      [
        "न",
        "े"
      ],
      [
        "ल",
        "ी"
      ],
      [
        "स",
        "ं"
      ],
      [
        "च",
        "े"
      ],
      [
        "अ",
        "स"
      ],
      [
        "म",
        "ध"
      ],
      [
        "ह",
        "ी"
      ],
      [
        "त",
        "े"
      ],
      [
        "द",
        "े"
      ],
      [
        "्य",
        "े"
      ],
      [
        "त",
        "्"
      ],
      [
        "क",
        "े"
      ],
      [
        "ह",
        "ो"
      ],
      [
        "च",
        "ी"
      ],
      [
        "द",
        "्"
      ],
      [
        "ह",
        "ा"
      ],
      [
        "र्",
        "व"
      ],
      [
        "रा",
        "ज"
      ],
      [
        "क्",
        "ष"
      ],
      [
        "भ",
        "ा"
      ],
      [
        "्या",
        "ं"
      ],
      [
        "आहे",
        "त"
      ],
      [
        "ं",
        "ग"
      ],
      [
        "ष्",
        "ट"
      ],
      [
        "त",
        "्र"
      ],
      [
        "भारत",
        "ीय"
      ],
      [
        "ाच",
        "्या"
      ],
      [
        "दे",
        "श"
      ],
      [
        "व",
        "र"
      ],
      [
        "स्",
        "थ"
      ],
      [
        "व",
        "े"
      ],
      [
        "ात",
        "ील"
      ],
      [
        "क",
        "ार"
      ],
      [
        "म",
        "ा"
      ],
      [
        "च",
        "ा"
      ],
      [
        "झ",
        "ाल"
      ],
      [
        "प",
        "ा"
      ],
      [
        "त",
        "्या"
      ],
      [
        "त",
        "ात"
      ],
      [
        "प",
        "ु"
      ],
      [
        "ज",
        "ात"
      ],
      [
        "प",
        "ू"
      ],
      [
        "ह",
        "ि"
      ],
      [
        "भारत",
        "ात"
      ],
      [
        "मध",
        "्ये"
      ],
      [
        "ं",
        "द"
      ],
      [
        "क",
        "र"
      ],
      [
        "ल",
        "्या"
      ],
      [
        "म",
        "ि"
      ],
      [
        "म",
        "ान"
      ],
      [
        "ाच",
        "ी"
      ],
      [
        "त",
        "ि"
      ],
      [
        "म",
        "ो"
      ],
      [
        "त",
        "ा"
      ],
      [
        "व",
        "ी"
      ],
      [
        "्र",
        "ा"
      ],
      [
        "प",
        "र"
      ],
      [
        "म",
        "ी"
      ],
      [
        "ळ",
        "े"
      ],
      [
        "्या",
        "त"
      ],
      [
        "द्",
        "ध"
      ],
      [
        "न",
        "ि"
      ],
      [
        "स्",
        "त"
      ],
      [
        "वि",
        "ध"
      ],
      [
        "ण",
        "े"
      ],
      [
        "य",
        "े"
      ],
      [
        "्र",
        "प"
      ],
      [
        "ं",
        "ड"
      ],
      [
        "स",
        "ु"
      ],
      [
        "ं",
        "त"
      ],
      [
        "न",
        "ी"
      ],
      [
        "म",
        "्"
      ],
      [
        "ल",
        "्"
      ],
      [
        "व",
        "र्"
      ],
      [
        "भारत",
        "ाच्या"
      ],
      [
        "ाच",
        "े"
      ],
      [
        "क",
        "ि"
      ],
      [
        "क",
        "ृ"
      ],
      [
        "ा",
        "स"
      ],
      [
        "ो",
        "क"
      ],
      [
        "का",
        "ळ"
      ],
      [
        "ने",
        "क"
      ],
      [
        "स्थ",
        "ा"
      ],
      [
        "अ",
        "नेक"
      ],
      [
        "द",
        "ि"
      ],
      [
        "र",
        "ी"
      ],
      [
        "ह",
        "ार"
      ],
      [
        "श",
        "ि"
      ],
      [
        "र्",
        "थ"
      ],
      [
        "र्",
        "म"
      ],
      [
        "ाल",
        "ा"
      ],
      [
        "ान",
        "े"
      ],
      [
        "मु",
        "ख"
      ],
      [
        "भा",
        "ग"
      ],
      [
        "पू",
        "र्व"
      ],
      [
        "ए",
        "क"
      ],
      [
        "च",
        "ित"
      ],
      [
        "द",
        "ा"
      ],
      [
        "ण",
        "ा"
      ],
      [
        "द",
        "ी"
      ],
      [
        "श",
        "ी"
      ],
      [
        "स",
        "े"
      ],
      [
        "ाल",
        "ी"
      ],
      [
        "मु",
        "ळे"
      ],
      [
        "मि",
        "ळ"
      ],
      [
        "्रप",
        "ट"
      ],
      [
        "चित",
        "्रपट"
      ],
      [
        "ग",
        "े"
      ],
      [
        "ठ",
        "ी"
      ],
      [
        "भ",
        "ू"
      ],
      [
        "श",
        "्"
      ],
      [
        "ाच",
        "ा"
      ],
      [
        "िक",
        "्"
      ],
      [
        "सा",
        "ह"
      ],
      [
        "वि",
        "विध"
      ],
      [
        "ं",
        "तर"
      ],
      [
        "आ",
        "ण"
      ],
      [
        "क",
        "ड"
      ],
      [
        "ध",
        "र्म"
      ],
      [
        "ल",
        "ोक"
      ],
      [
        "व",
        "ै"
      ],
      [
        "स्",
        "कृ"
      ],
      [
        "ं",
        "त्र"
      ],
      [
        "क",
        "्र"
      ],
      [
        "ण",
        "ी"
      ],
      [
        "द",
        "ार"
      ],
      [
        "म",
        "्रा"
      ],
      [
        "स",
        "र"
      ],
      [
        "स",
        "ि"
      ],
      [
        "स",
        "र्व"
      ],
      [
        "ह",
        "र"
      ],
      [
        "१",
        "९"
      ],
      [
        "सं",
        "स्कृ"
      ],
      [
        "ज",
        "ा"
      ],
      [
        "ठ",
        "ा"
      ],
      [
        "त",
        "ो"
      ],
      [
        "द",
        "ल"
      ],
      [
        "द",
        "्या"
      ],
      [
        "ल",
        "ि"
      ],
      [
        "व",
        "्य"
      ],
      [
        "व",
        "ार"
      ],
      [
        "प्र",
        "ा"
      ],
      [
        "प्र",
        "कार"
      ],
      [
        "अस",
        "े"
      ],
      [
        "म्",
        "ह"
      ],
      [
        "वर्",
        "ष"
      ],
      [
        "स्था",
        "प"
      ],
      [
        "साह",
        "ित"
      ],
      [
        "उ",
        "त्"
      ],
      [
        "क",
        "ी"
      ],
      [
        "ज",
        "ी"
      ],
      [
        "द",
        "्र"
      ],
      [
        "ध",
        "िक"
      ],
      [
        "य",
        "ां"
      ],
      [
        "र",
        "ु"
      ],
      [
        "श",
        "िक्"
      ],
      [
        "ां",
        "त"
      ],
      [
        "ना",
        "व"
      ],
      [
        "ष्ट",
        "्र"
      ],
      [
        "झाल",
        "े"
      ],
      [
        "शिक्",
        "ष"
      ],
      [
        "ज",
        "े"
      ],
      [
        "म",
        "ार"
      ],
      [
        "ऱ",
        "्या"
      ],
      [
        "व",
        "न"
      ],
      [
        "श",
        "ा"
      ],
      [
        "स्",
        "व"
      ],
      [
        "का",
        "ही"
      ],
      [
        "मध",
        "ील"
      ],
      [
        "स्थ",
        "ान"
      ],
      [
        "जात",
        "ी"
      ],
      [
        "म्ह",
        "ण"
      ],
      [
        "ग",
        "र"
      ],
      [
        "ट",
        "ि"
      ],
      [
        "्र",
        "ि"
      ],
      [
        "प्र",
        "देश"
      ],
      [
        "शिक्ष",
        "ण"
      ],
      [
        "ट",
        "क्"
      ],
      [
        "ण",
        "्यात"
      ],
      [
        "ब",
        "ा"
      ],
      [
        "र",
        "ो"
      ],
      [
        "ह",
        "ु"
      ],
      [
        "प्र",
        "जाती"
      ],
      [
        "सा",
        "म्रा"
      ],
      [
        "ष्",
        "ठ"
      ],
      [
        "राज",
        "्य"
      ],
      [
        "ाची",
        "न"
      ],
      [
        "पूर्व",
        "ी"
      ],
      [
        "आण",
        "ि"
      ],
      [
        "संस्कृ",
        "ती"
      ],
      [
        "साम्रा",
        "ज"
      ],
      [
        "ं",
        "ध"
      ],
      [
        "इ",
        "ंग"
      ],
      [
        "इ",
        "ंड"
      ],
      [
        "त",
        "ील"
      ],
      [
        "त",
        "से"
      ],
      [
        "द",
        "क्ष"
      ],
      [
        "ध",
        "ार"
      ],
      [
        "य",
        "ु"
      ],
      [
        "व",
        "ळ"
      ],
      [
        "व",
        "्या"
      ],
      [
        "प्र",
        "ाचीन"
      ],
      [
        "सा",
        "ठी"
      ],
      [
        "पा",
        "स"
      ],
      [
        "तसे",
        "च"
      ],
      [
        "दक्ष",
        "ि"
      ],
      [
        "क",
        "ो"
      ],
      [
        "ग",
        "ो"
      ],
      [
        "त",
        "्य"
      ],
      [
        "प",
        "्"
      ],
      [
        "प",
        "ार"
      ],
      [
        "ब",
        "हु"
      ],
      [
        "म",
        "ू"
      ],
      [
        "र",
        "ू"
      ],
      [
        "र",
        "े"
      ],
      [
        "ां",
        "च्या"
      ],
      [
        "वि",
        "द्या"
      ],
      [
        "के",
        "ले"
      ],
      [
        "हो",
        "ते"
      ],
      [
        "हि",
        "म"
      ],
      [
        "ये",
        "थ"
      ],
      [
        "मुख",
        "्य"
      ],
      [
        "श्",
        "च"
      ],
      [
        "टक्",
        "के"
      ],
      [
        "h",
        "e"
      ],
      [
        "आ",
        "ज"
      ],
      [
        "इ",
        "ति"
      ],
      [
        "घ",
        "े"
      ],
      [
        "ज",
        "ग"
      ],
      [
        "ण",
        "्या"
      ],
      [
        "प",
        "ड"
      ],
      [
        "प",
        "द"
      ],
      [
        "प",
        "ृ"
      ],
      [
        "ब",
        "्रि"
      ],
      [
        "स",
        "ो"
      ],
      [
        "स",
        "ार"
      ],
      [
        "ां",
        "चा"
      ],
      [
        "ाल",
        "य"
      ],
      [
        "अस",
        "ते"
      ],
      [
        "हो",
        "ता"
      ],
      [
        "झाल",
        "ा"
      ],
      [
        "हि",
        "ंद"
      ],
      [
        "साहित",
        "्य"
      ],
      [
        "उत्",
        "तर"
      ],
      [
        "टि",
        "श"
      ],
      [
        "पास",
        "ून"
      ],
      [
        "इति",
        "हा"
      ],
      [
        "ब्रि",
        "टिश"
      ],
      [
        ")",
        ","
      ],
      [
        "ं",
        "ब"
      ],
      [
        "अ",
        "ज"
      ],
      [
        "इ",
        "तर"
      ],
      [
        "उ",
        "प"
      ],
      [
        "ख",
        "ास"
      ],
      [
        "ज",
        "्"
      ],
      [
        "न",
        "्"
      ],
      [
        "न",
        "ंतर"
      ],
      [
        "ब",
        "ंग"
      ],
      [
        "म",
        "हार"
      ],
      [
        "स",
        "मु"
      ],
      [
        "ह",
        "वा"
      ],
      [
        "ि",
        "या"
      ],
      [
        "ृ",
        "ष्ट"
      ],
      [
        "्या",
        "ने"
      ],
      [
        "प्र",
        "मा"
      ],
      [
        "त्",
        "व"
      ],
      [
        "के",
        "ली"
      ],
      [
        "झाल",
        "ी"
      ],
      [
        "व्य",
        "व"
      ],
      [
        "महार",
        "ा"
      ],
      [
        "हवा",
        "मान"
      ],
      [
        "अ",
        "र्थ"
      ],
      [
        "आ",
        "हार"
      ],
      [
        "उ",
        "दा"
      ],
      [
        "द",
        "िक"
      ],
      [
        "प",
        "ै"
      ],
      [
        "ब",
        "ां"
      ],
      [
        "भ",
        "र"
      ],
      [
        "म",
        "े"
      ],
      [
        "स",
        "ण"
      ],
      [
        "स",
        "र्"
      ],
      [
        "ां",
        "मध्ये"
      ],
      [
        "स्",
        "त्र"
      ],
      [
        "ला",
        "ग"
      ],
      [
        "हो",
        "ती"
      ],
      [
        "मो",
        "ठ"
      ],
      [
        "पर",
        "्य"
      ],
      [
        "नि",
        "र्"
      ],
      [
        "वै",
        "दिक"
      ],
      [
        "सि",
        "ंध"
      ],
      [
        "इंड",
        "िया"
      ],
      [
        "हिम",
        "ालय"
      ],
      [
        "पृ",
        "ष्ठ"
      ],
      [
        "इतिहा",
        "स"
      ],
      [
        "पै",
        "की"
      ],
      [
        "t",
        "he"
      ],
      [
        "ग",
        "ण"
      ],
      [
        "ग",
        "ा"
      ],
      [
        "ग",
        "ु"
      ],
      [
        "च",
        "्"
      ],
      [
        "ण",
        "ात"
      ],
      [
        "त",
        "ु"
      ],
      [
        "त",
        "ां"
      ],
      [
        "त",
        "्ये"
      ],
      [
        "प",
        "क्ष"
      ],
      [
        "ब",
        "न"
      ],
      [
        "ब",
        "ौ"
      ],
      [
        "म",
        "ह"
      ],
      [
        "व",
        "ली"
      ],
      [
        "ष",
        "ा"
      ],
      [
        "स",
        "ी"
      ],
      [
        "०",
        "०"
      ],
      [
        "्र",
        "े"
      ],
      [
        "ाल",
        "े"
      ],
      [
        "िक",
        "ा"
      ],
      [
        "रा",
        "ष्ट्र"
      ],
      [
        "वि",
        "ष"
      ],
      [
        "वा",
        "धिक"
      ],
      [
        "ना",
        "ट"
      ],
      [
        "अस",
        "ले"
      ],
      [
        "अस",
        "ून"
      ],
      [
        "द्",
        "वी"
      ],
      [
        "वे",
        "ग"
      ],
      [
        "जात",
        "ो"
      ],
      [
        "ंद",
        "्र"
      ],
      [
        "ल्",
        "ली"
      ],
      [
        "कि",
        "ल्"
      ],
      [
        "काळ",
        "ात"
      ],
      [
        "इंग",
        "्र"
      ],
      [
        "बंग",
        "ाल"
      ],
      [
        "सर्",
        "वाधिक"
      ],
      [
        "पर्य",
        "ंत"
      ],
      [
        "सिंध",
        "ू"
      ],
      [
        "बौ",
        "द्ध"
      ],
      [
        "द्वी",
        "प"
      ],
      [
        "n",
        "d"
      ],
      [
        "अ",
        "ति"
      ],
      [
        "अ",
        "धिक"
      ],
      [
        "क",
        "ाली"
      ],
      [
        "ग",
        "ी"
      ],
      [
        "ट",
        "ी"
      ],
      [
        "ड",
        "ी"
      ],
      [
        "द",
        "ो"
      ],
      [
        "ध",
        "ान"
      ],
      [
        "न",
        "िक"
      ],
      [
        "प",
        "ठ"
      ],
      [
        "ब",
        "दल"
      ],
      [
        "भ",
        "े"
      ],
      [
        "म",
        "स"
      ],
      [
        "म",
        "हा"
      ],
      [
        "म",
        "ंत्र"
      ],
      [
        "य",
        "ं"
      ],
      [
        "ल",
        "ाल"
      ],
      [
        "ळ",
        "ू"
      ],
      [
        "व",
        "्"
      ],
      [
        "श",
        "त"
      ],
      [
        "श",
        "े"
      ],
      [
        "स",
        "भा"
      ],
      [
        "ह",
        "्या"
      ],
      [
        "ां",
        "नी"
      ],
      [
        "प्र",
        "त्ये"
      ],
      [
        "सा",
        "य"
      ],
      [
        "राज",
        "्यां"
      ],
      [
        "वर",
        "ील"
      ],
      [
        "पु",
        "र"
      ],
      [
        "पू",
        "र्"
      ],
      [
        "कर",
        "ून"
      ],
      [
        "दि",
        "ल्ली"
      ],
      [
        "क्र",
        "म"
      ],
      [
        "विद्या",
        "र्थ"
      ],
      [
        "येथ",
        "ील"
      ],
      [
        "जग",
        "ातील"
      ],
      [
        "समु",
        "द्र"
      ],
      [
        "महारा",
        "ष्ट्र"
      ],
      [
        "उदा",
        "हर"
      ],
      [
        "बां",
        "ध"
      ],
      [
        "अति",
        "श"
      ],
      [
        "काली",
        "न"
      ],
      [
        "प्रत्ये",
        "क"
      ],
      [
        "ं",
        "च"
      ],
      [
        "आ",
        "ले"
      ],
      [
        "इ",
        "म"
      ],
      [
        "इ",
        "स्"
      ],
      [
        "ओ",
        "ळ"
      ],
      [
        "क",
        "र्"
      ],
      [
        "ग",
        "्"
      ],
      [
        "ज",
        "ै"
      ],
      [
        "ज",
        "्या"
      ],
      [
        "ड",
        "ा"
      ],
      [
        "त",
        "्यां"
      ],
      [
        "त",
        "मिळ"
      ],
      [
        "द",
        "ु"
      ],
      [
        "ध",
        "्या"
      ],
      [
        "न",
        "ु"
      ],
      [
        "न",
        "ृ"
      ],
      [
        "न",
        "दी"
      ],
      [
        "प",
        "श्च"
      ],
      [
        "ब",
        "ी"
      ],
      [
        "म",
        "त"
      ],
      [
        "य",
        "ार"
      ],
      [
        "य",
        "ात"
      ],
      [
        "ळ",
        "ी"
      ],
      [
        "व",
        "ड"
      ],
      [
        "व",
        "ृ"
      ],
      [
        "स",
        "द"
      ],
      [
        "ह",
        "ळू"
      ],
      [
        "्",
        "थ"
      ],
      [
        "ात",
        "ंत्र"
      ],
      [
        "ां",
        "चे"
      ],
      [
        "ान",
        "ंतर"
      ],
      [
        "रा",
        "ष्ट"
      ],
      [
        "सा",
        "गर"
      ],
      [
        "मध",
        "्य"
      ],
      [
        "क्ष",
        "ण"
      ],
      [
        "वर",
        "ून"
      ],
      [
        "जात",
        "े"
      ],
      [
        "पर",
        "ंत"
      ],
      [
        "नि",
        "वड"
      ],
      [
        "्रप",
        "ती"
      ],
      [
        "सर",
        "कार"
      ],
      [
        "सर्व",
        "ांत"
      ],
      [
        "वर्ष",
        "ां"
      ],
      [
        "रु",
        "व"
      ],
      [
        "शा",
        "स्त्र"
      ],
      [
        "स्व",
        "ातंत्र"
      ],
      [
        "दक्षि",
        "णे"
      ],
      [
        "प्",
        "त"
      ],
      [
        "बहु",
        "तां"
      ],
      [
        "ज्",
        "ञ"
      ],
      [
        "ृष्ट",
        "्या"
      ],
      [
        "अर्थ",
        "व्यव"
      ],
      [
        "मोठ",
        "्या"
      ],
      [
        "पूर्",
        "ण"
      ],
      [
        "अतिश",
        "य"
      ],
      [
        "इम",
        "ारत"
      ],
      [
        "इस्",
        "ला"
      ],
      [
        "ओळ",
        "ख"
      ],
      [
        "पश्च",
        "ि"
      ],
      [
        "राष्ट",
        "्रपती"
      ],
      [
        "परंत",
        "ु"
      ],
      [
        "बहुतां",
        "शी"
      ],
      [
        "o",
        "f"
      ],
      [
        "अ",
        "थ"
      ],
      [
        "आ",
        "ढ"
      ],
      [
        "आ",
        "प"
      ],
      [
        "आ",
        "ली"
      ],
      [
        "आ",
        "क्रम"
      ],
      [
        "क",
        "ला"
      ],
      [
        "ख",
        "्"
      ],
      [
        "ग",
        "ंग"
      ],
      [
        "घ",
        "ल"
      ],
      [
        "ज",
        "िक"
      ],
      [
        "ट",
        "ा"
      ],
      [
        "ण",
        "ार"
      ],
      [
        "ण",
        "्यां"
      ],
      [
        "त",
        "यार"
      ],
      [
        "द",
        "ृष्ट्या"
      ],
      [
        "प",
        "ी"
      ],
      [
        "प",
        "े"
      ],
      [
        "म",
        "रा"
      ],
      [
        "य",
        "ी"
      ],
      [
        "श",
        "ै"
      ],
      [
        "श",
        "ास"
      ],
      [
        "स",
        "भे"
      ],
      [
        "स",
        "ध्या"
      ],
      [
        "्",
        "म"
      ],
      [
        "्",
        "त्व"
      ],
      [
        "ां",
        "ची"
      ],
      [
        "भारत",
        "ाचे"
      ],
      [
        "वा",
        "द"
      ],
      [
        "वा",
        "ह"
      ],
      [
        "मु",
        "घल"
      ],
      [
        "तर",
        "ी"
      ],
      [
        "सं",
        "ख"
      ],
      [
        "हो",
        "त"
      ],
      [
        "राज",
        "्यात"
      ],
      [
        "क्ष",
        "ा"
      ],
      [
        "वे",
        "श"
      ],
      [
        "पु",
        "रा"
      ],
      [
        "ंद",
        "ि"
      ],
      [
        "मो",
        "ठा"
      ],
      [
        "सु",
        "रू"
      ],
      [
        "सु",
        "रुव"
      ],
      [
        "शि",
        "या"
      ],
      [
        "शि",
        "ष्ट"
      ],
      [
        "मुख",
        "्याने"
      ],
      [
        "भाग",
        "ात"
      ],
      [
        "गे",
        "ट"
      ],
      [
        "कड",
        "े"
      ],
      [
        "प्रा",
        "मुख्याने"
      ],
      [
        "स्थान",
        "िक"
      ],
      [
        "म्हण",
        "ून"
      ],
      [
        "दक्षि",
        "ण"
      ],
      [
        "अज",
        "ून"
      ],
      [
        "खास",
        "दार"
      ],
      [
        "निर्",
        "मि"
      ],
      [
        "राष्ट्र",
        "ीय"
      ],
      [
        "वेग",
        "ळे"
      ],
      [
        "किल्",
        "ला"
      ],
      [
        "पठ",
        "ार"
      ],
      [
        "मंत्र",
        "ी"
      ],
      [
        "उदाहर",
        "ण"
      ],
      [
        "i",
        "a"
      ],
      [
        "m",
        "o"
      ],
      [
        "s",
        "t"
      ],
      [
        "अ",
        "भ"
      ],
      [
        "अ",
        "शी"
      ],
      [
        "उ",
        "द"
      ],
      [
        "क",
        "थ"
      ],
      [
        "क",
        "मी"
      ],
      [
        "ख",
        "न"
      ],
      [
        "च",
        "ळ"
      ],
      [
        "ठ",
        "िका"
      ],
      [
        "ड",
        "ू"
      ],
      [
        "द",
        "र्"
      ],
      [
        "द",
        "ख्"
      ],
      [
        "न",
        "्या"
      ],
      [
        "प",
        "ो"
      ],
      [
        "प",
        "ती"
      ],
      [
        "प",
        "ंत"
      ],
      [
        "ब",
        "त"
      ],
      [
        "ब",
        "र"
      ],
      [
        "भ",
        "ार"
      ],
      [
        "भ",
        "वन"
      ],
      [
        "र",
        "ंग"
      ],
      [
        "व",
        "स"
      ],
      [
        "श",
        "क"
      ],
      [
        "स",
        "म"
      ],
      [
        "स",
        "मा"
      ],
      [
        "ह",
        "ात"
      ],
      [
        "ि",
        "य"
      ],
      [
        "ू",
        "र"
      ],
      [
        "े",
        "त्र"
      ],
      [
        "ो",
        "ग"
      ],
      [
        "१",
        "२"
      ],
      [
        "५",
        "०"
      ],
      [
        "ां",
        "ना"
      ],
      [
        "भारत",
        "ाची"
      ],
      [
        "भारत",
        "ाने"
      ],
      [
        "स्",
        "ट"
      ],
      [
        "प्र",
        "ांत"
      ],
      [
        "प्र",
        "धान"
      ],
      [
        "सा",
        "मा"
      ],
      [
        "वा",
        "ळ"
      ],
      [
        "वा",
        "पर"
      ],
      [
        "ना",
        "डू"
      ],
      [
        "सं",
        "गी"
      ],
      [
        "सं",
        "सद"
      ],
      [
        "त्",
        "तर"
      ],
      [
        "क्ष",
        "ेत्र"
      ],
      [
        "त्या",
        "चे"
      ],
      [
        "पु",
        "त्र"
      ],
      [
        "कर",
        "तात"
      ],
      [
        "कर",
        "ण्यात"
      ],
      [
        "मान",
        "वी"
      ],
      [
        "गे",
        "ली"
      ],
      [
        "भू",
        "मी"
      ],
      [
        "कड",
        "ील"
      ],
      [
        "वै",
        "शिष्ट"
      ],
      [
        "सि",
        "द्ध"
      ],
      [
        "जा",
        "स्त"
      ],
      [
        "प्रा",
        "ण्यां"
      ],
      [
        "म्हण",
        "जे"
      ],
      [
        "पूर्वी",
        "चे"
      ],
      [
        "साम्राज",
        "्य"
      ],
      [
        "यु",
        "द्ध"
      ],
      [
        "गो",
        "ल"
      ],
      [
        "ण्या",
        "स"
      ],
      [
        "हिंद",
        "ू"
      ],
      [
        "भर",
        "त"
      ],
      [
        "च्",
        "छ"
      ],
      [
        "इंग्र",
        "जी"
      ],
      [
        "दो",
        "न"
      ],
      [
        "विद्यार्थ",
        "्यां"
      ],
      [
        "तमिळ",
        "नाडू"
      ],
      [
        "नृ",
        "त्य"
      ],
      [
        "अर्थव्यव",
        "स्था"
      ],
      [
        "इस्ला",
        "मी"
      ],
      [
        "अथ",
        "वा"
      ],
      [
        "आढ",
        "ळ"
      ],
      [
        "पे",
        "क्षा"
      ],
      [
        "निर्मि",
        "ती"
      ],
      [
        "चळ",
        "वळ"
      ],
      [
        "पंत",
        "प्रधान"
      ],
      [
        "सामा",
        "जिक"
      ],
      [
        "%",
        ";"
      ],
      [
        "r",
        "a"
      ],
      [
        "ं",
        "ट"
      ],
      [
        "ं",
        "ची"
      ],
      [
        "अ",
        "र"
      ],
      [
        "अ",
        "स्त"
      ],
      [
        "आ",
        "र्"
      ],
      [
        "आ",
        "र्थ"
      ],
      [
        "आ",
        "धार"
      ],
      [
        "इ",
        "त्या"
      ],
      [
        "ऋ",
        "ष"
      ],
      [
        "ऑ",
        "फ"
      ],
      [
        "ख",
        "ो"
      ],
      [
        "ग",
        "्रा"
      ],
      [
        "घ",
        "ट"
      ],
      [
        "घ",
        "ड"
      ],
      [
        "घ",
        "ो"
      ],
      [
        "च",
        "ि"
      ],
      [
        "ज",
        "वळ"
      ],
      [
        "ज",
        "यं"
      ],
      [
        "ट",
        "्"
      ],
      [
        "ड",
        "े"
      ],
      [
        "ण",
        "ू"
      ],
      [
        "द",
        "्यां"
      ],
      [
        "द",
        "्रा"
      ],
      [
        "न",
        "ार"
      ],
      [
        "न",
        "द्यां"
      ],
      [
        "प",
        "ात"
      ],
      [
        "ब",
        "ि"
      ],
      [
        "म",
        "र"
      ],
      [
        "म",
        "ै"
      ],
      [
        "म",
        "ंदि"
      ],
      [
        "र",
        "ि"
      ],
      [
        "ल",
        "ु"
      ],
      [
        "ळ",
        "ा"
      ],
      [
        "व",
        "िक"
      ],
      [
        "व",
        "साय"
      ],
      [
        "व",
        "ंट"
      ],
      [
        "श",
        "ह"
      ],
      [
        "श",
        "ो"
      ],
      [
        "श",
        "हर"
      ],
      [
        "ष",
        "े"
      ],
      [
        "स",
        "ात"
      ],
      [
        "स",
        "स्त"
      ],
      [
        "स",
        "ाली"
      ],
      [
        "स",
        "म्रा"
      ],
      [
        "स",
        "ऱ्या"
      ],
      [
        "ह",
        "ज"
      ],
      [
        "ा",
        "ळ"
      ],
      [
        "ृ",
        "त"
      ],
      [
        "१",
        "८"
      ],
      [
        "्या",
        "च्या"
      ],
      [
        "ात",
        "ून"
      ],
      [
        "र्",
        "ज"
      ],
      [
        "ां",
        "ग"
      ],
      [
        "ां",
        "वर"
      ],
      [
        "भारत",
        "ाला"
      ],
      [
        "स्",
        "वी"
      ],
      [
        "स्",
        "मार"
      ],
      [
        "स्",
        "पती"
      ],
      [
        "ले",
        "ला"
      ],
      [
        "वा",
        "घ"
      ],
      [
        "ना",
        "म"
      ],
      [
        "का",
        "म"
      ],
      [
        "ित",
        "्त्व"
      ],
      [
        "त्",
        "त्व"
      ],
      [
        "के",
        "ला"
      ],
      [
        "द्",
        "दल"
      ],
      [
        "राज",
        "्ये"
      ],
      [
        "पा",
        "कि"
      ],
      [
        "त्या",
        "मुळे"
      ],
      [
        "पू",
        "र"
      ],
      [
        "मान",
        "्य"
      ],
      [
        "स्त",
        "ान"
      ],
      [
        "विध",
        "ान"
      ],
      [
        "ये",
        "तात"
      ],
      [
        "ल्",
        "प"
      ],
      [
        "कि",
        "नार"
      ],
      [
        "णा",
        "ऱ्या"
      ],
      [
        "गे",
        "ल्या"
      ],
      [
        "वै",
        "विध"
      ],
      [
        "व्य",
        "ु"
      ],
      [
        "वार",
        "ी"
      ],
      [
        "वार",
        "े"
      ],
      [
        "प्रकार",
        "च्या"
      ],
      [
        "वर्ष",
        "ात"
      ],
      [
        "स्थाप",
        "त्य"
      ],
      [
        "वन",
        "स्पती"
      ],
      [
        "प्रदेश",
        "ात"
      ],
      [
        "इंग",
        "्"
      ],
      [
        "धार",
        "ण"
      ],
      [
        "धार",
        "्म"
      ],
      [
        "व्या",
        "वसाय"
      ],
      [
        "पार",
        "ं"
      ],
      [
        "ण्या",
        "ची"
      ],
      [
        "पड",
        "ले"
      ],
      [
        "पद",
        "वी"
      ],
      [
        "सो",
        "यी"
      ],
      [
        "सो",
        "बत"
      ],
      [
        "हिंद",
        "ी"
      ],
      [
        "उप",
        "सागर"
      ],
      [
        "सी",
        "मा"
      ],
      [
        "नाट",
        "के"
      ],
      [
        "बंगाल",
        "च्या"
      ],
      [
        "व्",
        "ह"
      ],
      [
        "शत",
        "क"
      ],
      [
        "जै",
        "न"
      ],
      [
        "नु",
        "सार"
      ],
      [
        "वर्षां",
        "पूर्वी"
      ],
      [
        "स्वातंत्र",
        "्य"
      ],
      [
        "पश्चि",
        "म"
      ],
      [
        "गंग",
        "े"
      ],
      [
        "अजून",
        "ही"
      ],
      [
        "दख्",
        "खन"
      ],
      [
        "वाळ",
        "वंट"
      ],
      [
        "संगी",
        "त"
      ],
      [
        "अस्त",
        "ित्त्व"
      ],
      [
        "आर्थ",
        "िक"
      ],
      [
        "इत्या",
        "दी"
      ],
      [
        "जयं",
        "ती"
      ],
      [
        "शह",
        "री"
      ],
      [
        "सस्त",
        "न"
      ],
      [
        "सम्रा",
        "ट"
      ],
      [
        "पाकि",
        "स्तान"
      ],
      [
        "धार्म",
        "िक"
      ],
      [
        "व्यावसाय",
        "िक"
      ],
      [
        "I",
        "nd"
      ],
      [
        "e",
        "r"
      ],
      [
        "m",
        "a"
      ],
      [
        "o",
        "m"
      ],
      [
        "r",
        "e"
      ],
      [
        "t",
        "er"
      ],
      [
        "ं",
        "चा"
      ],
      [
        "ं",
        "नी"
      ],
      [
        "अ",
        "ल"
      ],
      [
        "अ",
        "शिया"
      ],
      [
        "आ",
        "र"
      ],
      [
        "आ",
        "ला"
      ],
      [
        "क",
        "ल"
      ],
      [
        "क",
        "ु"
      ],
      [
        "क",
        "ू"
      ],
      [
        "क",
        "ाल"
      ],
      [
        "क",
        "च्छ"
      ],
      [
        "क",
        "ल्प"
      ],
      [
        "ख",
        "ाली"
      ],
      [
        "ग",
        "त"
      ],
      [
        "ग",
        "्र"
      ],
      [
        "ग",
        "ती"
      ],
      [
        "घ",
        "ात"
      ],
      [
        "ज",
        "ु"
      ],
      [
        "ज",
        "ो"
      ],
      [
        "ज",
        "रा"
      ],
      [
        "ज",
        "वा"
      ],
      [
        "ज",
        "ंग"
      ],
      [
        "ड",
        "ि"
      ],
      [
        "ण",
        "ु"
      ],
      [
        "त",
        "न"
      ],
      [
        "त",
        "ंत्र"
      ],
      [
        "थ",
        "े"
      ],
      [
        "थ",
        "ार"
      ],
      [
        "ध",
        "ा"
      ],
      [
        "ध",
        "ु"
      ],
      [
        "ध",
        "ो"
      ],
      [
        "न",
        "वी"
      ],
      [
        "न",
        "द्या"
      ],
      [
        "प",
        "त्"
      ],
      [
        "प",
        "र्व"
      ],
      [
        "प",
        "हि"
      ],
      [
        "प",
        "द्ध"
      ],
      [
        "प",
        "णे"
      ],
      [
        "प",
        "दार"
      ],
      [
        "फ",
        "े"
      ],
      [
        "ब",
        "े"
      ],
      [
        "ब",
        "ॉ"
      ],
      [
        "ब",
        "ार"
      ],
      [
        "ब",
        "रो"
      ],
      [
        "ब",
        "द्दल"
      ],
      [
        "भ",
        "ी"
      ],
      [
        "भ",
        "दे"
      ],
      [
        "म",
        "ंच"
      ],
      [
        "य",
        "श"
      ],
      [
        "य",
        "ातील"
      ],
      [
        "र",
        "च"
      ],
      [
        "व",
        "ू"
      ],
      [
        "व",
        "णात"
      ],
      [
        "श",
        "न"
      ],
      [
        "श",
        "्र"
      ],
      [
        "श",
        "ाले"
      ],
      [
        "ष",
        "ित"
      ],
      [
        "ष",
        "भू"
      ],
      [
        "स",
        "ह"
      ],
      [
        "स",
        "ू"
      ],
      [
        "स",
        "ै"
      ],
      [
        "स",
        "मू"
      ],
      [
        "स",
        "ृष्ट"
      ],
      [
        "स",
        "ह्या"
      ],
      [
        "ी",
        "च्या"
      ],
      [
        "ू",
        "ण"
      ],
      [
        "ौ",
        "र"
      ],
      [
        "१",
        "१"
      ],
      [
        "१",
        "५"
      ],
      [
        "१",
        "६"
      ],
      [
        "१",
        "७"
      ],
      [
        "२",
        "६"
      ],
      [
        "्य",
        "ोग"
      ],
      [
        "्या",
        "चे"
      ],
      [
        "्या",
        "नंतर"
      ],
      [
        "ार",
        "ी"
      ],
      [
        "ात",
        "न"
      ],
      [
        "ां",
        "तात"
      ],
      [
        "ां",
        "पैकी"
      ],
      [
        "भारत",
        "ाचा"
      ],
      [
        "स्",
        "वर"
      ],
      [
        "स्",
        "कार"
      ],
      [
        "प्र",
        "सिद्ध"
      ],
      [
        "प्र",
        "ांतात"
      ],
      [
        "ले",
        "ल्या"
      ],
      [
        "ले",
        "णी"
      ],
      [
        "सा",
        "द"
      ],
      [
        "वि",
        "ले"
      ],
      [
        "वि",
        "भाग"
      ],
      [
        "वा",
        "ढ"
      ],
      [
        "वा",
        "टा"
      ],
      [
        "ती",
        "य"
      ],
      [
        "या",
        "स"
      ],
      [
        "ना",
        "ही"
      ],
      [
        "मु",
        "ल"
      ],
      [
        "मु",
        "ंब"
      ],
      [
        "सं",
        "ब"
      ],
      [
        "अस",
        "ल्या"
      ],
      [
        "के",
        "वळ"
      ],
      [
        "के",
        "ंद्र"
      ],
      [
        "हो",
        "त्या"
      ],
      [
        "ची",
        "न"
      ],
      [
        "भा",
        "षा"
      ],
      [
        "भा",
        "षे"
      ],
      [
        "्यां",
        "चे"
      ],
      [
        "वे",
        "द"
      ],
      [
        "वे",
        "षभू"
      ],
      [
        "कार",
        "भार"
      ],
      [
        "मा",
        "ण"
      ],
      [
        "त्या",
        "त"
      ],
      [
        "जात",
        "ात"
      ],
      [
        "कर",
        "णे"
      ],
      [
        "ये",
        "ते"
      ],
      [
        "कृ",
        "ष्ट"
      ],
      [
        "काळ",
        "ातील"
      ],
      [
        "दि",
        "वस"
      ],
      [
        "एक",
        "ूण"
      ],
      [
        "मिळ",
        "ते"
      ],
      [
        "मिळ",
        "तात"
      ],
      [
        "गे",
        "ले"
      ],
      [
        "धर्म",
        "ीय"
      ],
      [
        "सर्व",
        "ो"
      ],
      [
        "१९",
        "७"
      ],
      [
        "१९",
        "९"
      ],
      [
        "संस्कृ",
        "त"
      ],
      [
        "लि",
        "वू"
      ],
      [
        "स्थाप",
        "न"
      ],
      [
        "जी",
        "व"
      ],
      [
        "द्र",
        "ी"
      ],
      [
        "यां",
        "च्या"
      ],
      [
        "नाव",
        "ाने"
      ],
      [
        "नाव",
        "ाचा"
      ],
      [
        "जे",
        "वणात"
      ],
      [
        "मार",
        "्"
      ],
      [
        "वन",
        "्य"
      ],
      [
        "म्हण",
        "तात"
      ],
      [
        "को",
        "टी"
      ],
      [
        "पार",
        "िक"
      ],
      [
        "येथ",
        "े"
      ],
      [
        "पद",
        "व्यु"
      ],
      [
        "उत्तर",
        "े"
      ],
      [
        "प्रमा",
        "णात"
      ],
      [
        "लाग",
        "ले"
      ],
      [
        "गण",
        "ला"
      ],
      [
        "गु",
        "प्त"
      ],
      [
        "च्",
        "च"
      ],
      [
        "मह",
        "त्त्व"
      ],
      [
        "विष",
        "य"
      ],
      [
        "नाट",
        "क"
      ],
      [
        "असले",
        "ली"
      ],
      [
        "इंग्र",
        "ज"
      ],
      [
        "द्वीप",
        "समू"
      ],
      [
        "व्",
        "हा"
      ],
      [
        "शे",
        "ती"
      ],
      [
        "पुर",
        "ातन"
      ],
      [
        "पुर",
        "स्कार"
      ],
      [
        "हळू",
        "हळू"
      ],
      [
        "क्षण",
        "िक"
      ],
      [
        "ओळख",
        "ले"
      ],
      [
        "णार",
        "े"
      ],
      [
        "शै",
        "ली"
      ],
      [
        "सुरुव",
        "ात"
      ],
      [
        "ठिका",
        "णी"
      ],
      [
        "समा",
        "वेश"
      ],
      [
        "वैशिष्ट",
        "्य"
      ],
      [
        "युद्ध",
        "ात"
      ],
      [
        "आढळ",
        "तात"
      ],
      [
        "आधार",
        "ित"
      ],
      [
        "मंदि",
        "रे"
      ],
      [
        "वैविध",
        "्य"
      ],
      [
        "पारं",
        "पारिक"
      ],
      [
        "Ind",
        "ia"
      ],
      [
        "अशिया",
        "ई"
      ],
      [
        "थार",
        "चे"
      ],
      [
        "पद्ध",
        "ती"
      ],
      [
        "पदार",
        "्थ"
      ],
      [
        "बॉ",
        "लिवू"
      ],
      [
        "बरो",
        "बर"
      ],
      [
        "शाले",
        "य"
      ],
      [
        "सृष्ट",
        "ी"
      ],
      [
        "सह्या",
        "द्री"
      ],
      [
        "स्वर",
        "ू"
      ],
      [
        "मुंब",
        "ई"
      ],
      [
        "पदव्यु",
        "त्तर"
      ],
      [
        "द्वीपसमू",
        "ह"
      ],
      [
        "बॉलिवू",
        "ड"
      ],
      [
        "e",
        "ter"
      ],
      [
        "i",
        "l"
      ],
      [
        "i",
        "n"
      ],
      [
        "k",
        "il"
      ],
      [
        "l",
        "e"
      ],
      [
        "o",
        "r"
      ],
      [
        "ं",
        "प"
      ],
      [
        "ं",
        "ह"
      ],
      [
        "ं",
        "जा"
      ],
      [
        "अ",
        "श"
      ],
      [
        "अ",
        "रा"
      ],
      [
        "अ",
        "ंद"
      ],
      [
        "अ",
        "ग्"
      ],
      [
        "अ",
        "नु"
      ],
      [
        "अ",
        "णु"
      ],
      [
        "आ",
        "म"
      ],
      [
        "आ",
        "सा"
      ],
      [
        "आ",
        "कर्"
      ],
      [
        "आ",
        "धु"
      ],
      [
        "ई",
        "श"
      ],
      [
        "उ",
        "ष्"
      ],
      [
        "उ",
        "ठा"
      ],
      [
        "ऊ",
        "न"
      ],
      [
        "ओ",
        "घात"
      ],
      [
        "ओ",
        "डि"
      ],
      [
        "क",
        "ले"
      ],
      [
        "क",
        "ीय"
      ],
      [
        "क",
        "मान"
      ],
      [
        "ख",
        "क"
      ],
      [
        "ख",
        "्या"
      ],
      [
        "ख",
        "ाल"
      ],
      [
        "ख",
        "ील"
      ],
      [
        "ख",
        "ंड"
      ],
      [
        "ग",
        "ड"
      ],
      [
        "ग",
        "ि"
      ],
      [
        "ग",
        "्रे"
      ],
      [
        "घ",
        "ा"
      ],
      [
        "च",
        "ल"
      ],
      [
        "च",
        "ाल"
      ],
      [
        "छ",
        "ा"
      ],
      [
        "ज",
        "न"
      ],
      [
        "ज",
        "ाने"
      ],
      [
        "ट",
        "ो"
      ],
      [
        "ड",
        "्रा"
      ],
      [
        "ण",
        "ि"
      ],
      [
        "त",
        "त्"
      ],
      [
        "द",
        "ह"
      ],
      [
        "ध",
        "ी"
      ],
      [
        "ध",
        "्र"
      ],
      [
        "न",
        "ै"
      ],
      [
        "न",
        "ात"
      ],
      [
        "न",
        "मु"
      ],
      [
        "न",
        "मार"
      ],
      [
        "न",
        "गर"
      ],
      [
        "प",
        "ट"
      ],
      [
        "प",
        "ां"
      ],
      [
        "प",
        "ाच"
      ],
      [
        "प",
        "ान"
      ],
      [
        "प",
        "सं"
      ],
      [
        "प",
        "ंजा"
      ],
      [
        "ब",
        "्"
      ],
      [
        "ब",
        "ंद"
      ],
      [
        "म",
        "्या"
      ],
      [
        "म",
        "हि"
      ],
      [
        "म",
        "ंड"
      ],
      [
        "म",
        "ौर"
      ],
      [
        "य",
        "ो"
      ],
      [
        "य",
        "त्"
      ],
      [
        "र",
        "ण"
      ],
      [
        "र",
        "णा"
      ],
      [
        "ल",
        "ो"
      ],
      [
        "ल",
        "ग्"
      ],
      [
        "व",
        "ान"
      ],
      [
        "व",
        "तात"
      ],
      [
        "व",
        "वृ"
      ],
      [
        "ष",
        "िक"
      ],
      [
        "स",
        "व"
      ],
      [
        "स",
        "ां"
      ],
      [
        "स",
        "ित"
      ],
      [
        "स",
        "दे"
      ],
      [
        "स",
        "मी"
      ],
      [
        "ह",
        "ान"
      ],
      [
        "ि",
        "ं"
      ],
      [
        "ु",
        "ष्"
      ],
      [
        "ृ",
        "ह"
      ],
      [
        "१",
        "०"
      ],
      [
        "१",
        "३"
      ],
      [
        "‍",
        "नी"
      ],
      [
        "्या",
        "ची"
      ],
      [
        "ां",
        "मुळे"
      ],
      [
        "स्",
        "वा"
      ],
      [
        "प्र",
        "े"
      ],
      [
        "प्र",
        "मुख"
      ],
      [
        "प्र",
        "श्"
      ],
      [
        "प्र",
        "िय"
      ],
      [
        "प्र",
        "गती"
      ],
      [
        "ील",
        "ा"
      ],
      [
        "ले",
        "ले"
      ],
      [
        "ले",
        "ली"
      ],
      [
        "ले",
        "खक"
      ],
      [
        "रा",
        "ण"
      ],
      [
        "सा",
        "धारण"
      ],
      [
        "ला",
        "भ"
      ],
      [
        "वि",
        "स्त"
      ],
      [
        "वा",
        "दी"
      ],
      [
        "या",
        "मुळे"
      ],
      [
        "ना",
        "थ"
      ],
      [
        "ना",
        "भ"
      ],
      [
        "ना",
        "ऱ्या"
      ],
      [
        "का",
        "श्"
      ],
      [
        "सं",
        "पूर्ण"
      ],
      [
        "सं",
        "लग्"
      ],
      [
        "अस",
        "ली"
      ],
      [
        "अस",
        "तात"
      ],
      [
        "अस",
        "तो"
      ],
      [
        "दे",
        "खील"
      ],
      [
        "त्",
        "वे"
      ],
      [
        "त्",
        "ता"
      ],
      [
        "हो",
        "तो"
      ],
      [
        "राज",
        "व"
      ],
      [
        "राज",
        "ा"
      ],
      [
        "राज",
        "स्थान"
      ],
      [
        "राज",
        "कीय"
      ],
      [
        "भा",
        "व"
      ],
      [
        "्यां",
        "च्या"
      ],
      [
        "्यां",
        "चा"
      ],
      [
        "्यां",
        "मध्ये"
      ],
      [
        "भारतीय",
        "ांनी"
      ],
      [
        "देश",
        "ात"
      ],
      [
        "ातील",
        "ा"
      ],
      [
        "पा",
        "ठ"
      ],
      [
        "पा",
        "वली"
      ],
      [
        "त्या",
        "ला"
      ],
      [
        "पु",
        "ढ"
      ],
      [
        "पु",
        "त"
      ],
      [
        "हि",
        "ं"
      ],
      [
        "कर",
        "त"
      ],
      [
        "ति",
        "सऱ्या"
      ],
      [
        "मो",
        "ठी"
      ],
      [
        "मो",
        "समी"
      ],
      [
        "मी",
        "ण"
      ],
      [
        "नि",
        "ध्र"
      ],
      [
        "स्त",
        "रा"
      ],
      [
        "सु",
        "मार"
      ],
      [
        "कि",
        "नाऱ्या"
      ],
      [
        "काळ",
        "ाच्या"
      ],
      [
        "दि",
        "ला"
      ],
      [
        "णा",
        "मुळे"
      ],
      [
        "से",
        "व"
      ],
      [
        "मिळ",
        "ाले"
      ],
      [
        "चित्रपट",
        "सृष्टी"
      ],
      [
        "भू",
        "भाग"
      ],
      [
        "भू",
        "गोल"
      ],
      [
        "आण",
        "ली"
      ],
      [
        "कड",
        "ून"
      ],
      [
        "धर्म",
        "ाचा"
      ],
      [
        "लोक",
        "सभा"
      ],
      [
        "लोक",
        "सभे"
      ],
      [
        "सर",
        "स्व"
      ],
      [
        "सि",
        "ंह"
      ],
      [
        "१९",
        "२"
      ],
      [
        "लि",
        "श"
      ],
      [
        "प्रकार",
        "चे"
      ],
      [
        "साहित",
        "्यात"
      ],
      [
        "उत्",
        "कृष्ट"
      ],
      [
        "यां",
        "ना"
      ],
      [
        "यां",
        "चा"
      ],
      [
        "यां",
        "नी"
      ],
      [
        "झाले",
        "ले"
      ],
      [
        "जे",
        "चे"
      ],
      [
        "शा",
        "हज"
      ],
      [
        "गर",
        "जेचे"
      ],
      [
        "प्रदेश",
        "ातील"
      ],
      [
        "शिक्षण",
        "पद्धती"
      ],
      [
        "रो",
        "प"
      ],
      [
        "रो",
        "जी"
      ],
      [
        "राज्य",
        "सभे"
      ],
      [
        "पूर्वी",
        "च्या"
      ],
      [
        "इंड",
        "ो"
      ],
      [
        "यु",
        "ग"
      ],
      [
        "यु",
        "रोप"
      ],
      [
        "प्",
        "पा"
      ],
      [
        "मू",
        "ळ"
      ],
      [
        "विद्या",
        "पी"
      ],
      [
        "मुख्य",
        "त्वे"
      ],
      [
        "घे",
        "त"
      ],
      [
        "घे",
        "ण्यास"
      ],
      [
        "सार",
        "ख्या"
      ],
      [
        "न्",
        "स"
      ],
      [
        "प्रमा",
        "ण"
      ],
      [
        "प्रमा",
        "णा"
      ],
      [
        "व्यव",
        "साय"
      ],
      [
        "आहार",
        "ात"
      ],
      [
        "मोठ",
        "े"
      ],
      [
        "पृष्ठ",
        "ीय"
      ],
      [
        "the",
        "r"
      ],
      [
        "पक्ष",
        "ास"
      ],
      [
        "बन",
        "विले"
      ],
      [
        "किल्",
        "ल्या"
      ],
      [
        "द्वीप",
        "कल्प"
      ],
      [
        "अधिक",
        "ृत"
      ],
      [
        "मस",
        "ाल"
      ],
      [
        "मस",
        "ाले"
      ],
      [
        "महा",
        "सागर"
      ],
      [
        "विद्यार्थ",
        "ी"
      ],
      [
        "महाराष्ट्र",
        "ातील"
      ],
      [
        "आले",
        "ल्या"
      ],
      [
        "कर्",
        "नाटक"
      ],
      [
        "जै",
        "व"
      ],
      [
        "ज्या",
        "चा"
      ],
      [
        "त्यां",
        "ची"
      ],
      [
        "वृ",
        "क्ष"
      ],
      [
        "निवड",
        "णू"
      ],
      [
        "शास्त्र",
        "ीय"
      ],
      [
        "दक्षिणे",
        "कडील"
      ],
      [
        "ज्ञ",
        "ान"
      ],
      [
        "इमारत",
        "ी"
      ],
      [
        "पश्चि",
        "मे"
      ],
      [
        "आप",
        "ले"
      ],
      [
        "आक्रम",
        "णे"
      ],
      [
        "मरा",
        "ठा"
      ],
      [
        "शै",
        "क्षणिक"
      ],
      [
        "शास",
        "न"
      ],
      [
        "शास",
        "ित"
      ],
      [
        "संख",
        "्या"
      ],
      [
        "राज्यात",
        "ील"
      ],
      [
        "सुरुव",
        "ातीला"
      ],
      [
        "mo",
        "ther"
      ],
      [
        "अभ",
        "ि"
      ],
      [
        "उद",
        "्योग"
      ],
      [
        "कथ",
        "ा"
      ],
      [
        "रंग",
        "मंच"
      ],
      [
        "चळवळ",
        "ी"
      ],
      [
        "अर",
        "बी"
      ],
      [
        "ऋष",
        "भदे"
      ],
      [
        "ग्रा",
        "मीण"
      ],
      [
        "ट्",
        "ट"
      ],
      [
        "मै",
        "ल"
      ],
      [
        "विक",
        "सित"
      ],
      [
        "शो",
        "ध"
      ],
      [
        "शहर",
        "े"
      ],
      [
        "स्मार",
        "क"
      ],
      [
        "इंग्",
        "लिश"
      ],
      [
        "उपसागर",
        "ाला"
      ],
      [
        "शतक",
        "ात"
      ],
      [
        "गंगे",
        "च्या"
      ],
      [
        "दख्खन",
        "च्या"
      ],
      [
        "अस्तित्त्व",
        "ात"
      ],
      [
        "ma",
        "n"
      ],
      [
        "om",
        "eter"
      ],
      [
        "जंग",
        "ले"
      ],
      [
        "पत्",
        "‍नी"
      ],
      [
        "पर्व",
        "त"
      ],
      [
        "यश",
        "स्वी"
      ],
      [
        "रच",
        "ना"
      ],
      [
        "सै",
        "निक"
      ],
      [
        "केंद्र",
        "शासित"
      ],
      [
        "वेषभू",
        "षा"
      ],
      [
        "सर्वो",
        "च्च"
      ],
      [
        "kil",
        "ometer"
      ],
      [
        "अरा",
        "वली"
      ],
      [
        "अग्",
        "निध्र"
      ],
      [
        "आम",
        "दार"
      ],
      [
        "आसा",
        "म"
      ],
      [
        "आधु",
        "निक"
      ],
      [
        "ईश",
        "ान"
      ],
      [
        "उष्",
        "ण"
      ],
      [
        "उठा",
        "व"
      ],
      [
        "जाने",
        "वारी"
      ],
      [
        "तत्",
        "कालीन"
      ],
      [
        "दह",
        "शत"
      ],
      [
        "नमु",
        "ने"
      ],
      [
        "पंजा",
        "ब"
      ],
      [
        "बंद",
        "र"
      ],
      [
        "म्या",
        "नमार"
      ],
      [
        "ुष्",
        "क"
      ],
      [
        "प्रश्",
        "न"
      ],
      [
        "साधारण",
        "पणे"
      ],
      [
        "विस्त",
        "ार"
      ],
      [
        "संलग्",
        "न"
      ],
      [
        "सरस्व",
        "ती"
      ],
      [
        "शाहज",
        "हान"
      ],
      [
        "kilometer",
        "s"
      ],
      [
        "A",
        "r"
      ],
      [
        "a",
        "nd"
      ],
      [
        "c",
        "e"
      ],
      [
        "c",
        "h"
      ],
      [
        "g",
        "ra"
      ],
      [
        "h",
        "i"
      ],
      [
        "h",
        "u"
      ],
      [
        "i",
        "t"
      ],
      [
        "o",
        "n"
      ],
      [
        "u",
        "c"
      ],
      [
        "ँ",
        "ग्रे"
      ],
      [
        "ं",
        "श"
      ],
      [
        "ं",
        "वा"
      ],
      [
        "ं",
        "वर"
      ],
      [
        "ं",
        "पी"
      ],
      [
        "ं",
        "जो"
      ],
      [
        "अ",
        "ख"
      ],
      [
        "अ",
        "व"
      ],
      [
        "अ",
        "‍"
      ],
      [
        "अ",
        "सा"
      ],
      [
        "अ",
        "मे"
      ],
      [
        "आ",
        "कार"
      ],
      [
        "आ",
        "ल्या"
      ],
      [
        "आ",
        "दि"
      ],
      [
        "आ",
        "शि"
      ],
      [
        "आ",
        "द्र"
      ],
      [
        "आ",
        "ंब"
      ],
      [
        "आ",
        "घा"
      ],
      [
        "इ",
        "ट"
      ],
      [
        "इ",
        "त"
      ],
      [
        "इ",
        "स"
      ],
      [
        "इ",
        "ंद्र"
      ],
      [
        "इ",
        "व्ह"
      ],
      [
        "इ",
        "राण"
      ],
      [
        "ई",
        "स्ट"
      ],
      [
        "उ",
        "न"
      ],
      [
        "उ",
        "म"
      ],
      [
        "उ",
        "र्"
      ],
      [
        "उ",
        "र्व"
      ],
      [
        "ऋ",
        "त्य"
      ],
      [
        "ए",
        "का"
      ],
      [
        "ऑ",
        "ग"
      ],
      [
        "ऑ",
        "स्"
      ],
      [
        "ऑ",
        "स्ट"
      ],
      [
        "क",
        "म"
      ],
      [
        "क",
        "ॅ"
      ],
      [
        "क",
        "ान"
      ],
      [
        "क",
        "नि"
      ],
      [
        "क",
        "ांच्या"
      ],
      [
        "क",
        "न्या"
      ],
      [
        "क",
        "ंप"
      ],
      [
        "ख",
        "ु"
      ],
      [
        "ख",
        "ात"
      ],
      [
        "ख",
        "ून"
      ],
      [
        "ख",
        "ित"
      ],
      [
        "ख",
        "्रि"
      ],
      [
        "ग",
        "म"
      ],
      [
        "ग",
        "ल"
      ],
      [
        "ग",
        "ां"
      ],
      [
        "ग",
        "ला"
      ],
      [
        "ग",
        "री"
      ],
      [
        "ग",
        "डा"
      ],
      [
        "ग",
        "ळी"
      ],
      [
        "ग",
        "पूर"
      ],
      [
        "ग",
        "व्ह"
      ],
      [
        "घ",
        "रा"
      ],
      [
        "च",
        "र"
      ],
      [
        "च",
        "ो"
      ],
      [
        "च",
        "क्र"
      ],
      [
        "च",
        "स्व"
      ],
      [
        "च",
        "तु"
      ],
      [
        "च",
        "ांग"
      ],
      [
        "ज",
        "ड"
      ],
      [
        "ज",
        "म"
      ],
      [
        "ज",
        "र"
      ],
      [
        "ज",
        "ल"
      ],
      [
        "ज",
        "ॉ"
      ],
      [
        "ज",
        "्य"
      ],
      [
        "ज",
        "म्"
      ],
      [
        "ज",
        "ंब"
      ],
      [
        "ज",
        "मह"
      ],
      [
        "झ",
        "र्व"
      ],
      [
        "ट",
        "े"
      ],
      [
        "ड",
        "ॉ"
      ],
      [
        "ड",
        "कर"
      ],
      [
        "ढ",
        "ऱ्या"
      ],
      [
        "ण",
        "युग"
      ],
      [
        "त",
        "ृ"
      ],
      [
        "त",
        "िक"
      ],
      [
        "त",
        "ान"
      ],
      [
        "त",
        "च्या"
      ],
      [
        "त",
        "ही"
      ],
      [
        "त",
        "द्"
      ],
      [
        "त",
        "ज्ञ"
      ],
      [
        "थ",
        "ंड"
      ],
      [
        "द",
        "ान"
      ],
      [
        "द",
        "ली"
      ],
      [
        "द",
        "गड"
      ],
      [
        "ध",
        "ड"
      ],
      [
        "ध",
        "र"
      ],
      [
        "ध",
        "्य"
      ],
      [
        "न",
        "ो"
      ],
      [
        "न",
        "ौ"
      ],
      [
        "न",
        "्य"
      ],
      [
        "न",
        "ां"
      ],
      [
        "न",
        "ष्ट"
      ],
      [
        "न",
        "मू"
      ],
      [
        "प",
        "ण"
      ],
      [
        "प",
        "र्"
      ],
      [
        "प",
        "ाल"
      ],
      [
        "प",
        "रा"
      ],
      [
        "प",
        "हा"
      ],
      [
        "प",
        "हात"
      ],
      [
        "प",
        "र्ज"
      ],
      [
        "प",
        "तन"
      ],
      [
        "फ",
        "ळ"
      ],
      [
        "फ",
        "्"
      ],
      [
        "फ",
        "्रे"
      ],
      [
        "फ",
        "ाळ"
      ],
      [
        "ब",
        "ट"
      ],
      [
        "ब",
        "ळ"
      ],
      [
        "ब",
        "ती"
      ],
      [
        "ब",
        "द्ध"
      ],
      [
        "ब",
        "री"
      ],
      [
        "ब",
        "दार"
      ],
      [
        "ब",
        "ंध"
      ],
      [
        "भ",
        "ु"
      ],
      [
        "भ",
        "ौ"
      ],
      [
        "म",
        "न"
      ],
      [
        "म",
        "ृ"
      ],
      [
        "म",
        "ां"
      ],
      [
        "म",
        "ित"
      ],
      [
        "म",
        "ते"
      ],
      [
        "म",
        "री"
      ],
      [
        "म",
        "लि"
      ],
      [
        "म",
        "माण"
      ],
      [
        "म",
        "णि"
      ],
      [
        "य",
        "ण"
      ],
      [
        "य",
        "न"
      ],
      [
        "य",
        "ाच"
      ],
      [
        "य",
        "मु"
      ],
      [
        "य",
        "ाचे"
      ],
      [
        "य",
        "दा"
      ],
      [
        "य",
        "ाचा"
      ],
      [
        "य",
        "ानंतर"
      ],
      [
        "य",
        "ोग"
      ],
      [
        "र",
        "त"
      ],
      [
        "र",
        "ळ"
      ],
      [
        "र",
        "का"
      ],
      [
        "र",
        "ित"
      ],
      [
        "र",
        "क्षण"
      ],
      [
        "र",
        "डे"
      ],
      [
        "र",
        "ममाण"
      ],
      [
        "ऱ",
        "्यां"
      ],
      [
        "ऱ",
        "्यात"
      ],
      [
        "ल",
        "य"
      ],
      [
        "ल",
        "ू"
      ],
      [
        "ल",
        "ंड"
      ],
      [
        "ल",
        "ंब"
      ],
      [
        "ल",
        "गत"
      ],
      [
        "ल",
        "ब्"
      ],
      [
        "ळ",
        "ची"
      ],
      [
        "ळ",
        "कार"
      ],
      [
        "व",
        "त"
      ],
      [
        "व",
        "ला"
      ],
      [
        "व",
        "ने"
      ],
      [
        "व",
        "ाच्या"
      ],
      [
        "व",
        "ाला"
      ],
      [
        "व",
        "ालय"
      ],
      [
        "श",
        "ृ"
      ],
      [
        "श",
        "िक"
      ],
      [
        "श",
        "ुष्क"
      ],
      [
        "ष",
        "णा"
      ],
      [
        "स",
        "न"
      ],
      [
        "स",
        "ाच"
      ],
      [
        "स",
        "रा"
      ],
      [
        "स",
        "भाग"
      ],
      [
        "स",
        "िक्"
      ],
      [
        "स",
        "्रि"
      ],
      [
        "स",
        "चि"
      ],
      [
        "ह",
        "्य"
      ],
      [
        "ह",
        "ळे"
      ],
      [
        "ह",
        "ंपी"
      ],
      [
        "ा",
        "वर"
      ],
      [
        "ा",
        "मध्ये"
      ],
      [
        "ा",
        "साठी"
      ],
      [
        "ा",
        "प्रमा"
      ],
      [
        "ा",
        "वरील"
      ],
      [
        "ि",
        "प"
      ],
      [
        "ि",
        "ल"
      ],
      [
        "ी",
        "क"
      ],
      [
        "ी",
        "न"
      ],
      [
        "ु",
        "स्थान"
      ],
      [
        "ु",
        "सार"
      ],
      [
        "ु",
        "ववृ"
      ],
      [
        "ू",
        "द्वीप"
      ],
      [
        "े",
        "त"
      ],
      [
        "े",
        "डकर"
      ],
      [
        "ो",
        "बार"
      ],
      [
        "२",
        "८"
      ],
      [
        "२",
        "००"
      ],
      [
        "३",
        "८"
      ],
      [
        "४",
        "५"
      ],
      [
        "४",
        "७"
      ],
      [
        "४",
        "८"
      ],
      [
        "५",
        "५"
      ],
      [
        "५",
        "७"
      ],
      [
        "५",
        "००"
      ],
      [
        "्या",
        "चा"
      ],
      [
        "हे",
        "ब"
      ],
      [
        "हे",
        "ंजो"
      ],
      [
        "ां",
        "क"
      ],
      [
        "ां",
        "वि"
      ],
      [
        "ां",
        "साठी"
      ],
      [
        "ां",
        "पासून"
      ],
      [
        "ां",
        "सोबत"
      ],
      [
        "ां",
        "चल"
      ],
      [
        "भारत",
        "भर"
      ],
      [
        "स्",
        "फे"
      ],
      [
        "प्र",
        "ण"
      ],
      [
        "प्र",
        "भा"
      ],
      [
        "प्र",
        "ति"
      ],
      [
        "प्र",
        "वेश"
      ],
      [
        "ान",
        "्"
      ],
      [
        "रा",
        "मा"
      ],
      [
        "सा",
        "डी"
      ],
      [
        "सा",
        "जरा"
      ],
      [
        "सा",
        "हेब"
      ],
      [
        "वा",
        "ट"
      ],
      [
        "वा",
        "स्त"
      ],
      [
        "वा",
        "मुळे"
      ],
      [
        "वा",
        "जी"
      ],
      [
        "ती",
        "नंतर"
      ],
      [
        "या",
        "दी"
      ],
      [
        "या",
        "साठी"
      ],
      [
        "ना",
        "गर"
      ],
      [
        "ना",
        "इट"
      ],
      [
        "ना",
        "गपूर"
      ],
      [
        "मु",
        "द्"
      ],
      [
        "का",
        "वे"
      ],
      [
        "का",
        "हार"
      ],
      [
        "का",
        "बी"
      ],
      [
        "का",
        "वरून"
      ],
      [
        "का",
        "ँग्रे"
      ],
      [
        "ष्",
        "ठा"
      ],
      [
        "ने",
        "हर"
      ],
      [
        "ने",
        "शिया"
      ],
      [
        "सं",
        "त"
      ],
      [
        "सं",
        "प"
      ],
      [
        "सं",
        "दर्"
      ],
      [
        "सं",
        "विधान"
      ],
      [
        "सं",
        "सदे"
      ],
      [
        "सं",
        "शोध"
      ],
      [
        "सं",
        "रक्षण"
      ],
      [
        "अस",
        "त"
      ],
      [
        "अस",
        "णे"
      ],
      [
        "मध",
        "े"
      ],
      [
        "ते",
        "थे"
      ],
      [
        "्ये",
        "कडील"
      ],
      [
        "के",
        "ल्या"
      ],
      [
        "के",
        "रळ"
      ],
      [
        "हो",
        "य"
      ],
      [
        "द्",
        "वारे"
      ],
      [
        "क्ष",
        "णामुळे"
      ],
      [
        "भा",
        "वार"
      ],
      [
        "भा",
        "ज्या"
      ],
      [
        "्यां",
        "ची"
      ],
      [
        "त्र",
        "ि"
      ],
      [
        "देश",
        "्य"
      ],
      [
        "देश",
        "ातील"
      ],
      [
        "देश",
        "ाचे"
      ],
      [
        "देश",
        "ांमध्ये"
      ],
      [
        "वर",
        "ी"
      ],
      [
        "स्थ",
        "ित"
      ],
      [
        "स्थ",
        "ेत"
      ],
      [
        "वे",
        "ढ"
      ],
      [
        "वे",
        "रू"
      ],
      [
        "वे",
        "ळा"
      ],
      [
        "मा",
        "ग"
      ],
      [
        "मा",
        "श"
      ],
      [
        "मा",
        "ध्य"
      ],
      [
        "झाल",
        "्यानंतर"
      ],
      [
        "पा",
        "ट"
      ],
      [
        "पा",
        "व"
      ],
      [
        "पा",
        "ठी"
      ],
      [
        "त्या",
        "ने"
      ],
      [
        "त्या",
        "ची"
      ],
      [
        "त्या",
        "साठी"
      ],
      [
        "पु",
        "री"
      ],
      [
        "पु",
        "रु"
      ],
      [
        "पु",
        "न्"
      ],
      [
        "हि",
        "मा"
      ],
      [
        "हि",
        "नी"
      ],
      [
        "ंद",
        "ी"
      ],
      [
        "मि",
        "श्र"
      ],
      [
        "मान",
        "ले"
      ],
      [
        "मान",
        "ला"
      ],
      [
        "मो",
        "गल"
      ],
      [
        "मो",
        "हेंजो"
      ],
      [
        "ता",
        "साठी"
      ],
      [
        "ता",
        "जमह"
      ],
      [
        "पर",
        "ि"
      ],
      [
        "पर",
        "िक"
      ],
      [
        "मी",
        "र"
      ],
      [
        "द्ध",
        "ा"
      ],
      [
        "ये",
        "णारे"
      ],
      [
        "ंड",
        "वन"
      ],
      [
        "सु",
        "वर्"
      ],
      [
        "सु",
        "धारण"
      ],
      [
        "सु",
        "द्धा"
      ],
      [
        "म्",
        "म"
      ],
      [
        "वर्",
        "तु"
      ],
      [
        "वर्",
        "चस्व"
      ],
      [
        "कि",
        "ंवा"
      ],
      [
        "ोक",
        "ाने"
      ],
      [
        "दि",
        "स"
      ],
      [
        "शि",
        "ख"
      ],
      [
        "शि",
        "रका"
      ],
      [
        "शि",
        "वाजी"
      ],
      [
        "पूर्व",
        "े"
      ],
      [
        "एक",
        "च"
      ],
      [
        "एक",
        "नाथ"
      ],
      [
        "दा",
        "ख"
      ],
      [
        "मिळ",
        "ाला"
      ],
      [
        "चित्रपट",
        "ाला"
      ],
      [
        "चित्रपट",
        "ांची"
      ],
      [
        "कड",
        "ा"
      ],
      [
        "कड",
        "धान"
      ],
      [
        "लोक",
        "शा"
      ],
      [
        "लोक",
        "नृ"
      ],
      [
        "लोक",
        "संख"
      ],
      [
        "क्र",
        "ी"
      ],
      [
        "सर",
        "े"
      ],
      [
        "सर",
        "पट"
      ],
      [
        "सर्व",
        "ात"
      ],
      [
        "हर",
        "ि"
      ],
      [
        "हर",
        "लाल"
      ],
      [
        "१९",
        "५०"
      ],
      [
        "१९",
        "१३"
      ],
      [
        "१९",
        "४७"
      ],
      [
        "जा",
        "ऊ"
      ],
      [
        "दल",
        "दली"
      ],
      [
        "द्या",
        "ने"
      ],
      [
        "लि",
        "ह"
      ],
      [
        "लि",
        "खित"
      ],
      [
        "प्रा",
        "णी"
      ],
      [
        "प्रा",
        "प्"
      ],
      [
        "प्रकार",
        "ात"
      ],
      [
        "प्रकार",
        "ची"
      ],
      [
        "असे",
        "ही"
      ],
      [
        "वर्ष",
        "े"
      ],
      [
        "स्थाप",
        "ना"
      ],
      [
        "स्थाप",
        "त्याचे"
      ],
      [
        "की",
        "म"
      ],
      [
        "द्र",
        "े"
      ],
      [
        "रु",
        "ंद"
      ],
      [
        "रु",
        "द्ध"
      ],
      [
        "नाव",
        "ाची"
      ],
      [
        "झाले",
        "ला"
      ],
      [
        "झाले",
        "ली"
      ],
      [
        "शिक्ष",
        "णा"
      ],
      [
        "शा",
        "काहार"
      ],
      [
        "स्थान",
        "िक्"
      ],
      [
        "टि",
        "ळ"
      ],
      [
        "प्रदेश",
        "ांत"
      ],
      [
        "शिक्षण",
        "ाच्या"
      ],
      [
        "बा",
        "ज"
      ],
      [
        "बा",
        "द"
      ],
      [
        "बा",
        "यो"
      ],
      [
        "बा",
        "बती"
      ],
      [
        "बा",
        "ह्य"
      ],
      [
        "रो",
        "वली"
      ],
      [
        "रो",
        "खून"
      ],
      [
        "राज्य",
        "सभा"
      ],
      [
        "राज्य",
        "कर्"
      ],
      [
        "संस्कृती",
        "ची"
      ],
      [
        "साम्राज",
        "्ये"
      ],
      [
        "साम्राज",
        "्याच्या"
      ],
      [
        "साम्राज",
        "्याची"
      ],
      [
        "व्या",
        "पार"
      ],
      [
        "को",
        "रडे"
      ],
      [
        "गो",
        "ड"
      ],
      [
        "गो",
        "ंडवन"
      ],
      [
        "बहु",
        "संख"
      ],
      [
        "रू",
        "कू"
      ],
      [
        "विद्या",
        "ल"
      ],
      [
        "केले",
        "ल्या"
      ],
      [
        "श्च",
        "न"
      ],
      [
        "आज",
        "ही"
      ],
      [
        "घे",
        "ऊ"
      ],
      [
        "घे",
        "ण्यात"
      ],
      [
        "जग",
        "ात"
      ],
      [
        "पड",
        "तो"
      ],
      [
        "पृ",
        "ष्ठा"
      ],
      [
        "हिंद",
        "ुस्थान"
      ],
      [
        "उत्तर",
        "ांचल"
      ],
      [
        "इतिहा",
        "सा"
      ],
      [
        "ब्रिटिश",
        "कालीन"
      ],
      [
        "ब्रिटिश",
        "ांवि"
      ],
      [
        "अज",
        "िं"
      ],
      [
        "अज",
        "नाभ"
      ],
      [
        "उप",
        "प्रकार"
      ],
      [
        "उप",
        "योग"
      ],
      [
        "उप",
        "लब्"
      ],
      [
        "ज्",
        "वाला"
      ],
      [
        "न्",
        "ही"
      ],
      [
        "समु",
        "द्रा"
      ],
      [
        "महारा",
        "ज"
      ],
      [
        "बां",
        "गला"
      ],
      [
        "लाग",
        "ू"
      ],
      [
        "लाग",
        "ते"
      ],
      [
        "निर्",
        "माण"
      ],
      [
        "हिमालय",
        "ीन"
      ],
      [
        "पृष्ठ",
        "ाचा"
      ],
      [
        "इतिहास",
        "ातील"
      ],
      [
        "इतिहास",
        "कार"
      ],
      [
        "गण",
        "तंत्र"
      ],
      [
        "गु",
        "जरा"
      ],
      [
        "गु",
        "जर"
      ],
      [
        "गु",
        "रूकू"
      ],
      [
        "तु",
        "ल"
      ],
      [
        "तां",
        "द"
      ],
      [
        "बन",
        "ला"
      ],
      [
        "बन",
        "ली"
      ],
      [
        "मह",
        "्त्व"
      ],
      [
        "००",
        "०"
      ],
      [
        "्रे",
        "लि"
      ],
      [
        "विष",
        "ुववृ"
      ],
      [
        "असले",
        "ला"
      ],
      [
        "असले",
        "ल्या"
      ],
      [
        "वेग",
        "वेगळे"
      ],
      [
        "काळात",
        "च"
      ],
      [
        "nd",
        "mother"
      ],
      [
        "अधिक",
        "ार"
      ],
      [
        "गी",
        "री"
      ],
      [
        "दो",
        "न्ही"
      ],
      [
        "निक",
        "ोबार"
      ],
      [
        "बदल",
        "ांमुळे"
      ],
      [
        "मस",
        "ाला"
      ],
      [
        "महा",
        "खंड"
      ],
      [
        "महा",
        "विद्याल"
      ],
      [
        "शे",
        "ष"
      ],
      [
        "सभा",
        "सद"
      ],
      [
        "राज्यां",
        "त"
      ],
      [
        "राज्यां",
        "च्या"
      ],
      [
        "राज्यां",
        "मध्ये"
      ],
      [
        "दिल्ली",
        "तील"
      ],
      [
        "उदाहर",
        "णे"
      ],
      [
        "बांध",
        "ले"
      ],
      [
        "बांध",
        "ून"
      ],
      [
        "बांध",
        "ली"
      ],
      [
        "बांध",
        "णी"
      ],
      [
        "त्यां",
        "चा"
      ],
      [
        "त्यां",
        "नी"
      ],
      [
        "दु",
        "सऱ्या"
      ],
      [
        "यात",
        "ून"
      ],
      [
        "मध्य",
        "प्रदेशातील"
      ],
      [
        "निवड",
        "ले"
      ],
      [
        "निवड",
        "तात"
      ],
      [
        "शास्त्र",
        "ातील"
      ],
      [
        "दक्षिणे",
        "तील"
      ],
      [
        "अर्थव्यव",
        "स्थेत"
      ],
      [
        "इस्ला",
        "म"
      ],
      [
        "ओळख",
        "ला"
      ],
      [
        "आप",
        "ल्या"
      ],
      [
        "आक्रम",
        "ण"
      ],
      [
        "गंग",
        "ा"
      ],
      [
        "मरा",
        "ठी"
      ],
      [
        "्म",
        "क"
      ],
      [
        "पुरा",
        "ण"
      ],
      [
        "पुरा",
        "व"
      ],
      [
        "गेट",
        "वे"
      ],
      [
        "पठार",
        "ावरील"
      ],
      [
        "मंत्री",
        "मंड"
      ],
      [
        "ia",
        "l"
      ],
      [
        "mo",
        "st"
      ],
      [
        "st",
        "or"
      ],
      [
        "उद",
        "यास"
      ],
      [
        "दर्",
        "श"
      ],
      [
        "शक",
        "्य"
      ],
      [
        "शक",
        "तात"
      ],
      [
        "सम",
        "ज"
      ],
      [
        "हात",
        "ाळ"
      ],
      [
        "प्रांत",
        "ाचे"
      ],
      [
        "क्षेत्र",
        "ात"
      ],
      [
        "क्षेत्र",
        "ामध्ये"
      ],
      [
        "वैशिष्ट",
        "्ये"
      ],
      [
        "प्राण्यां",
        "च्या"
      ],
      [
        "प्राण्यां",
        "मध्ये"
      ],
      [
        "गोल",
        "िक"
      ],
      [
        "विद्यार्थ्यां",
        "ची"
      ],
      [
        "तमिळनाडू",
        "तील"
      ],
      [
        "नृत्य",
        "प्रकार"
      ],
      [
        "ra",
        "d"
      ],
      [
        "आर्",
        "क"
      ],
      [
        "आर्",
        "द्र"
      ],
      [
        "खो",
        "रे"
      ],
      [
        "घट",
        "ना"
      ],
      [
        "घट",
        "ने"
      ],
      [
        "घड",
        "ल्या"
      ],
      [
        "घो",
        "षित"
      ],
      [
        "घो",
        "षणा"
      ],
      [
        "जवळ",
        "पास"
      ],
      [
        "नद्यां",
        "मध्ये"
      ],
      [
        "रि",
        "झर्व"
      ],
      [
        "लु",
        "प्त"
      ],
      [
        "विक",
        "ि"
      ],
      [
        "हज",
        "ार"
      ],
      [
        "स्वी",
        "कार"
      ],
      [
        "स्मार",
        "कावरून"
      ],
      [
        "नाम",
        "शेष"
      ],
      [
        "स्थापत्य",
        "शास्त्रातील"
      ],
      [
        "वनस्पती",
        "ं"
      ],
      [
        "इंग्",
        "लंड"
      ],
      [
        "स्वातंत्र्य",
        "प्राप्"
      ],
      [
        "गंगे",
        "चे"
      ],
      [
        "दख्खन",
        "चे"
      ],
      [
        "re",
        "a"
      ],
      [
        "अल",
        "िक"
      ],
      [
        "आर",
        "क्षणामुळे"
      ],
      [
        "ग्र",
        "ीक"
      ],
      [
        "जु",
        "न्या"
      ],
      [
        "जवा",
        "बदार"
      ],
      [
        "जवा",
        "हरलाल"
      ],
      [
        "धा",
        "ड"
      ],
      [
        "धो",
        "रण"
      ],
      [
        "पहि",
        "ला"
      ],
      [
        "१६",
        "३८"
      ],
      [
        "१६",
        "४८"
      ],
      [
        "साद",
        "र"
      ],
      [
        "मुल",
        "गा"
      ],
      [
        "असल्या",
        "ने"
      ],
      [
        "असल्या",
        "ची"
      ],
      [
        "मार्",
        "ग"
      ],
      [
        "वन्य",
        "जीव"
      ],
      [
        "वन्य",
        "संप"
      ],
      [
        "महत्त्व",
        "ाच्या"
      ],
      [
        "इंग्रज",
        "ांनी"
      ],
      [
        "व्हा",
        "वे"
      ],
      [
        "पदार्थ",
        "ांचा"
      ],
      [
        "स्वरू",
        "प"
      ],
      [
        "स्वरू",
        "पात"
      ],
      [
        "अश",
        "ोकाने"
      ],
      [
        "अंद",
        "मान"
      ],
      [
        "आकर्",
        "षित"
      ],
      [
        "ओडि",
        "शा"
      ],
      [
        "गि",
        "धाड"
      ],
      [
        "चाल",
        "तो"
      ],
      [
        "ड्रा",
        "इव्ह"
      ],
      [
        "नै",
        "ऋत्य"
      ],
      [
        "पां",
        "ढऱ्या"
      ],
      [
        "पान",
        "गळी"
      ],
      [
        "पसं",
        "ती"
      ],
      [
        "महि",
        "न"
      ],
      [
        "मौर",
        "्य"
      ],
      [
        "प्रे",
        "म"
      ],
      [
        "काश्",
        "मीर"
      ],
      [
        "राजव",
        "ट"
      ],
      [
        "पुढ",
        "ार"
      ],
      [
        "पुत",
        "ळा"
      ],
      [
        "हिं",
        "साच"
      ],
      [
        "स्तरा",
        "वर"
      ],
      [
        "सुमार",
        "ास"
      ],
      [
        "किनाऱ्या",
        "लगत"
      ],
      [
        "सेव",
        "ांचा"
      ],
      [
        "१९२",
        "०"
      ],
      [
        "राज्यसभे",
        "तील"
      ],
      [
        "इंडो",
        "नेशिया"
      ],
      [
        "युरोप",
        "ीय"
      ],
      [
        "विद्यापी",
        "ठ"
      ],
      [
        "जैव",
        "वैविध्य"
      ],
      [
        "निवडणू",
        "क"
      ],
      [
        "पश्चिमे",
        "कडे"
      ],
      [
        "ऋषभदे",
        "व"
      ],
      [
        "ईशान",
        "्येकडील"
      ],
      [
        "दहशत",
        "वाद"
      ],
      [
        "शाहजहान",
        "ने"
      ],
      [
        "gra",
        "ndmother"
      ],
      [
        "hi",
        "stor"
      ],
      [
        "hu",
        "man"
      ],
      [
        "अव",
        "लंब"
      ],
      [
        "अ‍",
        "ॅ"
      ],
      [
        "अमे",
        "र"
      ],
      [
        "आशि",
        "यातील"
      ],
      [
        "आंब",
        "ेडकर"
      ],
      [
        "आघा",
        "डी"
      ],
      [
        "इत",
        "का"
      ],
      [
        "इस",
        "वी"
      ],
      [
        "उम",
        "ट"
      ],
      [
        "उर्व",
        "रित"
      ],
      [
        "ऑग",
        "स्ट"
      ],
      [
        "ऑस्",
        "कर"
      ],
      [
        "ऑस्ट",
        "्रेलि"
      ],
      [
        "कम",
        "ाली"
      ],
      [
        "कनि",
        "ष्ठ"
      ],
      [
        "कंप",
        "नी"
      ],
      [
        "ख्रि",
        "श्चन"
      ],
      [
        "गां",
        "धी"
      ],
      [
        "चो",
        "ल"
      ],
      [
        "जॉ",
        "र्ज"
      ],
      [
        "जम्",
        "मू"
      ],
      [
        "जंब",
        "ूद्वीप"
      ],
      [
        "धर",
        "तो"
      ],
      [
        "नमू",
        "द"
      ],
      [
        "पहात",
        "ा"
      ],
      [
        "फ्रे",
        "ंच"
      ],
      [
        "बरी",
        "च"
      ],
      [
        "भौ",
        "गोलिक"
      ],
      [
        "मरी",
        "न"
      ],
      [
        "यमु",
        "ना"
      ],
      [
        "शिक",
        "ारी"
      ],
      [
        "सभाग",
        "ृह"
      ],
      [
        "सिक्",
        "कीम"
      ],
      [
        "सचि",
        "वालय"
      ],
      [
        "ाप्रमा",
        "णे"
      ],
      [
        "स्फे",
        "अर"
      ],
      [
        "रामा",
        "यण"
      ],
      [
        "काबी",
        "ज"
      ],
      [
        "काँग्रे",
        "स"
      ],
      [
        "संदर्",
        "भ"
      ],
      [
        "भावार",
        "्थ"
      ],
      [
        "माध्य",
        "म"
      ],
      [
        "पुरु",
        "ष"
      ],
      [
        "पुन्",
        "हा"
      ],
      [
        "ताजमह",
        "ाल"
      ],
      [
        "सुधारण",
        "ांचा"
      ],
      [
        "वर्तु",
        "ळकार"
      ],
      [
        "कडधान",
        "्ये"
      ],
      [
        "लोकशा",
        "ही"
      ],
      [
        "लोकसंख",
        "्ये"
      ],
      [
        "बायो",
        "स्फेअर"
      ],
      [
        "बाबती",
        "त"
      ],
      [
        "बहुसंख",
        "्य"
      ],
      [
        "ब्रिटिशांवि",
        "रुद्ध"
      ],
      [
        "अजिं",
        "ठा"
      ],
      [
        "अजनाभ",
        "वर्ष"
      ],
      [
        "उपलब्",
        "ध"
      ],
      [
        "ज्वाला",
        "मुख"
      ],
      [
        "बांगला",
        "देश"
      ],
      [
        "गुजरा",
        "थ"
      ],
      [
        "गुजर",
        "ात"
      ],
      [
        "गुरूकू",
        "ल"
      ],
      [
        "सभासद",
        "ांना"
      ],
      [
        "मंत्रीमंड",
        "ळ"
      ],
      [
        "हाताळ",
        "ून"
      ],
      [
        "स्वातंत्र्यप्राप्",
        "तीनंतर"
      ],
      [
        "१६३८",
        "ला"
      ],
      [
        "हिंसाच",
        "ार"
      ],
      [
        "histor",
        "y"
      ],
      [
        "\"",
        "."
      ],
      [
        "%",
        "."
      ],
      [
        ")",
        "."
      ],
      [
        ")",
        ":"
      ],
      [
        ".",
        "\""
      ],
      [
        "A",
        "l"
      ],
      [
        "C",
        "N"
      ],
      [
        "F",
        "or"
      ],
      [
        "I",
        "U"
      ],
      [
        "M",
        "e"
      ],
      [
        "O",
        "u"
      ],
      [
        "R",
        "e"
      ],
      [
        "T",
        "r"
      ],
      [
        "T",
        "he"
      ],
      [
        "T",
        "it"
      ],
      [
        "W",
        "a"
      ],
      [
        "a",
        "b"
      ],
      [
        "a",
        "l"
      ],
      [
        "a",
        "re"
      ],
      [
        "a",
        "ce"
      ],
      [
        "b",
        "i"
      ],
      [
        "c",
        "o"
      ],
      [
        "c",
        "rad"
      ],
      [
        "d",
        "e"
      ],
      [
        "e",
        "e"
      ],
      [
        "e",
        "m"
      ],
      [
        "e",
        "nd"
      ],
      [
        "e",
        "co"
      ],
      [
        "g",
        "rea"
      ],
      [
        "g",
        "end"
      ],
      [
        "h",
        "p"
      ],
      [
        "i",
        "s"
      ],
      [
        "i",
        "v"
      ],
      [
        "i",
        "om"
      ],
      [
        "i",
        "on"
      ],
      [
        "l",
        "y"
      ],
      [
        "l",
        "ace"
      ],
      [
        "n",
        "t"
      ],
      [
        "o",
        "uc"
      ],
      [
        "p",
        "he"
      ],
      [
        "p",
        "ee"
      ],
      [
        "r",
        "t"
      ],
      [
        "r",
        "uc"
      ],
      [
        "r",
        "ial"
      ],
      [
        "s",
        "u"
      ],
      [
        "s",
        "y"
      ],
      [
        "s",
        "pee"
      ],
      [
        "t",
        "rad"
      ],
      [
        "t",
        "rea"
      ],
      [
        "t",
        "iv"
      ],
      [
        "u",
        "p"
      ],
      [
        "u",
        "s"
      ],
      [
        "u",
        "ab"
      ],
      [
        "u",
        "nt"
      ],
      [
        "v",
        "al"
      ],
      [
        "ँ",
        "ट"
      ],
      [
        "ं",
        "ज"
      ],
      [
        "ं",
        "थ"
      ],
      [
        "ं",
        "भ"
      ],
      [
        "ं",
        "म"
      ],
      [
        "ं",
        "का"
      ],
      [
        "ं",
        "ता"
      ],
      [
        "ं",
        "की"
      ],
      [
        "ं",
        "साठी"
      ],
      [
        "ं",
        "पैकी"
      ],
      [
        "ं",
        "भी"
      ],
      [
        "ः",
        "ख"
      ],
      [
        "ः",
        "सीमा"
      ],
      [
        "अ",
        "ग"
      ],
      [
        "अ",
        "ध"
      ],
      [
        "अ",
        "प"
      ],
      [
        "अ",
        "फ"
      ],
      [
        "अ",
        "म"
      ],
      [
        "अ",
        "ह"
      ],
      [
        "अ",
        "ले"
      ],
      [
        "अ",
        "क्ष"
      ],
      [
        "अ",
        "ंग"
      ],
      [
        "अ",
        "शि"
      ],
      [
        "अ",
        "लि"
      ],
      [
        "अ",
        "रु"
      ],
      [
        "अ",
        "प्"
      ],
      [
        "अ",
        "न्"
      ],
      [
        "अ",
        "ध्या"
      ],
      [
        "अ",
        "मरा"
      ],
      [
        "अ",
        "न्या"
      ],
      [
        "अ",
        "पो"
      ],
      [
        "अ",
        "मर"
      ],
      [
        "अ",
        "हिं"
      ],
      [
        "अ",
        "ट्ट"
      ],
      [
        "अ",
        "यशस्वी"
      ],
      [
        "अ",
        "तिक"
      ],
      [
        "अ",
        "तुल"
      ],
      [
        "अ",
        "ंम"
      ],
      [
        "आ",
        "ख"
      ],
      [
        "आ",
        "ठ"
      ],
      [
        "आ",
        "फ"
      ],
      [
        "आ",
        "व"
      ],
      [
        "आ",
        "पा"
      ],
      [
        "आ",
        "ता"
      ],
      [
        "आ",
        "ंतर"
      ],
      [
        "आ",
        "ंध"
      ],
      [
        "आ",
        "मू"
      ],
      [
        "आ",
        "श्च"
      ],
      [
        "आ",
        "ग्"
      ],
      [
        "आ",
        "शिया"
      ],
      [
        "आ",
        "कडे"
      ],
      [
        "आ",
        "गम"
      ],
      [
        "आ",
        "कडा"
      ],
      [
        "इ",
        "च्छ"
      ],
      [
        "ई",
        "ड"
      ],
      [
        "ई",
        "द"
      ],
      [
        "उ",
        "भ"
      ],
      [
        "उ",
        "स"
      ],
      [
        "उ",
        "द्"
      ],
      [
        "उ",
        "भा"
      ],
      [
        "उ",
        "ंच"
      ],
      [
        "उ",
        "भार"
      ],
      [
        "उ",
        "गम"
      ],
      [
        "उ",
        "देश्य"
      ],
      [
        "उ",
        "द्याने"
      ],
      [
        "ऊ",
        "स"
      ],
      [
        "ऊ",
        "र्"
      ],
      [
        "ए",
        "ड"
      ],
      [
        "ए",
        "तद्"
      ],
      [
        "ऑ",
        "ल"
      ],
      [
        "ऑ",
        "क्"
      ],
      [
        "ओ",
        "ण"
      ],
      [
        "ओ",
        "सा"
      ],
      [
        "ओ",
        "व्या"
      ],
      [
        "औ",
        "द"
      ],
      [
        "औ",
        "ष"
      ],
      [
        "क",
        "ळ"
      ],
      [
        "क",
        "़"
      ],
      [
        "क",
        "ौ"
      ],
      [
        "क",
        "्या"
      ],
      [
        "क",
        "ात"
      ],
      [
        "क",
        "रा"
      ],
      [
        "क",
        "ोक"
      ],
      [
        "क",
        "ाने"
      ],
      [
        "क",
        "से"
      ],
      [
        "क",
        "लि"
      ],
      [
        "क",
        "टि"
      ],
      [
        "क",
        "पड"
      ],
      [
        "क",
        "ल्ली"
      ],
      [
        "क",
        "ांचे"
      ],
      [
        "क",
        "कला"
      ],
      [
        "क",
        "ूर"
      ],
      [
        "क",
        "ांपैकी"
      ],
      [
        "क",
        "त्ता"
      ],
      [
        "क",
        "्यांचा"
      ],
      [
        "क",
        "ट्ट"
      ],
      [
        "ख",
        "ट"
      ],
      [
        "ख",
        "ड"
      ],
      [
        "ख",
        "ल"
      ],
      [
        "ख",
        "ा"
      ],
      [
        "ख",
        "ी"
      ],
      [
        "ख",
        "ू"
      ],
      [
        "ख",
        "्य"
      ],
      [
        "ख",
        "ले"
      ],
      [
        "ख",
        "जु"
      ],
      [
        "ग",
        "झ"
      ],
      [
        "ग",
        "ट"
      ],
      [
        "ग",
        "ढ"
      ],
      [
        "ग",
        "ध"
      ],
      [
        "ग",
        "ळ"
      ],
      [
        "ग",
        "ू"
      ],
      [
        "ग",
        "िक"
      ],
      [
        "ग",
        "ान"
      ],
      [
        "ग",
        "णे"
      ],
      [
        "ग",
        "ंड"
      ],
      [
        "ग",
        "च्छ"
      ],
      [
        "ग",
        "मर"
      ],
      [
        "ग",
        "ृत"
      ],
      [
        "ग",
        "वान"
      ],
      [
        "ग",
        "ृह"
      ],
      [
        "ग",
        "तासाठी"
      ],
      [
        "ग",
        "ंभी"
      ],
      [
        "घ",
        "ू"
      ],
      [
        "घ",
        "्र"
      ],
      [
        "घ",
        "तात"
      ],
      [
        "घ",
        "ांत"
      ],
      [
        "घ",
        "डा"
      ],
      [
        "घ",
        "काल"
      ],
      [
        "च",
        "व"
      ],
      [
        "च",
        "ू"
      ],
      [
        "च",
        "ार"
      ],
      [
        "च",
        "ाच"
      ],
      [
        "च",
        "िक"
      ],
      [
        "च",
        "ला"
      ],
      [
        "च",
        "ाली"
      ],
      [
        "च",
        "ंद्र"
      ],
      [
        "च",
        "पात"
      ],
      [
        "च",
        "ंदी"
      ],
      [
        "छ",
        "ो"
      ],
      [
        "छ",
        "ित"
      ],
      [
        "छ",
        "त्र"
      ],
      [
        "ज",
        "य"
      ],
      [
        "ज",
        "व"
      ],
      [
        "ज",
        "ि"
      ],
      [
        "ज",
        "ार"
      ],
      [
        "ज",
        "ना"
      ],
      [
        "ज",
        "ून"
      ],
      [
        "ज",
        "्ये"
      ],
      [
        "ज",
        "त्र"
      ],
      [
        "ज",
        "्यात"
      ],
      [
        "ज",
        "ास"
      ],
      [
        "ज",
        "र्म"
      ],
      [
        "ज",
        "शी"
      ],
      [
        "ज",
        "रे"
      ],
      [
        "ज",
        "्याने"
      ],
      [
        "ज",
        "व्यव"
      ],
      [
        "ज",
        "निक"
      ],
      [
        "ज",
        "ारी"
      ],
      [
        "ज",
        "वान"
      ],
      [
        "ज",
        "्यांची"
      ],
      [
        "ज",
        "कूर"
      ],
      [
        "झ",
        "ां"
      ],
      [
        "झ",
        "िक"
      ],
      [
        "झ",
        "गड"
      ],
      [
        "झ",
        "पाट"
      ],
      [
        "ट",
        "त"
      ],
      [
        "ट",
        "न"
      ],
      [
        "ट",
        "र"
      ],
      [
        "ट",
        "स"
      ],
      [
        "ट",
        "ॉ"
      ],
      [
        "ट",
        "ला"
      ],
      [
        "ट",
        "ून"
      ],
      [
        "ट",
        "का"
      ],
      [
        "ट",
        "वे"
      ],
      [
        "ट",
        "्रा"
      ],
      [
        "ट",
        "ये"
      ],
      [
        "ट",
        "ोक"
      ],
      [
        "ट",
        "ीला"
      ],
      [
        "ट",
        "ंकी"
      ],
      [
        "ट",
        "क्या"
      ],
      [
        "ठ",
        "र"
      ],
      [
        "ठ",
        "सा"
      ],
      [
        "ठ",
        "ला"
      ],
      [
        "ठ",
        "ची"
      ],
      [
        "ठ",
        "्याचे"
      ],
      [
        "ड",
        "च"
      ],
      [
        "ड",
        "र"
      ],
      [
        "ड",
        "ॅ"
      ],
      [
        "ड",
        "ो"
      ],
      [
        "ड",
        "ारत"
      ],
      [
        "ड",
        "या"
      ],
      [
        "ड",
        "च्या"
      ],
      [
        "ड",
        "ून"
      ],
      [
        "ड",
        "ल्या"
      ],
      [
        "ड",
        "ाचे"
      ],
      [
        "ड",
        "तो"
      ],
      [
        "ड",
        "ण्यात"
      ],
      [
        "ड",
        "िया"
      ],
      [
        "ड",
        "्यांच्या"
      ],
      [
        "ड",
        "प्पा"
      ],
      [
        "ड",
        "ान्"
      ],
      [
        "ढ",
        "ो"
      ],
      [
        "ढ",
        "ण्यात"
      ],
      [
        "ढ",
        "ांमुळे"
      ],
      [
        "ढ",
        "ीला"
      ],
      [
        "ण",
        "्"
      ],
      [
        "ण",
        "ाच"
      ],
      [
        "ण",
        "त्या"
      ],
      [
        "ण",
        "काळ"
      ],
      [
        "ण",
        "ांच्या"
      ],
      [
        "त",
        "ः"
      ],
      [
        "त",
        "ू"
      ],
      [
        "त",
        "ै"
      ],
      [
        "त",
        "ून"
      ],
      [
        "त",
        "ाच्या"
      ],
      [
        "त",
        "स्थ"
      ],
      [
        "त",
        "मा"
      ],
      [
        "त",
        "ति"
      ],
      [
        "त",
        "शी"
      ],
      [
        "त",
        "मे"
      ],
      [
        "त",
        "त्त्व"
      ],
      [
        "त",
        "तच्या"
      ],
      [
        "थ",
        "ा"
      ],
      [
        "द",
        "श"
      ],
      [
        "द",
        "ाल"
      ],
      [
        "द",
        "ित"
      ],
      [
        "द",
        "ंत"
      ],
      [
        "द",
        "ूर"
      ],
      [
        "द",
        "गडा"
      ],
      [
        "द",
        "सरा"
      ],
      [
        "द",
        "डो"
      ],
      [
        "ध",
        "न"
      ],
      [
        "ध",
        "ले"
      ],
      [
        "ध",
        "्ये"
      ],
      [
        "ध",
        "ातील"
      ],
      [
        "ध",
        "ोक"
      ],
      [
        "ध",
        "म्म"
      ],
      [
        "न",
        "ई"
      ],
      [
        "न",
        "न"
      ],
      [
        "न",
        "ॅ"
      ],
      [
        "न",
        "‍"
      ],
      [
        "न",
        "र्"
      ],
      [
        "न",
        "ाल"
      ],
      [
        "न",
        "का"
      ],
      [
        "न",
        "ीय"
      ],
      [
        "न",
        "क्ष"
      ],
      [
        "न",
        "वर"
      ],
      [
        "न",
        "ंत"
      ],
      [
        "न",
        "र्म"
      ],
      [
        "न",
        "व्या"
      ],
      [
        "न",
        "रे"
      ],
      [
        "न",
        "ंदि"
      ],
      [
        "न",
        "ातून"
      ],
      [
        "न",
        "याचे"
      ],
      [
        "प",
        "च"
      ],
      [
        "प",
        "थ"
      ],
      [
        "प",
        "ि"
      ],
      [
        "प",
        "ॅ"
      ],
      [
        "प",
        "ौ"
      ],
      [
        "प",
        "िक"
      ],
      [
        "प",
        "ला"
      ],
      [
        "प",
        "त्र"
      ],
      [
        "प",
        "ल्या"
      ],
      [
        "प",
        "मान"
      ],
      [
        "प",
        "ंड"
      ],
      [
        "प",
        "णा"
      ],
      [
        "प",
        "ाली"
      ],
      [
        "प",
        "सर"
      ],
      [
        "प",
        "न्"
      ],
      [
        "प",
        "ट्"
      ],
      [
        "प",
        "गडा"
      ],
      [
        "प",
        "ऱ्यात"
      ],
      [
        "प",
        "ँट"
      ],
      [
        "फ",
        "र"
      ],
      [
        "फ",
        "ा"
      ],
      [
        "फ",
        "ु"
      ],
      [
        "फ",
        "ॉ"
      ],
      [
        "फ",
        "ो"
      ],
      [
        "फ",
        "िक"
      ],
      [
        "फ",
        "ळे"
      ],
      [
        "ब",
        "स"
      ],
      [
        "ब",
        "ु"
      ],
      [
        "ब",
        "्र"
      ],
      [
        "ब",
        "ोक"
      ],
      [
        "ब",
        "दा"
      ],
      [
        "ब",
        "जा"
      ],
      [
        "ब",
        "ऱ्या"
      ],
      [
        "ब",
        "्रे"
      ],
      [
        "ब",
        "घतात"
      ],
      [
        "भ",
        "व"
      ],
      [
        "भ",
        "्र"
      ],
      [
        "भ",
        "वा"
      ],
      [
        "भ",
        "ित"
      ],
      [
        "भ",
        "व्य"
      ],
      [
        "भ",
        "पुत्र"
      ],
      [
        "भ",
        "द्रा"
      ],
      [
        "भ",
        "ांग"
      ],
      [
        "भ",
        "गवान"
      ],
      [
        "म",
        "्य"
      ],
      [
        "म",
        "ात"
      ],
      [
        "म",
        "ती"
      ],
      [
        "म",
        "ची"
      ],
      [
        "म",
        "कर"
      ],
      [
        "म",
        "ल्या"
      ],
      [
        "म",
        "दा"
      ],
      [
        "म",
        "ांच्या"
      ],
      [
        "म",
        "िका"
      ],
      [
        "म",
        "द्रा"
      ],
      [
        "म",
        "ंचा"
      ],
      [
        "म",
        "बे"
      ],
      [
        "म",
        "णामुळे"
      ],
      [
        "म",
        "जल"
      ],
      [
        "म",
        "डॉ"
      ],
      [
        "म",
        "ंदी"
      ],
      [
        "म",
        "तासाठी"
      ],
      [
        "म",
        "ंज"
      ],
      [
        "म",
        "गध"
      ],
      [
        "म",
        "जकूर"
      ],
      [
        "य",
        "क"
      ],
      [
        "य",
        "ॅ"
      ],
      [
        "य",
        "क्ष"
      ],
      [
        "य",
        "त्र"
      ],
      [
        "य",
        "ाच्या"
      ],
      [
        "य",
        "ंड"
      ],
      [
        "य",
        "म्"
      ],
      [
        "य",
        "व्य"
      ],
      [
        "य",
        "ाचीन"
      ],
      [
        "य",
        "सी"
      ],
      [
        "य",
        "चर"
      ],
      [
        "य",
        "क्री"
      ],
      [
        "य",
        "द्याने"
      ],
      [
        "य",
        "टस"
      ],
      [
        "र",
        "ल"
      ],
      [
        "र",
        "व"
      ],
      [
        "र",
        "ां"
      ],
      [
        "र",
        "ील"
      ],
      [
        "र",
        "वि"
      ],
      [
        "र",
        "त्"
      ],
      [
        "र",
        "हा"
      ],
      [
        "र",
        "णे"
      ],
      [
        "र",
        "निर्"
      ],
      [
        "र",
        "पे"
      ],
      [
        "र",
        "क्षा"
      ],
      [
        "र",
        "ांग"
      ],
      [
        "र",
        "धा"
      ],
      [
        "र",
        "्यांमध्ये"
      ],
      [
        "ऱ",
        "्य"
      ],
      [
        "ल",
        "व"
      ],
      [
        "ल",
        "्य"
      ],
      [
        "ल",
        "ात"
      ],
      [
        "ल",
        "वि"
      ],
      [
        "ल",
        "द्"
      ],
      [
        "ल",
        "क्ष"
      ],
      [
        "ल",
        "वार"
      ],
      [
        "ल",
        "क्षण"
      ],
      [
        "ल",
        "वाद"
      ],
      [
        "ल",
        "ूर"
      ],
      [
        "ल",
        "यो"
      ],
      [
        "ल",
        "ीला"
      ],
      [
        "ल",
        "तान"
      ],
      [
        "ल",
        "गीरी"
      ],
      [
        "ल",
        "कात"
      ],
      [
        "ल",
        "गान"
      ],
      [
        "ल",
        "मडॉ"
      ],
      [
        "ळ",
        "म"
      ],
      [
        "ळ",
        "ु"
      ],
      [
        "ळ",
        "्या"
      ],
      [
        "ळ",
        "ून"
      ],
      [
        "ळ",
        "्यां"
      ],
      [
        "ळ",
        "ाच्या"
      ],
      [
        "ळ",
        "ातील"
      ],
      [
        "ळ",
        "ाने"
      ],
      [
        "ळ",
        "पुरी"
      ],
      [
        "व",
        "ॉ"
      ],
      [
        "व",
        "्र"
      ],
      [
        "व",
        "ां"
      ],
      [
        "व",
        "स्"
      ],
      [
        "व",
        "ती"
      ],
      [
        "व",
        "ते"
      ],
      [
        "व",
        "ाने"
      ],
      [
        "व",
        "से"
      ],
      [
        "व",
        "साह"
      ],
      [
        "व",
        "णी"
      ],
      [
        "व",
        "जा"
      ],
      [
        "व",
        "िका"
      ],
      [
        "व",
        "टी"
      ],
      [
        "व",
        "ण्याची"
      ],
      [
        "व",
        "जयंती"
      ],
      [
        "व",
        "यास"
      ],
      [
        "व",
        "जनिक"
[...]
