{
  "version": "1.0",
  "truncation": null,
  "padding": null,
  "added_tokens": [
    {
      "id": 0,
      "content": "<unk>",
      "single_word": false,
      "lstrip": false,
      "rstrip": false,
      "normalized": false,
      "special": true
    }
  ],
  "normalizer": {
    "type": "NFC"
  },
  "pre_tokenizer": {
    "type": "Whitespace"
  },
  "post_processor": null,
  "decoder": null,
  "model": {
    "type": "BPE",
    "dropout": null,
    "unk_token": "<unk>",
    "continuing_subword_prefix": null,
    "end_of_word_suffix": null,
    "fuse_unk": false,
    "byte_fallback": false,
    "ignore_merges": false,
    "vocab": {
      "<unk>": 0,
      " ": 1,
      "\"": 2,
      "$": 3,
      "%": 4,
      "'": 5,
      "(": 6,
      ")": 7,
      "+": 8,
      ",": 9,
      "-": 10,
      ".": 11,
      "/": 12,
      "0": 13,
      "1": 14,
      "2": 15,
      "3": 16,
      "4": 17,
      "5": 18,
      "6": 19,
      "7": 20,
      "8": 21,
      "9": 22,
      ":": 23,
      ";": 24,
      "A": 25,
      "B": 26,
      "C": 27,
      "E": 28,
      "I": 29,
      "M": 30,
      "P": 31,
      "R": 32,
      "S": 33,
      "T": 34,
      "W": 35,
      "a": 36,
      "b": 37,
      "c": 38,
      "d": 39,
      "e": 40,
      "f": 41,
      "h": 42,
      "i": 43,
      "l": 44,
      "m": 45,
      "n": 46,
      "o": 47,
      "p": 48,
      "r": 49,
      "s": 50,
      "t": 51,
      "u": 52,
      "v": 53,
      "w": 54,
      "y": 55,
      "|": 56,
      "ँ": 57,
      "ं": 58,
      "ः": 59,
      "अ": 60,
      "आ": 61,
      "इ": 62,
      "ई": 63,
      "उ": 64,
      "ऊ": 65,
      "ऋ": 66,
      "ए": 67,
      "ऐ": 68,
      "ऑ": 69,
      "ओ": 70,
      "औ": 71,
      "क": 72,
      "ख": 73,
      "ग": 74,
      "घ": 75,
      "च": 76,
      "छ": 77,
      "ज": 78,
      "झ": 79,
      "ञ": 80,
      "ट": 81,
      "ठ": 82,
      "ड": 83,
      "ढ": 84,
      "ण": 85,
      "त": 86,
      "थ": 87,
      "द": 88,
      "ध": 89,
      "न": 90,
      "प": 91,
      "फ": 92,
      "ब": 93,
      "भ": 94,
      "म": 95,
      "य": 96,
      "र": 97,
      "ल": 98,
      "व": 99,
      "श": 100,
      "ष": 101,
      "स": 102,
      "ह": 103,
      "़": 104,
      "ा": 105,
      "ि": 106,
      "ी": 107,
      "ु": 108,
      "ू": 109,
      "ृ": 110,
      "े": 111,
      "ै": 112,
      "ॉ": 113,
      "ो": 114,
      "ौ": 115,
      "्": 116,
      "।": 117,
      "०": 118,
      "१": 119,
      "२": 120,
      "३": 121,
      "४": 122,
      "५": 123,
      "६": 124,
      "७": 125,
      "८": 126,
      "९": 127,
      "॰": 128,
      "‌": 129,
      "‍": 130,
      "–": 131,
      "‘": 132,
      "’": 133,
      "†": 134,
      "ार": 135,
      "्र": 136,
      "के": 137,
      "ें": 138,
      "में": 139,
      "है": 140,
      "्य": 141,
      "का": 142,
      "भार": 143,
      "भारत": 144,
      "र्": 145,
      "ों": 146,
      "या": 147,
      "की": 148,
      "और": 149,
      "स्": 150,
      "से": 151,
      "ान": 152,
      "प्र": 153,
      "रा": 154,
      "िक": 155,
      "ने": 156,
      "क्": 157,
      "वि": 158,
      "ता": 159,
      "ना": 160,
      "सा": 161,
      "था": 162,
      "ीय": 163,
      "न्": 164,
      "िया": 165,
      "सं": 166,
      "पर": 167,
      "क्ष": 168,
      "कर": 169,
      "ति": 170,
      "भा": 171,
      "त्र": 172,
      "हैं": 173,
      "को": 174,
      "मा": 175,
      "राज": 176,
      "हु": 177,
      "दे": 178,
      "ड़": 179,
      "जा": 180,
      "हा": 181,
      "त्": 182,
      "वा": 183,
      "कार": 184,
      "ित": 185,
      "िय": 186,
      "ला": 187,
      "पा": 188,
      "भी": 189,
      "सम": 190,
      "्ट": 191,
      "्या": 192,
      "देश": 193,
      "ली": 194,
      "ंग": 195,
      "द्": 196,
      "िन्": 197,
      "तर": 198,
      "तथा": 199,
      "नि": 200,
      "भारतीय": 201,
      "ती": 202,
      "इस": 203,
      "दी": 204,
      "एक": 205,
      "शा": 206,
      "हो": 207,
      "वर्": 208,
      "ते": 209,
      "कि": 210,
      "राज्य": 211,
      "मि": 212,
      "बा": 213,
      "श्": 214,
      "पू": 215,
      "रू": 216,
      "र्व": 217,
      "षा": 218,
      "जन": 219,
      "जि": 220,
      "सर": 221,
      "ंत्र": 222,
      "मान": 223,
      "तक": 224,
      "मु": 225,
      "स्त": 226,
      "अन": 227,
      "किया": 228,
      "द्र": 229,
      "ष्ट": 230,
      "ंध": 231,
      "नी": 232,
      "ही": 233,
      "धिक": 234,
      "िण": 235,
      "१९": 236,
      "री": 237,
      "लि": 238,
      "साथ": 239,
      "भाषा": 240,
      "उत्": 241,
      "दक्ष": 242,
      "धान": 243,
      "हिन्": 244,
      "ोग": 245,
      "दक्षिण": 246,
      "ची": 247,
      "दो": 248,
      "्रे": 249,
      "जी": 250,
      "प्": 251,
      "यु": 252,
      "र्म": 253,
      "सरकार": 254,
      "19": 255,
      "20": 256,
      "यह": 257,
      "ले": 258,
      "वी": 259,
      "स्थ": 260,
      "शास": 261,
      "ओं": 262,
      "कृ": 263,
      "बसे": 264,
      "सबसे": 265,
      "क्षे": 266,
      "जिस": 267,
      "बहु": 268,
      "रूप": 269,
      "ष्ट्र": 270,
      "ढ़": 271,
      "दि": 272,
      "ंग्रे": 273,
      "बाद": 274,
      "क्षेत्र": 275,
      "प्रा": 276,
      "गया": 277,
      "जो": 278,
      "बंध": 279,
      "सी": 280,
      "राष्ट्र": 281,
      "वर्ष": 282,
      "धर्म": 283,
      "सार": 284,
      "्रा": 285,
      "र्थ": 286,
      "स्व": 287,
      "स्था": 288,
      "मिल": 289,
      "पूर्व": 290,
      "अप": 291,
      "पार": 292,
      "द्ध": 293,
      "श्व": 294,
      "मुख": 295,
      "थी": 296,
      "पु": 297,
      "मी": 298,
      "ल्": 299,
      "सद": 300,
      "सि": 301,
      "विश्व": 302,
      "साम": 303,
      "माण": 304,
      "रे": 305,
      "लग": 306,
      "उत्तर": 307,
      "चीन": 308,
      "शासन": 309,
      "अधिक": 310,
      "चु": 311,
      "तु": 312,
      "दिया": 313,
      "बड़": 314,
      "लो": 315,
      "हिन्दी": 316,
      "ंड": 317,
      "ज़": 318,
      "बी": 319,
      "मंत्र": 320,
      "वार": 321,
      "व्य": 322,
      "ोड़": 323,
      "००": 324,
      "स्कृ": 325,
      "नाम": 326,
      "अनु": 327,
      "ंद्र": 328,
      "ध्य": 329,
      "भू": 330,
      "म्": 331,
      "लय": 332,
      "हि": 333,
      "काल": 334,
      "हुआ": 335,
      "जाता": 336,
      "निर्": 337,
      "कु": 338,
      "चि": 339,
      "तिक": 340,
      "दान": 341,
      "वं": 342,
      "ैन": 343,
      "केंद्र": 344,
      "हुई": 345,
      "समय": 346,
      "देशों": 347,
      "प्त": 348,
      "00": 349,
      "उप": 350,
      "एश": 351,
      "दा": 352,
      "वे": 353,
      "ाने": 354,
      "ियों": 355,
      "राज्यों": 356,
      "अन्य": 357,
      "हीं": 358,
      "चा": 359,
      "टे": 360,
      "बना": 361,
      "महा": 362,
      "रि": 363,
      "रु": 364,
      "ष्": 365,
      "क्त": 366,
      "नाव": 367,
      "संस्कृ": 368,
      "जाति": 369,
      "लिए": 370,
      "अन्": 371,
      "अंग्रे": 372,
      "आध": 373,
      "क्र": 374,
      "च्": 375,
      "ज्य": 376,
      "द्य": 377,
      "पश्": 378,
      "ब्": 379,
      "बढ़": 380,
      "मै": 381,
      "हर": 382,
      "संघ": 383,
      "िये": 384,
      "स्तान": 385,
      "पश्चि": 386,
      "अम": 387,
      "कई": 388,
      "खा": 389,
      "गर": 390,
      "गा": 391,
      "गी": 392,
      "गु": 393,
      "णा": 394,
      "त्य": 395,
      "तंत्र": 396,
      "धी": 397,
      "बन": 398,
      "मन": 399,
      "मध्य": 400,
      "रहा": 401,
      "सू": 402,
      "समा": 403,
      "सैन": 404,
      "विधान": 405,
      "हुए": 406,
      "त्व": 407,
      "कारण": 408,
      "ंगा": 409,
      "इसके": 410,
      "होता": 411,
      "प्राचीन": 412,
      "चुनाव": 413,
      "व्यव": 414,
      "एशिया": 415,
      "कॉ": 416,
      "टि": 417,
      "दश": 418,
      "न्या": 419,
      "नहीं": 420,
      "मो": 421,
      "योग": 422,
      "ारी": 423,
      "्री": 424,
      "प्रति": 425,
      "प्रधान": 426,
      "प्रमुख": 427,
      "संविधान": 428,
      "क्षा": 429,
      "करने": 430,
      "करोड़": 431,
      "ड़ा": 432,
      "द्वार": 433,
      "भाषाओं": 434,
      "स्थान": 435,
      "राष्ट्रीय": 436,
      "्राज्य": 437,
      "साम्राज्य": 438,
      "लोक": 439,
      "मंत्री": 440,
      "अनुसार": 441,
      "ख्या": 442,
      "गठ": 443,
      "चल": 444,
      "नों": 445,
      "पह": 446,
      "यू": 447,
      "संबंध": 448,
      "सम्": 449,
      "हिन्द": 450,
      "ंग्रेस": 451,
      "स्वतंत्र": 452,
      "पार्ट": 453,
      "भूमि": 454,
      "मैदान": 455,
      "चुनावों": 456,
      "व्यवस्था": 457,
      "द्वारा": 458,
      "आर्थ": 459,
      "इन": 460,
      "गण": 461,
      "ण्": 462,
      "तृ": 463,
      "पी": 464,
      "फ़": 465,
      "बर": 466,
      "बे": 467,
      "मत": 468,
      "रह": 469,
      "रो": 470,
      "शु": 471,
      "नेतृ": 472,
      "विका": 473,
      "विस्त": 474,
      "संख्या": 475,
      "जाती": 476,
      "पाकि": 477,
      "द्वी": 478,
      "पूर्": 479,
      "धिकार": 480,
      "201": 481,
      "बहुत": 482,
      "द्योग": 483,
      "कॉंग्रेस": 484,
      "दशक": 485,
      "आर्थिक": 486,
      "पाकिस्तान": 487,
      "द्वीप": 488,
      "ंप": 489,
      "अर": 490,
      "उन": 491,
      "कर्": 492,
      "जब": 493,
      "टी": 494,
      "धि": 495,
      "पर्व": 496,
      "लर": 497,
      "लों": 498,
      "ोष": 499,
      "्यों": 500,
      "सेना": 501,
      "प्रदेश": 502,
      "क्ति": 503,
      "परमाण": 504,
      "जनजाति": 505,
      "स्थाप": 506,
      "निर्माण": 507,
      "च्च": 508,
      "पश्चिम": 509,
      "सैन्य": 510,
      "न्याया": 511,
      "प्रधानमंत्री": 512,
      "परमाणु": 513,
      "अव": 514,
      "ईसा": 515,
      "ओर": 516,
      "गई": 517,
      "गति": 518,
      "दर": 519,
      "पे": 520,
      "बो": 521,
      "रक्षा": 522,
      "लिये": 523,
      "शी": 524,
      "शता": 525,
      "सह": 526,
      "सभा": 527,
      "२००": 528,
      "ाना": 529,
      "भाई": 530,
      "भाग": 531,
      "भाज": 532,
      "कार्य": 533,
      "१९९": 534,
      "वीं": 535,
      "जिसमें": 536,
      "मुख्य": 537,
      "ब्दी": 538,
      "धीरे": 539,
      "समाज": 540,
      "ण्ड": 541,
      "नेतृत्व": 542,
      "विकास": 543,
      "पूर्ण": 544,
      "अरब": 545,
      "शताब्दी": 546,
      "एँ": 547,
      "एवं": 548,
      "गंगा": 549,
      "चार": 550,
      "तमिल": 551,
      "थे": 552,
      "निक": 553,
      "पं": 554,
      "मू": 555,
      "मौ": 556,
      "लन": 557,
      "लोग": 558,
      "व्या": 559,
      "शे": 560,
      "सक": 561,
      "हार": 562,
      "हें": 563,
      "हरी": 564,
      "स्ट": 565,
      "स्त्र": 566,
      "साल": 567,
      "न्द्र": 568,
      "संसद": 569,
      "राजनी": 570,
      "देख": 571,
      "ड़ी": 572,
      "हाँ": 573,
      "हाला": 574,
      "निर": 575,
      "वर्त": 576,
      "जनसंख्या": 577,
      "जिन": 578,
      "प्ले": 579,
      "युक्त": 580,
      "स्थित": 581,
      "क्षेत्रीय": 582,
      "बंधन": 583,
      "वर्षों": 584,
      "सदस": 585,
      "बीच": 586,
      "म्भ": 587,
      "कुल": 588,
      "संस्कृति": 589,
      "अन्त": 590,
      "स्वतंत्रता": 591,
      "गणराज्य": 592,
      "),": 593,
      "ँच": 594,
      "ँकि": 595,
      "अर्थ": 596,
      "अलग": 597,
      "आधिकार": 598,
      "इंड": 599,
      "गत": 600,
      "घोष": 601,
      "जल": 602,
      "डी": 603,
      "डॉ": 604,
      "णी": 605,
      "त्या": 606,
      "थिय": 607,
      "दल": 608,
      "दर्": 609,
      "पै": 610,
      "ब्र": 611,
      "बनी": 612,
      "ये": 613,
      "लिया": 614,
      "शि": 615,
      "सु": 616,
      "हथिय": 617,
      "ुनिक": 618,
      "ृत": 619,
      "२०": 620,
      "ारम्भ": 621,
      "काम": 622,
      "स्तर": 623,
      "प्रभा": 624,
      "प्रकार": 625,
      "प्रारम्भ": 626,
      "िक्": 627,
      "विदेश": 628,
      "न्न": 629,
      "संयुक्त": 630,
      "परंप": 631,
      "करना": 632,
      "मालय": 633,
      "जाते": 634,
      "निभाई": 635,
      "इसी": 636,
      "दोनों": 637,
      "दोलन": 638,
      "युद्ध": 639,
      "196": 640,
      "200": 641,
      "अपने": 642,
      "अपनी": 643,
      "बड़ा": 644,
      "ज़ी": 645,
      "हिमालय": 646,
      "संस्कृत": 647,
      "अंग्रेजी": 648,
      "आधुनिक": 649,
      "अमे": 650,
      "गठबंधन": 651,
      "पहले": 652,
      "पार्टी": 653,
      "भूमिका": 654,
      "न्यायालय": 655,
      "भाजपा": 656,
      "मूल": 657,
      "शेष": 658,
      "हालाँकि": 659,
      "प्लेट": 660,
      "आधिकारिक": 661,
      "हथियार": 662,
      "परंपरा": 663,
      "अफ": 664,
      "आं": 665,
      "आग": 666,
      "उस": 667,
      "ऊँ": 668,
      "एं": 669,
      "कह": 670,
      "किन्": 671,
      "ग्र": 672,
      "जरा": 673,
      "जिन्": 674,
      "डा": 675,
      "दृ": 676,
      "पड़": 677,
      "पहा": 678,
      "बार": 679,
      "भग": 680,
      "भर": 681,
      "लं": 682,
      "लु": 683,
      "वन": 684,
      "वै": 685,
      "विक": 686,
      "सो": 687,
      "सर्व": 688,
      "ृद्ध": 689,
      "ैली": 690,
      "१८": 691,
      "केन्द्र": 692,
      "्यता": 693,
      "सेवा": 694,
      "ियाँ": 695,
      "करण": 696,
      "तिहा": 697,
      "वाद": 698,
      "वादी": 699,
      "वायु": 700,
      "ियन": 701,
      "लावा": 702,
      "पालि": 703,
      "लीन": 704,
      "होती": 705,
      "वर्ण": 706,
      "जनता": 707,
      "ंधी": 708,
      "१९७": 709,
      "१९८": 710,
      "युग": 711,
      "शासित": 712,
      "जिसके": 713,
      "बहुमत": 714,
      "प्राप्त": 715,
      "लगभग": 716,
      "बड़ी": 717,
      "बड़े": 718,
      "वंश": 719,
      "महाद्वीप": 720,
      "गांधी": 721,
      "रहे": 722,
      "विस्तृत": 723,
      "कर्ज": 724,
      "पर्वत": 725,
      "शील": 726,
      "सहयोग": 727,
      "डॉलर": 728,
      "विदेशी": 729,
      "अमेरि": 730,
      "किन्तु": 731,
      "पालिका": 732,
      "15": 733,
      "on": 734,
      "ंस": 735,
      "ंति": 736,
      "अब": 737,
      "अभी": 738,
      "आया": 739,
      "आन्": 740,
      "आदि": 741,
      "इं": 742,
      "इस्": 743,
      "उन्": 744,
      "उद्योग": 745,
      "ऋतु": 746,
      "कम": 747,
      "कटि": 748,
      "गए": 749,
      "चे": 750,
      "जू": 751,
      "जै": 752,
      "जलो": 753,
      "जाना": 754,
      "टन": 755,
      "तः": 756,
      "तन": 757,
      "तो": 758,
      "दू": 759,
      "धार": 760,
      "पि": 761,
      "पीय": 762,
      "फल": 763,
      "बै": 764,
      "बने": 765,
      "भरा": 766,
      "भिन्": 767,
      "मार": 768,
      "यों": 769,
      "र्य": 770,
      "रिक": 771,
      "वल": 772,
      "वरी": 773,
      "शत": 774,
      "शन": 775,
      "शक्ति": 776,
      "सित": 777,
      "हन": 778,
      "िम": 779,
      "िकी": 780,
      "ोल": 781,
      "ोच्च": 782,
      "विवाद": 783,
      "विभिन्": 784,
      "सां": 785,
      "करता": 786,
      "वाली": 787,
      "लाख": 788,
      "पाद": 789,
      "समर्थ": 790,
      "इसकी": 791,
      "होते": 792,
      "वर्ग": 793,
      "मिला": 794,
      "१९५": 795,
      "१९६": 796,
      "उत्पाद": 797,
      "194": 798,
      "अधिकार": 799,
      "कुछ": 800,
      "000": 801,
      "ष्ण": 802,
      "अंग्रेज़ी": 803,
      "अमरी": 804,
      "बनाने": 805,
      "्रीका": 806,
      "प्रतिशत": 807,
      "यूरो": 808,
      "हिन्दू": 809,
      "जबकि": 810,
      "स्थापना": 811,
      "पंजा": 812,
      "व्यापार": 813,
      "राजनीतिक": 814,
      "वर्तमान": 815,
      "अर्थव्यवस्था": 816,
      "जलवायु": 817,
      "ब्रि": 818,
      "प्रभाव": 819,
      "अफ्रीका": 820,
      "दृष्ट": 821,
      "सर्वोच्च": 822,
      "तिहास": 823,
      "जलोढ़": 824,
      "विभिन्न": 825,
      "समर्थन": 826,
      "यूरोपीय": 827,
      ");": 828,
      "21": 829,
      "50": 830,
      "ंक": 831,
      "ंह": 832,
      "असम": 833,
      "अधि": 834,
      "अलावा": 835,
      "इतिहास": 836,
      "उच्च": 837,
      "एन": 838,
      "कश्": 839,
      "कर्म": 840,
      "किये": 841,
      "घा": 842,
      "चना": 843,
      "छो": 844,
      "छोड़": 845,
      "ज्": 846,
      "जिक": 847,
      "जहाँ": 848,
      "तट": 849,
      "तम": 850,
      "दार": 851,
      "दारी": 852,
      "नै": 853,
      "निय": 854,
      "नदिया": 855,
      "नगर": 856,
      "पहु": 857,
      "फि": 858,
      "फ्रा": 859,
      "बौ": 860,
      "बंगा": 861,
      "यक": 862,
      "यत": 863,
      "रही": 864,
      "लना": 865,
      "श्री": 866,
      "सत": 867,
      "सल्": 868,
      "सफल": 869,
      "हरा": 870,
      "ोसी": 871,
      "ौर": 872,
      "ौद्योग": 873,
      "१४": 874,
      "१५": 875,
      "२४": 876,
      "केवल": 877,
      "यास": 878,
      "स्लि": 879,
      "प्रशासन": 880,
      "प्रत्य": 881,
      "प्रचल": 882,
      "प्रौद्योग": 883,
      "प्रयास": 884,
      "नेमा": 885,
      "वियत": 886,
      "साह": 887,
      "सामा": 888,
      "संगी": 889,
      "परी": 890,
      "पर्य": 891,
      "क्षर": 892,
      "भाष": 893,
      "कोई": 894,
      "माल": 895,
      "राजनै": 896,
      "देव": 897,
      "वास": 898,
      "पास": 899,
      "भील": 900,
      "्यादा": 901,
      "तरह": 902,
      "तीस": 903,
      "तीसर": 904,
      "शांति": 905,
      "बाहरी": 906,
      "रूस": 907,
      "ंत्रिक": 908,
      "माना": 909,
      "मानसू": 910,
      "मुस्लि": 911,
      "भाषाएँ": 912,
      "जीत": 913,
      "सरकारें": 914,
      "स्थि": 915,
      "कृष": 916,
      "जिसका": 917,
      "दिल्": 918,
      "स्वरूप": 919,
      "मिलियन": 920,
      "पूर्वी": 921,
      "पुर": 922,
      "सिनेमा": 923,
      "लगा": 924,
      "हिस्": 925,
      "उपमहाद्वीप": 926,
      "वेश": 927,
      "बनाई": 928,
      "अन्तर": 929,
      "आधार": 930,
      "क्रम": 931,
      "संघीय": 932,
      "पश्चिमी": 933,
      "गुप्त": 934,
      "गुजरा": 935,
      "टिश": 936,
      "शुरू": 937,
      "विस्तार": 938,
      "2011": 939,
      "पेक्ष": 940,
      "लोगों": 941,
      "निरपेक्ष": 942,
      "इंडिया": 943,
      "घोषणा": 944,
      "उसके": 945,
      "कहते": 946,
      "पड़ोसी": 947,
      "अमेरिका": 948,
      "आन्दोलन": 949,
      "जून": 950,
      "तनत": 951,
      "1947": 952,
      "ब्रिटिश": 953,
      "दृष्टि": 954,
      "कश्मी": 955,
      "छोटे": 956,
      "ज्ञ": 957,
      "नदियाँ": 958,
      "सल्तनत": 959,
      "प्रौद्योगिकी": 960,
      "सामाजिक": 961,
      "संगीत": 962,
      "राजनैतिक": 963,
      "मानसून": 964,
      "मुस्लिम": 965,
      "दिल्ली": 966,
      "22": 967,
      "26": 968,
      "ंट": 969,
      "अग": 970,
      "अभ": 971,
      "अने": 972,
      "अति": 973,
      "अल्": 974,
      "आज": 975,
      "आप": 976,
      "आय": 977,
      "आस": 978,
      "उसे": 979,
      "उष्ण": 980,
      "एव": 981,
      "कप": 982,
      "कों": 983,
      "क्यों": 984,
      "घर": 985,
      "चित": 986,
      "चला": 987,
      "चली": 988,
      "जट": 989,
      "जों": 990,
      "जमा": 991,
      "टल": 992,
      "ढा": 993,
      "तीय": 994,
      "दु": 995,
      "नव": 996,
      "पान": 997,
      "पत्": 998,
      "फा": 999,
      "फैली": 1000,
      "बि": 1001,
      "बदल": 1002,
      "बजट": 1003,
      "भ्यता": 1004,
      "मल": 1005,
      "मह": 1006,
      "मे": 1007,
      "यि": 1008,
      "यहाँ": 1009,
      "रख": 1010,
      "लै": 1011,
      "लौ": 1012,
      "लड़ा": 1013,
      "शहर": 1014,
      "शहरी": 1015,
      "शिक्": 1016,
      "सन्": 1017,
      "सहा": 1018,
      "सभ्यता": 1019,
      "हॉ": 1020,
      "हों": 1021,
      "ृत्य": 1022,
      "ेक्षा": 1023,
      "ोत्": 1024,
      "ौहार": 1025,
      "्द": 1026,
      "१०": 1027,
      "२२": 1028,
      "४०": 1029,
      "४७": 1030,
      "कालीन": 1031,
      "र्ष": 1032,
      "प्रका": 1033,
      "प्रिय": 1034,
      "प्रसार": 1035,
      "प्रदान": 1036,
      "प्रणा": 1037,
      "नेह": 1038,
      "क्ट": 1039,
      "विरो": 1040,
      "विशेष": 1041,
      "नागर": 1042,
      "नागा": 1043,
      "ियां": 1044,
      "संग": 1045,
      "क्षण": 1046,
      "करती": 1047,
      "करते": 1048,
      "भागी": 1049,
      "त्री": 1050,
      "माता": 1051,
      "माध्य": 1052,
      "राजा": 1053,
      "राजवंश": 1054,
      "देखा": 1055,
      "हाल": 1056,
      "त्न": 1057,
      "वास्त": 1058,
      "पाया": 1059,
      "पाँच": 1060,
      "समझ": 1061,
      "समृद्ध": 1062,
      "लीवि": 1063,
      "निवेश": 1064,
      "तीन": 1065,
      "इसमें": 1066,
      "इसका": 1067,
      "शाली": 1068,
      "होना": 1069,
      "किए": 1070,
      "किसी": 1071,
      "राज्यसभा": 1072,
      "पूरा": 1073,
      "जनवरी": 1074,
      "द्रो": 1075,
      "ंधु": 1076,
      "भाषाएं": 1077,
      "जीवन": 1078,
      "197": 1079,
      "199": 1080,
      "दिरा": 1081,
      "बंधीय": 1082,
      "अपना": 1083,
      "पुरु": 1084,
      "सदन": 1085,
      "सिंह": 1086,
      "सिंधु": 1087,
      "सामरिक": 1088,
      "उत्तरी": 1089,
      "तुलना": 1090,
      "मंत्रिम": 1091,
      "०००": 1092,
      "स्कृतिक": 1093,
      "उपयोग": 1094,
      "टेलीवि": 1095,
      "ष्क": 1096,
      "ष्ठ": 1097,
      "च्छ": 1098,
      "बढ़कर": 1099,
      "बढ़ती": 1100,
      "सूची": 1101,
      "समाप्त": 1102,
      "सैनिक": 1103,
      "मोहन": 1104,
      "लोकप्रिय": 1105,
      "संबंधों": 1106,
      "हिन्दु": 1107,
      "मैदानी": 1108,
      "शुष्क": 1109,
      "उनके": 1110,
      "२००४": 1111,
      "कार्यकाल": 1112,
      "कार्यपालिका": 1113,
      "ण्डल": 1114,
      "मौर्य": 1115,
      "जिनमें": 1116,
      "सदस्य": 1117,
      "सदस्यों": 1118,
      "1965": 1119,
      "परंपरागत": 1120,
      "आगमन": 1121,
      "ऊँची": 1122,
      "जिन्हें": 1123,
      "डालर": 1124,
      "लंबे": 1125,
      "विकसित": 1126,
      "सोवियत": 1127,
      "इंदिरा": 1128,
      "इस्ला": 1129,
      "उन्हें": 1130,
      "कटिबंधीय": 1131,
      "जैसे": 1132,
      "सांस्कृतिक": 1133,
      "१९५०": 1134,
      "अमरीकी": 1135,
      "पंजाब": 1136,
      "पहुँच": 1137,
      "फ्रांस": 1138,
      "बौद्ध": 1139,
      "परीक्षण": 1140,
      "पर्यटन": 1141,
      "भाषी": 1142,
      "स्थिति": 1143,
      "कृषि": 1144,
      "कश्मीर": 1145,
      "ज्ञान": 1146,
      "अनेक": 1147,
      "शिक्षा": 1148,
      "सहायक": 1149,
      "हॉकी": 1150,
      "प्रणाली": 1151,
      "नागरिक": 1152,
      "माध्यम": 1153,
      "पुरुष": 1154,
      "मंत्रिमण्डल": 1155,
      "%)": 1156,
      "40": 1157,
      "64": 1158,
      "80": 1159,
      "In": 1160,
      "ia": 1161,
      "oon": 1162,
      "soon": 1163,
      "ंतर": 1164,
      "ंजन": 1165,
      "अर्": 1166,
      "अनि": 1167,
      "अहि": 1168,
      "अक्ट": 1169,
      "अच्छ": 1170,
      "आई": 1171,
      "आत": 1172,
      "आर": 1173,
      "आते": 1174,
      "आकर्म": 1175,
      "इसे": 1176,
      "ईद": 1177,
      "ईस्ट": 1178,
      "उठ": 1179,
      "उभरा": 1180,
      "ऊपर": 1181,
      "कल": 1182,
      "कंप": 1183,
      "कन्न": 1184,
      "खन": 1185,
      "खर": 1186,
      "खे": 1187,
      "खंड": 1188,
      "गै": 1189,
      "गों": 1190,
      "गढ़": 1191,
      "ग्री": 1192,
      "गोल": 1193,
      "चर": 1194,
      "चो": 1195,
      "चौ": 1196,
      "छह": 1197,
      "जय": 1198,
      "जु": 1199,
      "जान": 1200,
      "जन्": 1201,
      "जैन": 1202,
      "जाने": 1203,
      "झे": 1204,
      "झार": 1205,
      "टक": 1206,
      "टा": 1207,
      "टना": 1208,
      "ठक": 1209,
      "ठी": 1210,
      "ठार": 1211,
      "डि": 1212,
      "डु": 1213,
      "डे": 1214,
      "डिया": 1215,
      "तब": 1216,
      "तार": 1217,
      "तरा": 1218,
      "थल": 1219,
      "थान": 1220,
      "दों": 1221,
      "दिक": 1222,
      "दियों": 1223,
      "धन": 1224,
      "नम": 1225,
      "नर": 1226,
      "नार": 1227,
      "नियों": 1228,
      "नृत्य": 1229,
      "नदियों": 1230,
      "पो": 1231,
      "पक्ष": 1232,
      "पड़ा": 1233,
      "पठार": 1234,
      "फु": 1235,
      "बद": 1236,
      "बल": 1237,
      "बह": 1238,
      "बन्": 1239,
      "बियों": 1240,
      "बडी": 1241,
      "भु": 1242,
      "भो": 1243,
      "भरी": 1244,
      "मं": 1245,
      "मक": 1246,
      "मना": 1247,
      "मही": 1248,
      "मले": 1249,
      "मस्वरूप": 1250,
      "यन": 1251,
      "यें": 1252,
      "यद्य": 1253,
      "यपालिका": 1254,
      "रल": 1255,
      "रखा": 1256,
      "रत्न": 1257,
      "लू": 1258,
      "वृद्ध": 1259,
      "श्र": 1260,
      "शिया": 1261,
      "श्रे": 1262,
      "शक्त": 1263,
      "शस्त्र": 1264,
      "शैली": 1265,
      "सर्": 1266,
      "सों": 1267,
      "सभी": 1268,
      "सिन्": 1269,
      "सक्र": 1270,
      "सौहार": 1271,
      "हे": 1272,
      "हत्या": 1273,
      "ामस्वरूप": 1274,
      "ूत": 1275,
      "ूह": 1276,
      "ूबर": 1277,
      "ेक": 1278,
      "्म": 1279,
      "्ष": 1280,
      "१७": 1281,
      "२५": 1282,
      "२६": 1283,
      "५२": 1284,
      "काज": 1285,
      "स्ता": 1286,
      "स्ति": 1287,
      "ान्": 1288,
      "प्रदेशों": 1289,
      "प्रगति": 1290,
      "प्रभु": 1291,
      "नेपा": 1292,
      "वित": 1293,
      "विध": 1294,
      "विशा": 1295,
      "विमान": 1296,
      "विद्रो": 1297,
      "विज्ञान": 1298,
      "तांत्रिक": 1299,
      "सामान": 1300,
      "सागर": 1301,
      "साक्षर": 1302,
      "न्तु": 1303,
      "परि": 1304,
      "परे": 1305,
      "परिण": 1306,
      "करे": 1307,
      "करो": 1308,
      "त्रि": 1309,
      "राजभाषा": 1310,
      "राजधान": 1311,
      "राजस्थान": 1312,
      "ड़ियाँ": 1313,
      "वाम": 1314,
      "कारी": 1315,
      "ित्य": 1316,
      "ियस": 1317,
      "ियो": 1318,
      "लाल": 1319,
      "पाई": 1320,
      "पात": 1321,
      "समूह": 1322,
      "्यात": 1323,
      "तरिक": 1324,
      "निम्": 1325,
      "निवास": 1326,
      "भारतीयों": 1327,
      "दीव": 1328,
      "शामिल": 1329,
      "शास्त्र": 1330,
      "होने": 1331,
      "वर्षा": 1332,
      "मिश्र": 1333,
      "पूरे": 1334,
      "सरे": 1335,
      "मानव": 1336,
      "मुद्र": 1337,
      "नीति": 1338,
      "१९४७": 1339,
      "लिख": 1340,
      "प्ति": 1341,
      "सरकारों": 1342,
      "1950": 1343,
      "2020": 1344,
      "स्थल": 1345,
      "जिसकी": 1346,
      "जिसने": 1347,
      "बहुमूल": 1348,
      "क्षेत्रों": 1349,
      "सीमा": 1350,
      "धर्मों": 1351,
      "सारी": 1352,
      "अपेक्षा": 1353,
      "पुड़ा": 1354,
      "मीणा": 1355,
      "चुकी": 1356,
      "ज़्यादा": 1357,
      "निर्भर": 1358,
      "केंद्रीय": 1359,
      "एशन": 1360,
      "चाई": 1361,
      "बनाया": 1362,
      "रुप": 1363,
      "क्रय": 1364,
      "क्रि": 1365,
      "बढ़ने": 1366,
      "संघर्ष": 1367,
      "गुट": 1368,
      "मनमोहन": 1369,
      "मध्यम": 1370,
      "सूचना": 1371,
      "प्राचीनतम": 1372,
      "न्यायपालिका": 1373,
      "मोर्": 1374,
      "मोदी": 1375,
      "स्थानीय": 1376,
      "साम्राज्यों": 1377,
      "लोकसभा": 1378,
      "लोकतांत्रिक": 1379,
      "पहली": 1380,
      "सम्पूर्ण": 1381,
      "पार्टियों": 1382,
      "शुरु": 1383,
      "2012": 1384,
      "उनका": 1385,
      "उनकी": 1386,
      "स्थापित": 1387,
      "अवधि": 1388,
      "अवशेष": 1389,
      "१९९१": 1390,
      "विकासशील": 1391,
      "पंथी": 1392,
      "सकता": 1393,
      "सकते": 1394,
      "राजनीति": 1395,
      "अन्तर्": 1396,
      "अन्ततः": 1397,
      "घोषित": 1398,
      "पैमान": 1399,
      "२०१४": 1400,
      "कामकाज": 1401,
      "प्रारम्भिक": 1402,
      "आंदोलन": 1403,
      "आंतरिक": 1404,
      "आगे": 1405,
      "ऊँचाई": 1406,
      "पहाड़ी": 1407,
      "लंका": 1408,
      "वैदिक": 1409,
      "सेवाओं": 1410,
      "वर्णन": 1411,
      "१९८४": 1412,
      "onsoon": 1413,
      "बैठक": 1414,
      "मार्": 1415,
      "प्रभावशाली": 1416,
      "घाटी": 1417,
      "छोड़कर": 1418,
      "बंगाल": 1419,
      "श्रीलंका": 1420,
      "सतपुड़ा": 1421,
      "प्रत्येक": 1422,
      "प्रचलित": 1423,
      "साहित्य": 1424,
      "मालदीव": 1425,
      "तीसरी": 1426,
      "लगातार": 1427,
      "हिस्सा": 1428,
      "गुजरात": 1429,
      "अगस्त": 1430,
      "अभिया": 1431,
      "पत्ति": 1432,
      "होंने": 1433,
      "प्रकाश": 1434,
      "नेहरू": 1435,
      "विरोध": 1436,
      "भागीदारी": 1437,
      "वास्तविक": 1438,
      "समझौ": 1439,
      "1971": 1440,
      "हिन्दुस्तान": 1441,
      "इस्लाम": 1442,
      "पुरुषों": 1443,
      "Ind": 1444,
      "अहिं": 1445,
      "अक्टूबर": 1446,
      "आकर्मण": 1447,
      "गैर": 1448,
      "गोंड": 1449,
      "फुट": 1450,
      "यद्यपि": 1451,
      "वृद्धि": 1452,
      "सक्रिय": 1453,
      "सौहार्द": 1454,
      "विशाल": 1455,
      "विद्रोह": 1456,
      "साक्षरता": 1457,
      "परिणामस्वरूप": 1458,
      "राजधानी": 1459,
      "बहुमूल्य": 1460,
      "./": 1461,
      "12": 1462,
      "13": 1463,
      "16": 1464,
      "24": 1465,
      "30": 1466,
      "33": 1467,
      "36": 1468,
      "55": 1469,
      "500": 1470,
      "72": 1471,
      "76": 1472,
      "83": 1473,
      "Au": 1474,
      "at": 1475,
      "er": 1476,
      "in": 1477,
      "monsoon": 1478,
      "or": 1479,
      "st": 1480,
      "um": 1481,
      "ँचा": 1482,
      "ंत": 1483,
      "ंद": 1484,
      "ंब": 1485,
      "ंश": 1486,
      "ंपर": 1487,
      "ंतु": 1488,
      "ंतीस": 1489,
      "अथ": 1490,
      "असं": 1491,
      "अक्ष": 1492,
      "अत्य": 1493,
      "अग्र": 1494,
      "अशांति": 1495,
      "असैनिक": 1496,
      "आए": 1497,
      "आठ": 1498,
      "आम": 1499,
      "आव": 1500,
      "आने": 1501,
      "आकृ": 1502,
      "आवं": 1503,
      "आपूर्": 1504,
      "आकर्": 1505,
      "आदर्": 1506,
      "आर्य": 1507,
      "आक्रम": 1508,
      "इन्": 1509,
      "इण्ड": 1510,
      "इत्या": 1511,
      "इजरा": 1512,
      "इलावा": 1513,
      "उद": 1514,
      "उल": 1515,
      "उड़ी": 1516,
      "उभरी": 1517,
      "ऊर्": 1518,
      "एफ": 1519,
      "एस": 1520,
      "एसो": 1521,
      "ऐसे": 1522,
      "ऐसी": 1523,
      "औसत": 1524,
      "कू": 1525,
      "कला": 1526,
      "क्रा": 1527,
      "कहीं": 1528,
      "कंक": 1529,
      "खु": 1530,
      "खान": 1531,
      "खण्ड": 1532,
      "गध": 1533,
      "ग़": 1534,
      "गू": 1535,
      "गो": 1536,
      "गार": 1537,
      "गान": 1538,
      "गये": 1539,
      "घु": 1540,
      "घनि": 1541,
      "घरे": 1542,
      "चों": 1543,
      "छू": 1544,
      "जह": 1545,
      "जना": 1546,
      "जवा": 1547,
      "जंग": 1548,
      "जारी": 1549,
      "ज्यादा": 1550,
      "णि": 1551,
      "तल": 1552,
      "तन्": 1553,
      "तत्": 1554,
      "तनाव": 1555,
      "थम": 1556,
      "थि": 1557,
      "दरा": 1558,
      "दमन": 1559,
      "दलों": 1560,
      "दौर": 1561,
      "धु": 1562,
      "धित": 1563,
      "नई": 1564,
      "नौ": 1565,
      "न्य": 1566,
      "नया": 1567,
      "नदी": 1568,
      "नर्म": 1569,
      "नवी": 1570,
      "नये": 1571,
      "पद": 1572,
      "पति": 1573,
      "पमान": 1574,
      "पब्": 1575,
      "पत्य": 1576,
      "पन्न": 1577,
      "पटल": 1578,
      "पसन्": 1579,
      "फे": 1580,
      "फै": 1581,
      "बई": 1582,
      "बॉ": 1583,
      "बहा": 1584,
      "भे": 1585,
      "भक्ति": 1586,
      "म्र": 1587,
      "म्य": 1588,
      "मरा": 1589,
      "महि": 1590,
      "मजब": 1591,
      "मशी": 1592,
      "महार": 1593,
      "मगध": 1594,
      "यर": 1595,
      "यल": 1596,
      "यी": 1597,
      "यिक": 1598,
      "यहा": 1599,
      "यदा": 1600,
      "यद्वीप": 1601,
      "रों": 1602,
      "रसा": 1603,
      "रक्ष": 1604,
      "रचना": 1605,
      "रंजन": 1606,
      "लत": 1607,
      "लम": 1608,
      "लिक": 1609,
      "लित": 1610,
      "ल्ट": 1611,
      "वस": 1612,
      "व्र": 1613,
      "वें": 1614,
      "वों": 1615,
      "वस्त": 1616,
      "वधान": 1617,
      "वाने": 1618,
      "वक्त": 1619,
      "वजह": 1620,
      "शै": 1621,
      "श्य": 1622,
      "शिक": 1623,
      "शब्": 1624,
      "शियन": 1625,
      "षण": 1626,
      "षित": 1627,
      "सॉ": 1628,
      "स्र": 1629,
      "सरा": 1630,
      "सक्ष": 1631,
      "सकर": 1632,
      "सतर": 1633,
      "सदी": 1634,
      "सवी": 1635,
      "सशस्त्र": 1636,
      "सियस": 1637,
      "हद": 1638,
      "हम": 1639,
      "हस्त": 1640,
      "हवे": 1641,
      "हारी": 1642,
      "ह्म": 1643,
      "हस्ता": 1644,
      "ाया": 1645,
      "ाष्ट्र": 1646,
      "ायि": 1647,
      "िप्त": 1648,
      "ीण": 1649,
      "ुण्": 1650,
      "ूदी": 1651,
      "ेडे": 1652,
      "ॉक": 1653,
      "ोत": 1654,
      "ोने": 1655,
      "ोरंजन": 1656,
      "्‍": 1657,
      "्ला": 1658,
      "्कटि": 1659,
      "११": 1660,
      "१३": 1661,
      "१६": 1662,
      "१०००": 1663,
      "२३": 1664,
      "२८": 1665,
      "२९": 1666,
      "३२": 1667,
      "३७": 1668,
      "३८": 1669,
      "४३": 1670,
      "६६": 1671,
      "७९": 1672,
      "८५": 1673,
      "‍व": 1674,
      "ार्कटि": 1675,
      "केट": 1676,
      "ेंद्र": 1677,
      "मेंट": 1678,
      "कांश": 1679,
      "भारतवर्ष": 1680,
      "र्ता": 1681,
      "याब": 1682,
      "यालम": 1683,
      "कीर्": 1684,
      "सेमी": 1685,
      "सेल्": 1686,
      "ानी": 1687,
      "ानों": 1688,
      "प्रसि": 1689,
      "प्रमाण": 1690,
      "प्रथम": 1691,
      "राशि": 1692,
      "नेट": 1693,
      "नेता": 1694,
      "क्स": 1695,
      "विभा": 1696,
      "वित्": 1697,
      "विंध": 1698,
      "विधि": 1699,
      "विभाग": 1700,
      "विभाज": 1701,
      "विजय": 1702,
      "तापमान": 1703,
      "नाटक": 1704,
      "नाडु": 1705,
      "साफ़": 1706,
      "सावादी": 1707,
      "साझे": 1708,
      "थाई": 1709,
      "संक्ष": 1710,
      "संसार": 1711,
      "संचा": 1712,
      "संगठ": 1713,
      "संबर": 1714,
      "संबो": 1715,
      "परन्तु": 1716,
      "परंतु": 1717,
      "करवाने": 1718,
      "भाबर": 1719,
      "त्रता": 1720,
      "कोपे": 1721,
      "मात्र": 1722,
      "माला": 1723,
      "मामले": 1724,
      "देता": 1725,
      "देते": 1726,
      "ड़िया": 1727,
      "जातीय": 1728,
      "जापान": 1729,
      "त्मा": 1730,
      "त्मक": 1731,
      "त्‍व": 1732,
      "वाँ": 1733,
      "वाज": 1734,
      "वाला": 1735,
      "वाधिक": 1736,
      "वाले": 1737,
      "वालों": 1738,
      "कारों": 1739,
      "लाइ": 1740,
      "लाई": 1741,
      "पांड": 1742,
      "पाइन": 1743,
      "समे": 1744,
      "समान": 1745,
      "सम्रा": 1746,
      "्टवे": 1747,
      "्यालय": 1748,
      "्याचल": 1749,
      "ंगो": 1750,
      "ंगीण": 1751,
      "ंग्ला": 1752,
      "द्वि": 1753,
      "तरी": 1754,
      "तीव्र": 1755,
      "इसने": 1756,
      "होली": 1757,
      "वर्गी": 1758,
      "तेज़ी": 1759,
      "तेलु": 1760,
      "तेमाल": 1761,
      "किनार": 1762,
      "बाल": 1763,
      "बाढ़": 1764,
      "बांग्ला": 1765,
      "रूपरे": 1766,
      "षाण": 1767,
      "जिसे": 1768,
      "जिमेंट": 1769,
      "मानी": 1770,
      "मान्यता": 1771,
      "मुम्": 1772,
      "मुक्त": 1773,
      "रीति": 1774,
      "रीबी": 1775,
      "लिस": 1776,
      "उत्थान": 1777,
      "जीविका": 1778,
      "जीडी": 1779,
      "सरकारी": 1780,
      "195": 1781,
      "1980": 1782,
      "यहूदी": 1783,
      "लेकर": 1784,
      "लेखन": 1785,
      "क्षेप": 1786,
      "बहुपक्ष": 1787,
      "रूपए": 1788,
      "दिवाली": 1789,
      "दिवस": 1790,
      "दिसंबर": 1791,
      "प्राप्ति": 1792,
      "प्रायद्वीप": 1793,
      "प्रावधान": 1794,
      "जोर": 1795,
      "राष्ट्रों": 1796,
      "राष्ट्रपति": 1797,
      "धर्मनिरपेक्ष": 1798,
      "्राम": 1799,
      "स्वरुप": 1800,
      "स्वतन्": 1801,
      "स्थाई": 1802,
      "मिलित": 1803,
      "पारसी": 1804,
      "पारंपर": 1805,
      "पुन": 1806,
      "पुत्र": 1807,
      "पुरी": 1808,
      "पुलिस": 1809,
      "मील": 1810,
      "ल्म": 1811,
      "सिख": 1812,
      "सिएशन": 1813,
      "सामने": 1814,
      "सामना": 1815,
      "रेशियन": 1816,
      "रेजिमेंट": 1817,
      "उत्तरदा": 1818,
      "ज़न": 1819,
      "मंत्रण": 1820,
      "वार्य": 1821,
      "वार्ष": 1822,
      "व्यक्ति": 1823,
      "नामों": 1824,
      "अनुसूची": 1825,
      "म्बे": 1826,
      "कालिक": 1827,
      "निर्माता": 1828,
      "कुलीन": 1829,
      "तिकर्ता": 1830,
      "केंद्रशासित": 1831,
      "उपग्र": 1832,
      "दादरा": 1833,
      "चाह": 1834,
      "चालु": 1835,
      "बनाए": 1836,
      "महासागर": 1837,
      "महात्मा": 1838,
      "अंग्रेजों": 1839,
      "क्री": 1840,
      "हरलाल": 1841,
      "खासकर": 1842,
      "गाँ": 1843,
      "मनु": 1844,
      "मनोरंजन": 1845,
      "मध्यप्रदेश": 1846,
      "मध्यकालीन": 1847,
      "सूत्र": 1848,
      "त्वपूर्ण": 1849,
      "एशियाई": 1850,
      "दशहरा": 1851,
      "स्थानों": 1852,
      "गठित": 1853,
      "चलने": 1854,
      "यूपी": 1855,
      "यूरेशियन": 1856,
      "सम्प्रभु": 1857,
      "सम्मिलित": 1858,
      "पार्टियां": 1859,
      "मैदानों": 1860,
      "इनका": 1861,
      "फ़ि": 1862,
      "फ़ेडे": 1863,
      "बेटे": 1864,
      "नेतृत्‍व": 1865,
      "2013": 1866,
      "कर्नाटक": 1867,
      "ोषण": 1868,
      "न्यायाधिकार": 1869,
      "अवसा": 1870,
      "ईसाई": 1871,
      "गतिशील": 1872,
      "बोला": 1873,
      "बोली": 1874,
      "सहित": 1875,
      "२००९": 1876,
      "१९९०": 1877,
      "१९९६": 1878,
      "१९९८": 1879,
      "मुख्यरूप": 1880,
      "तमिलनाडु": 1881,
      "मौसम": 1882,
      "सकल": 1883,
      "संसदीय": 1884,
      "देखो": 1885,
      "देखने": 1886,
      "देखते": 1887,
      "निर्यात": 1888,
      "जिनके": 1889,
      "इंडोने": 1890,
      "दर्ज़": 1891,
      "दर्शन": 1892,
      "पैंतीस": 1893,
      "ब्रह्म": 1894,
      "बनीं": 1895,
      "शिखर": 1896,
      "सुधार": 1897,
      "२०११": 1898,
      "कामयाब": 1899,
      "प्रभावित": 1900,
      "न्नति": 1901,
      "युद्धों": 1902,
      "1960": 1903,
      "1962": 1904,
      "2008": 1905,
      "न्यायालयों": 1906,
      "मूल्यों": 1907,
      "जिन्हे": 1908,
      "पहाड़ियाँ": 1909,
      "भरत": 1910,
      "१८५": 1911,
      "केन्द्रीय": 1912,
      "केन्द्रशासित": 1913,
      "वर्णित": 1914,
      "जनतांत्रिक": 1915,
      "१९७१": 1916,
      "१९७५": 1917,
      "१९७७": 1918,
      "१९८०": 1919,
      "१९८९": 1920,
      "महाद्वीपों": 1921,
      "पर्वतश्रे": 1922,
      "पर्वतमाला": 1923,
      "अमेरिकी": 1924,
      "आयात": 1925,
      "आयातक": 1926,
      "इस्तेमाल": 1927,
      "उन्होंने": 1928,
      "जैसी": 1929,
      "दूसरे": 1930,
      "बैंक": 1931,
      "शक्तियों": 1932,
      "हनन": 1933,
      "१९६२": 1934,
      "उत्पादन": 1935,
      "अमरीका": 1936,
      "पंजाबी": 1937,
      "असमिया": 1938,
      "अधिराज्य": 1939,
      "अधिकांश": 1940,
      "एनएस": 1941,
      "कर्मियों": 1942,
      "घाट": 1943,
      "तटों": 1944,
      "नियु": 1945,
      "नियंत्र": 1946,
      "फिर": 1947,
      "फिल्म": 1948,
      "प्रशासनिक": 1949,
      "प्रत्यक्ष": 1950,
      "प्रचलन": 1951,
      "तीसरे": 1952,
      "पुराने": 1953,
      "पुराना": 1954,
      "हिस्सों": 1955,
      "आधारित": 1956,
      "गुजराती": 1957,
      "अल्पाइन": 1958,
      "आपके": 1959,
      "आसपास": 1960,
      "एवम": 1961,
      "क्योंकि": 1962,
      "चलाया": 1963,
      "ढाँचा": 1964,
      "नवगठित": 1965,
      "फायदा": 1966,
      "मलयालम": 1967,
      "महत्वपूर्ण": 1968,
      "रखने": 1969,
      "लैंड": 1970,
      "लौटना": 1971,
      "लड़ाकू": 1972,
      "शहरों": 1973,
      "शहरीकरण": 1974,
      "ोत्तर": 1975,
      "प्रसारण": 1976,
      "संगम": 1977,
      "संग्राम": 1978,
      "राजाओं": 1979,
      "1999": 1980,
      "टेलीविजन": 1981,
      "टेलीविज़न": 1982,
      "नागरिकों": 1983,
      "अर्ध": 1984,
      "अनिवार्य": 1985,
      "उठाया": 1986,
      "कंपनियों": 1987,
      "चरम": 1988,
      "जन्म": 1989,
      "झारखंड": 1990,
      "डिग्री": 1991,
      "तराई": 1992,
      "नरेंद्र": 1993,
      "पोर्": 1994,
      "बदला": 1995,
      "बहती": 1996,
      "बन्ध": 1997,
      "मंचों": 1998,
      "मनाए": 1999,
      "महीने": 2000,
      "सिन्धु": 2001,
      "नेपाल": 2002,
      "विधायि": 2003,
      "सामान्य": 2004,
      "करेगी": 2005,
      "करोड": 2006,
      "वामपंथी": 2007,
      "निम्न": 2008,
      "मिश्रित": 2009,
      "मुद्रा": 2010,
      "क्रयशक्ति": 2011,
      "क्रिकेट": 2012,
      "मध्यमवर्ग": 2013,
      "मोर्चा": 2014,
      "शुरुआत": 2015,
      "अन्तर्गत": 2016,
      "पैमाने": 2017,
      "मार्च": 2018,
      "अभियानों": 2019,
      "समझौते": 2020,
      "India": 2021,
      "अहिंसावादी": 2022,
      "सौहार्दपूर्ण": 2023,
      "ers": 2024,
      "अथवा": 2025,
      "अक्षुण्": 2026,
      "अग्रणी": 2027,
      "आठवीं": 2028,
      "आवश्य": 2029,
      "आपूर्तिकर्ता": 2030,
      "आकर्षित": 2031,
      "आदर्श": 2032,
      "आक्रमण": 2033,
      "इण्डिया": 2034,
      "इत्यादि": 2035,
      "इजरायल": 2036,
      "उदय": 2037,
      "उड़ीसा": 2038,
      "ऊर्जा": 2039,
      "एसोसिएशन": 2040,
      "कंकड": 2041,
      "खानपान": 2042,
      "ग़रीबी": 2043,
      "घनिष्ठ": 2044,
      "घरेलू": 2045,
      "छूट": 2046,
      "जवाहरलाल": 2047,
      "जंगलों": 2048,
      "तत्कालीन": 2049,
      "नर्मदा": 2050,
      "नवीन": 2051,
      "पसन्द": 2052,
      "मराठी": 2053,
      "महिला": 2054,
      "मजबूत": 2055,
      "मशीन": 2056,
      "महाराष्ट्र": 2057,
      "यहां": 2058,
      "रसायन": 2059,
      "वस्तु": 2060,
      "शिकार": 2061,
      "शब्द": 2062,
      "स्रोत": 2063,
      "सक्षम": 2064,
      "हस्तक्षेप": 2065,
      "हवेली": 2066,
      "हस्ताक्षर": 2067,
      "ार्कटिका": 2068,
      "सेल्सियस": 2069,
      "प्रसिद्ध": 2070,
      "विभाजन": 2071,
      "विंध्याचल": 2072,
      "विभाजित": 2073,
      "विजयनगर": 2074,
      "साझेदारी": 2075,
      "संक्षिप्त": 2076,
      "संचालित": 2077,
      "संगठन": 2078,
      "संबोधित": 2079,
      "कोपेन": 2080,
      "सम्राट": 2081,
      "्टवेयर": 2082,
      "वर्गीकरण": 2083,
      "तेलुगू": 2084,
      "किनारे": 2085,
      "रूपरेखा": 2086,
      "मुम्बई": 2087,
      "जीडीपी": 2088,
      "बहुपक्षीय": 2089,
      "स्वतन्त्रता": 2090,
      "पारंपरिक": 2091,
      "वार्षिक": 2092,
      "उपग्रह": 2093,
      "चालुक्यों": 2094,
      "यूपीए": 2095,
      "फ़ेडेरल": 2096,
      "इंडोनेशिया": 2097,
      "ब्रह्मपुत्र": 2098,
      "पर्वतश्रेणी": 2099,
      "एनएसजी": 2100,
      "विधायिका": 2101,
      "अक्षुण्ण": 2102,
      "आवश्यक": 2103,
      ").": 2104,
      ")|": 2105,
      ")।": 2106,
      "02": 2107,
      "03": 2108,
      "04": 2109,
      "10": 2110,
      "11": 2111,
      "14": 2112,
      "17": 2113,
      "100": 2114,
      "121": 2115,
      "140": 2116,
      "180": 2117,
      "23": 2118,
      "28": 2119,
      "2200": 2120,
      "215": 2121,
      "37": 2122,
      "3000": 2123,
      "350": 2124,
      "46": 2125,
      "49": 2126,
      "415": 2127,
      "426": 2128,
      "672": 2129,
      "74": 2130,
      "75": 2131,
      "78": 2132,
      "92": 2133,
      "93": 2134,
      "9000": 2135,
      ":-": 2136,
      "Am": 2137,
      "Ar": 2138,
      "Aw": 2139,
      "BS": 2140,
      "BW": 2141,
      "Cw": 2142,
      "ET": 2143,
      "IR": 2144,
      "Monsoon": 2145,
      "PI": 2146,
      "Pl": 2147,
      "Po": 2148,
      "Pr": 2149,
      "Ra": 2150,
      "Re": 2151,
      "Sum": 2152,
      "SIR": 2153,
      "Win": 2154,
      "al": 2155,
      "bl": 2156,
      "ch": 2157,
      "ed": 2158,
      "he": 2159,
      "ic": 2160,
      "iv": 2161,
      "mers": 2162,
      "of": 2163,
      "ot": 2164,
      "pu": 2165,
      "ral": 2166,
      "tum": 2167,
      "ters": 2168,
      "the": 2169,
      "ँस": 2170,
      "ँची": 2171,
      "ँगर": 2172,
      "ँटा": 2173,
      "ंख": 2174,
      "ंज": 2175,
      "ंथ": 2176,
      "ंता": 2177,
      "ंहा": 2178,
      "ंती": 2179,
      "ंकि": 2180,
      "ंची": 2181,
      "ंजी": 2182,
      "ंतिक": 2183,
      "ंटे": 2184,
      "ंबर": 2185,
      "ंदर": 2186,
      "ंबो": 2187,
      "ंचे": 2188,
      "ंमार": 2189,
      "ंरिक": 2190,
      "ंसाह": 2191,
      "अज": 2192,
      "अश": 2193,
      "अस": 2194,
      "अप्र": 2195,
      "अवि": 2196,
      "अराज": 2197,
      "अंग": 2198,
      "अमी": 2199,
      "अदा": 2200,
      "अरु": 2201,
      "अत्या": 2202,
      "अंक": 2203,
      "असफल": 2204,
      "अस्थि": 2205,
      "अंट": 2206,
      "अटल": 2207,
      "अप्रसार": 2208,
      "अस्ति": 2209,
      "अंब": 2210,
      "अहम": 2211,
      "अद्वि": 2212,
      "अप्रत्यक्ष": 2213,
      "अंदर": 2214,
      "आन": 2215,
      "आर्": 2216,
      "आता": 2217,
      "आजा": 2218,
      "आकार": 2219,
      "आपा": 2220,
      "आती": 2221,
      "आयु": 2222,
      "आभू": 2223,
      "आमत": 2224,
      "आदर": 2225,
      "आस्ट": 2226,
      "आवास": 2227,
      "आपात": 2228,
      "आजीविका": 2229,
      "आमंत्रण": 2230,
      "इओ": 2231,
      "इर": 2232,
      "इ़": 2233,
      "इया": 2234,
      "इजा": 2235,
      "इला": 2236,
      "इटे": 2237,
      "इच्छ": 2238,
      "ईर": 2239,
      "ईस्": 2240,
      "ईसवी": 2241,
      "उर्": 2242,
      "उद्": 2243,
      "उतर": 2244,
      "उर्व": 2245,
      "उसी": 2246,
      "उद्ध": 2247,
      "उल्": 2248,
      "उदा": 2249,
      "उधार": 2250,
      "उदार": 2251,
      "उंट": 2252,
      "उचित": 2253,
      "उथल": 2254,
      "उम्र": 2255,
      "उन्नति": 2256,
      "ऊपरी": 2257,
      "ऊंची": 2258,
      "ऋग": 2259,
      "ऋष": 2260,
      "एज": 2261,
      "एल": 2262,
      "एका": 2263,
      "एवि": 2264,
      "एंड": 2265,
      "एक्स": 2266,
      "ऐं": 2267,
      "ऐतिहास": 2268,
      "ऑफ़": 2269,
      "ऑपरे": 2270,
      "ओण": 2271,
      "ओस": 2272,
      "ओरि": 2273,
      "ओडि": 2274,
      "ओडिया": 2275,
      "ओड़िया": 2276,
      "औप": 2277,
      "औद्योग": 2278,
      "कट": 2279,
      "कथ": 2280,
      "कै": 2281,
      "कने": 2282,
      "कता": 2283,
      "कना": 2284,
      "कथा": 2285,
      "कमा": 2286,
      "कहा": 2287,
      "किय": 2288,
      "कबी": 2289,
      "कम्": 2290,
      "कच्": 2291,
      "कमो": 2292,
      "कड़ी": 2293,
      "कणी": 2294,
      "कड़ियाँ": 2295,
      "कंबो": 2296,
      "खि": 2297,
      "खी": 2298,
      "खू": 2299,
      "ख्य": 2300,
      "खर्": 2301,
      "खाना": 2302,
      "खोल": 2303,
      "खदेव": 2304,
      "खगोल": 2305,
      "गल": 2306,
      "गि": 2307,
      "गॉ": 2308,
      "गौ": 2309,
      "गित": 2310,
      "गरी": 2311,
      "गर्म": 2312,
      "गलु": 2313,
      "गौर": 2314,
      "गहों": 2315,
      "गंगो": 2316,
      "घि": 2317,
      "घू": 2318,
      "घोड़": 2319,
      "घटन": 2320,
      "घकालिक": 2321,
      "चट": 2322,
      "चम": 2323,
      "चू": 2324,
      "चें": 2325,
      "चले": 2326,
      "चंड": 2327,
      "चंद्र": 2328,
      "चैन": 2329,
      "चन्द्र": 2330,
      "चोल": 2331,
      "चयन": 2332,
      "चंद": 2333,
      "छट": 2334,
      "छठ": 2335,
      "छा": 2336,
      "छे": 2337,
      "छत्": 2338,
      "छले": 2339,
      "जर": 2340,
      "जार": 2341,
      "जड़": 2342,
      "जित": 2343,
      "जर्व": 2344,
      "जटि": 2345,
      "जमह": 2346,
      "जंब": 2347,
      "जपुरी": 2348,
      "जगहों": 2349,
      "झु": 2350,
      "टर": 2351,
      "ट्र": 2352,
      "टें": 2353,
      "ट्य": 2354,
      "टका": 2355,
      "टान": 2356,
      "टित": 2357,
      "टते": 2358,
      "टियाँ": 2359,
      "टकों": 2360,
      "टार्कटिका": 2361,
      "ठित": 2362,
      "ठंड": 2363,
      "ठहर": 2364,
      "डच": 2365,
      "डम": 2366,
      "डकर": 2367,
      "डोग": 2368,
      "डिक्": 2369,
      "डियाँ": 2370,
      "डमक": 2371,
      "डियो": 2372,
      "डसॉ": 2373,
      "ढि": 2374,
      "ढती": 2375,
      "ढलु": 2376,
      "णियों": 2377,
      "तकर": 2378,
      "तगा": 2379,
      "तारी": 2380,
      "तोष": 2381,
      "तियाँ": 2382,
      "तौर": 2383,
      "तदु": 2384,
      "तियां": 2385,
      "तान्": 2386,
      "तवाँ": 2387,
      "थर": 2388,
      "थ्या": 2389,
      "दद": 2390,
      "दस": 2391,
      "दें": 2392,
      "दक्": 2393,
      "दड़": 2394,
      "दस्त": 2395,
      "दिये": 2396,
      "दंगा": 2397,
      "धे": 2398,
      "धो": 2399,
      "ध्र": 2400,
      "धर्": 2401,
      "धक्": 2402,
      "धम्": 2403,
      "धारी": 2404,
      "धरो": 2405,
      "ध्द": 2406,
      "ध्यात": 2407,
      "नए": 2408,
      "नू": 2409,
      "नो": 2410,
      "ननी": 2411,
      "नरे": 2412,
      "नवं": 2413,
      "नाने": 2414,
      "नमू": 2415,
      "नकल": 2416,
      "नडु": 2417,
      "नानी": 2418,
      "पक": 2419,
      "पॉ": 2420,
      "पें": 2421,
      "प्य": 2422,
      "पों": 2423,
      "पत्र": 2424,
      "पराज": 2425,
      "पिय": 2426,
      "प्ट": 2427,
      "पष्ट": 2428,
      "पनी": 2429,
      "पल्": 2430,
      "पदा": 2431,
      "पाने": 2432,
      "पमत": 2433,
      "पडी": 2434,
      "पणी": 2435,
      "पडा": 2436,
      "पतन": 2437,
      "पकालिक": 2438,
      "पोषण": 2439,
      "पथ्या": 2440,
      "पनडु": 2441,
      "फू": 2442,
      "फले": 2443,
      "बत": 2444,
      "बम": 2445,
      "बु": 2446,
      "बें": 2447,
      "बंग": 2448,
      "ब्रे": 2449,
      "बल्": 2450,
      "बलों": 2451,
      "बंट": 2452,
      "बूत": 2453,
      "बस्ति": 2454,
      "बँटा": 2455,
      "बढती": 2456,
      "भौ": 2457,
      "भ्र": 2458,
      "भजन": 2459,
      "भंड": 2460,
      "भगत": 2461,
      "भदेव": 2462,
      "मई": 2463,
      "मठ": 2464,
      "मर": 2465,
      "मिक": 2466,
      "मन्": 2467,
      "मित": 2468,
      "म्या": 2469,
      "मद्": 2470,
      "मिन्": 2471,
      "महिन्": 2472,
      "मसि": 2473,
      "मज़": 2474,
      "मोड़": 2475,
      "मरु": 2476,
      "मबे": 2477,
      "मलों": 2478,
      "मृत्य": 2479,
      "मन्तु": 2480,
      "मणि": 2481,
      "मंगो": 2482,
      "मइर": 2483,
      "मदद": 2484,
      "यं": 2485,
      "यव": 2486,
      "यो": 2487,
      "यर्": 2488,
      "यता": 2489,
      "यीय": 2490,
      "यक्ष": 2491,
      "यमु": 2492,
      "यदि": 2493,
      "यत्न": 2494,
      "रक": 2495,
      "रत": 2496,
      "रद": 2497,
      "रस": 2498,
      "रार": 2499,
      "रिया": 2500,
      "रिय": 2501,
      "रहीं": 2502,
      "रचा": 2503,
      "रिक्": 2504,
      "रवरी": 2505,
      "रबदल": 2506,
      "रफे": 2507,
      "लब": 2508,
      "लका": 2509,
      "लीय": 2510,
      "लक्ष": 2511,
      "लिय": 2512,
      "लते": 2513,
      "लमान": 2514,
      "लाने": 2515,
      "लनों": 2516,
      "लिक्": 2517,
      "लझे": 2518,
      "लघु": 2519,
      "लॉक": 2520,
      "लम्बे": 2521,
      "वत": 2522,
      "वह": 2523,
      "वृ": 2524,
      "वसा": 2525,
      "वीय": 2526,
      "वली": 2527,
      "वनी": 2528,
      "वमी": 2529,
      "वरि": 2530,
      "वटी": 2531,
      "वाना": 2532,
      "वस्त्र": 2533,
      "वशाली": 2534,
      "वपब्": 2535,
      "वरों": 2536,
      "व्‍": 2537,
      "शः": 2538,
      "शक": 2539,
      "शृ": 2540,
      "शत्र": 2541,
      "शतर": 2542,
      "शस्त": 2543,
      "शमिल": 2544,
      "शकारी": 2545,
      "शियस": 2546,
      "शोषण": 2547,
      "शरद": 2548,
      "ष्य": 2549,
      "षद्": 2550,
      "सृ": 2551,
      "सके": 2552,
      "सजा": 2553,
      "सत्": 2554,
      "सप्": 2555,
      "सहि": 2556,
      "सवीं": 2557,
      "सशक्त": 2558,
      "सन्नति": 2559,
      "सलमान": 2560,
      "हू": 2561,
      "हड़": 2562,
      "हद्": 2563,
      "हमान": 2564,
      "हटी": 2565,
      "हर्ष": 2566,
      "ात": 2567,
      "ाकर": 2568,
      "ाज़": 2569,
      "ालय": 2570,
      "ाचार": 2571,
      "ाएं": 2572,
      "ांतर": 2573,
      "ावली": 2574,
      "िन": 2575,
      "िवार": 2576,
      "िरु": 2577,
      "िस्तान": 2578,
      "िचे": 2579,
      "िपत्य": 2580,
      "ीव": 2581,
      "ीबन": 2582,
      "ीप्ले": 2583,
      "ीगढ़": 2584,
      "ीलीय": 2585,
      "ुक": 2586,
      "ुप": 2587,
      "ुता": 2588,
      "ुत्": 2589,
      "ुनि": 2590,
      "ुरि": 2591,
      "ुवीय": 2592,
      "ूक्": 2593,
      "ूद्वीप": 2594,
      "ेप": 2595,
      "ेब": 2596,
      "ेस": 2597,
      "ेदार": 2598,
      "ैल": 2599,
      "ोँ": 2600,
      "ोक": 2601,
      "ोण": 2602,
      "ोष्ण": 2603,
      "ोतरी": 2604,
      "ोखी": 2605,
      "ौज": 2606,
      "ौलत": 2607,
      "्प्र": 2608,
      "्थी": 2609,
      "्वे": 2610,
      "्वाधिक": 2611,
      "्ननी": 2612,
      "०४": 2613,
      "०६": 2614,
      "०८": 2615,
      "०२८": 2616,
      "१२००": 2617,
      "१२०": 2618,
      "१२५": 2619,
      "३०": 2620,
      "३३": 2621,
      "३९": 2622,
      "४४": 2623,
      "४५": 2624,
      "४६": 2625,
      "४००": 2626,
      "५१": 2627,
      "५००": 2628,
      "५४३": 2629,
      "५४५": 2630,
      "६२": 2631,
      "६५": 2632,
      "६९": 2633,
      "६००": 2634,
      "६४७": 2635,
      "६०६": 2636,
      "७०": 2637,
      "७२": 2638,
      "७४": 2639,
      "७७": 2640,
      "७८": 2641,
      "८०": 2642,
      "८२": 2643,
      "८४": 2644,
      "८९": 2645,
      "९६": 2646,
      "९४०": 2647,
      "‍बर": 2648,
      "‍तरी": 2649,
      "‍पकालिक": 2650,
      "’,": 2651,
      "्रम": 2652,
      "केबि": 2653,
      "केबल": 2654,
      "केरल": 2655,
      "ेंसी": 2656,
      "में‌": 2657,
      "्यजी": 2658,
      "्यवादी": 2659,
      "काया": 2660,
      "काली": 2661,
      "कालो": 2662,
      "काव्य": 2663,
      "कांग्रेस": 2664,
      "काफ़": 2665,
      "काहारी": 2666,
      "कानू": 2667,
      "र्टि": 2668,
      "र्फ़": 2669,
      "र्घकालिक": 2670,
      "र्तगा": 2671,
      "याधिकार": 2672,
      "यायि": 2673,
      "यावसा": 2674,
      "कीय": 2675,
      "स्म": 2676,
      "स्वर्ण": 2677,
      "स्क्री": 2678,
      "स्पष्ट": 2679,
      "सेमि": 2680,
      "सेपिय": 2681,
      "ानो": 2682,
      "ानता": 2683,
      "ानगर": 2684,
      "ानचंद": 2685,
      "प्रग": 2686,
      "प्रथा": 2687,
      "प्रपा": 2688,
      "प्रश्": 2689,
      "प्रयोग": 2690,
      "प्रभाग": 2691,
      "प्रबंधन": 2692,
      "प्रत्या": 2693,
      "प्रदू": 2694,
      "प्रवास": 2695,
      "प्रवेश": 2696,
      "प्रस्ता": 2697,
      "प्रदर्शन": 2698,
      "प्रकट": 2699,
      "प्रशस्त": 2700,
      "प्रेस": 2701,
      "राई": 2702,
      "राण": 2703,
      "रात": 2704,
      "राव": 2705,
      "राष्ट": 2706,
      "रामन": 2707,
      "रात्रि": 2708,
      "िकता": 2709,
      "िकोण": 2710,
      "क्न": 2711,
      "क्ता": 2712,
      "क्शन": 2713,
      "विना": 2714,
      "विदे": 2715,
      "विड़": 2716,
      "विद्": 2717,
      "विलय": 2718,
      "विदेशों": 2719,
      "विरु": 2720,
      "विद्य": 2721,
      "विचार": 2722,
      "विशि": 2723,
      "विलु": 2724,
      "विसर्": 2725,
      "विविध": 2726,
      "विघटन": 2727,
      "ताकि": 2728,
      "ताओं": 2729,
      "तायें": 2730,
      "ताम्र": 2731,
      "ताजमह": 2732,
      "नाथ": 2733,
      "नास्त": 2734,
      "नात्मक": 2735,
      "नाइटे": 2736,
      "नागरी": 2737,
      "नाट्य": 2738,
      "साई": 2739,
      "साधन": 2740,
      "सामुद्र": 2741,
      "सातवाँ": 2742,
      "थाली": 2743,
      "न्तर": 2744,
      "ियान": 2745,
      "ियाणा": 2746,
      "संयोग": 2747,
      "संधि": 2748,
      "संस्थाप": 2749,
      "संचार": 2750,
      "संरक्ष": 2751,
      "संकीर्": 2752,
      "संस्थानों": 2753,
      "संथाली": 2754,
      "परान्": 2755,
      "परियो": 2756,
      "करके": 2757,
      "करवा": 2758,
      "तिम": 2759,
      "तिमान": 2760,
      "तिब्": 2761,
      "तिथि": 2762,
      "भाली": 2763,
      "भांग": 2764,
      "भाती": 2765,
      "भावन": 2766,
      "त्रिक": 2767,
      "कोशि": 2768,
      "कोरिया": 2769,
      "कोलका": 2770,
      "माह": 2771,
      "मांग": 2772,
      "मावल": 2773,
      "मांसाह": 2774,
      "माउंट": 2775,
      "मामलों": 2776,
      "राजग": 2777,
      "राजशा": 2778,
      "राजस्व": 2779,
      "राजगु": 2780,
      "राजघर": 2781,
      "राजीव": 2782,
      "देसाई": 2783,
      "ड़े": 2784,
      "ड़ों": 2785,
      "जाए": 2786,
      "जावा": 2787,
      "जातियां": 2788,
      "हाबाद": 2789,
      "त्काल": 2790,
      "त्थान": 2791,
      "त्मिक": 2792,
      "वाय": 2793,
      "वाह": 2794,
      "वालन": 2795,
      "वाजों": 2796,
      "वाणि": 2797,
      "वालिक": 2798,
      "वांगीण": 2799,
      "कारक": 2800,
      "कारियों": 2801,
      "कार्यालय": 2802,
      "ितों": 2803,
      "ियम": 2804,
      "लाया": 2805,
      "लावी": 2806,
      "लाड़ी": 2807,
      "लायक": 2808,
      "लाओस": 2809,
      "लायर्": 2810,
      "लावनी": 2811,
      "पाए": 2812,
      "पाक": 2813,
      "पाल": 2814,
      "पाता": 2815,
      "पालना": 2816,
      "पाषाण": 2817,
      "भीमबे": 2818,
      "समस": 2819,
      "समग्र": 2820,
      "समरस": 2821,
      "्टानों": 2822,
      "्टिन": 2823,
      "्टीप्ले": 2824,
      "्यातक": 2825,
      "्यावर्त": 2826,
      "्याणी": 2827,
      "्यात्मिक": 2828,
      "देश्‍": 2829,
      "लीं": 2830,
      "लीकॉ": 2831,
      "लीपी": 2832,
      "लीभाली": 2833,
      "ंगिक": 2834,
      "ंगडम": 2835,
      "द्धिक": 2836,
      "द्दों": 2837,
      "निस": 2838,
      "निजी": 2839,
      "निरूप": 2840,
      "निचली": 2841,
      "निमंत्रण": 2842,
      "निभाती": 2843,
      "इससे": 2844,
      "दीर्घकालिक": 2845,
      "एकत्री": 2846,
      "शाखा": 2847,
      "शांत": 2848,
      "शाकाहारी": 2849,
      "होकर": 2850,
      "होमो": 2851,
      "तेज": 2852,
      "तेल": 2853,
      "किस्म": 2854,
      "किंगडम": 2855,
      "राज्यीय": 2856,
      "राज्यवार": 2857,
      "राज्यपरि": 2858,
      "मिमी": 2859,
      "बाकी": 2860,
      "बाबा": 2861,
      "बाहर": 2862,
      "बांट": 2863,
      "बाँगर": 2864,
      "बांटे": 2865,
      "बाजार": 2866,
      "श्वी": 2867,
      "श्चित": 2868,
      "पूरी": 2869,
      "पूंजी": 2870,
      "रूढि": 2871,
      "र्वोत्तर": 2872,
      "जनक": 2873,
      "जनगण": 2874,
      "जनशील": 2875,
      "जनसां": 2876,
      "जनपद": 2877,
      "जनजातियां": 2878,
      "जिसमे": 2879,
      "सरदार": 2880,
      "मानना": 2881,
      "मानते": 2882,
      "तकनी": 2883,
      "मुहर": 2884,
      "मुंह": 2885,
      "मुसलमान": 2886,
      "मुद्दों": 2887,
      "अनसु": 2888,
      "अनोखी": 2889,
      "द्रा": 2890,
      "द्रविड़": 2891,
      "ष्टता": 2892,
      "ष्टाचार": 2893,
      "नीत": 2894,
      "नीव": 2895,
      "नीची": 2896,
      "नीचे": 2897,
      "हीड": 2898,
      "धिकारी": 2899,
      "रीज़": 2900,
      "लिंग": 2901,
      "लिपि": 2902,
      "लिप्य": 2903,
      "उत्कृ": 2904,
      "उत्खन": 2905,
      "उत्तरा": 2906,
      "उत्पत्ति": 2907,
      "उत्पन्न": 2908,
      "धानिक": 2909,
      "दक्षिणी": 2910,
      "दक्षिणपंथी": 2911,
      "चीजों": 2912,
      "दोनो": 2913,
      "दोलनों": 2914,
      "्रेलिया": 2915,
      "जीके": 2916,
      "जीता": 2917,
      "जीनिय": 2918,
      "प्पा": 2919,
      "प्पणी": 2920,
      "युगी": 2921,
      "युध्द": 2922,
      "1900": 2923,
      "1930": 2924,
      "1983": 2925,
      "203": 2926,
      "2019": 2927,
      "2000": 2928,
      "2021": 2929,
      "2022": 2930,
      "वीर": 2931,
      "स्थओं": 2932,
      "स्थगित": 2933,
      "शासक": 2934,
      "शासकों": 2935,
      "शासकीय": 2936,
      "कृत": 2937,
      "कृष्": 2938,
      "जिससे": 2939,
      "बहुधर्म": 2940,
      "बहुदल": 2941,
      "बहुधार": 2942,
      "बहुभाषी": 2943,
      "बहुजातीय": 2944,
      "बहुउद्": 2945,
      "रूपी": 2946,
      "ष्ट्रीय": 2947,
      "ढ़ता": 2948,
      "दिए": 2949,
      "दिन": 2950,
      "दिसम्": 2951,
      "दिरों": 2952,
      "दिलाई": 2953,
      "जोकि": 2954,
      "जोदड़": 2955,
      "सीन": 2956,
      "सीबी": 2957,
      "सीटें": 2958,
      "सीधे": 2959,
      "सीमित": 2960,
      "राष्ट्रत": 2961,
      "राष्ट्रभाषा": 2962,
      "राष्ट्रवादी": 2963,
      "राष्ट्रपि": 2964,
      "धर्मीय": 2965,
      "सारे": 2966,
      "सारावली": 2967,
      "सार्वाधिक": 2968,
      "्राष्ट्रीय": 2969,
      "स्वशासित": 2970,
      "स्वस्ति": 2971,
      "स्वयं": 2972,
      "मिलने": 2973,
      "मिलता": 2974,
      "मिलकर": 2975,
      "मिलती": 2976,
      "मिलते": 2977,
      "पूर्वोत्तर": 2978,
      "अपनाने": 2979,
      "अपीलीय": 2980,
      "पारिवार": 2981,
      "पार्थी": 2982,
      "द्धसैनिक": 2983,
      "श्विक": 2984,
      "मुख्यालय": 2985,
      "थीं": 2986,
      "थीस": 2987,
      "पुथल": 2988,
      "पुर्तगा": 2989,
      "पुराण": 2990,
      "पुर्वोत्तर": 2991,
      "मीक": 2992,
      "मीडिया": 2993,
      "ल्प": 2994,
      "ल्में": 2995,
      "ल्वों": 2996,
      "सदों": 2997,
      "सदनात्मक": 2998,
      "सिन": 2999,
      "सिंहा": 3000,
      "सिर्फ़": 3001,
      "सिवाय": 3002,
      "विश्वं": 3003,
      "विश्वपटल": 3004,
      "विश्वनाथ": 3005,
      "साम्प्र": 3006,
      "साम्यवादी": 3007,
      "रेखा": 3008,
      "रेस्ट": 3009,
      "रेडियो": 3010,
      "लगी": 3011,
      "लगे": 3012,
      "लगती": 3013,
      "शासनकाल": 3014,
      "अधिकतर": 3015,
      "अधिकृत": 3016,
      "चुके": 3017,
      "चुका": 3018,
      "चुनी": 3019,
      "चुनौ": 3020,
      "लोर": 3021,
      "ंडर": 3022,
      "ंडिया": 3023,
      "ज़त": 3024,
      "ज़र": 3025,
      "ज़बर": 3026,
      "बीसी": 3027,
      "बीपी": 3028,
      "बीसवी": 3029,
      "बीसवीं": 3030,
      "बीबीसी": 3031,
      "मंत्रालय": 3032,
      "वारा": 3033,
      "व्यंजन": 3034,
      "व्युत्": 3035,
      "नामक": 3036,
      "नामोत्": 3037,
      "अनुमान": 3038,
      "अनुसू": 3039,
      "अनुचित": 3040,
      "अनुपात": 3041,
      "अनुयायि": 3042,
      "ध्यानचंद": 3043,
      "भूभाग": 3044,
      "भूगोल": 3045,
      "भूटान": 3046,
      "भूसन्नति": 3047,
      "म्बर": 3048,
      "म्बियों": 3049,
      "हिनी": 3050,
      "निर्मान": 3051,
      "निर्धार": 3052,
      "निर्धन": 3053,
      "निर्वाह": 3054,
      "कुषाण": 3055,
      "कुपोषण": 3056,
      "चित्र": 3057,
      "चिड़िया": 3058,
      "दानेदार": 3059,
      "केंद्रित": 3060,
      "हुईं": 3061,
      "उपजी": 3062,
      "उपेक्षा": 3063,
      "उपनिवेश": 3064,
      "उपभो": 3065,
      "उपखण्ड": 3066,
      "उपोष्ण": 3067,
      "दावरी": 3068,
      "दायिक": 3069,
      "वेष": 3070,
      "वेस्ट": 3071,
      "वेबै": 3072,
      "वेदों": 3073,
      "चाय": 3074,
      "चाहा": 3075,
      "टेन": 3076,
      "टेशियस": 3077,
      "टेनिस": 3078,
      "टेथीस": 3079,
      "बनाता": 3080,
      "महाभारत": 3081,
      "महादेव": 3082,
      "महाकाव्य": 3083,
      "महाजनपद": 3084,
      "महावीर": 3085,
      "महापुराण": 3086,
      "रिकी": 3087,
      "रिंग": 3088,
      "रिपब्": 3089,
      "रिवाज": 3090,
      "रिपोर्": 3091,
      "रिजर्व": 3092,
      "रिवाजों": 3093,
      "रुत्थान": 3094,
      "ष्म": 3095,
      "ष्कारों": 3096,
      "जातियों": 3097,
      "जातियता": 3098,
      "अन्टार्कटिका": 3099,
      "अन्तिम": 3100,
      "आधे": 3101,
      "आधिपत्य": 3102,
      "आध्यात्मिक": 3103,
      "ज्युरि": 3104,
      "ब्बियों": 3105,
      "बढ़ते": 3106,
      "बढ़ोत्": 3107,
      "बढ़ाकर": 3108,
      "बढ़ोतरी": 3109,
      "मैकाल": 3110,
      "मैत्री": 3111,
      "मैथि": 3112,
      "हरण": 3113,
      "हरगढ़": 3114,
      "हरियाणा": 3115,
      "संघठित": 3116,
      "अमरिकी": 3117,
      "खादर": 3118,
      "खाड़ी": 3119,
      "गरबा": 3120,
      "गाय": 3121,
      "गुफा": 3122,
      "णाचल": 3123,
      "त्यौहार": 3124,
      "धीश": 3125,
      "धीमी": 3126,
      "बनके": 3127,
      "बनने": 3128,
      "मनभावन": 3129,
      "मध्यकाल": 3130,
      "मध्ययुगी": 3131,
      "समाप्ति": 3132,
      "विधानसभा": 3133,
      "त्वों": 3134,
      "व्यवहार": 3135,
      "व्यवस्थओं": 3136,
      "कॉम्य": 3137,
      "टिप्पणी": 3138,
      "मोरार": 3139,
      "मोहिनी": 3140,
      "योग्य": 3141,
      "प्रतिबंध": 3142,
      "प्रतिवर्ष": 3143,
      "प्रतिष्ठ": 3144,
      "प्रतिव्यक्ति": 3145,
      "प्रतिबन्ध": 3146,
      "प्रधानमन्": 3147,
      "ड़ाई": 3148,
      "स्थानांतर": 3149,
      "लोकतंत्र": 3150,
      "लोकतान्": 3151,
      "गठबन्": 3152,
      "चलते": 3153,
      "चलचित्र": 3154,
      "पहल": 3155,
      "पहला": 3156,
      "यूनानी": 3157,
      "यूनाइटे": 3158,
      "यूसीबी": 3159,
      "सम्मल": 3160,
      "सम्पन्न": 3161,
      "सम्बन्ध": 3162,
      "सम्पदा": 3163,
      "सम्प्रग": 3164,
      "भूमिज": 3165,
      "भूमिगत": 3166,
      "इनल": 3167,
      "इनमें": 3168,
      "गणित": 3169,
      "गणतंत्र": 3170,
      "पीढ़": 3171,
      "पीटी": 3172,
      "पीडी": 3173,
      "पीछे": 3174,
      "पीरिय": 3175,
      "फ़्टवेयर": 3176,
      "फ़रवरी": 3177,
      "फ़र्टि": 3178,
      "बेहद": 3179,
      "बेडकर": 3180,
      "बेसिन": 3181,
      "मतदान": 3182,
      "मतभे": 3183,
      "मतलब": 3184,
      "रहने": 3185,
      "रहता": 3186,
      "रहते": 3187,
      "रोम": 3188,
      "जातीं": 3189,
      "2014": 3190,
      "2016": 3191,
      "दशकों": 3192,
      "अरबी": 3193,
      "उनमें": 3194,
      "टीम": 3195,
      "टीवी": 3196,
      "सेनाओं": 3197,
      "स्थापत्य": 3198,
      "न्यायाधीश": 3199,
      "अवसर": 3200,
      "अवयव": 3201,
      "गतिमान": 3202,
      "पेटी": 3203,
      "पेयी": 3204,
      "पेट्र": 3205,
      "बोस": 3206,
      "बोलिया": 3207,
      "बोलते": 3208,
      "शीत": 3209,
      "सहज": 3210,
      "२००३": 3211,
      "२००५": 3212,
      "भागों": 3213,
      "भागवत": 3214,
      "१९९९": 3215,
      "मुख्यत": 3216,
      "मुख्यमंत्री": 3217,
      "समाजवादी": 3218,
      "ण्डिचे": 3219,
      "पूर्णतः": 3220,
      "निक्ष": 3221,
      "मौत": 3222,
      "मौजू": 3223,
      "मौलिक": 3224,
      "व्यापर": 3225,
      "व्याख्या": 3226,
      "व्यापक": 3227,
      "शेखर": 3228,
      "हारना": 3229,
      "स्टर": 3230,
      "स्टॉक": 3231,
      "स्त्रियों": 3232,
      "स्त्रियो": 3233,
      "देखी": 3234,
      "देखें": 3235,
      "देख्ननी": 3236,
      "हालांकि": 3237,
      "निरंतर": 3238,
      "निर्यातक": 3239,
      "वर्तन": 3240,
      "वर्तनों": 3241,
      "जिनल": 3242,
      "जिनका": 3243,
      "सदस्यता": 3244,
      "अर्थव्यवस्थओं": 3245,
      "इंडस": 3246,
      "जलपो": 3247,
      "डीए": 3248,
      "त्याग": 3249,
      "दलदलों": 3250,
      "दलितों": 3251,
      "दर्भ": 3252,
      "दर्जा": 3253,
      "पैठ": 3254,
      "पैसा": 3255,
      "पैसों": 3256,
      "लियां": 3257,
      "शिवालिक": 3258,
      "शिल्प": 3259,
      "सुरक्षा": 3260,
      "सुदू": 3261,
      "सुभाष": 3262,
      "सुखदेव": 3263,
      "सुधारी": 3264,
      "कामगार": 3265,
      "स्तरों": 3266,
      "स्तरीय": 3267,
      "िक्ष": 3268,
      "न्नई": 3269,
      "2003": 3270,
      "2007": 3271,
      "हिमालयी": 3272,
      "अमेरिक": 3273,
      "हथियारें": 3274,
      "हथियारों": 3275,
      "परंपराओं": 3276,
      "परंपराएं": 3277,
      "अफगान": 3278,
      "आंबेडकर": 3279,
      "उसने": 3280,
      "कहलाने": 3281,
      "कहलाया": 3282,
      "ग्रंथ": 3283,
      "ग्रुप": 3284,
      "जिन्होंने": 3285,
      "डांडिया": 3286,
      "दृढ़ता": 3287,
      "पड़ता": 3288,
      "पहाडियाँ": 3289,
      "पहाड़ों": 3290,
      "बारे": 3291,
      "वन्यजी": 3292,
      "वैज्ञान": 3293,
      "वैश्वी": 3294,
      "वैधानिक": 3295,
      "वैश्विक": 3296,
      "सोने": 3297,
      "सर्वंगीण": 3298,
      "१८४०": 3299,
      "१८८५": 3300,
      "सेवाएं": 3301,
      "सेवायें": 3302,
      "तिहाई": 3303,
      "१९७४": 3304,
      "वंशज": 3305,
      "वंशों": 3306,
      "पर्वतीय": 3307,
      "सहयोगी": 3308,
      "किन्तु्": 3309,
      "156": 3310,
      "ंतिवादी": 3311,
      "आन्दोलनों": 3312,
      "इंटर": 3313,
      "इंजीनिय": 3314,
      "ऋतुओं": 3315,
      "ऋतुएँ": 3316,
      "कमजोर": 3317,
      "चेर": 3318,
      "चेन्नई": 3319,
      "तोपें": 3320,
      "दूसरा": 3321,
      "धाराएं": 3322,
      "पिछले": 3323,
      "फलस्वरुप": 3324,
      "मार्टिन": 3325,
      "सितंबर": 3326,
      "सितम्बर": 3327,
      "ोलियम": 3328,
      "सांसदों": 3329,
      "१९५१": 3330,
      "१९५७": 3331,
      "१९६४": 3332,
      "१९६५": 3333,
      "१९६६": 3334,
      "१९६७": 3335,
      "1948": 3336,
      "अधिकारों": 3337,
      "ष्णुता": 3338,
      "व्यापारिक": 3339,
      "ब्रिटेन": 3340,
      "दृष्टिकोण": 3341,
      "विभिन्नताओं": 3342,
      "असमानता": 3343,
      "अधिपत्य": 3344,
      "इतिहासकारों": 3345,
      "उच्चसदन": 3346,
      "एनआर": 3347,
      "एनपीटी": 3348,
      "एनडीए": 3349,
      "तटरक्ष": 3350,
      "नगरों": 3351,
      "पहुँची": 3352,
      "फिलीपी": 3353,
      "फ्राँस": 3354,
      "बौद्धिक": 3355,
      "बंगाली": 3356,
      "श्रीमद्": 3357,
      "हराया": 3358,
      "१५०": 3359,
      "२४५": 3360,
      "वियतनाम": 3361,
      "साहेब": 3362,
      "पर्यटकों": 3363,
      "देवता": 3364,
      "देवनागरी": 3365,
      "तीसरा": 3366,
      "तीसगढ़": 3367,
      "जीतने": 3368,
      "जीतकर": 3369,
      "कृषकों": 3370,
      "पुरजोर": 3371,
      "सिनेमाई": 3372,
      "सिनेमाघर": 3373,
      "लगाये": 3374,
      "अन्तरराष्ट्रीय": 3375,
      "अन्तरिम": 3376,
      "अन्तर्राष्ट्रीय": 3377,
      "अन्तरिक्ष": 3378,
      "क्रमिक": 3379,
      "क्रमशः": 3380,
      "घोषणाएँ": 3381,
      "कश्मीरी": 3382,
      "ज्ञात": 3383,
      "मुस्लिमों": 3384,
      "224": 3385,
      "2600": 3386,
      "अगले": 3387,
      "अभिरु": 3388,
      "अतिरिक्": 3389,
      "अल्पमत": 3390,
      "अल्‍पकालिक": 3391,
      "आपस": 3392,
      "आपकी": 3393,
      "आसान": 3394,
      "आसियान": 3395,
      "उष्णकटिबंधीय": 3396,
      "एवरेस्ट": 3397,
      "कपड़ा": 3398,
      "कोंकणी": 3399,
      "घरों": 3400,
      "घरानों": 3401,
      "ढाल": 3402,
      "ढांचे": 3403,
      "दुर": 3404,
      "दुसरे": 3405,
      "दुसरा": 3406,
      "नवत": 3407,
      "नवरात्रि": 3408,
      "पत्थर": 3409,
      "फाइनल": 3410,
      "बिना": 3411,
      "बिहारी": 3412,
      "बिहू": 3413,
      "बदलती": 3414,
      "मल्टीप्ले": 3415,
      "महानगर": 3416,
      "मेक": 3417,
      "मेजर": 3418,
      "मेहमान": 3419,
      "मेहरगढ़": 3420,
      "यित्व": 3421,
      "रखी": 3422,
      "रखते": 3423,
      "लैण्ड": 3424,
      "लैंगिक": 3425,
      "लौह": 3426,
      "लौटते": 3427,
      "लड़ाई": 3428,
      "लड़ाइया": 3429,
      "सन्दर्भ": 3430,
      "प्रकाशन": 3431,
      "नेहरु": 3432,
      "क्टस": 3433,
      "विरोधी": 3434,
      "विशेषकर": 3435,
      "विशेषतायें": 3436,
      "नागालैंड": 3437,
      "भागीदार": 3438,
      "राजाभाषा": 3439,
      "वास्तव": 3440,
      "पाँचवी": 3441,
      "पाँचवीं": 3442,
      "समझते": 3443,
      "समृद्धतम": 3444,
      "निवेशिक": 3445,
      "द्रोणी": 3446,
      "1974": 3447,
      "1990": 3448,
      "1998": 3449,
      "तुलनात्मक": 3450,
      "सैनिकों": 3451,
      "मोहनजोदड़": 3452,
      "हिन्दुओं": 3453,
      "इस्लामीक": 3454,
      "पहुँचे": 3455,
      "पहुँचने": 3456,
      "पहुँचता": 3457,
      "स्थितियों": 3458,
      "शिक्षाओं": 3459,
      "%)।": 3460,
      "407": 3461,
      "ian": 3462,
      "ंतरित": 3463,
      "अर्द्धसैनिक": 3464,
      "अनिश्चित": 3465,
      "अच्छा": 3466,
      "अच्छी": 3467,
      "अच्छे": 3468,
      "आतंरिक": 3469,
      "आरम्भ": 3470,
      "आर्यावर्त": 3471,
      "ईस्टर": 3472,
      "उठने": 3473,
      "कलश": 3474,
      "कल्याणी": 3475,
      "कंपनी": 3476,
      "कन्नड": 3477,
      "कन्नड़": 3478,
      "कन्नौज": 3479,
      "खेल": 3480,
      "खेती": 3481,
      "ग्रीष्म": 3482,
      "गोलिक": 3483,
      "चरण": 3484,
      "चोटी": 3485,
      "चोलों": 3486,
      "चोटियाँ": 3487,
      "चौथी": 3488,
      "चौथाई": 3489,
      "चौड़ाई": 3490,
      "जयंती": 3491,
      "जुहा": 3492,
      "जुड़ी": 3493,
      "जुड़े": 3494,
      "जानी": 3495,
      "जानकारी": 3496,
      "जानवरों": 3497,
      "जन्मी": 3498,
      "झारखण्ड": 3499,
      "टकराई": 3500,
      "टाटा": 3501,
      "ठीक": 3502,
      "डेल्ट": 3503,
      "थलसेना": 3504,
      "नरसिंहा": 3505,
      "नाराज़": 3506,
      "नृत्यों": 3507,
      "बदौलत": 3508,
      "बहाने": 3509,
      "भोजपुरी": 3510,
      "भोलीभाली": 3511,
      "मंदिरों": 3512,
      "मनाई": 3513,
      "महीना": 3514,
      "मलेशिया": 3515,
      "लूटना": 3516,
      "श्रेणियों": 3517,
      "शक्तियाँ": 3518,
      "शक्तियां": 3519,
      "सर्वाधिक": 3520,
      "सर्वांगीण": 3521,
      "सिन्धी": 3522,
      "हेलीकॉ": 3523,
      "्मिक": 3524,
      "१७वीं": 3525,
      "१७२०": 3526,
      "२६२": 3527,
      "२६५": 3528,
      "ान्मार": 3529,
      "प्रगतिशील": 3530,
      "प्रभुत्वों": 3531,
      "नेपाली": 3532,
      "परिवर्तनों": 3533,
      "परिस्थितियों": 3534,
      "करोइ़": 3535,
      "त्रिमोहिनी": 3536,
      "त्रिस्तरीय": 3537,
      "निम्नवत": 3538,
      "शास्त्री": 3539,
      "शास्त्रीय": 3540,
      "नीतियों": 3541,
      "लिखी": 3542,
      "लिखित": 3543,
      "स्थलीय": 3544,
      "अपेक्षाकृत": 3545,
      "मीणाओं": 3546,
      "ज़्यादातर": 3547,
      "निर्भरता": 3548,
      "रुपए": 3549,
      "क्रिसमस": 3550,
      "गुटनिरपेक्ष": 3551,
      "मोर्चे": 3552,
      "शुरुआती": 3553,
      "अन्तर्धान": 3554,
      "पैमानों": 3555,
      "मार्ग": 3556,
      "अभियान": 3557,
      "प्रकाशित": 3558,
      "समझौता": 3559,
      "हिन्दुस्तानी": 3560,
      "Indo": 3561,
      "अहिंसक": 3562,
      "गोंडवाना": 3563,
      "फुटबॉ": 3564,
      "2450": 3565,
      "333": 3566,
      "554": 3567,
      "Aust": 3568,
      "Autum": 3569,
      "ate": 3570,
      "iny": 3571,
      "असंतोष": 3572,
      "असंवैधानिक": 3573,
      "अत्यधिक": 3574,
      "अत्यंत": 3575,
      "आकृति": 3576,
      "आकृतिक": 3577,
      "आवंटन": 3578,
      "आवंटित": 3579,
      "आर्यन": 3580,
      "इन्हीं": 3581,
      "इन्हें": 3582,
      "क्रांतिक": 3583,
      "क्रांतिवादी": 3584,
      "खुद": 3585,
      "खुले": 3586,
      "गोवा": 3587,
      "गोदावरी": 3588,
      "गारो": 3589,
      "घुमन्तु": 3590,
      "जनाओं": 3591,
      "जनाएँ": 3592,
      "ज्यादातर": 3593,
      "तलछट": 3594,
      "तलहटी": 3595,
      "तनावपूर्ण": 3596,
      "नौसेना": 3597,
      "न्यूक्": 3598,
      "न्ययाधिकार": 3599,
      "पदमुक्त": 3600,
      "फेरबदल": 3601,
      "फैला": 3602,
      "फैलाई": 3603,
      "बॉम्बे": 3604,
      "बहाई": 3605,
      "बहादुर": 3606,
      "भेजा": 3607,
      "म्यान्मार": 3608,
      "रचनाकाल": 3609,
      "लतें": 3610,
      "शैव": 3611,
      "शैलियां": 3612,
      "सॉफ़्टवेयर": 3613,
      "१६५२": 3614,
      "कीर्तिमान": 3615,
      "नेताजी": 3616,
      "वित्त": 3617,
      "वित्तीय": 3618,
      "साफ़्टवेयर": 3619,
      "थाईलैंड": 3620,
      "वाजपेयी": 3621,
      "लाइब्रे": 3622,
      "लाइज़र": 3623,
      "पांड्य": 3624,
      "पांड्यों": 3625,
      "समेट": 3626,
      "द्विसदनात्मक": 3627,
      "तीव्रता": 3628,
      "बांग्लादेश": 3629,
      "रीतिरिवाजों": 3630,
      "1951": 3631,
      "1959": 3632,
      "लेखनीय": 3633,
      "धर्मनिरपेक्षता": 3634,
      "पुनरुत्थान": 3635,
      "उत्तरदायी": 3636,
      "उत्तरदायित्व": 3637,
      "चाहती": 3638,
      "चाहते": 3639,
      "क्रीटेशियस": 3640,
      "गाँव": 3641,
      "गाँधी": 3642,
      "मनुष्य": 3643,
      "सूत्रों": 3644,
      "सूत्रपात": 3645,
      "सम्प्रभुता": 3646,
      "फ़ित्र": 3647,
      "फ़िल्में": 3648,
      "अवसाद": 3649,
      "अवसादों": 3650,
      "निर्यातों": 3651,
      "दर्ज़ा": 3652,
      "सुधारोँ": 3653,
      "भरतनाट्य": 3654,
      "१८५७": 3655,
      "१८५८": 3656,
      "जनतांत्रिकता": 3657,
      "आयातों": 3658,
      "नियुक्त": 3659,
      "नियुक्ति": 3660,
      "नियंत्रण": 3661,
      "नियंत्रित": 3662,
      "अर्धशुष्क": 3663,
      "जन्मों": 3664,
      "पोर्टल": 3665,
      "बदलावों": 3666,
      "सामान्यतः": 3667,
      "निम्नसदन": 3668,
      "निम्नलिखित": 3669,
      "मध्यमवर्गीय": 3670,
      "आक्रमणकारियों": 3671,
      "महिलाओं": 3672,
      "महिलायें": 3673,
      "मशीनरी": 3674,
      "वस्तुतः": 3675,
      "वस्तुऐं": 3676,
      "प्रसिद्धि": 3677,
      "2150": 3678,
      "462": 3679,
      "498": 3680,
      "Arch": 3681,
      "BSh": 3682,
      "BWh": 3683,
      "Cwa": 3684,
      "ETh": 3685,
      "Plate": 3686,
      "Post": 3687,
      "Pre": 3688,
      "Rainy": 3689,
      "Repu": 3690,
      "Summers": 3691,
      "SIRPI": 3692,
      "Winters": 3693,
      "blic": 3694,
      "ived": 3695,
      "ralian": 3696,
      "ंखला": 3697,
      "अजंता": 3698,
      "अशोक": 3699,
      "असला": 3700,
      "अप्रैल": 3701,
      "अविष्कारों": 3702,
      "अराजकता": 3703,
      "अमीरात": 3704,
      "अदालतें": 3705,
      "अरुणाचल": 3706,
      "अत्याचार": 3707,
      "अंकों": 3708,
      "अंटार्कटिका": 3709,
      "अस्तित्व": 3710,
      "अंबानी": 3711,
      "अहमदी": 3712,
      "अद्वितीय": 3713,
      "आनंद": 3714,
      "आर्द्र": 3715,
      "आजाद": 3716,
      "आपात्काल": 3717,
      "आभूषण": 3718,
      "आमतौर": 3719,
      "आस्ट्रेलिया": 3720,
      "आवासों": 3721,
      "आपातकाल": 3722,
      "इओसीन": 3723,
      "इजाज़त": 3724,
      "इलाहाबाद": 3725,
      "इच्छुक": 3726,
      "ईरान": 3727,
      "ईस्वी": 3728,
      "उर्दू": 3729,
      "उर्वरक": 3730,
      "उद्धव": 3731,
      "उल्लेखनीय": 3732,
      "उदाहरण": 3733,
      "ऋग्वे": 3734,
      "ऋषभदेव": 3735,
      "एजेंसी": 3736,
      "एकाधिकार": 3737,
      "एविएशन": 3738,
      "एक्सचें": 3739,
      "ऐतिहासिक": 3740,
      "ऑफ़्": 3741,
      "ऑपरेशन": 3742,
      "ओणम": 3743,
      "ओरिजिनल": 3744,
      "ओडिसी": 3745,
      "औपनिवेशिक": 3746,
      "औद्योगिक": 3747,
      "कथक": 3748,
      "कैक्टस": 3749,
      "कनेक्शन": 3750,
      "कनाडा": 3751,
      "कमांडर": 3752,
      "कबीले": 3753,
      "कम्पनी": 3754,
      "कच्चा": 3755,
      "कमोव": 3756,
      "कंबोडिया": 3757,
      "खिलाड़ी": 3758,
      "खूबियों": 3759,
      "ख्यिकी": 3760,
      "खर्च": 3761,
      "खगोलशास्त्र": 3762,
      "गिर": 3763,
      "गॉवपब्": 3764,
      "गौतम": 3765,
      "गलुरु": 3766,
      "गौरवशाली": 3767,
      "गंगोत्री": 3768,
      "घिरा": 3769,
      "घूमर": 3770,
      "घोड़ों": 3771,
      "चट्टानों": 3772,
      "चमड़ा": 3773,
      "चूने": 3774,
      "चंडीगढ़": 3775,
      "चंद्रशेखर": 3776,
      "चैनलों": 3777,
      "छठा": 3778,
      "छाऊ": 3779,
      "छत्तीसगढ़": 3780,
      "जड़ें": 3781,
      "जटिल": 3782,
      "जंबूद्वीप": 3783,
      "झुमइर": 3784,
      "ठंडे": 3785,
      "ठहराने": 3786,
      "डोगरी": 3787,
      "डिक्शन": 3788,
      "डमकच": 3789,
      "डसॉल्ट": 3790,
      "ढलुवाँ": 3791,
      "तकरीबन": 3792,
      "तारीख": 3793,
      "तदुपरान्": 3794,
      "दसवें": 3795,
      "देंखे": 3796,
      "दक्क्न": 3797,
      "धोलावी": 3798,
      "ध्रुवीय": 3799,
      "धर्मावल": 3800,
      "धक्के": 3801,
      "धम्म": 3802,
      "धरोहर": 3803,
      "ध्यातव्य": 3804,
      "नरेन्द्र": 3805,
      "नवंबर": 3806,
      "नमूने": 3807,
      "पॉण्डिचे": 3808,
      "पोंगल": 3809,
      "पराजित": 3810,
      "प्टर": 3811,
      "पल्ल्वों": 3812,
      "पथ्यास्वस्ति": 3813,
      "पनडुब्बियों": 3814,
      "फूले": 3815,
      "बुद्ध": 3816,
      "बेंगलुरु": 3817,
      "बंगलोर": 3818,
      "बल्कि": 3819,
      "बंटवारा": 3820,
      "बस्तियों": 3821,
      "भौगोलिक": 3822,
      "भ्रष्टाचार": 3823,
      "भंडार": 3824,
      "म्यांमार": 3825,
      "मिन्स्टर": 3826,
      "महिन्द्रा": 3827,
      "मसिहा": 3828,
      "मज़बूत": 3829,
      "मोड़दार": 3830,
      "मरुस्थलीय": 3831,
      "मृत्यु": 3832,
      "मणिपुरी": 3833,
      "मंगोलों": 3834,
      "योजनाएँ": 3835,
      "यक्षगान": 3836,
      "यमुना": 3837,
      "रफेल": 3838,
      "लक्ष्य": 3839,
      "लियर": 3840,
      "लॉकहीड": 3841,
      "वृहद्": 3842,
      "वरिष्ठ": 3843,
      "व्‍यावसा": 3844,
      "शृंखला": 3845,
      "शत्रु": 3846,
      "शतरंज": 3847,
      "सृजनशील": 3848,
      "सकें": 3849,
      "सजावटी": 3850,
      "सत्ता": 3851,
      "सप्लायर्": 3852,
      "सहिष्णुता": 3853,
      "हड़प्पा": 3854,
      "ुनिस्ट": 3855,
      "१२०६": 3856,
      "१२५वें": 3857,
      "६९१८": 3858,
      "८९३३": 3859,
      "केबिनेट": 3860,
      "कायांतरित": 3861,
      "कालीबंगा": 3862,
      "कालोनियों": 3863,
      "काफ़ी": 3864,
      "कानूनों": 3865,
      "स्वर्णिम": 3866,
      "स्क्रीन": 3867,
      "सेपियंस": 3868,
      "प्रपाती": 3869,
      "प्रश्न": 3870,
      "प्रत्यावर्तन": 3871,
      "प्रदूषण": 3872,
      "प्रवासियों": 3873,
      "प्रस्तावित": 3874,
      "राष्ट्रे": 3875,
      "रामनवमी": 3876,
      "विनाशकारी": 3877,
      "विदेक": 3878,
      "विद्वेष": 3879,
      "विरुद्ध": 3880,
      "विद्यमान": 3881,
      "विशिष्टता": 3882,
      "विलुप्त": 3883,
      "विसर्जित": 3884,
      "विविधता": 3885,
      "विघटनकारी": 3886,
      "ताजमहल": 3887,
      "नास्तिकता": 3888,
      "साधनो": 3889,
      "सामुद्रिक": 3890,
      "न्तरण": 3891,
      "संस्थापक": 3892,
      "संरक्षित": 3893,
      "संकीर्ण": 3894,
      "परियोजनाओं": 3895,
      "करवाकर": 3896,
      "तिब्बत": 3897,
      "भांगड़ा": 3898,
      "कोशिश": 3899,
      "कोलकाता": 3900,
      "मांसाहारी": 3901,
      "राजशाही": 3902,
      "राजगुरू": 3903,
      "राजघरानो": 3904,
      "वाणिज्य": 3905,
      "भीमबेटका": 3906,
      "समरसता": 3907,
      "देश्‍यीय": 3908,
      "निरूपण": 3909,
      "एकत्रीकरण": 3910,
      "शाखाओं": 3911,
      "राज्यपरिषद्": 3912,
      "बाबासाहेब": 3913,
      "बांटनी": 3914,
      "रूढिवादी": 3915,
      "जनगणना": 3916,
      "जनसांख्यिकी": 3917,
      "तकनीक": 3918,
      "मुहर्रम": 3919,
      "मुंहबोला": 3920,
      "मुसलमानों": 3921,
      "अनसुलझे": 3922,
      "लिप्यन्तरण": 3923,
      "उत्कृष्ट": 3924,
      "उत्खनन": 3925,
      "उत्तराधिकारी": 3926,
      "कृष्णा": 3927,
      "बहुधर्मिक": 3928,
      "बहुदलीय": 3929,
      "बहुधार्मिक": 3930,
      "बहुउद्देश्‍यीय": 3931,
      "दिसम्‍बर": 3932,
      "राष्ट्रपिता": 3933,
      "पारिवारिक": 3934,
      "पुर्तगाल": 3935,
      "साम्प्रदायिक": 3936,
      "चुनौतियाँ": 3937,
      "ज़बरदस्त": 3938,
      "बीपीओ": 3939,
      "व्युत्पत्ति": 3940,
      "नामोत्पत्ति": 3941,
      "अनुसूचित": 3942,
      "अनुयायिओं": 3943,
      "निर्धारण": 3944,
      "निर्धनता": 3945,
      "उपनिवेशों": 3946,
      "उपभोक्ता": 3947,
      "वेस्टमिन्स्टर": 3948,
      "वेबैक": 3949,
      "रिपब्लिक्": 3950,
      "रिपोर्ट": 3951,
      "ज्युरिडिक्शन": 3952,
      "बढ़ोत्‍तरी": 3953,
      "मैथिली": 3954,
      "गुफाएँ": 3955,
      "मध्ययुगीन": 3956,
      "विधानसभाओं": 3957,
      "कॉम्युनिस्ट": 3958,
      "मोरारजी": 3959,
      "प्रतिष्ठित": 3960,
      "प्रधानमन्त्री": 3961,
      "स्थानांतरण": 3962,
      "लोकतान्त्रिक": 3963,
      "गठबन्धन": 3964,
      "यूनाइटेड": 3965,
      "सम्मलित": 3966,
      "पीडीएफ": 3967,
      "पीरियड": 3968,
      "फ़र्टिलाइज़र": 3969,
      "मतभेद": 3970,
      "पेट्रोलियम": 3971,
      "बोलियाँ": 3972,
      "निक्षेप": 3973,
      "मौजूद": 3974,
      "जलपोत": 3975,
      "सुदूर": 3976,
      "सुधारीकरण": 3977,
      "कामगारों": 3978,
      "अमेरिकन": 3979,
      "अफगानिस्तान": 3980,
      "वन्यजीव": 3981,
      "वैज्ञानिक": 3982,
      "वैश्वीकरण": 3983,
      "इंटरनेट": 3984,
      "इंजीनियरिंग": 3985,
      "एनआरआई": 3986,
      "तटरक्षक": 3987,
      "फिलीपींस": 3988,
      "श्रीमद्भागवत": 3989,
      "अभिरुचि": 3990,
      "अतिरिक्त": 3991,
      "मल्टीप्लेक्स": 3992,
      "महानगरों": 3993,
      "लड़ाइयाँ": 3994,
      "मोहनजोदड़ो": 3995,
      "डेल्टा": 3996,
      "नाराज़गी": 3997,
      "हेलीकॉप्टर": 3998,
      "गोंडवानालैण्ड": 3999,
      "फुटबॉल": 4000,
      "Australian": 4001,
      "Autumn": 4002,
      "क्रांतिकारी": 4003,
      "न्यूक्लियर": 4004,
      "लाइब्रेरीज़": 4005,
      "भरतनाट्यम": 4006,
      "Archived": 4007,
      "Republic": 4008,
      "आस्ट्रेलियाई": 4009,
      "ऋग्वेद": 4010,
      "एक्सचेंज": 4011,
      "गॉवपब्स": 4012,
      "तदुपरान्त": 4013,
      "धोलावीरा": 4014,
      "धर्मावलम्बियों": 4015,
      "पॉण्डिचेरी": 4016,
      "व्‍यावसायिक": 4017,
      "सृजनशीलता": 4018,
      "सप्लायर्स": 4019
    },
    "merges": [
      [
        "ा",
        "र"
      ],
      [
        "्",
        "र"
      ],
      [
        "क",
        "े"
      ],
      [
        "े",
        "ं"
      ],
      [
        "म",
        "ें"
      ],
      [
        "ह",
        "ै"
      ],
      [
        "्",
        "य"
      ],
      [
        "क",
        "ा"
      ],
      [
        "भ",
        "ार"
      ],
      [
        "भार",
        "त"
      ],
      [
        "र",
        "्"
      ],
      [
        "ो",
        "ं"
      ],
      [
        "य",
        "ा"
      ],
      [
        "क",
        "ी"
      ],
      [
        "औ",
        "र"
      ],
      [
        "स",
        "्"
      ],
      [
        "स",
        "े"
      ],
      [
        "ा",
        "न"
      ],
      [
        "प",
        "्र"
      ],
      [
        "र",
        "ा"
      ],
      [
        "ि",
        "क"
      ],
      [
        "न",
        "े"
      ],
      [
        "क",
        "्"
      ],
      [
        "व",
        "ि"
      ],
      [
        "त",
        "ा"
      ],
      [
        "न",
        "ा"
      ],
      [
        "स",
        "ा"
      ],
      [
        "थ",
        "ा"
      ],
      [
        "ी",
        "य"
      ],
      [
        "न",
        "्"
      ],
      [
        "ि",
        "या"
      ],
      [
        "स",
        "ं"
      ],
      [
        "प",
        "र"
      ],
      [
        "क्",
        "ष"
      ],
      [
        "क",
        "र"
      ],
      [
        "त",
        "ि"
      ],
      [
        "भ",
        "ा"
      ],
      [
        "त",
        "्र"
      ],
      [
        "है",
        "ं"
      ],
      [
        "क",
        "ो"
      ],
      [
        "म",
        "ा"
      ],
      [
        "रा",
        "ज"
      ],
      [
        "ह",
        "ु"
      ],
      [
        "द",
        "े"
      ],
      [
        "ड",
        "़"
      ],
      [
        "ज",
        "ा"
      ],
      [
        "ह",
        "ा"
      ],
      [
        "त",
        "्"
      ],
      [
        "व",
        "ा"
      ],
      [
        "क",
        "ार"
      ],
      [
        "ि",
        "त"
      ],
      [
        "ि",
        "य"
      ],
      [
        "ल",
        "ा"
      ],
      [
        "प",
        "ा"
      ],
      [
        "भ",
        "ी"
      ],
      [
        "स",
        "म"
      ],
      [
        "्",
        "ट"
      ],
      [
        "्य",
        "ा"
      ],
      [
        "दे",
        "श"
      ],
      [
        "ल",
        "ी"
      ],
      [
        "ं",
        "ग"
      ],
      [
        "द",
        "्"
      ],
      [
        "ि",
        "न्"
      ],
      [
        "त",
        "र"
      ],
      [
        "त",
        "था"
      ],
      [
        "न",
        "ि"
      ],
      [
        "भारत",
        "ीय"
      ],
      [
        "त",
        "ी"
      ],
      [
        "इ",
        "स"
      ],
      [
        "द",
        "ी"
      ],
      [
        "ए",
        "क"
      ],
      [
        "श",
        "ा"
      ],
      [
        "ह",
        "ो"
      ],
      [
        "व",
        "र्"
      ],
      [
        "त",
        "े"
      ],
      [
        "क",
        "ि"
      ],
      [
        "राज",
        "्य"
      ],
      [
        "म",
        "ि"
      ],
      [
        "ब",
        "ा"
      ],
      [
        "श",
        "्"
      ],
      [
        "प",
        "ू"
      ],
      [
        "र",
        "ू"
      ],
      [
        "र्",
        "व"
      ],
      [
        "ष",
        "ा"
      ],
      [
        "ज",
        "न"
      ],
      [
        "ज",
        "ि"
      ],
      [
        "स",
        "र"
      ],
      [
        "ं",
        "त्र"
      ],
      [
        "म",
        "ान"
      ],
      [
        "त",
        "क"
      ],
      [
        "म",
        "ु"
      ],
      [
        "स्",
        "त"
      ],
      [
        "अ",
        "न"
      ],
      [
        "क",
        "िया"
      ],
      [
        "द",
        "्र"
      ],
      [
        "ष",
        "्ट"
      ],
      [
        "ं",
        "ध"
      ],
      [
        "न",
        "ी"
      ],
      [
        "ह",
        "ी"
      ],
      [
        "ध",
        "िक"
      ],
      [
        "ि",
        "ण"
      ],
      [
        "१",
        "९"
      ],
      [
        "र",
        "ी"
      ],
      [
        "ल",
        "ि"
      ],
      [
        "सा",
        "थ"
      ],
      [
        "भा",
        "षा"
      ],
      [
        "उ",
        "त्"
      ],
      [
        "द",
        "क्ष"
      ],
      [
        "ध",
        "ान"
      ],
      [
        "ह",
        "िन्"
      ],
      [
        "ो",
        "ग"
      ],
      [
        "दक्ष",
        "िण"
      ],
      [
        "च",
        "ी"
      ],
      [
        "द",
        "ो"
      ],
      [
        "्र",
        "े"
      ],
      [
        "ज",
        "ी"
      ],
      [
        "प",
        "्"
      ],
      [
        "य",
        "ु"
      ],
      [
        "र्",
        "म"
      ],
      [
        "सर",
        "कार"
      ],
      [
        "1",
        "9"
      ],
      [
        "2",
        "0"
      ],
      [
        "य",
        "ह"
      ],
      [
        "ल",
        "े"
      ],
      [
        "व",
        "ी"
      ],
      [
        "स्",
        "थ"
      ],
      [
        "शा",
        "स"
      ],
      [
        "ओ",
        "ं"
      ],
      [
        "क",
        "ृ"
      ],
      [
        "ब",
        "से"
      ],
      [
        "स",
        "बसे"
      ],
      [
        "क्ष",
        "े"
      ],
      [
        "जि",
        "स"
      ],
      [
        "ब",
        "हु"
      ],
      [
        "रू",
        "प"
      ],
      [
        "ष्ट",
        "्र"
      ],
      [
        "ढ",
        "़"
      ],
      [
        "द",
        "ि"
      ],
      [
        "ंग",
        "्रे"
      ],
      [
        "बा",
        "द"
      ],
      [
        "क्षे",
        "त्र"
      ],
      [
        "प्र",
        "ा"
      ],
      [
        "ग",
        "या"
      ],
      [
        "ज",
        "ो"
      ],
      [
        "ब",
        "ंध"
      ],
      [
        "स",
        "ी"
      ],
      [
        "रा",
        "ष्ट्र"
      ],
      [
        "वर्",
        "ष"
      ],
      [
        "ध",
        "र्म"
      ],
      [
        "स",
        "ार"
      ],
      [
        "्र",
        "ा"
      ],
      [
        "र्",
        "थ"
      ],
      [
        "स्",
        "व"
      ],
      [
        "स्",
        "था"
      ],
      [
        "मि",
        "ल"
      ],
      [
        "पू",
        "र्व"
      ],
      [
        "अ",
        "प"
      ],
      [
        "प",
        "ार"
      ],
      [
        "द्",
        "ध"
      ],
      [
        "श्",
        "व"
      ],
      [
        "मु",
        "ख"
      ],
      [
        "थ",
        "ी"
      ],
      [
        "प",
        "ु"
      ],
      [
        "म",
        "ी"
      ],
      [
        "ल",
        "्"
      ],
      [
        "स",
        "द"
      ],
      [
        "स",
        "ि"
      ],
      [
        "वि",
        "श्व"
      ],
      [
        "सा",
        "म"
      ],
      [
        "मा",
        "ण"
      ],
      [
        "र",
        "े"
      ],
      [
        "ल",
        "ग"
      ],
      [
        "उत्",
        "तर"
      ],
      [
        "ची",
        "न"
      ],
      [
        "शास",
        "न"
      ],
      [
        "अ",
        "धिक"
      ],
      [
        "च",
        "ु"
      ],
      [
        "त",
        "ु"
      ],
      [
        "द",
        "िया"
      ],
      [
        "ब",
        "ड़"
      ],
      [
        "ल",
        "ो"
      ],
      [
        "हिन्",
        "दी"
      ],
      [
        "ं",
        "ड"
      ],
      [
        "ज",
        "़"
      ],
      [
        "ब",
        "ी"
      ],
      [
        "म",
        "ंत्र"
      ],
      [
        "व",
        "ार"
      ],
      [
        "व",
        "्य"
      ],
      [
        "ो",
        "ड़"
      ],
      [
        "०",
        "०"
      ],
      [
        "स्",
        "कृ"
      ],
      [
        "ना",
        "म"
      ],
      [
        "अन",
        "ु"
      ],
      [
        "ं",
        "द्र"
      ],
      [
        "ध",
        "्य"
      ],
      [
        "भ",
        "ू"
      ],
      [
        "म",
        "्"
      ],
      [
        "ल",
        "य"
      ],
      [
        "ह",
        "ि"
      ],
      [
        "का",
        "ल"
      ],
      [
        "हु",
        "आ"
      ],
      [
        "जा",
        "ता"
      ],
      [
        "नि",
        "र्"
      ],
      [
        "क",
        "ु"
      ],
      [
        "च",
        "ि"
      ],
      [
        "त",
        "िक"
      ],
      [
        "द",
        "ान"
      ],
      [
        "व",
        "ं"
      ],
      [
        "ै",
        "न"
      ],
      [
        "के",
        "ंद्र"
      ],
      [
        "हु",
        "ई"
      ],
      [
        "सम",
        "य"
      ],
      [
        "देश",
        "ों"
      ],
      [
        "प्",
        "त"
      ],
      [
        "0",
        "0"
      ],
      [
        "उ",
        "प"
      ],
      [
        "ए",
        "श"
      ],
      [
        "द",
        "ा"
      ],
      [
        "व",
        "े"
      ],
      [
        "ान",
        "े"
      ],
      [
        "िय",
        "ों"
      ],
      [
        "राज्य",
        "ों"
      ],
      [
        "अन",
        "्य"
      ],
      [
        "ही",
        "ं"
      ],
      [
        "च",
        "ा"
      ],
      [
        "ट",
        "े"
      ],
      [
        "ब",
        "ना"
      ],
      [
        "म",
        "हा"
      ],
      [
        "र",
        "ि"
      ],
      [
        "र",
        "ु"
      ],
      [
        "ष",
        "्"
      ],
      [
        "क्",
        "त"
      ],
      [
        "ना",
        "व"
      ],
      [
        "सं",
        "स्कृ"
      ],
      [
        "जा",
        "ति"
      ],
      [
        "लि",
        "ए"
      ],
      [
        "अ",
        "न्"
      ],
      [
        "अ",
        "ंग्रे"
      ],
      [
        "आ",
        "ध"
      ],
      [
        "क",
        "्र"
      ],
      [
        "च",
        "्"
      ],
      [
        "ज",
        "्य"
      ],
      [
        "द",
        "्य"
      ],
      [
        "प",
        "श्"
      ],
      [
        "ब",
        "्"
      ],
      [
        "ब",
        "ढ़"
      ],
      [
        "म",
        "ै"
      ],
      [
        "ह",
        "र"
      ],
      [
        "सं",
        "घ"
      ],
      [
        "िय",
        "े"
      ],
      [
        "स्त",
        "ान"
      ],
      [
        "पश्",
        "चि"
      ],
      [
        "अ",
        "म"
      ],
      [
        "क",
        "ई"
      ],
      [
        "ख",
        "ा"
      ],
      [
        "ग",
        "र"
      ],
      [
        "ग",
        "ा"
      ],
      [
        "ग",
        "ी"
      ],
      [
        "ग",
        "ु"
      ],
      [
        "ण",
        "ा"
      ],
      [
        "त",
        "्य"
      ],
      [
        "त",
        "ंत्र"
      ],
      [
        "ध",
        "ी"
      ],
      [
        "ब",
        "न"
      ],
      [
        "म",
        "न"
      ],
      [
        "म",
        "ध्य"
      ],
      [
        "र",
        "हा"
      ],
      [
        "स",
        "ू"
      ],
      [
        "स",
        "मा"
      ],
      [
        "स",
        "ैन"
      ],
      [
        "वि",
        "धान"
      ],
      [
        "हु",
        "ए"
      ],
      [
        "त्",
        "व"
      ],
      [
        "कार",
        "ण"
      ],
      [
        "ंग",
        "ा"
      ],
      [
        "इस",
        "के"
      ],
      [
        "हो",
        "ता"
      ],
      [
        "प्रा",
        "चीन"
      ],
      [
        "चु",
        "नाव"
      ],
      [
        "व्य",
        "व"
      ],
      [
        "एश",
        "िया"
      ],
      [
        "क",
        "ॉ"
      ],
      [
        "ट",
        "ि"
      ],
      [
        "द",
        "श"
      ],
      [
        "न",
        "्या"
      ],
      [
        "न",
        "हीं"
      ],
      [
        "म",
        "ो"
      ],
      [
        "य",
        "ोग"
      ],
      [
        "ार",
        "ी"
      ],
      [
        "्र",
        "ी"
      ],
      [
        "प्र",
        "ति"
      ],
      [
        "प्र",
        "धान"
      ],
      [
        "प्र",
        "मुख"
      ],
      [
        "सं",
        "विधान"
      ],
      [
        "क्ष",
        "ा"
      ],
      [
        "कर",
        "ने"
      ],
      [
        "कर",
        "ोड़"
      ],
      [
        "ड़",
        "ा"
      ],
      [
        "द्",
        "वार"
      ],
      [
        "भाषा",
        "ओं"
      ],
      [
        "स्थ",
        "ान"
      ],
      [
        "राष्ट्र",
        "ीय"
      ],
      [
        "्रा",
        "ज्य"
      ],
      [
        "साम",
        "्राज्य"
      ],
      [
        "लो",
        "क"
      ],
      [
        "मंत्र",
        "ी"
      ],
      [
        "अनु",
        "सार"
      ],
      [
        "ख",
        "्या"
      ],
      [
        "ग",
        "ठ"
      ],
      [
        "च",
        "ल"
      ],
      [
        "न",
        "ों"
      ],
      [
        "प",
        "ह"
      ],
      [
        "य",
        "ू"
      ],
      [
        "सं",
        "बंध"
      ],
      [
        "सम",
        "्"
      ],
      [
        "हिन्",
        "द"
      ],
      [
        "ंग्रे",
        "स"
      ],
      [
        "स्व",
        "तंत्र"
      ],
      [
        "पार",
        "्ट"
      ],
      [
        "भू",
        "मि"
      ],
      [
        "मै",
        "दान"
      ],
      [
        "चुनाव",
        "ों"
      ],
      [
        "व्यव",
        "स्था"
      ],
      [
        "द्वार",
        "ा"
      ],
      [
        "आ",
        "र्थ"
      ],
      [
        "इ",
        "न"
      ],
      [
        "ग",
        "ण"
      ],
      [
        "ण",
        "्"
      ],
      [
        "त",
        "ृ"
      ],
      [
        "प",
        "ी"
      ],
      [
        "फ",
        "़"
      ],
      [
        "ब",
        "र"
      ],
      [
        "ब",
        "े"
      ],
      [
        "म",
        "त"
      ],
      [
        "र",
        "ह"
      ],
      [
        "र",
        "ो"
      ],
      [
        "श",
        "ु"
      ],
      [
        "ने",
        "तृ"
      ],
      [
        "वि",
        "का"
      ],
      [
        "वि",
        "स्त"
      ],
      [
        "सं",
        "ख्या"
      ],
      [
        "जा",
        "ती"
      ],
      [
        "पा",
        "कि"
      ],
      [
        "द्",
        "वी"
      ],
      [
        "पू",
        "र्"
      ],
      [
        "धिक",
        "ार"
      ],
      [
        "20",
        "1"
      ],
      [
        "बहु",
        "त"
      ],
      [
        "द्य",
        "ोग"
      ],
      [
        "कॉ",
        "ंग्रेस"
      ],
      [
        "दश",
        "क"
      ],
      [
        "आर्थ",
        "िक"
      ],
      [
        "पाकि",
        "स्तान"
      ],
      [
        "द्वी",
        "प"
      ],
      [
        "ं",
        "प"
      ],
      [
        "अ",
        "र"
      ],
      [
        "उ",
        "न"
      ],
      [
        "क",
        "र्"
      ],
      [
        "ज",
        "ब"
      ],
      [
        "ट",
        "ी"
      ],
      [
        "ध",
        "ि"
      ],
      [
        "प",
        "र्व"
      ],
      [
        "ल",
        "र"
      ],
      [
        "ल",
        "ों"
      ],
      [
        "ो",
        "ष"
      ],
      [
        "्य",
        "ों"
      ],
      [
        "से",
        "ना"
      ],
      [
        "प्र",
        "देश"
      ],
      [
        "क्",
        "ति"
      ],
      [
        "पर",
        "माण"
      ],
      [
        "जन",
        "जाति"
      ],
      [
        "स्था",
        "प"
      ],
      [
        "निर्",
        "माण"
      ],
      [
        "च्",
        "च"
      ],
      [
        "पश्चि",
        "म"
      ],
      [
        "सैन",
        "्य"
      ],
      [
        "न्या",
        "या"
      ],
      [
        "प्रधान",
        "मंत्री"
      ],
      [
        "परमाण",
        "ु"
      ],
      [
        "अ",
        "व"
      ],
      [
        "ई",
        "सा"
      ],
      [
        "ओ",
        "र"
      ],
      [
        "ग",
        "ई"
      ],
      [
        "ग",
        "ति"
      ],
      [
        "द",
        "र"
      ],
      [
        "प",
        "े"
      ],
      [
        "ब",
        "ो"
      ],
      [
        "र",
        "क्षा"
      ],
      [
        "ल",
        "िये"
      ],
      [
        "श",
        "ी"
      ],
      [
        "श",
        "ता"
      ],
      [
        "स",
        "ह"
      ],
      [
        "स",
        "भा"
      ],
      [
        "२",
        "००"
      ],
      [
        "ान",
        "ा"
      ],
      [
        "भा",
        "ई"
      ],
      [
        "भा",
        "ग"
      ],
      [
        "भा",
        "ज"
      ],
      [
        "कार",
        "्य"
      ],
      [
        "१९",
        "९"
      ],
      [
        "वी",
        "ं"
      ],
      [
        "जिस",
        "में"
      ],
      [
        "मुख",
        "्य"
      ],
      [
        "ब्",
        "दी"
      ],
      [
        "धी",
        "रे"
      ],
      [
        "समा",
        "ज"
      ],
      [
        "ण्",
        "ड"
      ],
      [
        "नेतृ",
        "त्व"
      ],
      [
        "विका",
        "स"
      ],
      [
        "पूर्",
        "ण"
      ],
      [
        "अर",
        "ब"
      ],
      [
        "शता",
        "ब्दी"
      ],
      [
        "ए",
        "ँ"
      ],
      [
        "ए",
        "वं"
      ],
      [
        "ग",
        "ंगा"
      ],
      [
        "च",
        "ार"
      ],
      [
        "त",
        "मिल"
      ],
      [
        "थ",
        "े"
      ],
      [
        "न",
        "िक"
      ],
      [
        "प",
        "ं"
      ],
      [
        "म",
        "ू"
      ],
      [
        "म",
        "ौ"
      ],
      [
        "ल",
        "न"
      ],
      [
        "ल",
        "ोग"
      ],
      [
        "व",
        "्या"
      ],
      [
        "श",
        "े"
      ],
      [
        "स",
        "क"
      ],
      [
        "ह",
        "ार"
      ],
      [
        "ह",
        "ें"
      ],
      [
        "ह",
        "री"
      ],
      [
        "स्",
        "ट"
      ],
      [
        "स्",
        "त्र"
      ],
      [
        "सा",
        "ल"
      ],
      [
        "न्",
        "द्र"
      ],
      [
        "सं",
        "सद"
      ],
      [
        "राज",
        "नी"
      ],
      [
        "दे",
        "ख"
      ],
      [
        "ड़",
        "ी"
      ],
      [
        "हा",
        "ँ"
      ],
      [
        "हा",
        "ला"
      ],
      [
        "नि",
        "र"
      ],
      [
        "वर्",
        "त"
      ],
      [
        "जन",
        "संख्या"
      ],
      [
        "जि",
        "न"
      ],
      [
        "प्",
        "ले"
      ],
      [
        "यु",
        "क्त"
      ],
      [
        "स्थ",
        "ित"
      ],
      [
        "क्षेत्र",
        "ीय"
      ],
      [
        "बंध",
        "न"
      ],
      [
        "वर्ष",
        "ों"
      ],
      [
        "सद",
        "स"
      ],
      [
        "बी",
        "च"
      ],
      [
        "म्",
        "भ"
      ],
      [
        "कु",
        "ल"
      ],
      [
        "संस्कृ",
        "ति"
      ],
      [
        "अन्",
        "त"
      ],
      [
        "स्वतंत्र",
        "ता"
      ],
      [
        "गण",
        "राज्य"
      ],
      [
        ")",
        ","
      ],
      [
        "ँ",
        "च"
      ],
      [
        "ँ",
        "कि"
      ],
      [
        "अ",
        "र्थ"
      ],
      [
        "अ",
        "लग"
      ],
      [
        "आ",
        "धिकार"
      ],
      [
        "इ",
        "ंड"
      ],
      [
        "ग",
        "त"
      ],
      [
        "घ",
        "ोष"
      ],
      [
        "ज",
        "ल"
      ],
      [
        "ड",
        "ी"
      ],
      [
        "ड",
        "ॉ"
      ],
      [
        "ण",
        "ी"
      ],
      [
        "त",
        "्या"
      ],
      [
        "थ",
        "िय"
      ],
      [
        "द",
        "ल"
      ],
      [
        "द",
        "र्"
      ],
      [
        "प",
        "ै"
      ],
      [
        "ब",
        "्र"
      ],
      [
        "ब",
        "नी"
      ],
      [
        "य",
        "े"
      ],
      [
        "ल",
        "िया"
      ],
      [
        "श",
        "ि"
      ],
      [
        "स",
        "ु"
      ],
      [
        "ह",
        "थिय"
      ],
      [
        "ु",
        "निक"
      ],
      [
        "ृ",
        "त"
      ],
      [
        "२",
        "०"
      ],
      [
        "ार",
        "म्भ"
      ],
      [
        "का",
        "म"
      ],
      [
        "स्",
        "तर"
      ],
      [
        "प्र",
        "भा"
      ],
      [
        "प्र",
        "कार"
      ],
      [
        "प्र",
        "ारम्भ"
      ],
      [
        "िक",
        "्"
      ],
      [
        "वि",
        "देश"
      ],
      [
        "न्",
        "न"
      ],
      [
        "सं",
        "युक्त"
      ],
      [
        "पर",
        "ंप"
      ],
      [
        "कर",
        "ना"
      ],
      [
        "मा",
        "लय"
      ],
      [
        "जा",
        "ते"
      ],
      [
        "नि",
        "भाई"
      ],
      [
        "इस",
        "ी"
      ],
      [
        "दो",
        "नों"
      ],
      [
        "दो",
        "लन"
      ],
      [
        "यु",
        "द्ध"
      ],
      [
        "19",
        "6"
      ],
      [
        "20",
        "0"
      ],
      [
        "अप",
        "ने"
      ],
      [
        "अप",
        "नी"
      ],
      [
        "बड़",
        "ा"
      ],
      [
        "ज़",
        "ी"
      ],
      [
        "हि",
        "मालय"
      ],
      [
        "संस्कृ",
        "त"
      ],
      [
        "अंग्रे",
        "जी"
      ],
      [
        "आध",
        "ुनिक"
      ],
      [
        "अम",
        "े"
      ],
      [
        "गठ",
        "बंधन"
      ],
      [
        "पह",
        "ले"
      ],
      [
        "पार्ट",
        "ी"
      ],
      [
        "भूमि",
        "का"
      ],
      [
        "न्याया",
        "लय"
      ],
      [
        "भाज",
        "पा"
      ],
      [
        "मू",
        "ल"
      ],
      [
        "शे",
        "ष"
      ],
      [
        "हाला",
        "ँकि"
      ],
      [
        "प्ले",
        "ट"
      ],
      [
        "आधिकार",
        "िक"
      ],
      [
        "हथिय",
        "ार"
      ],
      [
        "परंप",
        "रा"
      ],
      [
        "अ",
        "फ"
      ],
      [
        "आ",
        "ं"
      ],
      [
        "आ",
        "ग"
      ],
      [
        "उ",
        "स"
      ],
      [
        "ऊ",
        "ँ"
      ],
      [
        "ए",
        "ं"
      ],
      [
        "क",
        "ह"
      ],
      [
        "क",
        "िन्"
      ],
      [
        "ग",
        "्र"
      ],
      [
        "ज",
        "रा"
      ],
      [
        "ज",
        "िन्"
      ],
      [
        "ड",
        "ा"
      ],
      [
        "द",
        "ृ"
      ],
      [
        "प",
        "ड़"
      ],
      [
        "प",
        "हा"
      ],
      [
        "ब",
        "ार"
      ],
      [
        "भ",
        "ग"
      ],
      [
        "भ",
        "र"
      ],
      [
        "ल",
        "ं"
      ],
      [
        "ल",
        "ु"
      ],
      [
        "व",
        "न"
      ],
      [
        "व",
        "ै"
      ],
      [
        "व",
        "िक"
      ],
      [
        "स",
        "ो"
      ],
      [
        "स",
        "र्व"
      ],
      [
        "ृ",
        "द्ध"
      ],
      [
        "ै",
        "ली"
      ],
      [
        "१",
        "८"
      ],
      [
        "के",
        "न्द्र"
      ],
      [
        "्य",
        "ता"
      ],
      [
        "से",
        "वा"
      ],
      [
        "िया",
        "ँ"
      ],
      [
        "कर",
        "ण"
      ],
      [
        "ति",
        "हा"
      ],
      [
        "वा",
        "द"
      ],
      [
        "वा",
        "दी"
      ],
      [
        "वा",
        "यु"
      ],
      [
        "िय",
        "न"
      ],
      [
        "ला",
        "वा"
      ],
      [
        "पा",
        "लि"
      ],
      [
        "ली",
        "न"
      ],
      [
        "हो",
        "ती"
      ],
      [
        "वर्",
        "ण"
      ],
      [
        "जन",
        "ता"
      ],
      [
        "ंध",
        "ी"
      ],
      [
        "१९",
        "७"
      ],
      [
        "१९",
        "८"
      ],
      [
        "यु",
        "ग"
      ],
      [
        "शास",
        "ित"
      ],
      [
        "जिस",
        "के"
      ],
      [
        "बहु",
        "मत"
      ],
      [
        "प्रा",
        "प्त"
      ],
      [
        "लग",
        "भग"
      ],
      [
        "बड़",
        "ी"
      ],
      [
        "बड़",
        "े"
      ],
      [
        "वं",
        "श"
      ],
      [
        "महा",
        "द्वीप"
      ],
      [
        "गा",
        "ंधी"
      ],
      [
        "रह",
        "े"
      ],
      [
        "विस्त",
        "ृत"
      ],
      [
        "कर्",
        "ज"
      ],
      [
        "पर्व",
        "त"
      ],
      [
        "शी",
        "ल"
      ],
      [
        "सह",
        "योग"
      ],
      [
        "डॉ",
        "लर"
      ],
      [
        "विदेश",
        "ी"
      ],
      [
        "अमे",
        "रि"
      ],
      [
        "किन्",
        "तु"
      ],
      [
        "पालि",
        "का"
      ],
      [
        "1",
        "5"
      ],
      [
        "o",
        "n"
      ],
      [
        "ं",
        "स"
      ],
      [
        "ं",
        "ति"
      ],
      [
        "अ",
        "ब"
      ],
      [
        "अ",
        "भी"
      ],
      [
        "आ",
        "या"
      ],
      [
        "आ",
        "न्"
      ],
      [
        "आ",
        "दि"
      ],
      [
        "इ",
        "ं"
      ],
      [
        "इ",
        "स्"
      ],
      [
        "उ",
        "न्"
      ],
      [
        "उ",
        "द्योग"
      ],
      [
        "ऋ",
        "तु"
      ],
      [
        "क",
        "म"
      ],
      [
        "क",
        "टि"
      ],
      [
        "ग",
        "ए"
      ],
      [
        "च",
        "े"
      ],
      [
        "ज",
        "ू"
      ],
      [
        "ज",
        "ै"
      ],
      [
        "ज",
        "लो"
      ],
      [
        "ज",
        "ाना"
      ],
      [
        "ट",
        "न"
      ],
      [
        "त",
        "ः"
      ],
      [
        "त",
        "न"
      ],
      [
        "त",
        "ो"
      ],
      [
        "द",
        "ू"
      ],
      [
        "ध",
        "ार"
      ],
      [
        "प",
        "ि"
      ],
      [
        "प",
        "ीय"
      ],
      [
        "फ",
        "ल"
      ],
      [
        "ब",
        "ै"
      ],
      [
        "ब",
        "ने"
      ],
      [
        "भ",
        "रा"
      ],
      [
        "भ",
        "िन्"
      ],
      [
        "म",
        "ार"
      ],
      [
        "य",
        "ों"
      ],
      [
        "र",
        "्य"
      ],
      [
        "र",
        "िक"
      ],
      [
        "व",
        "ल"
      ],
      [
        "व",
        "री"
      ],
      [
        "श",
        "त"
      ],
      [
        "श",
        "न"
      ],
      [
        "श",
        "क्ति"
      ],
      [
        "स",
        "ित"
      ],
      [
        "ह",
        "न"
      ],
      [
        "ि",
        "म"
      ],
      [
        "ि",
        "की"
      ],
      [
        "ो",
        "ल"
      ],
      [
        "ो",
        "च्च"
      ],
      [
        "वि",
        "वाद"
      ],
      [
        "वि",
        "भिन्"
      ],
      [
        "सा",
        "ं"
      ],
      [
        "कर",
        "ता"
      ],
      [
        "वा",
        "ली"
      ],
      [
        "ला",
        "ख"
      ],
      [
        "पा",
        "द"
      ],
      [
        "सम",
        "र्थ"
      ],
      [
        "इस",
        "की"
      ],
      [
        "हो",
        "ते"
      ],
      [
        "वर्",
        "ग"
      ],
      [
        "मि",
        "ला"
      ],
      [
        "१९",
        "५"
      ],
      [
        "१९",
        "६"
      ],
      [
        "उत्",
        "पाद"
      ],
      [
        "19",
        "4"
      ],
      [
        "अधिक",
        "ार"
      ],
      [
        "कु",
        "छ"
      ],
      [
        "00",
        "0"
      ],
      [
        "ष्",
        "ण"
      ],
      [
        "अंग्रे",
        "ज़ी"
      ],
      [
        "अम",
        "री"
      ],
      [
        "बन",
        "ाने"
      ],
      [
        "्री",
        "का"
      ],
      [
        "प्रति",
        "शत"
      ],
      [
        "यू",
        "रो"
      ],
      [
        "हिन्द",
        "ू"
      ],
      [
        "जब",
        "कि"
      ],
      [
        "स्थाप",
        "ना"
      ],
      [
        "पं",
        "जा"
      ],
      [
        "व्या",
        "पार"
      ],
      [
        "राजनी",
        "तिक"
      ],
      [
        "वर्त",
        "मान"
      ],
      [
        "अर्थ",
        "व्यवस्था"
      ],
      [
        "जल",
        "वायु"
      ],
      [
        "ब्र",
        "ि"
      ],
      [
        "प्रभा",
        "व"
      ],
      [
        "अफ",
        "्रीका"
      ],
      [
        "दृ",
        "ष्ट"
      ],
      [
        "सर्व",
        "ोच्च"
      ],
      [
        "तिहा",
        "स"
      ],
      [
        "जलो",
        "ढ़"
      ],
      [
        "विभिन्",
        "न"
      ],
      [
        "समर्थ",
        "न"
      ],
      [
        "यूरो",
        "पीय"
      ],
      [
        ")",
        ";"
      ],
      [
        "2",
        "1"
      ],
      [
        "5",
        "0"
      ],
      [
        "ं",
        "क"
      ],
      [
        "ं",
        "ह"
      ],
      [
        "अ",
        "सम"
      ],
      [
        "अ",
        "धि"
      ],
      [
        "अ",
        "लावा"
      ],
      [
        "इ",
        "तिहास"
      ],
      [
        "उ",
        "च्च"
      ],
      [
        "ए",
        "न"
      ],
      [
        "क",
        "श्"
      ],
      [
        "क",
        "र्म"
      ],
      [
        "क",
        "िये"
      ],
      [
        "घ",
        "ा"
      ],
      [
        "च",
        "ना"
      ],
      [
        "छ",
        "ो"
      ],
      [
        "छ",
        "ोड़"
      ],
      [
        "ज",
        "्"
      ],
      [
        "ज",
        "िक"
      ],
      [
        "ज",
        "हाँ"
      ],
      [
        "त",
        "ट"
      ],
      [
        "त",
        "म"
      ],
      [
        "द",
        "ार"
      ],
      [
        "द",
        "ारी"
      ],
      [
        "न",
        "ै"
      ],
      [
        "न",
        "िय"
      ],
      [
        "न",
        "दिया"
      ],
      [
        "न",
        "गर"
      ],
      [
        "प",
        "हु"
      ],
      [
        "फ",
        "ि"
      ],
      [
        "फ",
        "्रा"
      ],
      [
        "ब",
        "ौ"
      ],
      [
        "ब",
        "ंगा"
      ],
      [
        "य",
        "क"
      ],
      [
        "य",
        "त"
      ],
      [
        "र",
        "ही"
      ],
      [
        "ल",
        "ना"
      ],
      [
        "श",
        "्री"
      ],
      [
        "स",
        "त"
      ],
      [
        "स",
        "ल्"
      ],
      [
        "स",
        "फल"
      ],
      [
        "ह",
        "रा"
      ],
      [
        "ो",
        "सी"
      ],
      [
        "ौ",
        "र"
      ],
      [
        "ौ",
        "द्योग"
      ],
      [
        "१",
        "४"
      ],
      [
        "१",
        "५"
      ],
      [
        "२",
        "४"
      ],
      [
        "के",
        "वल"
      ],
      [
        "या",
        "स"
      ],
      [
        "स्",
        "लि"
      ],
      [
        "प्र",
        "शासन"
      ],
      [
        "प्र",
        "त्य"
      ],
      [
        "प्र",
        "चल"
      ],
      [
        "प्र",
        "ौद्योग"
      ],
      [
        "प्र",
        "यास"
      ],
      [
        "ने",
        "मा"
      ],
      [
        "वि",
        "यत"
      ],
      [
        "सा",
        "ह"
      ],
      [
        "सा",
        "मा"
      ],
      [
        "सं",
        "गी"
      ],
      [
        "पर",
        "ी"
      ],
      [
        "पर",
        "्य"
      ],
      [
        "क्ष",
        "र"
      ],
      [
        "भा",
        "ष"
      ],
      [
        "को",
        "ई"
      ],
      [
        "मा",
        "ल"
      ],
      [
        "राज",
        "नै"
      ],
      [
        "दे",
        "व"
      ],
      [
        "वा",
        "स"
      ],
      [
        "पा",
        "स"
      ],
      [
        "भी",
        "ल"
      ],
      [
        "्या",
        "दा"
      ],
      [
        "तर",
        "ह"
      ],
      [
        "ती",
        "स"
      ],
      [
        "ती",
        "सर"
      ],
      [
        "शा",
        "ंति"
      ],
      [
        "बा",
        "हरी"
      ],
      [
        "रू",
        "स"
      ],
      [
        "ंत्र",
        "िक"
      ],
      [
        "मान",
        "ा"
      ],
      [
        "मान",
        "सू"
      ],
      [
        "मु",
        "स्लि"
      ],
      [
        "भाषा",
        "एँ"
      ],
      [
        "जी",
        "त"
      ],
      [
        "सरकार",
        "ें"
      ],
      [
        "स्थ",
        "ि"
      ],
      [
        "कृ",
        "ष"
      ],
      [
        "जिस",
        "का"
      ],
      [
        "दि",
        "ल्"
      ],
      [
        "स्व",
        "रूप"
      ],
      [
        "मिल",
        "ियन"
      ],
      [
        "पूर्व",
        "ी"
      ],
      [
        "पु",
        "र"
      ],
      [
        "सि",
        "नेमा"
      ],
      [
        "लग",
        "ा"
      ],
      [
        "हि",
        "स्"
      ],
      [
        "उप",
        "महाद्वीप"
      ],
      [
        "वे",
        "श"
      ],
      [
        "बना",
        "ई"
      ],
      [
        "अन्",
        "तर"
      ],
      [
        "आध",
        "ार"
      ],
      [
        "क्र",
        "म"
      ],
      [
        "संघ",
        "ीय"
      ],
      [
        "पश्चि",
        "मी"
      ],
      [
        "गु",
        "प्त"
      ],
      [
        "गु",
        "जरा"
      ],
      [
        "टि",
        "श"
      ],
      [
        "शु",
        "रू"
      ],
      [
        "विस्त",
        "ार"
      ],
      [
        "201",
        "1"
      ],
      [
        "पे",
        "क्ष"
      ],
      [
        "लोग",
        "ों"
      ],
      [
        "निर",
        "पेक्ष"
      ],
      [
        "इंड",
        "िया"
      ],
      [
        "घोष",
        "णा"
      ],
      [
        "उस",
        "के"
      ],
      [
        "कह",
        "ते"
      ],
      [
        "पड़",
        "ोसी"
      ],
      [
        "अमेरि",
        "का"
      ],
      [
        "आन्",
        "दोलन"
      ],
      [
        "जू",
        "न"
      ],
      [
        "तन",
        "त"
      ],
      [
        "194",
        "7"
      ],
      [
        "ब्रि",
        "टिश"
      ],
      [
        "दृष्ट",
        "ि"
      ],
      [
        "कश्",
        "मी"
      ],
      [
        "छो",
        "टे"
      ],
      [
        "ज्",
        "ञ"
      ],
      [
        "नदिया",
        "ँ"
      ],
      [
        "सल्",
        "तनत"
      ],
      [
        "प्रौद्योग",
        "िकी"
      ],
      [
        "सामा",
        "जिक"
      ],
      [
        "संगी",
        "त"
      ],
      [
        "राजनै",
        "तिक"
      ],
      [
        "मानसू",
        "न"
      ],
      [
        "मुस्लि",
        "म"
      ],
      [
        "दिल्",
        "ली"
      ],
      [
        "2",
        "2"
      ],
      [
        "2",
        "6"
      ],
      [
        "ं",
        "ट"
      ],
      [
        "अ",
        "ग"
      ],
      [
        "अ",
        "भ"
      ],
      [
        "अ",
        "ने"
      ],
      [
        "अ",
        "ति"
      ],
      [
        "अ",
        "ल्"
      ],
      [
        "आ",
        "ज"
      ],
      [
        "आ",
        "प"
      ],
      [
        "आ",
        "य"
      ],
      [
        "आ",
        "स"
      ],
      [
        "उ",
        "से"
      ],
      [
        "उ",
        "ष्ण"
      ],
      [
        "ए",
        "व"
      ],
      [
        "क",
        "प"
      ],
      [
        "क",
        "ों"
      ],
      [
        "क",
        "्यों"
      ],
      [
        "घ",
        "र"
      ],
      [
        "च",
        "ित"
      ],
      [
        "च",
        "ला"
      ],
      [
        "च",
        "ली"
      ],
      [
        "ज",
        "ट"
      ],
      [
        "ज",
        "ों"
      ],
      [
        "ज",
        "मा"
      ],
      [
        "ट",
        "ल"
      ],
      [
        "ढ",
        "ा"
      ],
      [
        "त",
        "ीय"
      ],
      [
        "द",
        "ु"
      ],
      [
        "न",
        "व"
      ],
      [
        "प",
        "ान"
      ],
      [
        "प",
        "त्"
      ],
      [
        "फ",
        "ा"
      ],
      [
        "फ",
        "ैली"
      ],
      [
        "ब",
        "ि"
      ],
      [
        "ब",
        "दल"
      ],
      [
        "ब",
        "जट"
      ],
      [
        "भ",
        "्यता"
      ],
      [
        "म",
        "ल"
      ],
      [
        "म",
        "ह"
      ],
      [
        "म",
        "े"
      ],
      [
        "य",
        "ि"
      ],
      [
        "य",
        "हाँ"
      ],
      [
        "र",
        "ख"
      ],
      [
        "ल",
        "ै"
      ],
      [
        "ल",
        "ौ"
      ],
      [
        "ल",
        "ड़ा"
      ],
      [
        "श",
        "हर"
      ],
      [
        "श",
        "हरी"
      ],
      [
        "श",
        "िक्"
      ],
      [
        "स",
        "न्"
      ],
      [
        "स",
        "हा"
      ],
      [
        "स",
        "भ्यता"
      ],
      [
        "ह",
        "ॉ"
      ],
      [
        "ह",
        "ों"
      ],
      [
        "ृ",
        "त्य"
      ],
      [
        "े",
        "क्षा"
      ],
      [
        "ो",
        "त्"
      ],
      [
        "ौ",
        "हार"
      ],
      [
        "्",
        "द"
      ],
      [
        "१",
        "०"
      ],
      [
        "२",
        "२"
      ],
      [
        "४",
        "०"
      ],
      [
        "४",
        "७"
      ],
      [
        "का",
        "लीन"
      ],
      [
        "र्",
        "ष"
      ],
      [
        "प्र",
        "का"
      ],
      [
        "प्र",
        "िय"
      ],
      [
        "प्र",
        "सार"
      ],
      [
        "प्र",
        "दान"
      ],
      [
        "प्र",
        "णा"
      ],
      [
        "ने",
        "ह"
      ],
      [
        "क्",
        "ट"
      ],
      [
        "वि",
        "रो"
      ],
      [
        "वि",
        "शेष"
      ],
      [
        "ना",
        "गर"
      ],
      [
        "ना",
        "गा"
      ],
      [
        "िया",
        "ं"
      ],
      [
        "सं",
        "ग"
      ],
      [
        "क्ष",
        "ण"
      ],
      [
        "कर",
        "ती"
      ],
      [
        "कर",
        "ते"
      ],
      [
        "भा",
        "गी"
      ],
      [
        "त्र",
        "ी"
      ],
      [
        "मा",
        "ता"
      ],
      [
        "मा",
        "ध्य"
      ],
      [
        "राज",
        "ा"
      ],
      [
        "राज",
        "वंश"
      ],
      [
        "दे",
        "खा"
      ],
      [
        "हा",
        "ल"
      ],
      [
        "त्",
        "न"
      ],
      [
        "वा",
        "स्त"
      ],
      [
        "पा",
        "या"
      ],
      [
        "पा",
        "ँच"
      ],
      [
        "सम",
        "झ"
      ],
      [
        "सम",
        "ृद्ध"
      ],
      [
        "ली",
        "वि"
      ],
      [
        "नि",
        "वेश"
      ],
      [
        "ती",
        "न"
      ],
      [
        "इस",
        "में"
      ],
      [
        "इस",
        "का"
      ],
      [
        "शा",
        "ली"
      ],
      [
        "हो",
        "ना"
      ],
      [
        "कि",
        "ए"
      ],
      [
        "कि",
        "सी"
      ],
      [
        "राज्य",
        "सभा"
      ],
      [
        "पू",
        "रा"
      ],
      [
        "जन",
        "वरी"
      ],
      [
        "द्र",
        "ो"
      ],
      [
        "ंध",
        "ु"
      ],
      [
        "भाषा",
        "एं"
      ],
      [
        "जी",
        "वन"
      ],
      [
        "19",
        "7"
      ],
      [
        "19",
        "9"
      ],
      [
        "दि",
        "रा"
      ],
      [
        "बंध",
        "ीय"
      ],
      [
        "अप",
        "ना"
      ],
      [
        "पु",
        "रु"
      ],
      [
        "सद",
        "न"
      ],
      [
        "सि",
        "ंह"
      ],
      [
        "सि",
        "ंधु"
      ],
      [
        "साम",
        "रिक"
      ],
      [
        "उत्तर",
        "ी"
      ],
      [
        "तु",
        "लना"
      ],
      [
        "मंत्र",
        "िम"
      ],
      [
        "००",
        "०"
      ],
      [
        "स्कृ",
        "तिक"
      ],
      [
        "उप",
        "योग"
      ],
      [
        "टे",
        "लीवि"
      ],
      [
        "ष्",
        "क"
      ],
      [
        "ष्",
        "ठ"
      ],
      [
        "च्",
        "छ"
      ],
      [
        "बढ़",
        "कर"
      ],
      [
        "बढ़",
        "ती"
      ],
      [
        "सू",
        "ची"
      ],
      [
        "समा",
        "प्त"
      ],
      [
        "सैन",
        "िक"
      ],
      [
        "मो",
        "हन"
      ],
      [
        "लोक",
        "प्रिय"
      ],
      [
        "संबंध",
        "ों"
      ],
      [
        "हिन्द",
        "ु"
      ],
      [
        "मैदान",
        "ी"
      ],
      [
        "शु",
        "ष्क"
      ],
      [
        "उन",
        "के"
      ],
      [
        "२००",
        "४"
      ],
      [
        "कार्य",
        "काल"
      ],
      [
        "कार्य",
        "पालिका"
      ],
      [
        "ण्ड",
        "ल"
      ],
      [
        "मौ",
        "र्य"
      ],
      [
        "जिन",
        "में"
      ],
      [
        "सदस",
        "्य"
      ],
      [
        "सदस",
        "्यों"
      ],
      [
        "196",
        "5"
      ],
      [
        "परंपरा",
        "गत"
      ],
      [
        "आग",
        "मन"
      ],
      [
        "ऊँ",
        "ची"
      ],
      [
        "जिन्",
        "हें"
      ],
      [
        "डा",
        "लर"
      ],
      [
        "लं",
        "बे"
      ],
      [
        "विक",
        "सित"
      ],
      [
        "सो",
        "वियत"
      ],
      [
        "इं",
        "दिरा"
      ],
      [
        "इस्",
        "ला"
      ],
      [
        "उन्",
        "हें"
      ],
      [
        "कटि",
        "बंधीय"
      ],
      [
        "जै",
        "से"
      ],
      [
        "सां",
        "स्कृतिक"
      ],
      [
        "१९५",
        "०"
      ],
      [
        "अमरी",
        "की"
      ],
      [
        "पंजा",
        "ब"
      ],
      [
        "पहु",
        "ँच"
      ],
      [
        "फ्रा",
        "ंस"
      ],
      [
        "बौ",
        "द्ध"
      ],
      [
        "परी",
        "क्षण"
      ],
      [
        "पर्य",
        "टन"
      ],
      [
        "भाष",
        "ी"
      ],
      [
        "स्थि",
        "ति"
      ],
      [
        "कृष",
        "ि"
      ],
      [
        "कश्मी",
        "र"
      ],
      [
        "ज्ञ",
        "ान"
      ],
      [
        "अने",
        "क"
      ],
      [
        "शिक्",
        "षा"
      ],
      [
        "सहा",
        "यक"
      ],
      [
        "हॉ",
        "की"
      ],
      [
        "प्रणा",
        "ली"
      ],
      [
        "नागर",
        "िक"
      ],
      [
        "माध्य",
        "म"
      ],
      [
        "पुरु",
        "ष"
      ],
      [
        "मंत्रिम",
        "ण्डल"
      ],
      [
        "%",
        ")"
      ],
      [
        "4",
        "0"
      ],
      [
        "6",
        "4"
      ],
      [
        "8",
        "0"
      ],
      [
        "I",
        "n"
      ],
      [
        "i",
        "a"
      ],
      [
        "o",
        "on"
      ],
      [
        "s",
        "oon"
      ],
      [
        "ं",
        "तर"
      ],
      [
        "ं",
        "जन"
      ],
      [
        "अ",
        "र्"
      ],
      [
        "अ",
        "नि"
      ],
      [
        "अ",
        "हि"
      ],
      [
        "अ",
        "क्ट"
      ],
      [
        "अ",
        "च्छ"
      ],
      [
        "आ",
        "ई"
      ],
      [
        "आ",
        "त"
      ],
      [
        "आ",
        "र"
      ],
      [
        "आ",
        "ते"
      ],
      [
        "आ",
        "कर्म"
      ],
      [
        "इ",
        "से"
      ],
      [
        "ई",
        "द"
      ],
      [
        "ई",
        "स्ट"
      ],
      [
        "उ",
        "ठ"
      ],
      [
        "उ",
        "भरा"
      ],
      [
        "ऊ",
        "पर"
      ],
      [
        "क",
        "ल"
      ],
      [
        "क",
        "ंप"
      ],
      [
        "क",
        "न्न"
      ],
      [
        "ख",
        "न"
      ],
      [
        "ख",
        "र"
      ],
      [
        "ख",
        "े"
      ],
      [
        "ख",
        "ंड"
      ],
      [
        "ग",
        "ै"
      ],
      [
        "ग",
        "ों"
      ],
      [
        "ग",
        "ढ़"
      ],
      [
        "ग",
        "्री"
      ],
      [
        "ग",
        "ोल"
      ],
      [
        "च",
        "र"
      ],
      [
        "च",
        "ो"
      ],
      [
        "च",
        "ौ"
      ],
      [
        "छ",
        "ह"
      ],
      [
        "ज",
        "य"
      ],
      [
        "ज",
        "ु"
      ],
      [
        "ज",
        "ान"
      ],
      [
        "ज",
        "न्"
      ],
      [
        "ज",
        "ैन"
      ],
      [
        "ज",
        "ाने"
      ],
      [
        "झ",
        "े"
      ],
      [
        "झ",
        "ार"
      ],
      [
        "ट",
        "क"
      ],
      [
        "ट",
        "ा"
      ],
      [
        "ट",
        "ना"
      ],
      [
        "ठ",
        "क"
      ],
      [
        "ठ",
        "ी"
      ],
      [
        "ठ",
        "ार"
      ],
      [
        "ड",
        "ि"
      ],
      [
        "ड",
        "ु"
      ],
      [
        "ड",
        "े"
      ],
      [
        "ड",
        "िया"
      ],
      [
        "त",
        "ब"
      ],
      [
        "त",
        "ार"
      ],
      [
        "त",
        "रा"
      ],
      [
        "थ",
        "ल"
      ],
      [
        "थ",
        "ान"
      ],
      [
        "द",
        "ों"
      ],
      [
        "द",
        "िक"
      ],
      [
        "द",
        "ियों"
      ],
      [
        "ध",
        "न"
      ],
      [
        "न",
        "म"
      ],
      [
        "न",
        "र"
      ],
      [
        "न",
        "ार"
      ],
      [
        "न",
        "ियों"
      ],
      [
        "न",
        "ृत्य"
      ],
      [
        "न",
        "दियों"
      ],
      [
        "प",
        "ो"
      ],
      [
        "प",
        "क्ष"
      ],
      [
        "प",
        "ड़ा"
      ],
      [
        "प",
        "ठार"
      ],
      [
        "फ",
        "ु"
      ],
      [
        "ब",
        "द"
      ],
      [
        "ब",
        "ल"
      ],
      [
        "ब",
        "ह"
      ],
      [
        "ब",
        "न्"
      ],
      [
        "ब",
        "ियों"
      ],
      [
        "ब",
        "डी"
      ],
      [
        "भ",
        "ु"
      ],
      [
        "भ",
        "ो"
      ],
      [
        "भ",
        "री"
      ],
      [
        "म",
        "ं"
      ],
      [
        "म",
        "क"
      ],
      [
        "म",
        "ना"
      ],
      [
        "म",
        "ही"
      ],
      [
        "म",
        "ले"
      ],
      [
        "म",
        "स्वरूप"
      ],
      [
        "य",
        "न"
      ],
      [
        "य",
        "ें"
      ],
      [
        "य",
        "द्य"
      ],
      [
        "य",
        "पालिका"
      ],
      [
        "र",
        "ल"
      ],
      [
        "र",
        "खा"
      ],
      [
        "र",
        "त्न"
      ],
      [
        "ल",
        "ू"
      ],
      [
        "व",
        "ृद्ध"
      ],
      [
        "श",
        "्र"
      ],
      [
        "श",
        "िया"
      ],
      [
        "श",
        "्रे"
      ],
      [
        "श",
        "क्त"
      ],
      [
        "श",
        "स्त्र"
      ],
      [
        "श",
        "ैली"
      ],
      [
        "स",
        "र्"
      ],
      [
        "स",
        "ों"
      ],
      [
        "स",
        "भी"
      ],
      [
        "स",
        "िन्"
      ],
      [
        "स",
        "क्र"
      ],
      [
        "स",
        "ौहार"
      ],
      [
        "ह",
        "े"
      ],
      [
        "ह",
        "त्या"
      ],
      [
        "ा",
        "मस्वरूप"
      ],
      [
        "ू",
        "त"
      ],
      [
        "ू",
        "ह"
      ],
      [
        "ू",
        "बर"
      ],
      [
        "े",
        "क"
      ],
      [
        "्",
        "म"
      ],
      [
        "्",
        "ष"
      ],
      [
        "१",
        "७"
      ],
      [
        "२",
        "५"
      ],
      [
        "२",
        "६"
      ],
      [
        "५",
        "२"
      ],
      [
        "का",
        "ज"
      ],
      [
        "स्",
        "ता"
      ],
      [
        "स्",
        "ति"
      ],
      [
        "ान",
        "्"
      ],
      [
        "प्र",
        "देशों"
      ],
      [
        "प्र",
        "गति"
      ],
      [
        "प्र",
        "भु"
      ],
      [
        "ने",
        "पा"
      ],
      [
        "वि",
        "त"
      ],
      [
        "वि",
        "ध"
      ],
      [
        "वि",
        "शा"
      ],
      [
        "वि",
        "मान"
      ],
      [
        "वि",
        "द्रो"
      ],
      [
        "वि",
        "ज्ञान"
      ],
      [
        "ता",
        "ंत्रिक"
      ],
      [
        "सा",
        "मान"
      ],
      [
        "सा",
        "गर"
      ],
      [
        "सा",
        "क्षर"
      ],
      [
        "न्",
        "तु"
      ],
      [
        "पर",
        "ि"
      ],
      [
        "पर",
        "े"
      ],
      [
        "पर",
        "िण"
      ],
      [
        "कर",
        "े"
      ],
      [
        "कर",
        "ो"
      ],
      [
        "त्र",
        "ि"
      ],
      [
        "राज",
        "भाषा"
      ],
      [
        "राज",
        "धान"
      ],
      [
        "राज",
        "स्थान"
      ],
      [
        "ड़",
        "ियाँ"
      ],
      [
        "वा",
        "म"
      ],
      [
        "कार",
        "ी"
      ],
      [
        "ित",
        "्य"
      ],
      [
        "िय",
        "स"
      ],
      [
        "िय",
        "ो"
      ],
      [
        "ला",
        "ल"
      ],
      [
        "पा",
        "ई"
      ],
      [
        "पा",
        "त"
      ],
      [
        "सम",
        "ूह"
      ],
      [
        "्या",
        "त"
      ],
      [
        "तर",
        "िक"
      ],
      [
        "नि",
        "म्"
      ],
      [
        "नि",
        "वास"
      ],
      [
        "भारतीय",
        "ों"
      ],
      [
        "दी",
        "व"
      ],
      [
        "शा",
        "मिल"
      ],
      [
        "शा",
        "स्त्र"
      ],
      [
        "हो",
        "ने"
      ],
      [
        "वर्",
        "षा"
      ],
      [
        "मि",
        "श्र"
      ],
      [
        "पू",
        "रे"
      ],
      [
        "सर",
        "े"
      ],
      [
        "मान",
        "व"
      ],
      [
        "मु",
        "द्र"
      ],
      [
        "नी",
        "ति"
      ],
      [
        "१९",
        "४७"
      ],
      [
        "लि",
        "ख"
      ],
      [
        "प्",
        "ति"
      ],
      [
        "सरकार",
        "ों"
      ],
      [
        "19",
        "50"
      ],
      [
        "20",
        "20"
      ],
      [
        "स्थ",
        "ल"
      ],
      [
        "जिस",
        "की"
      ],
      [
        "जिस",
        "ने"
      ],
      [
        "बहु",
        "मूल"
      ],
      [
        "क्षेत्र",
        "ों"
      ],
      [
        "सी",
        "मा"
      ],
      [
        "धर्म",
        "ों"
      ],
      [
        "सार",
        "ी"
      ],
      [
        "अप",
        "ेक्षा"
      ],
      [
        "पु",
        "ड़ा"
      ],
      [
        "मी",
        "णा"
      ],
      [
        "चु",
        "की"
      ],
      [
        "ज़",
        "्यादा"
      ],
      [
        "निर्",
        "भर"
      ],
      [
        "केंद्र",
        "ीय"
      ],
      [
        "एश",
        "न"
      ],
      [
        "चा",
        "ई"
      ],
      [
        "बना",
        "या"
      ],
      [
        "रु",
        "प"
      ],
      [
        "क्र",
        "य"
      ],
      [
        "क्र",
        "ि"
      ],
      [
        "बढ़",
        "ने"
      ],
      [
        "संघ",
        "र्ष"
      ],
      [
        "गु",
        "ट"
      ],
      [
        "मन",
        "मोहन"
      ],
      [
        "मध्य",
        "म"
      ],
      [
        "सू",
        "चना"
      ],
      [
        "प्राचीन",
        "तम"
      ],
      [
        "न्या",
        "यपालिका"
      ],
      [
        "मो",
        "र्"
      ],
      [
        "मो",
        "दी"
      ],
      [
        "स्थान",
        "ीय"
      ],
      [
        "साम्राज्य",
        "ों"
      ],
      [
        "लोक",
        "सभा"
      ],
      [
        "लोक",
        "तांत्रिक"
      ],
      [
        "पह",
        "ली"
      ],
      [
        "सम्",
        "पूर्ण"
      ],
      [
        "पार्ट",
        "ियों"
      ],
      [
        "शु",
        "रु"
      ],
      [
        "201",
        "2"
      ],
      [
        "उन",
        "का"
      ],
      [
        "उन",
        "की"
      ],
      [
        "स्थाप",
        "ित"
      ],
      [
        "अव",
        "धि"
      ],
      [
        "अव",
        "शेष"
      ],
      [
        "१९९",
        "१"
      ],
      [
        "विकास",
        "शील"
      ],
      [
        "पं",
        "थी"
      ],
      [
        "सक",
        "ता"
      ],
      [
        "सक",
        "ते"
      ],
      [
        "राजनी",
        "ति"
      ],
      [
        "अन्त",
        "र्"
      ],
      [
        "अन्त",
        "तः"
      ],
      [
        "घोष",
        "ित"
      ],
      [
        "पै",
        "मान"
      ],
      [
        "२०",
        "१४"
      ],
      [
        "काम",
        "काज"
      ],
      [
        "प्रारम्भ",
        "िक"
      ],
      [
        "आं",
        "दोलन"
      ],
      [
        "आं",
        "तरिक"
      ],
      [
        "आग",
        "े"
      ],
      [
        "ऊँ",
        "चाई"
      ],
      [
        "पहा",
        "ड़ी"
      ],
      [
        "लं",
        "का"
      ],
      [
        "वै",
        "दिक"
      ],
      [
        "सेवा",
        "ओं"
      ],
      [
        "वर्ण",
        "न"
      ],
      [
        "१९८",
        "४"
      ],
      [
        "on",
        "soon"
      ],
      [
        "बै",
        "ठक"
      ],
      [
        "मार",
        "्"
      ],
      [
        "प्रभाव",
        "शाली"
      ],
      [
        "घा",
        "टी"
      ],
      [
        "छोड़",
        "कर"
      ],
      [
        "बंगा",
        "ल"
      ],
      [
        "श्री",
        "लंका"
      ],
      [
        "सत",
        "पुड़ा"
      ],
      [
        "प्रत्य",
        "ेक"
      ],
      [
        "प्रचल",
        "ित"
      ],
      [
        "साह",
        "ित्य"
      ],
      [
        "माल",
        "दीव"
      ],
      [
        "तीसर",
        "ी"
      ],
      [
        "लगा",
        "तार"
      ],
      [
        "हिस्",
        "सा"
      ],
      [
        "गुजरा",
        "त"
      ],
      [
        "अग",
        "स्त"
      ],
      [
        "अभ",
        "िया"
      ],
      [
        "पत्",
        "ति"
      ],
      [
        "हों",
        "ने"
      ],
      [
        "प्रका",
        "श"
      ],
      [
        "नेह",
        "रू"
      ],
      [
        "विरो",
        "ध"
      ],
      [
        "भागी",
        "दारी"
      ],
      [
        "वास्त",
        "विक"
      ],
      [
        "समझ",
        "ौ"
      ],
      [
        "197",
        "1"
      ],
      [
        "हिन्दु",
        "स्तान"
      ],
      [
        "इस्ला",
        "म"
      ],
      [
        "पुरुष",
        "ों"
      ],
      [
        "In",
        "d"
      ],
      [
        "अहि",
        "ं"
      ],
      [
        "अक्ट",
        "ूबर"
      ],
      [
        "आकर्म",
        "ण"
      ],
      [
        "गै",
        "र"
      ],
      [
        "गों",
        "ड"
      ],
      [
        "फु",
        "ट"
      ],
      [
        "यद्य",
        "पि"
      ],
      [
        "वृद्ध",
        "ि"
      ],
      [
        "सक्र",
        "िय"
      ],
      [
        "सौहार",
        "्द"
      ],
      [
        "विशा",
        "ल"
      ],
      [
        "विद्रो",
        "ह"
      ],
      [
        "साक्षर",
        "ता"
      ],
      [
        "परिण",
        "ामस्वरूप"
      ],
      [
        "राजधान",
        "ी"
      ],
      [
        "बहुमूल",
        "्य"
      ],
      [
        ".",
        "/"
      ],
      [
        "1",
        "2"
      ],
      [
        "1",
        "3"
      ],
      [
        "1",
        "6"
      ],
      [
        "2",
        "4"
      ],
      [
        "3",
        "0"
      ],
      [
        "3",
        "3"
      ],
      [
        "3",
        "6"
      ],
      [
        "5",
        "5"
      ],
      [
        "5",
        "00"
      ],
      [
        "7",
        "2"
      ],
      [
        "7",
        "6"
      ],
      [
        "8",
        "3"
      ],
      [
        "A",
        "u"
      ],
      [
        "a",
        "t"
      ],
      [
        "e",
        "r"
      ],
      [
        "i",
        "n"
      ],
      [
        "m",
        "onsoon"
      ],
      [
        "o",
        "r"
      ],
      [
        "s",
        "t"
      ],
      [
        "u",
        "m"
      ],
      [
        "ँ",
        "चा"
      ],
      [
        "ं",
        "त"
      ],
      [
        "ं",
        "द"
      ],
      [
        "ं",
        "ब"
      ],
      [
        "ं",
        "श"
      ],
      [
        "ं",
        "पर"
      ],
      [
        "ं",
        "तु"
      ],
      [
        "ं",
        "तीस"
      ],
      [
        "अ",
        "थ"
      ],
      [
        "अ",
        "सं"
      ],
      [
        "अ",
        "क्ष"
      ],
      [
        "अ",
        "त्य"
      ],
      [
        "अ",
        "ग्र"
      ],
      [
        "अ",
        "शांति"
      ],
      [
        "अ",
        "सैनिक"
      ],
      [
        "आ",
        "ए"
      ],
      [
        "आ",
        "ठ"
      ],
      [
        "आ",
        "म"
      ],
      [
        "आ",
        "व"
      ],
      [
        "आ",
        "ने"
      ],
      [
        "आ",
        "कृ"
      ],
      [
        "आ",
        "वं"
      ],
      [
        "आ",
        "पूर्"
      ],
      [
        "आ",
        "कर्"
      ],
      [
        "आ",
        "दर्"
      ],
      [
        "आ",
        "र्य"
      ],
      [
        "आ",
        "क्रम"
      ],
      [
        "इ",
        "न्"
      ],
      [
        "इ",
        "ण्ड"
      ],
      [
        "इ",
        "त्या"
      ],
      [
        "इ",
        "जरा"
      ],
      [
        "इ",
        "लावा"
      ],
      [
        "उ",
        "द"
      ],
      [
        "उ",
        "ल"
      ],
      [
        "उ",
        "ड़ी"
      ],
      [
        "उ",
        "भरी"
      ],
      [
        "ऊ",
        "र्"
      ],
      [
        "ए",
        "फ"
      ],
      [
        "ए",
        "स"
      ],
      [
        "ए",
        "सो"
      ],
      [
        "ऐ",
        "से"
      ],
      [
        "ऐ",
        "सी"
      ],
      [
        "औ",
        "सत"
      ],
      [
        "क",
        "ू"
      ],
      [
        "क",
        "ला"
      ],
      [
        "क",
        "्रा"
      ],
      [
        "क",
        "हीं"
      ],
      [
        "क",
        "ंक"
      ],
      [
        "ख",
        "ु"
      ],
      [
        "ख",
        "ान"
      ],
      [
        "ख",
        "ण्ड"
      ],
      [
        "ग",
        "ध"
      ],
      [
        "ग",
        "़"
      ],
      [
        "ग",
        "ू"
      ],
      [
        "ग",
        "ो"
      ],
      [
        "ग",
        "ार"
      ],
      [
        "ग",
        "ान"
      ],
      [
        "ग",
        "ये"
      ],
      [
        "घ",
        "ु"
      ],
      [
        "घ",
        "नि"
      ],
      [
        "घ",
        "रे"
      ],
      [
        "च",
        "ों"
      ],
      [
        "छ",
        "ू"
      ],
      [
        "ज",
        "ह"
      ],
      [
        "ज",
        "ना"
      ],
      [
        "ज",
        "वा"
      ],
      [
        "ज",
        "ंग"
      ],
      [
        "ज",
        "ारी"
      ],
      [
        "ज",
        "्यादा"
      ],
      [
        "ण",
        "ि"
      ],
      [
        "त",
        "ल"
      ],
      [
        "त",
        "न्"
      ],
      [
        "त",
        "त्"
      ],
      [
        "त",
        "नाव"
      ],
      [
        "थ",
        "म"
      ],
      [
        "थ",
        "ि"
      ],
      [
        "द",
        "रा"
      ],
      [
        "द",
        "मन"
      ],
      [
        "द",
        "लों"
      ],
      [
        "द",
        "ौर"
      ],
      [
        "ध",
        "ु"
      ],
      [
        "ध",
        "ित"
      ],
      [
        "न",
        "ई"
      ],
      [
        "न",
        "ौ"
      ],
      [
        "न",
        "्य"
      ],
      [
        "न",
        "या"
      ],
      [
        "न",
        "दी"
      ],
      [
        "न",
        "र्म"
      ],
      [
        "न",
        "वी"
      ],
      [
        "न",
        "ये"
      ],
      [
        "प",
        "द"
      ],
      [
        "प",
        "ति"
      ],
      [
        "प",
        "मान"
      ],
      [
        "प",
        "ब्"
      ],
      [
        "प",
        "त्य"
      ],
      [
        "प",
        "न्न"
      ],
      [
        "प",
        "टल"
      ],
      [
        "प",
        "सन्"
      ],
      [
        "फ",
        "े"
      ],
      [
        "फ",
        "ै"
      ],
      [
        "ब",
        "ई"
      ],
      [
        "ब",
        "ॉ"
      ],
      [
        "ब",
        "हा"
      ],
      [
        "भ",
        "े"
      ],
      [
        "भ",
        "क्ति"
      ],
      [
        "म",
        "्र"
      ],
      [
        "म",
        "्य"
      ],
      [
        "म",
        "रा"
      ],
      [
        "म",
        "हि"
      ],
      [
        "म",
        "जब"
      ],
      [
        "म",
        "शी"
      ],
      [
        "म",
        "हार"
      ],
      [
        "म",
        "गध"
      ],
      [
        "य",
        "र"
      ],
      [
        "य",
        "ल"
      ],
      [
        "य",
        "ी"
      ],
      [
        "य",
        "िक"
      ],
      [
        "य",
        "हा"
      ],
      [
        "य",
        "दा"
      ],
      [
        "य",
        "द्वीप"
      ],
      [
        "र",
        "ों"
      ],
      [
        "र",
        "सा"
      ],
      [
        "र",
        "क्ष"
      ],
      [
        "र",
        "चना"
      ],
      [
        "र",
        "ंजन"
      ],
      [
        "ल",
        "त"
      ],
      [
        "ल",
        "म"
      ],
      [
        "ल",
        "िक"
      ],
      [
        "ल",
        "ित"
      ],
      [
        "ल",
        "्ट"
      ],
      [
        "व",
        "स"
      ],
      [
        "व",
        "्र"
      ],
      [
        "व",
        "ें"
      ],
      [
        "व",
        "ों"
      ],
      [
        "व",
        "स्त"
      ],
      [
        "व",
        "धान"
      ],
      [
        "व",
        "ाने"
      ],
      [
        "व",
        "क्त"
      ],
      [
        "व",
        "जह"
      ],
      [
        "श",
        "ै"
      ],
      [
        "श",
        "्य"
      ],
      [
        "श",
        "िक"
      ],
      [
        "श",
        "ब्"
      ],
      [
        "श",
        "ियन"
      ],
      [
        "ष",
        "ण"
      ],
      [
        "ष",
        "ित"
      ],
      [
        "स",
        "ॉ"
      ],
      [
        "स",
        "्र"
      ],
      [
        "स",
        "रा"
      ],
      [
        "स",
        "क्ष"
      ],
      [
        "स",
        "कर"
      ],
      [
        "स",
        "तर"
      ],
      [
        "स",
        "दी"
      ],
      [
        "स",
        "वी"
      ],
      [
        "स",
        "शस्त्र"
      ],
      [
        "स",
        "ियस"
      ],
      [
        "ह",
        "द"
      ],
      [
        "ह",
        "म"
      ],
      [
        "ह",
        "स्त"
      ],
      [
        "ह",
        "वे"
      ],
      [
        "ह",
        "ारी"
      ],
      [
        "ह",
        "्म"
      ],
      [
        "ह",
        "स्ता"
      ],
      [
        "ा",
        "या"
      ],
      [
        "ा",
        "ष्ट्र"
      ],
      [
        "ा",
        "यि"
      ],
      [
        "ि",
        "प्त"
      ],
      [
        "ी",
        "ण"
      ],
      [
        "ु",
        "ण्"
      ],
      [
        "ू",
        "दी"
      ],
      [
        "े",
        "डे"
      ],
      [
        "ॉ",
        "क"
      ],
      [
        "ो",
        "त"
      ],
      [
        "ो",
        "ने"
      ],
      [
        "ो",
        "रंजन"
      ],
      [
        "्",
        "‍"
      ],
      [
        "्",
        "ला"
      ],
      [
        "्",
        "कटि"
      ],
      [
        "१",
        "१"
      ],
      [
        "१",
        "३"
      ],
      [
        "१",
        "६"
      ],
      [
        "१",
        "०००"
      ],
      [
        "२",
        "३"
      ],
      [
        "२",
        "८"
      ],
      [
        "२",
        "९"
      ],
      [
        "३",
        "२"
      ],
      [
        "३",
        "७"
      ],
      [
        "३",
        "८"
      ],
      [
        "४",
        "३"
      ],
      [
        "६",
        "६"
      ],
      [
        "७",
        "९"
      ],
      [
        "८",
        "५"
      ],
      [
        "‍",
        "व"
      ],
      [
        "ार",
        "्कटि"
      ],
      [
        "के",
        "ट"
      ],
      [
        "ें",
        "द्र"
      ],
      [
        "में",
        "ट"
      ],
      [
        "का",
        "ंश"
      ],
      [
        "भारत",
        "वर्ष"
      ],
      [
        "र्",
        "ता"
      ],
      [
        "या",
        "ब"
      ],
      [
        "या",
        "लम"
      ],
      [
        "की",
        "र्"
      ],
      [
        "से",
        "मी"
      ],
      [
        "से",
        "ल्"
      ],
      [
        "ान",
        "ी"
      ],
      [
        "ान",
        "ों"
      ],
      [
        "प्र",
        "सि"
      ],
      [
        "प्र",
        "माण"
      ],
      [
        "प्र",
        "थम"
      ],
      [
        "रा",
        "शि"
      ],
      [
        "ने",
        "ट"
      ],
      [
        "ने",
        "ता"
      ],
      [
        "क्",
        "स"
      ],
      [
        "वि",
        "भा"
      ],
      [
        "वि",
        "त्"
      ],
      [
        "वि",
        "ंध"
      ],
      [
        "वि",
        "धि"
      ],
      [
        "वि",
        "भाग"
      ],
      [
        "वि",
        "भाज"
      ],
      [
        "वि",
        "जय"
      ],
      [
        "ता",
        "पमान"
      ],
      [
        "ना",
        "टक"
      ],
      [
        "ना",
        "डु"
      ],
      [
        "सा",
        "फ़"
      ],
      [
        "सा",
        "वादी"
      ],
      [
        "सा",
        "झे"
      ],
      [
        "था",
        "ई"
      ],
      [
        "सं",
        "क्ष"
      ],
      [
        "सं",
        "सार"
      ],
      [
        "सं",
        "चा"
      ],
      [
        "सं",
        "गठ"
      ],
      [
        "सं",
        "बर"
      ],
      [
        "सं",
        "बो"
      ],
      [
        "पर",
        "न्तु"
      ],
      [
        "पर",
        "ंतु"
      ],
      [
        "कर",
        "वाने"
      ],
      [
        "भा",
        "बर"
      ],
      [
        "त्र",
        "ता"
      ],
      [
        "को",
        "पे"
      ],
      [
        "मा",
        "त्र"
      ],
      [
        "मा",
        "ला"
      ],
      [
        "मा",
        "मले"
      ],
      [
        "दे",
        "ता"
      ],
      [
        "दे",
        "ते"
      ],
      [
        "ड़",
        "िया"
      ],
      [
        "जा",
        "तीय"
      ],
      [
        "जा",
        "पान"
      ],
      [
        "त्",
        "मा"
      ],
      [
        "त्",
        "मक"
      ],
      [
        "त्",
        "‍व"
      ],
      [
        "वा",
        "ँ"
      ],
      [
        "वा",
        "ज"
      ],
      [
        "वा",
        "ला"
      ],
      [
        "वा",
        "धिक"
      ],
      [
        "वा",
        "ले"
      ],
      [
        "वा",
        "लों"
      ],
      [
        "कार",
        "ों"
      ],
      [
        "ला",
        "इ"
      ],
      [
        "ला",
        "ई"
      ],
      [
        "पा",
        "ंड"
      ],
      [
        "पा",
        "इन"
      ],
      [
        "सम",
        "े"
      ],
      [
        "सम",
        "ान"
      ],
      [
        "सम",
        "्रा"
      ],
      [
        "्ट",
        "वे"
      ],
      [
        "्या",
        "लय"
      ],
      [
        "्या",
        "चल"
      ],
      [
        "ंग",
        "ो"
      ],
      [
        "ंग",
        "ीण"
      ],
      [
        "ंग",
        "्ला"
      ],
      [
        "द्",
        "वि"
      ],
      [
        "तर",
        "ी"
      ],
      [
        "ती",
        "व्र"
      ],
      [
        "इस",
        "ने"
      ],
      [
        "हो",
        "ली"
      ],
      [
        "वर्",
        "गी"
      ],
      [
        "ते",
        "ज़ी"
      ],
      [
        "ते",
        "लु"
      ],
      [
        "ते",
        "माल"
      ],
      [
        "कि",
        "नार"
      ],
      [
        "बा",
        "ल"
      ],
      [
        "बा",
        "ढ़"
      ],
      [
        "बा",
        "ंग्ला"
      ],
      [
        "रू",
        "परे"
      ],
      [
        "षा",
        "ण"
      ],
      [
        "जि",
        "से"
      ],
      [
        "जि",
        "मेंट"
      ],
      [
        "मान",
        "ी"
      ],
      [
        "मान",
        "्यता"
      ],
      [
        "मु",
        "म्"
      ],
      [
        "मु",
        "क्त"
      ],
      [
        "री",
        "ति"
      ],
      [
        "री",
        "बी"
      ],
      [
        "लि",
        "स"
      ],
      [
        "उत्",
        "थान"
      ],
      [
        "जी",
        "विका"
      ],
      [
        "जी",
        "डी"
      ],
      [
        "सरकार",
        "ी"
      ],
      [
        "19",
        "5"
      ],
      [
        "19",
        "80"
      ],
      [
        "यह",
        "ूदी"
      ],
      [
        "ले",
        "कर"
      ],
      [
        "ले",
        "खन"
      ],
      [
        "क्षे",
        "प"
      ],
      [
        "बहु",
        "पक्ष"
      ],
      [
        "रूप",
        "ए"
      ],
      [
        "दि",
        "वाली"
      ],
      [
        "दि",
        "वस"
      ],
      [
        "दि",
        "संबर"
      ],
      [
        "प्रा",
        "प्ति"
      ],
      [
        "प्रा",
        "यद्वीप"
      ],
      [
        "प्रा",
        "वधान"
      ],
      [
        "जो",
        "र"
      ],
      [
        "राष्ट्र",
        "ों"
      ],
      [
        "राष्ट्र",
        "पति"
      ],
      [
        "धर्म",
        "निरपेक्ष"
      ],
      [
        "्रा",
        "म"
      ],
      [
        "स्व",
        "रुप"
      ],
      [
        "स्व",
        "तन्"
      ],
      [
        "स्था",
        "ई"
      ],
      [
        "मिल",
        "ित"
      ],
      [
        "पार",
        "सी"
      ],
      [
        "पार",
        "ंपर"
      ],
      [
        "पु",
        "न"
      ],
      [
        "पु",
        "त्र"
      ],
      [
        "पु",
        "री"
      ],
      [
        "पु",
        "लिस"
      ],
      [
        "मी",
        "ल"
      ],
      [
        "ल्",
        "म"
      ],
      [
        "सि",
        "ख"
      ],
      [
        "सि",
        "एशन"
      ],
      [
        "साम",
        "ने"
      ],
      [
        "साम",
        "ना"
      ],
      [
        "रे",
        "शियन"
      ],
      [
        "रे",
        "जिमेंट"
      ],
      [
        "उत्तर",
        "दा"
      ],
      [
        "ज़",
        "न"
      ],
      [
        "मंत्र",
        "ण"
      ],
      [
        "वार",
        "्य"
      ],
      [
        "वार",
        "्ष"
      ],
      [
        "व्य",
        "क्ति"
      ],
      [
        "नाम",
        "ों"
      ],
      [
        "अनु",
        "सूची"
      ],
      [
        "म्",
        "बे"
      ],
      [
        "काल",
        "िक"
      ],
      [
        "निर्",
        "माता"
      ],
      [
        "कु",
        "लीन"
      ],
      [
        "तिक",
        "र्ता"
      ],
      [
        "केंद्र",
        "शासित"
      ],
      [
        "उप",
        "ग्र"
      ],
      [
        "दा",
        "दरा"
      ],
      [
        "चा",
        "ह"
      ],
      [
        "चा",
        "लु"
      ],
      [
        "बना",
        "ए"
      ],
      [
        "महा",
        "सागर"
      ],
      [
        "महा",
        "त्मा"
      ],
      [
        "अंग्रे",
        "जों"
      ],
      [
        "क्र",
        "ी"
      ],
      [
        "हर",
        "लाल"
      ],
      [
        "खा",
        "सकर"
      ],
      [
        "गा",
        "ँ"
      ],
      [
        "मन",
        "ु"
      ],
      [
        "मन",
        "ोरंजन"
      ],
      [
        "मध्य",
        "प्रदेश"
      ],
      [
        "मध्य",
        "कालीन"
      ],
      [
        "सू",
        "त्र"
      ],
      [
        "त्व",
        "पूर्ण"
      ],
      [
        "एशिया",
        "ई"
      ],
      [
        "दश",
        "हरा"
      ],
      [
        "स्थान",
        "ों"
      ],
      [
        "गठ",
        "ित"
      ],
      [
        "चल",
        "ने"
      ],
      [
        "यू",
        "पी"
      ],
      [
        "यू",
        "रेशियन"
      ],
      [
        "सम्",
        "प्रभु"
      ],
      [
        "सम्",
        "मिलित"
      ],
      [
        "पार्ट",
        "ियां"
      ],
      [
        "मैदान",
        "ों"
      ],
      [
        "इन",
        "का"
      ],
      [
        "फ़",
        "ि"
      ],
      [
        "फ़",
        "ेडे"
      ],
      [
        "बे",
        "टे"
      ],
      [
        "नेतृ",
        "त्‍व"
      ],
      [
        "201",
        "3"
      ],
      [
        "कर्",
        "नाटक"
      ],
      [
        "ोष",
        "ण"
      ],
      [
        "न्याया",
        "धिकार"
      ],
      [
        "अव",
        "सा"
      ],
      [
        "ईसा",
        "ई"
      ],
      [
        "गति",
        "शील"
      ],
      [
        "बो",
        "ला"
      ],
      [
        "बो",
        "ली"
      ],
      [
        "सह",
        "ित"
      ],
      [
        "२००",
        "९"
      ],
      [
        "१९९",
        "०"
      ],
      [
        "१९९",
        "६"
      ],
      [
        "१९९",
        "८"
      ],
      [
        "मुख्य",
        "रूप"
      ],
      [
        "तमिल",
        "नाडु"
      ],
      [
        "मौ",
        "सम"
      ],
      [
        "सक",
        "ल"
      ],
      [
        "संसद",
        "ीय"
      ],
      [
        "देख",
        "ो"
      ],
      [
        "देख",
        "ने"
      ],
      [
        "देख",
        "ते"
      ],
      [
        "निर",
        "्यात"
      ],
      [
        "जिन",
        "के"
      ],
      [
        "इंड",
        "ोने"
      ],
      [
        "दर्",
        "ज़"
      ],
      [
        "दर्",
        "शन"
      ],
      [
        "पै",
        "ंतीस"
      ],
      [
        "ब्र",
        "ह्म"
      ],
      [
        "बनी",
        "ं"
      ],
      [
        "शि",
        "खर"
      ],
      [
        "सु",
        "धार"
      ],
      [
        "२०",
        "११"
      ],
      [
        "काम",
        "याब"
      ],
      [
        "प्रभा",
        "वित"
      ],
      [
        "न्न",
        "ति"
      ],
      [
        "युद्ध",
        "ों"
      ],
      [
        "196",
        "0"
      ],
      [
        "196",
        "2"
      ],
      [
        "200",
        "8"
      ],
      [
        "न्यायालय",
        "ों"
      ],
      [
        "मूल",
        "्यों"
      ],
      [
        "जिन्",
        "हे"
      ],
      [
        "पहा",
        "ड़ियाँ"
      ],
      [
        "भर",
        "त"
      ],
      [
        "१८",
        "५"
      ],
      [
        "केन्द्र",
        "ीय"
      ],
      [
        "केन्द्र",
        "शासित"
      ],
      [
        "वर्ण",
        "ित"
      ],
      [
        "जनता",
        "ंत्रिक"
      ],
      [
        "१९७",
        "१"
      ],
      [
        "१९७",
        "५"
      ],
      [
        "१९७",
        "७"
      ],
      [
        "१९८",
        "०"
      ],
      [
        "१९८",
        "९"
      ],
      [
        "महाद्वीप",
        "ों"
      ],
      [
        "पर्वत",
        "श्रे"
      ],
      [
        "पर्वत",
        "माला"
      ],
      [
        "अमेरि",
        "की"
      ],
      [
        "आया",
        "त"
      ],
      [
        "आया",
        "तक"
      ],
      [
        "इस्",
        "तेमाल"
      ],
      [
        "उन्",
        "होंने"
      ],
      [
        "जै",
        "सी"
      ],
      [
        "दू",
        "सरे"
      ],
      [
        "बै",
        "ंक"
      ],
      [
        "शक्ति",
        "यों"
      ],
      [
        "हन",
        "न"
      ],
      [
        "१९६",
        "२"
      ],
      [
        "उत्पाद",
        "न"
      ],
      [
        "अमरी",
        "का"
      ],
      [
        "पंजा",
        "बी"
      ],
      [
        "असम",
        "िया"
      ],
      [
        "अधि",
        "राज्य"
      ],
      [
        "अधि",
        "कांश"
      ],
      [
        "एन",
        "एस"
      ],
      [
        "कर्म",
        "ियों"
      ],
      [
        "घा",
        "ट"
      ],
      [
        "तट",
        "ों"
      ],
      [
        "निय",
        "ु"
      ],
      [
        "निय",
        "ंत्र"
      ],
      [
        "फि",
        "र"
      ],
      [
        "फि",
        "ल्म"
      ],
      [
        "प्रशासन",
        "िक"
      ],
      [
        "प्रत्य",
        "क्ष"
      ],
      [
        "प्रचल",
        "न"
      ],
      [
        "तीसर",
        "े"
      ],
      [
        "पुर",
        "ाने"
      ],
      [
        "पुर",
        "ाना"
      ],
      [
        "हिस्",
        "सों"
      ],
      [
        "आधार",
        "ित"
      ],
      [
        "गुजरा",
        "ती"
      ],
      [
        "अल्",
        "पाइन"
      ],
      [
        "आप",
        "के"
      ],
      [
        "आस",
        "पास"
      ],
      [
        "एव",
        "म"
      ],
      [
        "क्यों",
        "कि"
      ],
      [
        "चला",
        "या"
      ],
      [
        "ढा",
        "ँचा"
      ],
      [
        "नव",
        "गठित"
      ],
      [
        "फा",
        "यदा"
      ],
      [
        "मल",
        "यालम"
      ],
      [
        "मह",
        "त्वपूर्ण"
      ],
      [
        "रख",
        "ने"
      ],
      [
        "लै",
        "ंड"
      ],
      [
        "लौ",
        "टना"
      ],
      [
        "लड़ा",
        "कू"
      ],
      [
        "शहर",
        "ों"
      ],
      [
        "शहरी",
        "करण"
      ],
      [
        "ोत्",
        "तर"
      ],
      [
        "प्रसार",
        "ण"
      ],
      [
        "संग",
        "म"
      ],
      [
        "संग",
        "्राम"
      ],
      [
        "राजा",
        "ओं"
      ],
      [
        "199",
        "9"
      ],
      [
        "टेलीवि",
        "जन"
      ],
      [
        "टेलीवि",
        "ज़न"
      ],
      [
        "नागरिक",
        "ों"
      ],
      [
        "अर्",
        "ध"
      ],
      [
        "अनि",
        "वार्य"
      ],
      [
        "उठ",
        "ाया"
      ],
      [
        "कंप",
        "नियों"
      ],
      [
        "चर",
        "म"
      ],
      [
        "जन्",
        "म"
      ],
      [
        "झार",
        "खंड"
      ],
      [
        "डि",
        "ग्री"
      ],
      [
        "तरा",
        "ई"
      ],
      [
        "नर",
        "ेंद्र"
      ],
      [
        "पो",
        "र्"
      ],
      [
        "बद",
        "ला"
      ],
      [
        "बह",
        "ती"
      ],
      [
        "बन्",
        "ध"
      ],
      [
        "मं",
        "चों"
      ],
      [
        "मना",
        "ए"
      ],
      [
        "मही",
        "ने"
      ],
      [
        "सिन्",
        "धु"
      ],
      [
        "नेपा",
        "ल"
      ],
      [
        "विध",
        "ायि"
      ],
      [
        "सामान",
        "्य"
      ],
      [
        "करे",
        "गी"
      ],
      [
        "करो",
        "ड"
      ],
      [
        "वाम",
        "पंथी"
      ],
      [
        "निम्",
        "न"
      ],
      [
        "मिश्र",
        "ित"
      ],
      [
        "मुद्र",
        "ा"
      ],
      [
        "क्रय",
        "शक्ति"
      ],
      [
        "क्रि",
        "केट"
      ],
      [
        "मध्यम",
        "वर्ग"
      ],
      [
        "मोर्",
        "चा"
      ],
      [
        "शुरु",
        "आत"
      ],
      [
        "अन्तर्",
        "गत"
      ],
      [
        "पैमान",
        "े"
      ],
      [
        "मार्",
        "च"
      ],
      [
        "अभिया",
        "नों"
      ],
      [
        "समझौ",
        "ते"
      ],
      [
        "Ind",
        "ia"
      ],
      [
        "अहिं",
        "सावादी"
      ],
      [
        "सौहार्द",
        "पूर्ण"
      ],
      [
        "er",
        "s"
      ],
      [
        "अथ",
        "वा"
      ],
      [
        "अक्ष",
        "ुण्"
      ],
      [
        "अग्र",
        "णी"
      ],
      [
        "आठ",
        "वीं"
      ],
      [
        "आव",
        "श्य"
      ],
      [
        "आपूर्",
        "तिकर्ता"
      ],
      [
        "आकर्",
        "षित"
      ],
      [
        "आदर्",
        "श"
      ],
      [
        "आक्रम",
        "ण"
      ],
      [
        "इण्ड",
        "िया"
      ],
      [
        "इत्या",
        "दि"
      ],
      [
        "इजरा",
        "यल"
      ],
      [
        "उद",
        "य"
      ],
      [
        "उड़ी",
        "सा"
      ],
      [
        "ऊर्",
        "जा"
      ],
      [
        "एसो",
        "सिएशन"
      ],
      [
        "कंक",
        "ड"
      ],
      [
        "खान",
        "पान"
      ],
      [
        "ग़",
        "रीबी"
      ],
      [
        "घनि",
        "ष्ठ"
      ],
      [
        "घरे",
        "लू"
      ],
      [
        "छू",
        "ट"
      ],
      [
        "जवा",
        "हरलाल"
      ],
      [
        "जंग",
        "लों"
      ],
      [
        "तत्",
        "कालीन"
      ],
      [
        "नर्म",
        "दा"
      ],
      [
        "नवी",
        "न"
      ],
      [
        "पसन्",
        "द"
      ],
      [
        "मरा",
        "ठी"
      ],
      [
        "महि",
        "ला"
      ],
      [
        "मजब",
        "ूत"
      ],
      [
        "मशी",
        "न"
      ],
      [
        "महार",
        "ाष्ट्र"
      ],
      [
        "यहा",
        "ं"
      ],
      [
        "रसा",
        "यन"
      ],
      [
        "वस्त",
        "ु"
      ],
      [
        "शिक",
        "ार"
      ],
      [
        "शब्",
        "द"
      ],
      [
        "स्र",
        "ोत"
      ],
      [
        "सक्ष",
        "म"
      ],
      [
        "हस्त",
        "क्षेप"
      ],
      [
        "हवे",
        "ली"
      ],
      [
        "हस्ता",
        "क्षर"
      ],
      [
        "ार्कटि",
        "का"
      ],
      [
        "सेल्",
        "सियस"
      ],
      [
        "प्रसि",
        "द्ध"
      ],
      [
        "विभा",
        "जन"
      ],
      [
        "विंध",
        "्याचल"
      ],
      [
        "विभाज",
        "ित"
      ],
      [
        "विजय",
        "नगर"
      ],
      [
        "साझे",
        "दारी"
      ],
      [
        "संक्ष",
        "िप्त"
      ],
      [
        "संचा",
        "लित"
      ],
      [
        "संगठ",
        "न"
      ],
      [
        "संबो",
        "धित"
      ],
      [
        "कोपे",
        "न"
      ],
      [
        "सम्रा",
        "ट"
      ],
      [
        "्टवे",
        "यर"
      ],
      [
        "वर्गी",
        "करण"
      ],
      [
        "तेलु",
        "गू"
      ],
      [
        "किनार",
        "े"
      ],
      [
        "रूपरे",
        "खा"
      ],
      [
        "मुम्",
        "बई"
      ],
      [
        "जीडी",
        "पी"
      ],
      [
        "बहुपक्ष",
        "ीय"
      ],
      [
        "स्वतन्",
        "त्रता"
      ],
      [
        "पारंपर",
        "िक"
      ],
      [
        "वार्ष",
        "िक"
      ],
      [
        "उपग्र",
        "ह"
      ],
      [
        "चालु",
        "क्यों"
      ],
      [
        "यूपी",
        "ए"
      ],
      [
        "फ़ेडे",
        "रल"
      ],
      [
        "इंडोने",
        "शिया"
      ],
      [
        "ब्रह्म",
        "पुत्र"
      ],
      [
        "पर्वतश्रे",
        "णी"
      ],
      [
        "एनएस",
        "जी"
      ],
      [
        "विधायि",
        "का"
      ],
      [
        "अक्षुण्",
        "ण"
      ],
      [
        "आवश्य",
        "क"
      ],
      [
        ")",
        "."
      ],
      [
        ")",
        "|"
      ],
      [
        ")",
        "।"
      ],
      [
        "0",
        "2"
      ],
      [
        "0",
        "3"
      ],
      [
        "0",
        "4"
      ],
      [
        "1",
        "0"
      ],
      [
        "1",
        "1"
      ],
      [
        "1",
        "4"
      ],
      [
        "1",
        "7"
      ],
      [
        "1",
        "00"
      ],
      [
        "1",
        "21"
      ],
      [
        "1",
        "40"
      ],
      [
        "1",
        "80"
      ],
      [
        "2",
        "3"
      ],
      [
        "2",
        "8"
      ],
      [
        "2",
        "200"
      ],
      [
        "2",
        "15"
      ],
      [
        "3",
        "7"
      ],
      [
        "3",
        "000"
      ],
      [
        "3",
        "50"
      ],
      [
        "4",
        "6"
      ],
      [
        "4",
        "9"
      ],
      [
        "4",
        "15"
      ],
      [
        "4",
        "26"
      ],
      [
        "6",
        "72"
      ],
      [
        "7",
        "4"
      ],
      [
        "7",
        "5"
      ],
      [
        "7",
        "8"
      ],
      [
        "9",
        "2"
      ],
      [
        "9",
        "3"
      ],
      [
        "9",
        "000"
      ],
      [
        ":",
        "-"
      ],
      [
        "A",
        "m"
      ],
      [
        "A",
        "r"
      ],
      [
        "A",
        "w"
      ],
      [
        "B",
        "S"
      ],
      [
        "B",
        "W"
      ],
      [
        "C",
        "w"
      ],
      [
        "E",
        "T"
      ],
      [
        "I",
        "R"
      ],
      [
        "M",
        "onsoon"
      ],
      [
        "P",
        "I"
      ],
      [
        "P",
        "l"
      ],
      [
        "P",
        "o"
      ],
      [
        "P",
        "r"
      ],
      [
        "R",
        "a"
      ],
      [
        "R",
        "e"
      ],
      [
        "S",
        "um"
      ],
      [
        "S",
        "IR"
      ],
      [
        "W",
        "in"
      ],
      [
        "a",
        "l"
      ],
      [
        "b",
        "l"
      ],
      [
        "c",
        "h"
      ],
      [
        "e",
        "d"
      ],
      [
        "h",
        "e"
      ],
      [
        "i",
        "c"
      ],
      [
        "i",
        "v"
      ],
      [
        "m",
        "ers"
      ],
      [
        "o",
        "f"
      ],
      [
        "o",
        "t"
      ],
      [
        "p",
        "u"
      ],
      [
        "r",
        "al"
      ],
      [
        "t",
        "um"
      ],
      [
        "t",
        "ers"
      ],
      [
        "t",
        "he"
      ],
      [
        "ँ",
        "स"
      ],
      [
        "ँ",
        "ची"
      ],
      [
        "ँ",
        "गर"
      ],
      [
        "ँ",
        "टा"
      ],
      [
        "ं",
        "ख"
      ],
      [
        "ं",
        "ज"
      ],
      [
        "ं",
        "थ"
      ],
      [
        "ं",
        "ता"
      ],
      [
        "ं",
        "हा"
      ],
      [
        "ं",
        "ती"
      ],
      [
        "ं",
        "कि"
      ],
      [
        "ं",
        "ची"
      ],
      [
        "ं",
        "जी"
      ],
      [
        "ं",
        "तिक"
      ],
      [
        "ं",
        "टे"
      ],
      [
        "ं",
        "बर"
      ],
      [
        "ं",
        "दर"
      ],
      [
        "ं",
        "बो"
      ],
      [
        "ं",
        "चे"
      ],
      [
        "ं",
        "मार"
      ],
      [
        "ं",
        "रिक"
      ],
      [
        "ं",
        "साह"
      ],
      [
        "अ",
        "ज"
      ],
      [
        "अ",
        "श"
      ],
      [
        "अ",
        "स"
      ],
      [
        "अ",
        "प्र"
      ],
      [
        "अ",
        "वि"
      ],
      [
        "अ",
        "राज"
      ],
      [
        "अ",
        "ंग"
      ],
      [
        "अ",
        "मी"
      ],
      [
        "अ",
        "दा"
      ],
      [
        "अ",
        "रु"
      ],
      [
        "अ",
        "त्या"
      ],
      [
        "अ",
        "ंक"
      ],
      [
        "अ",
        "सफल"
      ],
      [
        "अ",
        "स्थि"
      ],
      [
        "अ",
        "ंट"
      ],
      [
        "अ",
        "टल"
      ],
      [
        "अ",
        "प्रसार"
      ],
      [
        "अ",
        "स्ति"
      ],
      [
        "अ",
        "ंब"
      ],
      [
        "अ",
        "हम"
      ],
      [
        "अ",
        "द्वि"
      ],
      [
        "अ",
        "प्रत्यक्ष"
      ],
      [
        "अ",
        "ंदर"
      ],
      [
        "आ",
        "न"
      ],
      [
        "आ",
        "र्"
      ],
      [
        "आ",
        "ता"
      ],
      [
        "आ",
        "जा"
      ],
      [
        "आ",
        "कार"
      ],
      [
        "आ",
        "पा"
      ],
      [
        "आ",
        "ती"
      ],
      [
        "आ",
        "यु"
      ],
      [
        "आ",
        "भू"
      ],
      [
        "आ",
        "मत"
      ],
      [
        "आ",
        "दर"
      ],
      [
        "आ",
        "स्ट"
      ],
      [
        "आ",
        "वास"
      ],
      [
        "आ",
        "पात"
      ],
      [
        "आ",
        "जीविका"
      ],
      [
        "आ",
        "मंत्रण"
      ],
      [
        "इ",
        "ओ"
      ],
      [
        "इ",
        "र"
      ],
      [
        "इ",
        "़"
      ],
      [
        "इ",
        "या"
      ],
      [
        "इ",
        "जा"
      ],
      [
        "इ",
        "ला"
      ],
      [
        "इ",
        "टे"
      ],
      [
        "इ",
        "च्छ"
      ],
      [
        "ई",
        "र"
      ],
      [
        "ई",
        "स्"
      ],
      [
        "ई",
        "सवी"
      ],
      [
        "उ",
        "र्"
      ],
      [
        "उ",
        "द्"
      ],
      [
        "उ",
        "तर"
      ],
      [
        "उ",
        "र्व"
      ],
      [
        "उ",
        "सी"
      ],
      [
        "उ",
        "द्ध"
      ],
      [
        "उ",
        "ल्"
      ],
      [
        "उ",
        "दा"
      ],
      [
        "उ",
        "धार"
      ],
      [
        "उ",
        "दार"
      ],
      [
        "उ",
        "ंट"
      ],
      [
        "उ",
        "चित"
      ],
      [
        "उ",
        "थल"
      ],
      [
        "उ",
        "म्र"
      ],
      [
        "उ",
        "न्नति"
      ],
      [
        "ऊ",
        "परी"
      ],
      [
        "ऊ",
        "ंची"
      ],
      [
        "ऋ",
        "ग"
      ],
      [
        "ऋ",
        "ष"
      ],
      [
        "ए",
        "ज"
      ],
      [
        "ए",
        "ल"
      ],
      [
        "ए",
        "का"
      ],
      [
        "ए",
        "वि"
      ],
      [
        "ए",
        "ंड"
      ],
      [
        "ए",
        "क्स"
      ],
      [
        "ऐ",
        "ं"
      ],
      [
        "ऐ",
        "तिहास"
      ],
      [
        "ऑ",
        "फ़"
      ],
      [
        "ऑ",
        "परे"
      ],
      [
        "ओ",
        "ण"
      ],
      [
        "ओ",
        "स"
      ],
      [
        "ओ",
        "रि"
      ],
      [
        "ओ",
        "डि"
      ],
      [
        "ओ",
        "डिया"
      ],
      [
        "ओ",
        "ड़िया"
      ],
      [
        "औ",
        "प"
      ],
      [
        "औ",
        "द्योग"
      ],
      [
        "क",
        "ट"
      ],
      [
        "क",
        "थ"
      ],
      [
        "क",
        "ै"
      ],
      [
        "क",
        "ने"
      ],
      [
        "क",
        "ता"
      ],
      [
        "क",
        "ना"
      ],
      [
        "क",
        "था"
      ],
      [
        "क",
        "मा"
      ],
      [
        "क",
        "हा"
      ],
      [
        "क",
        "िय"
      ],
      [
        "क",
        "बी"
      ],
      [
        "क",
        "म्"
      ],
      [
        "क",
        "च्"
      ],
      [
        "क",
        "मो"
      ],
      [
        "क",
        "ड़ी"
      ],
      [
        "क",
        "णी"
      ],
      [
        "क",
        "ड़ियाँ"
      ],
      [
        "क",
        "ंबो"
      ],
      [
        "ख",
        "ि"
      ],
      [
        "ख",
        "ी"
      ],
      [
        "ख",
        "ू"
      ],
      [
        "ख",
        "्य"
      ],
      [
        "ख",
        "र्"
      ],
      [
        "ख",
        "ाना"
      ],
      [
        "ख",
        "ोल"
      ],
      [
        "ख",
        "देव"
      ],
      [
        "ख",
        "गोल"
      ],
      [
        "ग",
        "ल"
      ],
      [
        "ग",
        "ि"
      ],
      [
        "ग",
        "ॉ"
      ],
      [
        "ग",
        "ौ"
      ],
      [
        "ग",
        "ित"
      ],
      [
        "ग",
        "री"
      ],
      [
        "ग",
        "र्म"
      ],
      [
        "ग",
        "लु"
      ],
      [
        "ग",
        "ौर"
      ],
      [
        "ग",
        "हों"
      ],
      [
        "ग",
        "ंगो"
      ],
      [
        "घ",
        "ि"
      ],
      [
        "घ",
        "ू"
      ],
      [
        "घ",
        "ोड़"
      ],
      [
        "घ",
        "टन"
      ],
      [
        "घ",
        "कालिक"
      ],
      [
        "च",
        "ट"
      ],
      [
        "च",
        "म"
      ],
      [
        "च",
        "ू"
      ],
      [
        "च",
        "ें"
      ],
      [
        "च",
        "ले"
      ],
      [
        "च",
        "ंड"
      ],
      [
        "च",
        "ंद्र"
      ],
      [
        "च",
        "ैन"
      ],
      [
        "च",
        "न्द्र"
      ],
      [
        "च",
        "ोल"
      ],
      [
        "च",
        "यन"
      ],
      [
        "च",
        "ंद"
      ],
      [
        "छ",
        "ट"
      ],
      [
        "छ",
        "ठ"
      ],
      [
        "छ",
        "ा"
      ],
      [
        "छ",
        "े"
      ],
      [
        "छ",
        "त्"
      ],
      [
        "छ",
        "ले"
      ],
      [
        "ज",
        "र"
      ],
      [
        "ज",
        "ार"
      ],
      [
        "ज",
        "ड़"
      ],
      [
        "ज",
        "ित"
      ],
      [
        "ज",
        "र्व"
      ],
      [
        "ज",
        "टि"
      ],
      [
        "ज",
        "मह"
      ],
      [
        "ज",
        "ंब"
      ],
      [
        "ज",
        "पुरी"
      ],
      [
        "ज",
        "गहों"
      ],
      [
        "झ",
        "ु"
      ],
      [
        "ट",
        "र"
      ],
      [
        "ट",
        "्र"
      ],
      [
        "ट",
        "ें"
      ],
      [
        "ट",
        "्य"
      ],
      [
        "ट",
        "का"
      ],
      [
        "ट",
        "ान"
      ],
      [
        "ट",
        "ित"
      ],
      [
        "ट",
        "ते"
      ],
      [
        "ट",
        "ियाँ"
      ],
      [
        "ट",
        "कों"
      ],
      [
        "ट",
        "ार्कटिका"
      ],
      [
        "ठ",
        "ित"
      ],
      [
        "ठ",
        "ंड"
      ],
      [
        "ठ",
        "हर"
      ],
      [
        "ड",
        "च"
      ],
      [
        "ड",
        "म"
      ],
      [
        "ड",
        "कर"
      ],
      [
        "ड",
        "ोग"
      ],
      [
        "ड",
        "िक्"
      ],
      [
        "ड",
        "ियाँ"
      ],
      [
        "ड",
        "मक"
      ],
      [
        "ड",
        "ियो"
      ],
      [
        "ड",
        "सॉ"
      ],
      [
        "ढ",
        "ि"
      ],
      [
        "ढ",
        "ती"
      ],
      [
        "ढ",
        "लु"
      ],
      [
        "ण",
        "ियों"
      ],
      [
        "त",
        "कर"
      ],
      [
        "त",
        "गा"
      ],
      [
        "त",
        "ारी"
      ],
      [
        "त",
        "ोष"
      ],
      [
        "त",
        "ियाँ"
      ],
      [
        "त",
        "ौर"
      ],
      [
        "त",
        "दु"
      ],
      [
        "त",
        "ियां"
      ],
      [
        "त",
        "ान्"
      ],
      [
        "त",
        "वाँ"
      ],
      [
        "थ",
        "र"
      ],
      [
        "थ",
        "्या"
      ],
      [
        "द",
        "द"
      ],
      [
        "द",
        "स"
      ],
      [
        "द",
        "ें"
      ],
      [
        "द",
        "क्"
      ],
      [
        "द",
        "ड़"
      ],
      [
        "द",
        "स्त"
      ],
      [
        "द",
        "िये"
      ],
      [
        "द",
        "ंगा"
      ],
      [
        "ध",
        "े"
      ],
      [
        "ध",
        "ो"
      ],
      [
        "ध",
        "्र"
      ],
      [
        "ध",
        "र्"
      ],
      [
        "ध",
        "क्"
      ],
      [
        "ध",
        "म्"
      ],
      [
        "ध",
        "ारी"
      ],
      [
        "ध",
        "रो"
      ],
      [
        "ध",
        "्द"
      ],
      [
        "ध",
        "्यात"
      ],
      [
        "न",
        "ए"
      ],
      [
        "न",
        "ू"
      ],
      [
        "न",
        "ो"
      ],
      [
        "न",
        "नी"
      ],
      [
        "न",
        "रे"
      ],
      [
        "न",
        "वं"
      ],
      [
        "न",
        "ाने"
      ],
      [
        "न",
        "मू"
      ],
      [
        "न",
        "कल"
      ],
      [
        "न",
        "डु"
      ],
      [
        "न",
        "ानी"
      ],
      [
        "प",
        "क"
      ],
      [
        "प",
        "ॉ"
      ],
      [
        "प",
        "ें"
      ],
      [
        "प",
        "्य"
      ],
      [
        "प",
        "ों"
      ],
      [
        "प",
        "त्र"
      ],
      [
        "प",
        "राज"
      ],
      [
        "प",
        "िय"
      ],
      [
        "प",
        "्ट"
      ],
      [
        "प",
        "ष्ट"
      ],
      [
        "प",
        "नी"
      ],
      [
        "प",
        "ल्"
      ],
      [
        "प",
        "दा"
      ],
      [
        "प",
        "ाने"
      ],
      [
        "प",
        "मत"
      ],
      [
        "प",
        "डी"
      ],
      [
        "प",
        "णी"
      ],
      [
        "प",
        "डा"
      ],
      [
        "प",
        "तन"
      ],
      [
        "प",
        "कालिक"
      ],
      [
        "प",
        "ोषण"
      ],
      [
        "प",
        "थ्या"
      ],
      [
        "प",
        "नडु"
      ],
      [
        "फ",
        "ू"
      ],
      [
        "फ",
        "ले"
      ],
      [
        "ब",
        "त"
      ],
      [
        "ब",
        "म"
      ],
      [
        "ब",
        "ु"
      ],
      [
        "ब",
        "ें"
      ],
      [
        "ब",
        "ंग"
      ],
      [
        "ब",
        "्रे"
      ],
      [
        "ब",
        "ल्"
      ],
      [
        "ब",
        "लों"
      ],
      [
        "ब",
        "ंट"
      ],
      [
        "ब",
        "ूत"
      ],
      [
        "ब",
        "स्ति"
      ],
      [
        "ब",
        "ँटा"
      ],
      [
        "ब",
        "ढती"
      ],
      [
        "भ",
        "ौ"
      ],
      [
        "भ",
        "्र"
      ],
      [
        "भ",
        "जन"
      ],
      [
        "भ",
        "ंड"
      ],
      [
        "भ",
        "गत"
      ],
      [
        "भ",
        "देव"
      ],
      [
        "म",
        "ई"
      ],
      [
        "म",
        "ठ"
      ],
      [
        "म",
        "र"
      ],
      [
        "म",
        "िक"
      ],
      [
        "म",
        "न्"
      ],
      [
        "म",
        "ित"
      ],
      [
        "म",
        "्या"
      ],
      [
        "म",
        "द्"
      ],
      [
        "म",
        "िन्"
      ],
      [
        "म",
        "हिन्"
      ],
      [
        "म",
        "सि"
      ],
      [
        "म",
        "ज़"
      ],
      [
        "म",
        "ोड़"
      ],
      [
        "म",
        "रु"
      ],
      [
        "म",
        "बे"
      ],
      [
        "म",
        "लों"
      ],
      [
        "म",
        "ृत्य"
      ],
      [
        "म",
        "न्तु"
      ],
      [
        "म",
        "णि"
      ],
      [
        "म",
        "ंगो"
      ],
      [
        "म",
        "इर"
      ],
      [
        "म",
        "दद"
      ],
      [
        "य",
        "ं"
      ],
      [
        "य",
        "व"
      ],
      [
        "य",
        "ो"
      ],
      [
        "य",
        "र्"
      ],
      [
        "य",
        "ता"
      ],
      [
        "य",
        "ीय"
      ],
      [
        "य",
        "क्ष"
      ],
      [
        "य",
        "मु"
      ],
      [
        "य",
        "दि"
      ],
      [
        "य",
        "त्न"
      ],
      [
        "र",
        "क"
      ],
      [
        "र",
        "त"
      ],
      [
        "र",
        "द"
      ],
      [
        "र",
        "स"
      ],
      [
        "र",
        "ार"
      ],
      [
        "र",
        "िया"
      ],
      [
        "र",
        "िय"
      ],
      [
        "र",
        "हीं"
      ],
      [
        "र",
        "चा"
      ],
      [
        "र",
        "िक्"
      ],
      [
        "र",
        "वरी"
      ],
      [
        "र",
        "बदल"
      ],
      [
        "र",
        "फे"
      ],
      [
        "ल",
        "ब"
      ],
      [
        "ल",
        "का"
      ],
      [
        "ल",
        "ीय"
      ],
      [
        "ल",
        "क्ष"
      ],
      [
        "ल",
        "िय"
      ],
      [
        "ल",
        "ते"
      ],
      [
        "ल",
        "मान"
      ],
      [
        "ल",
        "ाने"
      ],
      [
        "ल",
        "नों"
      ],
      [
        "ल",
        "िक्"
      ],
      [
        "ल",
        "झे"
      ],
      [
        "ल",
        "घु"
      ],
      [
        "ल",
        "ॉक"
      ],
      [
        "ल",
        "म्बे"
      ],
      [
        "व",
        "त"
      ],
      [
        "व",
        "ह"
      ],
      [
        "व",
        "ृ"
      ],
      [
        "व",
        "सा"
      ],
      [
        "व",
        "ीय"
      ],
      [
        "व",
        "ली"
      ],
      [
        "व",
        "नी"
      ],
      [
        "व",
        "मी"
      ],
      [
        "व",
        "रि"
      ],
      [
        "व",
        "टी"
      ],
      [
        "व",
        "ाना"
      ],
      [
        "व",
        "स्त्र"
      ],
      [
        "व",
        "शाली"
      ],
      [
        "व",
        "पब्"
      ],
      [
        "व",
        "रों"
      ],
      [
        "व",
        "्‍"
      ],
      [
        "श",
        "ः"
      ],
      [
        "श",
        "क"
      ],
      [
        "श",
        "ृ"
      ],
      [
        "श",
        "त्र"
      ],
      [
        "श",
        "तर"
      ],
      [
        "श",
        "स्त"
      ],
      [
        "श",
        "मिल"
      ],
      [
        "श",
        "कारी"
      ],
      [
        "श",
        "ियस"
      ],
      [
        "श",
        "ोषण"
      ],
      [
        "श",
        "रद"
      ],
      [
        "ष",
        "्य"
      ],
      [
        "ष",
        "द्"
      ],
      [
        "स",
        "ृ"
      ],
      [
        "स",
        "के"
      ],
      [
        "स",
        "जा"
      ],
      [
        "स",
        "त्"
      ],
      [
        "स",
        "प्"
      ],
      [
        "स",
        "हि"
      ],
      [
        "स",
        "वीं"
      ],
      [
        "स",
        "शक्त"
      ],
      [
        "स",
        "न्नति"
      ],
      [
        "स",
        "लमान"
      ],
      [
        "ह",
        "ू"
      ],
      [
        "ह",
        "ड़"
      ],
      [
        "ह",
        "द्"
      ],
      [
        "ह",
        "मान"
      ],
      [
        "ह",
        "टी"
      ],
      [
        "ह",
        "र्ष"
      ],
      [
        "ा",
        "त"
      ],
      [
        "ा",
        "कर"
      ],
      [
        "ा",
        "ज़"
      ],
      [
        "ा",
        "लय"
      ],
      [
        "ा",
        "चार"
      ],
      [
        "ा",
        "एं"
      ],
      [
        "ा",
        "ंतर"
      ],
      [
        "ा",
        "वली"
      ],
      [
        "ि",
        "न"
      ],
      [
        "ि",
        "वार"
      ],
      [
        "ि",
        "रु"
      ],
      [
        "ि",
        "स्तान"
      ],
      [
        "ि",
        "चे"
      ],
      [
        "ि",
        "पत्य"
      ],
      [
        "ी",
        "व"
      ],
      [
        "ी",
        "बन"
      ],
      [
        "ी",
        "प्ले"
      ],
      [
        "ी",
        "गढ़"
      ],
      [
        "ी",
        "लीय"
      ],
      [
        "ु",
        "क"
      ],
      [
        "ु",
        "प"
      ],
      [
        "ु",
        "ता"
      ],
      [
        "ु",
        "त्"
      ],
      [
        "ु",
        "नि"
      ],
      [
        "ु",
        "रि"
      ],
      [
        "ु",
        "वीय"
      ],
      [
        "ू",
        "क्"
      ],
      [
        "ू",
        "द्वीप"
      ],
      [
        "े",
        "प"
      ],
      [
        "े",
        "ब"
      ],
      [
        "े",
        "स"
      ],
      [
        "े",
        "दार"
      ],
      [
        "ै",
        "ल"
      ],
      [
        "ो",
        "ँ"
      ],
      [
        "ो",
        "क"
      ],
      [
        "ो",
        "ण"
      ],
      [
        "ो",
        "ष्ण"
      ],
      [
        "ो",
        "तरी"
      ],
      [
        "ो",
        "खी"
      ],
      [
        "ौ",
        "ज"
      ],
      [
        "ौ",
        "लत"
      ],
      [
        "्",
        "प्र"
      ],
      [
        "्",
        "थी"
      ],
      [
        "्",
        "वे"
      ],
      [
        "्",
        "वाधिक"
      ],
      [
        "्",
        "ननी"
      ],
      [
        "०",
        "४"
      ],
      [
        "०",
        "६"
      ],
      [
        "०",
        "८"
      ],
      [
        "०",
        "२८"
      ],
      [
        "१",
        "२००"
      ],
      [
        "१",
        "२०"
      ],
      [
        "१",
        "२५"
      ],
      [
        "३",
        "०"
      ],
      [
        "३",
        "३"
      ],
      [
        "३",
        "९"
      ],
      [
        "४",
        "४"
      ],
      [
        "४",
        "५"
      ],
      [
        "४",
        "६"
      ],
      [
        "४",
        "००"
      ],
      [
        "५",
        "१"
      ],
      [
        "५",
        "००"
      ],
      [
        "५",
        "४३"
      ],
      [
        "५",
        "४५"
      ],
      [
        "६",
        "२"
      ],
      [
        "६",
        "५"
      ],
      [
        "६",
        "९"
      ],
      [
        "६",
        "००"
      ],
      [
        "६",
        "४७"
      ],
      [
        "६",
        "०६"
      ],
      [
        "७",
        "०"
      ],
      [
        "७",
        "२"
      ],
      [
        "७",
        "४"
      ],
      [
        "७",
        "७"
      ],
      [
        "७",
        "८"
      ],
      [
        "८",
        "०"
      ],
      [
        "८",
        "२"
      ],
      [
        "८",
        "४"
      ],
      [
        "८",
        "९"
      ],
      [
        "९",
        "६"
      ],
      [
        "९",
        "४०"
      ],
      [
        "‍",
        "बर"
      ],
      [
        "‍",
        "तरी"
      ],
      [
        "‍",
        "पकालिक"
      ],
      [
        "’",
        ","
      ],
      [
        "्र",
        "म"
      ],
      [
        "के",
        "बि"
      ],
      [
        "के",
        "बल"
      ],
      [
        "के",
        "रल"
      ],
      [
        "ें",
        "सी"
      ],
      [
        "में",
        "‌"
      ],
      [
        "्य",
        "जी"
      ],
      [
        "्य",
        "वादी"
      ],
      [
        "का",
        "या"
      ],
      [
        "का",
        "ली"
      ],
      [
        "का",
        "लो"
      ],
      [
        "का",
        "व्य"
      ],
      [
        "का",
        "ंग्रेस"
      ],
      [
        "का",
        "फ़"
      ],
      [
        "का",
        "हारी"
      ],
      [
        "का",
        "नू"
      ],
      [
        "र्",
        "टि"
      ],
      [
        "र्",
        "फ़"
      ],
      [
        "र्",
        "घकालिक"
      ],
      [
        "र्",
        "तगा"
      ],
      [
        "या",
        "धिकार"
      ],
      [
        "या",
        "यि"
      ],
      [
        "या",
        "वसा"
      ],
      [
        "की",
        "य"
      ],
      [
        "स्",
        "म"
      ],
      [
        "स्",
        "वर्ण"
      ],
      [
        "स्",
        "क्री"
      ],
      [
        "स्",
        "पष्ट"
      ],
      [
        "से",
        "मि"
      ],
      [
        "से",
        "पिय"
      ],
      [
        "ान",
        "ो"
      ],
      [
        "ान",
        "ता"
      ],
      [
        "ान",
        "गर"
      ],
      [
        "ान",
        "चंद"
      ],
      [
        "प्र",
        "ग"
      ],
      [
        "प्र",
        "था"
      ],
      [
        "प्र",
        "पा"
      ],
      [
        "प्र",
        "श्"
      ],
      [
        "प्र",
        "योग"
      ],
      [
        "प्र",
        "भाग"
      ],
      [
        "प्र",
        "बंधन"
      ],
      [
        "प्र",
        "त्या"
      ],
      [
        "प्र",
        "दू"
      ],
      [
        "प्र",
        "वास"
      ],
      [
        "प्र",
        "वेश"
      ],
      [
        "प्र",
        "स्ता"
      ],
      [
        "प्र",
        "दर्शन"
      ],
      [
        "प्र",
        "कट"
      ],
      [
        "प्र",
        "शस्त"
      ],
      [
        "प्र",
        "ेस"
      ],
      [
        "रा",
        "ई"
      ],
      [
        "रा",
        "ण"
      ],
      [
        "रा",
        "त"
      ],
      [
        "रा",
        "व"
      ],
      [
        "रा",
        "ष्ट"
      ],
      [
        "रा",
        "मन"
      ],
      [
        "रा",
        "त्रि"
      ],
      [
        "िक",
        "ता"
      ],
      [
        "िक",
        "ोण"
      ],
      [
        "क्",
        "न"
      ],
      [
        "क्",
        "ता"
      ],
      [
        "क्",
        "शन"
      ],
      [
        "वि",
        "ना"
      ],
      [
        "वि",
        "दे"
      ],
      [
        "वि",
        "ड़"
      ],
      [
        "वि",
        "द्"
      ],
      [
        "वि",
        "लय"
      ],
      [
        "वि",
        "देशों"
      ],
      [
        "वि",
        "रु"
      ],
      [
        "वि",
        "द्य"
      ],
      [
        "वि",
        "चार"
      ],
      [
        "वि",
        "शि"
      ],
      [
        "वि",
        "लु"
      ],
      [
        "वि",
        "सर्"
      ],
      [
        "वि",
        "विध"
      ],
      [
        "वि",
        "घटन"
      ],
      [
        "ता",
        "कि"
      ],
      [
        "ता",
        "ओं"
      ],
      [
        "ता",
        "यें"
      ],
      [
        "ता",
        "म्र"
      ],
      [
        "ता",
        "जमह"
      ],
      [
        "ना",
        "थ"
      ],
      [
        "ना",
        "स्त"
      ],
      [
        "ना",
        "त्मक"
      ],
      [
        "ना",
        "इटे"
      ],
      [
        "ना",
        "गरी"
      ],
      [
        "ना",
        "ट्य"
      ],
      [
        "सा",
        "ई"
      ],
      [
        "सा",
        "धन"
      ],
      [
        "सा",
        "मुद्र"
      ],
      [
        "सा",
        "तवाँ"
      ],
      [
        "था",
        "ली"
      ],
      [
        "न्",
        "तर"
      ],
      [
        "िया",
        "न"
      ],
      [
        "िया",
        "णा"
      ],
      [
        "सं",
        "योग"
      ],
      [
        "सं",
        "धि"
      ],
      [
        "सं",
        "स्थाप"
      ],
      [
        "सं",
        "चार"
      ],
      [
        "सं",
        "रक्ष"
      ],
      [
        "सं",
        "कीर्"
      ],
      [
        "सं",
        "स्थानों"
      ],
      [
        "सं",
        "थाली"
      ],
      [
        "पर",
        "ान्"
      ],
      [
        "पर",
        "ियो"
      ],
      [
        "कर",
        "के"
      ],
      [
        "कर",
        "वा"
      ],
      [
        "ति",
        "म"
      ],
      [
        "ति",
        "मान"
      ],
      [
        "ति",
        "ब्"
      ],
      [
        "ति",
        "थि"
      ],
      [
        "भा",
        "ली"
      ],
      [
        "भा",
        "ंग"
      ],
      [
        "भा",
        "ती"
      ],
      [
        "भा",
        "वन"
      ],
      [
        "त्र",
        "िक"
      ],
      [
        "को",
        "शि"
      ],
      [
        "को",
        "रिया"
      ],
      [
        "को",
        "लका"
      ],
      [
        "मा",
        "ह"
      ],
      [
        "मा",
        "ंग"
      ],
      [
        "मा",
        "वल"
      ],
      [
        "मा",
        "ंसाह"
      ],
      [
        "मा",
        "उंट"
      ],
      [
        "मा",
        "मलों"
      ],
      [
        "राज",
        "ग"
      ],
      [
        "राज",
        "शा"
      ],
      [
        "राज",
        "स्व"
      ],
      [
        "राज",
        "गु"
      ],
      [
        "राज",
        "घर"
      ],
      [
        "राज",
        "ीव"
      ],
      [
        "दे",
        "साई"
      ],
      [
        "ड़",
        "े"
      ],
      [
        "ड़",
        "ों"
      ],
      [
        "जा",
        "ए"
      ],
      [
        "जा",
        "वा"
      ],
      [
        "जा",
        "तियां"
      ],
      [
        "हा",
        "बाद"
      ],
      [
        "त्",
        "काल"
      ],
      [
        "त्",
        "थान"
      ],
      [
        "त्",
        "मिक"
      ],
      [
        "वा",
        "य"
      ],
      [
        "वा",
        "ह"
      ],
      [
        "वा",
        "लन"
      ],
      [
        "वा",
        "जों"
      ],
      [
        "वा",
        "णि"
      ],
      [
        "वा",
        "लिक"
      ],
      [
        "वा",
        "ंगीण"
      ],
      [
        "कार",
        "क"
      ],
      [
        "कार",
        "ियों"
      ],
      [
        "कार",
        "्यालय"
      ],
      [
        "ित",
        "ों"
      ],
      [
        "िय",
        "म"
      ],
      [
        "ला",
        "या"
      ],
      [
        "ला",
        "वी"
      ],
      [
        "ला",
        "ड़ी"
      ],
      [
        "ला",
        "यक"
      ],
      [
        "ला",
        "ओस"
      ],
      [
        "ला",
        "यर्"
      ],
      [
        "ला",
        "वनी"
      ],
      [
        "पा",
        "ए"
      ],
      [
        "पा",
        "क"
      ],
      [
        "पा",
        "ल"
      ],
      [
        "पा",
        "ता"
      ],
      [
        "पा",
        "लना"
      ],
      [
        "पा",
        "षाण"
[...]
