{
  "version": "1.0",
  "truncation": null,
  "padding": null,
  "added_tokens": [
    {
      "id": 0,
      "content": "[UNK]",
      "single_word": false,
      "lstrip": false,
      "rstrip": false,
      "normalized": false,
      "special": true
    }
  ],
  "normalizer": null,
  "pre_tokenizer": {
    "type": "Metaspace",
    "replacement": "▁",
    "prepend_scheme": "never",
    "split": true
  },
  "post_processor": null,
  "decoder": {
    "type": "Metaspace",
    "replacement": "▁",
    "prepend_scheme": "never",
    "split": true
  },
  "model": {
    "type": "BPE",
    "dropout": null,
    "unk_token": "[UNK]",
    "continuing_subword_prefix": null,
    "end_of_word_suffix": null,
    "fuse_unk": false,
    "byte_fallback": false,
    "ignore_merges": false,
    "vocab": {
      "[UNK]": 0,
      "\n": 1,
      "\r": 2,
      "!": 3,
      "\"": 4,
      "#": 5,
      "$": 6,
      "%": 7,
      "&": 8,
      "'": 9,
      "(": 10,
      ")": 11,
      "*": 12,
      "+": 13,
      ",": 14,
      "-": 15,
      ".": 16,
      "/": 17,
      "0": 18,
      "1": 19,
      "2": 20,
      "3": 21,
      "4": 22,
      "5": 23,
      "6": 24,
      "7": 25,
      "8": 26,
      "9": 27,
      ":": 28,
      ";": 29,
      "<": 30,
      "=": 31,
      ">": 32,
      "?": 33,
      "A": 34,
      "B": 35,
      "C": 36,
      "D": 37,
      "E": 38,
      "F": 39,
      "G": 40,
      "H": 41,
      "I": 42,
      "J": 43,
      "K": 44,
      "L": 45,
      "M": 46,
      "N": 47,
      "O": 48,
      "P": 49,
      "Q": 50,
      "R": 51,
      "S": 52,
      "T": 53,
      "U": 54,
      "V": 55,
      "W": 56,
      "X": 57,
      "Y": 58,
      "Z": 59,
      "[": 60,
      "\\": 61,
      "]": 62,
      "^": 63,
      "_": 64,
      "`": 65,
      "a": 66,
      "b": 67,
      "c": 68,
      "d": 69,
      "e": 70,
      "f": 71,
      "g": 72,
      "h": 73,
      "i": 74,
      "j": 75,
      "k": 76,
      "l": 77,
      "m": 78,
      "n": 79,
      "o": 80,
      "p": 81,
      "q": 82,
      "r": 83,
      "s": 84,
      "t": 85,
      "u": 86,
      "v": 87,
      "w": 88,
      "x": 89,
      "y": 90,
      "z": 91,
      "{": 92,
      "|": 93,
      "}": 94,
      "~": 95,
      "°": 96,
      "²": 97,
      "·": 98,
      "Ö": 99,
      "á": 100,
      "â": 101,
      "æ": 102,
      "ç": 103,
      "è": 104,
      "é": 105,
      "í": 106,
      "ñ": 107,
      "ö": 108,
      "ü": 109,
      "ā": 110,
      "ī": 111,
      "İ": 112,
      "Ś": 113,
      "ś": 114,
      "ū": 115,
      "ș": 116,
      "ə": 117,
      "ɦ": 118,
      "ɪ": 119,
      "ɾ": 120,
      "ʊ": 121,
      "ʱ": 122,
      "ʼ": 123,
      "ˈ": 124,
      "ː": 125,
      "ί": 126,
      "α": 127,
      "δ": 128,
      "θ": 129,
      "ν": 130,
      "π": 131,
      "ς": 132,
      "ό": 133,
      "ँ": 134,
      "ं": 135,
      "ः": 136,
      "अ": 137,
      "आ": 138,
      "इ": 139,
      "ई": 140,
      "उ": 141,
      "ऊ": 142,
      "ऋ": 143,
      "ऍ": 144,
      "ए": 145,
      "ऐ": 146,
      "ऑ": 147,
      "ओ": 148,
      "औ": 149,
      "क": 150,
      "ख": 151,
      "ग": 152,
      "घ": 153,
      "ङ": 154,
      "च": 155,
      "छ": 156,
      "ज": 157,
      "झ": 158,
      "ञ": 159,
      "ट": 160,
      "ठ": 161,
      "ड": 162,
      "ढ": 163,
      "ण": 164,
      "त": 165,
      "थ": 166,
      "द": 167,
      "ध": 168,
      "न": 169,
      "प": 170,
      "फ": 171,
      "ब": 172,
      "भ": 173,
      "म": 174,
      "य": 175,
      "र": 176,
      "ऱ": 177,
      "ल": 178,
      "ळ": 179,
      "व": 180,
      "श": 181,
      "ष": 182,
      "स": 183,
      "ह": 184,
      "़": 185,
      "ा": 186,
      "ि": 187,
      "ी": 188,
      "ु": 189,
      "ू": 190,
      "ृ": 191,
      "ॅ": 192,
      "े": 193,
      "ै": 194,
      "ॉ": 195,
      "ॊ": 196,
      "ो": 197,
      "ौ": 198,
      "्": 199,
      "ॠ": 200,
      "।": 201,
      "०": 202,
      "१": 203,
      "२": 204,
      "३": 205,
      "४": 206,
      "५": 207,
      "६": 208,
      "७": 209,
      "८": 210,
      "९": 211,
      "॰": 212,
      "ॲ": 213,
      "ం": 214,
      "ః": 215,
      "అ": 216,
      "ఆ": 217,
      "ఇ": 218,
      "ఈ": 219,
      "ఉ": 220,
      "ఋ": 221,
      "ఎ": 222,
      "ఏ": 223,
      "ఐ": 224,
      "ఒ": 225,
      "ఓ": 226,
      "ఔ": 227,
      "క": 228,
      "ఖ": 229,
      "గ": 230,
      "ఘ": 231,
      "చ": 232,
      "ఛ": 233,
      "జ": 234,
      "ఞ": 235,
      "ట": 236,
      "ఠ": 237,
      "డ": 238,
      "ఢ": 239,
      "ణ": 240,
      "త": 241,
      "థ": 242,
      "ద": 243,
      "ధ": 244,
      "న": 245,
      "ప": 246,
      "ఫ": 247,
      "బ": 248,
      "భ": 249,
      "మ": 250,
      "య": 251,
      "ర": 252,
      "ల": 253,
      "ళ": 254,
      "వ": 255,
      "శ": 256,
      "ష": 257,
      "స": 258,
      "హ": 259,
      "ా": 260,
      "ి": 261,
      "ీ": 262,
      "ు": 263,
      "ూ": 264,
      "ృ": 265,
      "ె": 266,
      "ే": 267,
      "ై": 268,
      "ొ": 269,
      "ో": 270,
      "ౌ": 271,
      "్": 272,
      "ṅ": 273,
      "ṇ": 274,
      "Ṛ": 275,
      "ṣ": 276,
      "ṭ": 277,
      "Ἰ": 278,
      " ": 279,
      " ": 280,
      "‌": 281,
      "‍": 282,
      "‎": 283,
      "–": 284,
      "—": 285,
      "‘": 286,
      "’": 287,
      "“": 288,
      "”": 289,
      "†": 290,
      "•": 291,
      "′": 292,
      "″": 293,
      "‹": 294,
      "›": 295,
      "⁡": 296,
      "₹": 297,
      "↑": 298,
      "−": 299,
      "ⓘ": 300,
      "▁": 301,
      "▲": 302,
      "﻿": 303,
      "wi": 304,
      "ki": 305,
      "wiki": 306,
      "ia": 307,
      "dia": 308,
      "or": 309,
      "tt": 310,
      "](": 311,
      ":/": 312,
      "htt": 313,
      "http": 314,
      "://": 315,
      "pe": 316,
      "https": 317,
      "https://": 318,
      "](https://": 319,
      "g/": 320,
      ".or": 321,
      ".org/": 322,
      "pedia": 323,
      ".wiki": 324,
      ".org/wiki": 325,
      ".org/wiki/": 326,
      ".wikipedia": 327,
      ".wikipedia.org/wiki/": 328,
      "▁[": 329,
      "en": 330,
      "te": 331,
      "▁\"": 332,
      "\")": 333,
      "in": 334,
      "an": 335,
      "on": 336,
      "In": 337,
      "th": 338,
      "](https://en": 339,
      "](https://en.wikipedia.org/wiki/": 340,
      "ti": 341,
      "hi": 342,
      "India": 343,
      "er": 344,
      "ar": 345,
      "20": 346,
      "\r\n": 347,
      "ार": 348,
      "al": 349,
      "es": 350,
      "्र": 351,
      "▁क": 352,
      "](https://hi": 353,
      "](https://hi.wikipedia.org/wiki/": 354,
      "re": 355,
      "▁|": 356,
      "of": 357,
      "भार": 358,
      "भारत": 359,
      "is": 360,
      "ci": 361,
      "the": 362,
      "tion": 363,
      "▁स": 364,
      "and": 365,
      "om": 366,
      "्य": 367,
      "ed": 368,
      "te_": 369,
      "▁-": 370,
      "#ci": 371,
      "#cite_": 372,
      "▁of": 373,
      "▁the": 374,
      "▁(": 375,
      "it": 376,
      "as": 377,
      "ou": 378,
      "](https://en.wikipedia.org/wiki/India": 379,
      "▁म": 380,
      "201": 381,
      "▁प": 382,
      "ic": 383,
      "▁India": 384,
      "रा": 385,
      "le": 386,
      "19": 387,
      "OT": 388,
      "no": 389,
      "oo": 390,
      "▁in": 391,
      "్ర": 392,
      "id": 393,
      "ra": 394,
      "](https://te": 395,
      "](https://te.wikipedia.org/wiki/": 396,
      "ान": 397,
      "ent": 398,
      "र्": 399,
      "▁s": 400,
      "](https://en.wikipedia.org/wiki/India#cite_": 401,
      "200": 402,
      "-0": 403,
      "**": 404,
      "▁p": 405,
      "▁and": 406,
      "ate": 407,
      "et": 408,
      "ri": 409,
      "▁ह": 410,
      "-1": 411,
      "ార": 412,
      "ing": 413,
      "ें": 414,
      "am": 415,
      "्त": 416,
      "▁c": 417,
      "ation": 418,
      "us": 419,
      "ref": 420,
      "at": 421,
      "▁C": 422,
      "▁A": 423,
      "▁के": 424,
      "ag": 425,
      "note": 426,
      "या": 427,
      "](https://hi.wikipedia.org/wiki/भारत": 428,
      ").": 429,
      "▁S": 430,
      "[[": 431,
      "ac": 432,
      "ook": 433,
      "\\_": 434,
      "ref-": 435,
      "note-": 436,
      "▁f": 437,
      "िक": 438,
      "ang": 439,
      "ad": 440,
      "▁t": 441,
      "ve": 442,
      "78": 443,
      "▁अ": 444,
      "li": 445,
      "▁b": 446,
      "ीय": 447,
      "lo": 448,
      "ur": 449,
      "▁व": 450,
      "um": 451,
      "▁m": 452,
      "ాల": 453,
      "▁P": 454,
      "ाल": 455,
      "\"),": 456,
      "ver": 457,
      "ist": 458,
      "IS": 459,
      "com": 460,
      "we": 461,
      "ch": 462,
      "ul": 463,
      "▁1": 464,
      "▁में": 465,
      ".\r\n": 466,
      "FO": 467,
      "NOT": 468,
      "OTNOT": 469,
      "FOOTNOT": 470,
      "FOOTNOTE": 471,
      "of_": 472,
      "ww": 473,
      "్య": 474,
      "he": 475,
      "▁[↑": 476,
      "ना": 477,
      "978": 478,
      "_of_": 479,
      "BN": 480,
      "ISBN": 481,
      "ial": 482,
      "▁ज": 483,
      "il": 484,
      "्ष": 485,
      "st": 486,
      "ro": 487,
      "ेश": 488,
      "ce": 489,
      "▁द": 490,
      "భార": 491,
      "భారత": 492,
      "un": 493,
      "దే": 494,
      "ों": 495,
      "ory": 496,
      "▁201": 497,
      "त्र": 498,
      "fi": 499,
      "దేశ": 500,
      "స్": 501,
      "▁w": 502,
      "िया": 503,
      "ter": 504,
      "]](https://en.wikipedia.org/wiki/India#cite_": 505,
      "▁d": 506,
      "enti": 507,
      "राज": 508,
      "Sou": 509,
      "▁प्र": 510,
      "21": 511,
      "ons": 512,
      "mr": 513,
      "](https://en.wikipedia.org/wiki/India#cite_ref-": 514,
      "]](https://en.wikipedia.org/wiki/India#cite_note-": 515,
      "ंग": 516,
      "▁T": 517,
      "▁ప": 518,
      "ol": 519,
      "▁आ": 520,
      "rc": 521,
      "00": 522,
      "lin": 523,
      "▁M": 524,
      "▁भारत": 525,
      "▁R": 526,
      "identi": 527,
      "](https://mr": 528,
      "_क": 529,
      "fier": 530,
      "identifier": 531,
      "](https://mr.wikipedia.org/wiki/": 532,
      "्या": 533,
      "సా": 534,
      "identifier)": 535,
      "ला": 536,
      "tic": 537,
      "▁**": 538,
      "-0)": 539,
      "▁है": 540,
      "्व": 541,
      "▁ब": 542,
      "web": 543,
      "भा": 544,
      "ర్": 545,
      "▁त": 546,
      "न्": 547,
      "](https://hi.wikipedia.org/wiki/भारत#cite_": 548,
      "▁|\r\n": 549,
      "▁न": 550,
      "▁to": 551,
      "em": 552,
      "book": 553,
      "న్": 554,
      "red": 555,
      "),": 556,
      "res": 557,
      "▁B": 558,
      "▁a": 559,
      "age": 560,
      "es/": 561,
      "ment": 562,
      "ni": 563,
      "25": 564,
      "्ट": 565,
      "pg": 566,
      "s.": 567,
      "cial": 568,
      "ig": 569,
      "ता": 570,
      "और": 571,
      "_(": 572,
      "10": 573,
      "23": 574,
      "link": 575,
      "▁का": 576,
      "▁की": 577,
      "IT": 578,
      "ir": 579,
      ".j": 580,
      "=1": 581,
      "▁D": 582,
      "angu": 583,
      "ity": 584,
      "ind": 585,
      "26": 586,
      "▁l": 587,
      "edit": 588,
      "sia": 589,
      "ER": 590,
      "▁से": 591,
      "action": 592,
      "ित": 593,
      "▁India\")": 594,
      "EF": 595,
      ".com": 596,
      "ITER": 597,
      "24": 598,
      "ास": 599,
      "ay": 600,
      "action=": 601,
      ")\r\n": 602,
      "ITEREF": 603,
      "action=edit": 604,
      "_स": 605,
      "&red": 606,
      "?action=edit": 607,
      "link=1": 608,
      "&redlink=1": 609,
      "?action=edit&redlink=1": 610,
      "Spe": 611,
      "▁और": 612,
      "ly": 613,
      "▁[↑](https://en.wikipedia.org/wiki/India#cite_ref-": 614,
      "లు": 615,
      ".com/": 616,
      "ec": 617,
      "▁•": 618,
      "्रे": 619,
      "199": 620,
      "రా": 621,
      "▁*": 622,
      "▁E": 623,
      "क्ष": 624,
      "india": 625,
      "·**": 626,
      "▁**·**": 627,
      "वि": 628,
      "Special": 629,
      "_India": 630,
      "ion": 631,
      "Special:": 632,
      "me": 633,
      "राज्य": 634,
      "ld": 635,
      "28": 636,
      "భారతదేశ": 637,
      "▁\"भारत": 638,
      "िस": 639,
      "ची": 640,
      "षा": 641,
      "#C": 642,
      "go": 643,
      "up": 644,
      ".శ": 645,
      ".శ.": 646,
      "chi": 647,
      "#CITEREF": 648,
      "లో": 649,
      "Uni": 650,
      "cal": 651,
      "\").": 652,
      "ha": 653,
      "_in": 654,
      "▁H": 655,
      "rces/": 656,
      "సా.శ.": 657,
      "ber": 658,
      "ved": 659,
      "Book": 660,
      "978-0": 661,
      "tu": 662,
      "दी": 663,
      "▁e": 664,
      "Sources/": 665,
      "Special:Book": 666,
      "Special:BookSources/": 667,
      "oun": 668,
      "▁G": 669,
      "rom": 670,
      "देश": 671,
      "▁క": 672,
      "978-0-": 673,
      "11": 674,
      "▁N": 675,
      "www": 676,
      "पु": 677,
      "_S": 678,
      "स्": 679,
      "ति": 680,
      "▁200": 681,
      "-3": 682,
      "her": 683,
      "ले": 684,
      "for": 685,
      "త్ర": 686,
      "www.": 687,
      "मा": 688,
      "el": 689,
      "op": 690,
      "ాలు": 691,
      "_A": 692,
      "archi": 693,
      "ry": 694,
      "ष्ट": 695,
      "-4": 696,
      "gory": 697,
      "రి": 698,
      "ategory": 699,
      "री": 700,
      "anguage": 701,
      "క్": 702,
      "mp": 703,
      "भाषा": 704,
      "ategory:": 705,
      "▁ग": 706,
      "ంద": 707,
      "▁on": 708,
      "\")\r\n": 709,
      "vers": 710,
      "ew": 711,
      "calf": 712,
      "50": 713,
      "▁20": 714,
      "ain": 715,
      "ని": 716,
      "▁వ": 717,
      "▁re": 718,
      "etcalf": 719,
      "▁th": 720,
      "ary": 721,
      "ती": 722,
      "ub": 723,
      "al_": 724,
      "archive": 725,
      "▁श": 726,
      "-8": 727,
      "ak": 728,
      "](https://en.wikipedia.org/wiki/India#CITEREF": 729,
      "n_": 730,
      "ab": 731,
      "था": 732,
      "err": 733,
      "22": 734,
      "ast": 735,
      "ge": 736,
      "▁उ": 737,
      "णी": 738,
      ".[[": 739,
      "30": 740,
      "The": 741,
      "वा": 742,
      "▁19": 743,
      "ष्ट्र": 744,
      "est": 745,
      ".in": 746,
      "od": 747,
      "ల్": 748,
      "▁n": 749,
      "భారతదేశం": 750,
      "--": 751,
      ".jpg": 752,
      "con": 753,
      "har": 754,
      "▁or": 755,
      "ress": 756,
      "▁को": 757,
      "http://": 758,
      "_of_India": 759,
      "का": 760,
      "▁F": 761,
      "▁---": 762,
      "18": 763,
      "ted": 764,
      "▁(identifier)": 765,
      "_(identifier)": 766,
      "▁(identifier)\")": 767,
      "29": 768,
      "प्र": 769,
      "ने": 770,
      "archive.org/": 771,
      "▁सं": 772,
      "▁[म": 773,
      "]](https://en.wikipedia.org/wiki/India#cite_note-FOOTNOTE": 774,
      "ct": 775,
      "ంగ": 776,
      "▁[\"": 777,
      "▁from": 778,
      "▁J": 779,
      "▁p.": 780,
      "ap": 781,
      "ली": 782,
      "▁ए": 783,
      "▁స": 784,
      "▁पर": 785,
      "error": 786,
      "]](https://hi.wikipedia.org/wiki/भारत#cite_": 787,
      "Har": 788,
      "सा": 789,
      "orld": 790,
      "▁इ": 791,
      "▁h": 792,
      "Metcalf": 793,
      "▁మ": 794,
      "web.": 795,
      "rit": 796,
      "](https://web.": 797,
      "os": 798,
      "web/": 799,
      "archive.org/web/": 800,
      "](https://web.archive.org/web/": 801,
      "▁for": 802,
      "ep": 803,
      "ud": 804,
      "gh": 805,
      "goo": 806,
      "ust": 807,
      "▁by": 808,
      "▁.": 809,
      "List": 810,
      "ड़": 811,
      "40": 812,
      "gle": 813,
      "్రా": 814,
      "books": 815,
      "im": 816,
      "versity": 817,
      "हि": 818,
      "▁In": 819,
      "AA": 820,
      "13": 821,
      "27": 822,
      "पा": 823,
      "▁है।": 824,
      "15": 825,
      "id=": 826,
      "▁[A": 827,
      "_and": 828,
      "▁\"C": 829,
      "_म": 830,
      "with": 831,
      "ort": 832,
      "▁ar": 833,
      "म्": 834,
      "ీయ": 835,
      "ount": 836,
      "▁[S": 837,
      "चि": 838,
      "त्त": 839,
      "_के": 840,
      "▁g": 841,
      "▁is": 842,
      "ंड": 843,
      "umb": 844,
      "16": 845,
      "▁वि": 846,
      "google": 847,
      "▁Indian": 848,
      "ండ": 849,
      "▁L": 850,
      "978-1": 851,
      "##": 852,
      "सं": 853,
      "ther": 854,
      "ational": 855,
      "िल": 856,
      "▁O": 857,
      "्रेणी": 858,
      "?id=": 859,
      "books.": 860,
      ".com/books": 861,
      "google.com/books": 862,
      "books.google.com/books": 863,
      "▁र": 864,
      "17": 865,
      "श्रेणी": 866,
      "▁[ISBN": 867,
      "books.google.com/books?id=": 868,
      "ेत्र": 869,
      "ens": 870,
      "द्र": 871,
      "स्त": 872,
      "श्रेणी:": 873,
      "s/": 874,
      "▁\"ISBN": 875,
      "▁([": 876,
      "ISBN_(identifier)": 877,
      "र्व": 878,
      "▁./": 879,
      "_in_India": 880,
      "-9": 881,
      "జ్య": 882,
      "▁सा": 883,
      "'s": 884,
      "▁W": 885,
      "14": 886,
      "▁చ": 887,
      "*.": 888,
      "▁K": 889,
      "▁Asia": 890,
      "late": 891,
      "राष्ट्र": 892,
      "](https://hi.wikipedia.org/wiki/भारत#cite_ref-": 893,
      "]](https://hi.wikipedia.org/wiki/भारत#cite_note-": 894,
      "_P": 895,
      "▁[*": 896,
      "ng": 897,
      "िय": 898,
      "px": 899,
      "▁[C": 900,
      "](https://books.google.com/books?id=": 901,
      "gov": 902,
      "South": 903,
      "_C": 904,
      "mons": 905,
      "తా": 906,
      "uc": 907,
      "ut": 908,
      "ము": 909,
      "media": 910,
      "p.": 911,
      "](https://en.wikipedia.org/wiki/C": 912,
      "నా": 913,
      "la": 914,
      "తి": 915,
      "్ట": 916,
      "▁\"म": 917,
      "_के_": 918,
      "arg": 919,
      "हा": 920,
      "University": 921,
      "do": 922,
      "ish": 923,
      "▁The": 924,
      "ot": 925,
      "▁\"M": 926,
      "जा": 927,
      "inal": 928,
      "ma": 929,
      "errors": 930,
      "ज़": 931,
      "సి": 932,
      "▁pp.": 933,
      ".gov": 934,
      "▁ल": 935,
      "త్": 936,
      "▁य": 937,
      "Harv": 938,
      "nd": 939,
      ".in/": 940,
      "▁\"S": 941,
      "load": 942,
      "s,": 943,
      ".wikimedia": 944,
      "commons": 945,
      "upload": 946,
      "ff": 947,
      "our": 948,
      "मी": 949,
      "▁[↑](https://en.wikipedia.org/wiki/India#cite_ref-FOOTNOTE": 950,
      "![": 951,
      "s](https://en.wikipedia.org/wiki/": 952,
      "aj": 953,
      "-7": 954,
      "de": 955,
      "pedia/": 956,
      ".org/wikipedia/": 957,
      "thumb": 958,
      "▁be": 959,
      "Special:BookSources/978-0-": 960,
      ".wikimedia.org/wikipedia/": 961,
      "upload.wikimedia.org/wikipedia/": 962,
      "▁राज्य": 963,
      "](https://upload.wikimedia.org/wikipedia/": 964,
      "▁[M": 965,
      "umm": 966,
      ")[[": 967,
      "-2": 968,
      "/thumb": 969,
      "PA": 970,
      "/thumb/": 971,
      "fn": 972,
      "over": 973,
      "ong": 974,
      "und": 975,
      "](https://upload.wikimedia.org/wikipedia/commons": 976,
      "br": 977,
      "▁भाषा": 978,
      "कार": 979,
      "ence": 980,
      "▁(సా.శ.": 981,
      "▁भ": 982,
      "di": 983,
      "](https://upload.wikimedia.org/wikipedia/commons/thumb/": 984,
      "tein": 985,
      "px-": 986,
      "art": 987,
      "av": 988,
      "ance": 989,
      "ys": 990,
      "1.": 991,
      "యా": 992,
      "per": 993,
      "35": 994,
      "ులు": 995,
      "▁రా": 996,
      "र्म": 997,
      "चा": 998,
      "a_": 999,
      "-5": 1000,
      "cy": 1001,
      "ते": 1002,
      "ां": 1003,
      "–సా.శ.": 1004,
      "](https://en.wikipedia.org/wiki/ISBN_(identifier)": 1005,
      "▁[ISBN](https://en.wikipedia.org/wiki/ISBN_(identifier)": 1006,
      "%2": 1007,
      "▁అ": 1008,
      "rie": 1009,
      "द्": 1010,
      "47": 1011,
      "ి.": 1012,
      "्षेत्र": 1013,
      "▁[B": 1014,
      "&pg": 1015,
      ".p": 1016,
      "sh": 1017,
      "&pg=": 1018,
      "ow": 1019,
      "▁st": 1020,
      "▁as": 1021,
      "▁orig": 1022,
      "▁\"B": 1023,
      "ear": 1024,
      "गर": 1025,
      "ages": 1026,
      "ans": 1027,
      "lig": 1028,
      "▁ప్ర": 1029,
      "ून": 1030,
      "ृत": 1031,
      "ిక": 1032,
      "▁I": 1033,
      "_D": 1034,
      "36": 1035,
      "ht": 1036,
      "2.": 1037,
      "all": 1038,
      "](https://en.wikipedia.org/wiki/S": 1039,
      "ture": 1040,
      "tern": 1041,
      "_M": 1042,
      "తం": 1043,
      "▁कर": 1044,
      "38": 1045,
      "log": 1046,
      "▁\"A": 1047,
      "](https://web.archive.org/web/201": 1048,
      "श्रेणी:Harv": 1049,
      "▁original": 1050,
      "0%": 1051,
      "से": 1052,
      "श्": 1053,
      "▁\"P": 1054,
      "&pg=PA": 1055,
      "](https://en.wikipedia.org/wiki/M": 1056,
      "विश": 1057,
      "og": 1058,
      "चे": 1059,
      "मन": 1060,
      "rchi": 1061,
      "land": 1062,
      "▁Ret": 1063,
      "ిన": 1064,
      "▁हैं": 1065,
      "జ్యం": 1066,
      "ana": 1067,
      "rieved": 1068,
      "▁Retrieved": 1069,
      "▁with": 1070,
      "Category:": 1071,
      "▁१": 1072,
      "2006": 1073,
      "ूची": 1074,
      "emp": 1075,
      "नी": 1076,
      "esh": 1077,
      "CS": 1078,
      "temp": 1079,
      "its": 1080,
      "हे": 1081,
      "జా": 1082,
      "ll": 1083,
      "धान": 1084,
      "%20": 1085,
      "ore": 1086,
      "](https://hi.wikipedia.org/wiki/म": 1087,
      "opul": 1088,
      "-10": 1089,
      "conom": 1090,
      "2018": 1091,
      "▁&": 1092,
      "ंद": 1093,
      "ంచ": 1094,
      "కు": 1095,
      "Indian": 1096,
      "पर": 1097,
      "ेला": 1098,
      "ss": 1099,
      "omm": 1100,
      "ensus": 1101,
      "ile": 1102,
      "70": 1103,
      "िर": 1104,
      "](http://": 1105,
      "pg/": 1106,
      "](https://te.wikipedia.org/wiki/భారతదేశం": 1107,
      "▁[↑](https://hi.wikipedia.org/wiki/भारत#cite_ref-": 1108,
      "nic": 1109,
      "_T": 1110,
      "के": 1111,
      "न्द": 1112,
      "▁no": 1113,
      "▁प्रदेश": 1114,
      "िस्त": 1115,
      "▁University": 1116,
      "ను": 1117,
      "పూ": 1118,
      "titu": 1119,
      "क्त": 1120,
      "ass": 1121,
      "*](https://books.google.com/books?id=": 1122,
      "ism": 1123,
      "▁\"T": 1124,
      "istory": 1125,
      ".jpg)": 1126,
      "ोल": 1127,
      "భా": 1128,
      "ंग्रे": 1129,
      "ध्य": 1130,
      "▁[P": 1131,
      "-6": 1132,
      "](https://en.wikipedia.org/wiki/B": 1133,
      "hin": 1134,
      "ire": 1135,
      "oc": 1136,
      "nment": 1137,
      "ंत्र": 1138,
      "िण": 1139,
      ".jpg/": 1140,
      "ani": 1141,
      "rchived": 1142,
      "39": 1143,
      "48": 1144,
      "ప్ర": 1145,
      "▁पु": 1146,
      "2011": 1147,
      "ric": 1148,
      "ेष": 1149,
      "▁[अ": 1150,
      "▁Category:": 1151,
      "ीय_": 1152,
      "\"))": 1153,
      "ank": 1154,
      "ద్": 1155,
      "ింద": 1156,
      "▁*[": 1157,
      "▁\"स": 1158,
      "ke": 1159,
      "बा": 1160,
      "▁ex": 1161,
      "/https://": 1162,
      "धार": 1163,
      "▁\"अ": 1164,
      "▁अन": 1165,
      "▁was": 1166,
      "opulation": 1167,
      "ंध": 1168,
      "▁ఉ": 1169,
      "ord": 1170,
      "](https://en.wikipedia.org/wiki/P": 1171,
      "▁क्षेत्र": 1172,
      "ाना": 1173,
      "▁एक": 1174,
      "ai": 1175,
      "Stein": 1176,
      "▁\"E": 1177,
      "7.": 1178,
      "ी_": 1179,
      "ం:": 1180,
      "▁[भारत": 1181,
      "ubl": 1182,
      "▁language": 1183,
      "Hind": 1184,
      "मु": 1185,
      "▁ने": 1186,
      "क्षिण": 1187,
      "90": 1188,
      "्रा": 1189,
      "ates": 1190,
      "द्ध": 1191,
      "_s": 1192,
      "sher": 1193,
      "60": 1194,
      "धर्म": 1195,
      "%2C": 1196,
      "language": 1197,
      "▁ఆ": 1198,
      "▁[स": 1199,
      "▁देश": 1200,
      "लेख": 1201,
      "to": 1202,
      "ts": 1203,
      "](https://www.": 1204,
      "ard": 1205,
      "hm": 1206,
      "ue": 1207,
      "outh": 1208,
      "हार": 1209,
      "ries": 1210,
      "भि": 1211,
      "▁भारतीय": 1212,
      "ex": 1213,
      "▁an": 1214,
      "▁आहे": 1215,
      "arget": 1216,
      "9.": 1217,
      "▁de": 1218,
      "त्": 1219,
      "▁ర": 1220,
      "▁हो": 1221,
      "_b": 1222,
      "eral": 1223,
      "पू": 1224,
      "ाली": 1225,
      "anguages": 1226,
      "ies": 1227,
      "▁are": 1228,
      "45": 1229,
      "other": 1230,
      "\").\r\n": 1231,
      "మా": 1232,
      "▁సా": 1233,
      "భారతీయ": 1234,
      "4.": 1235,
      "_R": 1236,
      "हर": 1237,
      "వా": 1238,
      "▁\"क": 1239,
      "_N": 1240,
      "▁r": 1241,
      "▁ख": 1242,
      "▁\"D": 1243,
      "_B": 1244,
      "ont": 1245,
      "ingh": 1246,
      "▁Press": 1247,
      "46": 1248,
      "ूल": 1249,
      "రు": 1250,
      "ical": 1251,
      "AJ": 1252,
      "थि": 1253,
      "मान": 1254,
      "ात": 1255,
      "ोग": 1256,
      "▁ति": 1257,
      "BAJ": 1258,
      "QBAJ": 1259,
      "चित्र": 1260,
      "िस्तान": 1261,
      "iss": 1262,
      "2010": 1263,
      "tem": 1264,
      "ata": 1265,
      "les": 1266,
      "शिया": 1267,
      "వి": 1268,
      "ష్ట": 1269,
      "ian": 1270,
      "ార్": 1271,
      "न्दी": 1272,
      "_Asia": 1273,
      "పూ.": 1274,
      "द्य": 1275,
      "▁\"G": 1276,
      "](https://en.wikipedia.org/wiki/E": 1277,
      "onstitu": 1278,
      "▁Hind": 1279,
      "43": 1280,
      "_G": 1281,
      "ik": 1282,
      "ीप": 1283,
      "▁V": 1284,
      "▁\"List": 1285,
      "](https://hi.wikipedia.org/wiki/अ": 1286,
      "క్ష": 1287,
      "udd": 1288,
      "htm": 1289,
      "/http://": 1290,
      "](https://en.wikipedia.org/wiki/T": 1291,
      "als": 1292,
      "▁स्": 1293,
      "ford": 1294,
      "ous": 1295,
      "df": 1296,
      "ib": 1297,
      "స్థ": 1298,
      "రిత్ర": 1299,
      "विशेष": 1300,
      "विशेष:": 1301,
      "ine": 1302,
      "aki": 1303,
      "▁राज": 1304,
      "▁[978-0-": 1305,
      "यु": 1306,
      "▁[क": 1307,
      "राष्ट्रीय": 1308,
      "E0%": 1309,
      "iv": 1310,
      "](https://en.wikipedia.org/wiki/A": 1311,
      "्री": 1312,
      "econ": 1313,
      "AAQBAJ": 1314,
      "धिक": 1315,
      "](https://mr.wikipedia.org/wiki/भारत": 1316,
      "ummit": 1317,
      "6.": 1318,
      "xford": 1319,
      "ोक": 1320,
      "▁[G": 1321,
      "4%": 1322,
      "eng": 1323,
      "omp": 1324,
      "న్న": 1325,
      "ountries": 1326,
      "जी": 1327,
      "](https://en.wikipedia.org/wiki/D": 1328,
      "▁[D": 1329,
      "▁2011": 1330,
      "▁whi": 1331,
      "end": 1332,
      "▁\"N": 1333,
      "▁\"भारतीय": 1334,
      "49": 1335,
      "tive": 1336,
      "ations": 1337,
      "List_of_": 1338,
      "MetcalfMetcalf": 1339,
      "ction": 1340,
      "ral": 1341,
      "3.": 1342,
      "▁च": 1343,
      "▁[2": 1344,
      "stan": 1345,
      "वर्": 1346,
      "िश": 1347,
      "▁(P": 1348,
      "250": 1349,
      "5.": 1350,
      "vi": 1351,
      "थान": 1352,
      "ुस": 1353,
      "ess": 1354,
      "Special:BookSources/978-1": 1355,
      "RI": 1356,
      "oli": 1357,
      "गु": 1358,
      "स्क": 1359,
      "ven": 1360,
      "tics": 1361,
      "ions": 1362,
      "गमन": 1363,
      "artic": 1364,
      "ult": 1365,
      "▁जा": 1366,
      "tim": 1367,
      "-p": 1368,
      "1)": 1369,
      "au": 1370,
      "ंब": 1371,
      "_p": 1372,
      "37": 1373,
      "a\")": 1374,
      "जन": 1375,
      "▁[1": 1376,
      "](https://hi.wikipedia.org/wiki/स": 1377,
      "](https://te.wikipedia.org/wiki/భారతదేశం#cite_": 1378,
      "▁तिथि": 1379,
      ").\r\n": 1380,
      "1998": 1381,
      "ere": 1382,
      "्रो": 1383,
      "2009": 1384,
      "-1)": 1385,
      "గా": 1386,
      "▁\"R": 1387,
      "![](https://upload.wikimedia.org/wikipedia/commons/thumb/": 1388,
      "च्या": 1389,
      "ark": 1390,
      "E0%A": 1391,
      "port": 1392,
      "ంట": 1393,
      "కి": 1394,
      "▁[N": 1395,
      "ame": 1396,
      "▁तिथि:": 1397,
      ")\")": 1398,
      ",_": 1399,
      "िका": 1400,
      "ath": 1401,
      "bot": 1402,
      "df)": 1403,
      "▁which": 1404,
      "fe": 1405,
      "रकार": 1406,
      "हास": 1407,
      "మ్రా": 1408,
      "riti": 1409,
      "▁अभि": 1410,
      "ష్ట్ర": 1411,
      "cl": 1412,
      "icial": 1413,
      "rou": 1414,
      "▁या": 1415,
      "▁[E": 1416,
      "ers": 1417,
      "▁वर्": 1418,
      "त्तर": 1419,
      "ope": 1420,
      "ढ़": 1421,
      "ी_स": 1422,
      "ంత": 1423,
      "▁जन": 1424,
      "india.gov": 1425,
      "▁अभिगमन": 1426,
      "DF": 1427,
      "-s": 1428,
      "र्थ": 1429,
      "lop": 1430,
      "new": 1431,
      "](https://en.wikipedia.org/wiki/G": 1432,
      "albot": 1433,
      "वं": 1434,
      "वे": 1435,
      "](https://hi.wikipedia.org/wiki/क": 1436,
      "▁South": 1437,
      "▁तथा": 1438,
      "्रोत": 1439,
      "ern": 1440,
      "his": 1441,
      "cont": 1442,
      "67": 1443,
      "8.": 1444,
      "ties": 1445,
      "out": 1446,
      "रे": 1447,
      "పు": 1448,
      "▁हैं।": 1449,
      "▁–": 1450,
      "रु": 1451,
      "▁[R": 1452,
      "ali": 1453,
      "_and_": 1454,
      "िल्": 1455,
      "Asher": 1456,
      "ष्": 1457,
      "▁घ": 1458,
      "▁న": 1459,
      "ublic": 1460,
      "4)": 1461,
      "▁has": 1462,
      "▁(PDF": 1463,
      "ार्": 1464,
      "▁India's": 1465,
      "▁[T": 1466,
      "](https://en.wikipedia.org/wiki/N": 1467,
      "▁that": 1468,
      "80": 1469,
      "ज्": 1470,
      "మి": 1471,
      "ాన": 1472,
      "▁li": 1473,
      "ration": 1474,
      "पुस्त": 1475,
      "विशेष:पुस्त": 1476,
      "्रोत/": 1477,
      "विशेष:पुस्तक": 1478,
      "territ": 1479,
      ".pdf)": 1480,
      "gen": 1481,
      "दा": 1482,
      "](Special:BookSources/978-0-": 1483,
      "▁\"Special:BookSources/978-0-": 1484,
      "▁[Archived": 1485,
      "3)": 1486,
      "_प्र": 1487,
      "ob": 1488,
      "िट": 1489,
      "పా": 1490,
      "▁ఇ": 1491,
      "▁త": 1492,
      "पुर": 1493,
      "భాష": 1494,
      "sv": 1495,
      "AAQBAJ&pg=PA": 1496,
      "_1": 1497,
      "rad": 1498,
      "▁3": 1499,
      "धी": 1500,
      "](https://en.wikipedia.org/wiki/R": 1501,
      "United": 1502,
      "RICS": 1503,
      "ty": 1504,
      "द्व": 1505,
      "▁5": 1506,
      "▁[ब": 1507,
      "▁\"ब": 1508,
      "▁इस": 1509,
      "idge": 1510,
      "ile:": 1511,
      "किस्तान": 1512,
      "ही": 1513,
      "పాల": 1514,
      "లీ": 1515,
      "▁pro": 1516,
      "logy": 1517,
      "hist": 1518,
      "_भारत": 1519,
      "eg": 1520,
      "sland": 1521,
      "वी": 1522,
      "▁ना": 1523,
      "inist": 1524,
      "ange": 1525,
      "▁7": 1526,
      "%E0%A": 1527,
      "▁దేశ": 1528,
      "▁मेला": 1529,
      "స్తా": 1530,
      "▁De": 1531,
      "▁पुरा": 1532,
      "hy": 1533,
      "ost": 1534,
      "aste": 1535,
      "10.": 1536,
      "85": 1537,
      "File:": 1538,
      "तम": 1539,
      "వర్": 1540,
      "ాయ": 1541,
      "▁pe": 1542,
      "pend": 1543,
      "000": 1544,
      "man": 1545,
      "कर": 1546,
      "णि": 1547,
      "म्रा": 1548,
      "▁२": 1549,
      "▁\"In": 1550,
      "▁बा": 1551,
      "म्ब": 1552,
      "_E": 1553,
      "ove": 1554,
      "33": 1555,
      "rap": 1556,
      "▁हि": 1557,
      "▁हु": 1558,
      "ach": 1559,
      "_की_स": 1560,
      "aint": 1561,
      "_में": 1562,
      "ुसार": 1563,
      "iki": 1564,
      "पं": 1565,
      "ेंद्र": 1566,
      "▁नि": 1567,
      "onstitution": 1568,
      "DP": 1569,
      "ah": 1570,
      "MetcalfMetcalf2006": 1571,
      "\"\r\n": 1572,
      "की": 1573,
      "च्": 1574,
      "न\")": 1575,
      "शास": 1576,
      "▁[K": 1577,
      "mpire": 1578,
      "ंग्रेज़": 1579,
      "लेखित": 1580,
      "మ్రాజ్యం": 1581,
      "ritish": 1582,
      "ree": 1583,
      "2004": 1584,
      "हु": 1585,
      "▁प्रा": 1586,
      "▁भी": 1587,
      "ta": 1588,
      "ख्य": 1589,
      "णा": 1590,
      "दक्षिण": 1591,
      "](File:": 1592,
      "amil": 1593,
      "దేశ్": 1594,
      "bridge": 1595,
      "2007": 1596,
      "▁2014": 1597,
      "ल्": 1598,
      "ated": 1599,
      "▁भाषा\")": 1600,
      "..": 1601,
      "56": 1602,
      "elhi": 1603,
      "econom": 1604,
      "ैद": 1605,
      "ం](https://te.wikipedia.org/wiki/": 1606,
      "_का": 1607,
      "श्चि": 1608,
      "\"](https://web.archive.org/web/201": 1609,
      "12": 1610,
      "ambridge": 1611,
      "ury": 1612,
      ".jpg)\r\n": 1613,
      "ite": 1614,
      "na": 1615,
      "▁at": 1616,
      "](https://en.wikipedia.org/wiki/India#cite_ref-FOOTNOTE": 1617,
      ".nic": 1618,
      "▁te": 1619,
      "फ़": 1620,
      "ूर": 1621,
      "ంబ": 1622,
      "టి": 1623,
      "▁सरकार": 1624,
      "साँ": 1625,
      "हिन्दी": 1626,
      "-b": 1627,
      "hand": 1628,
      "▁v": 1629,
      "▁un": 1630,
      "ese": 1631,
      "hel": 1632,
      "South_Asia": 1633,
      "_m": 1634,
      "ब्": 1635,
      "▁199": 1636,
      "velop": 1637,
      "html": 1638,
      "late_": 1639,
      "do-": 1640,
      "गण": 1641,
      "ంలో": 1642,
      "](https://hi.wikipedia.org/wiki/भारत_में": 1643,
      "ign": 1644,
      "ountry": 1645,
      "స్తాన్": 1646,
      "▁\"K": 1647,
      "ansk": 1648,
      "world": 1649,
      "ोर": 1650,
      "▁U": 1651,
      "▁मु": 1652,
      "usic": 1653,
      "ack": 1654,
      "times": 1655,
      "77": 1656,
      "▁cent": 1657,
      "yson": 1658,
      "-d": 1659,
      "duc": 1660,
      "ंत": 1661,
      "గు": 1662,
      "డు": 1663,
      "నే": 1664,
      "్చ": 1665,
      "▁\"The": 1666,
      "▁सूची": 1667,
      "ालय": 1668,
      "▁History": 1669,
      "ug": 1670,
      "▁\"Indian": 1671,
      "gover": 1672,
      "conomy": 1673,
      "-t": 1674,
      "120": 1675,
      "qu": 1676,
      "▁its": 1677,
      "](https://en.wikipedia.org/wiki/List_of_": 1678,
      "ulture": 1679,
      "-m": 1680,
      "2)": 1681,
      "lia": 1682,
      "inent": 1683,
      "###": 1684,
      "250px-": 1685,
      "anskrit": 1686,
      "మూ": 1687,
      "▁[978-1": 1688,
      "isation": 1689,
      "్రీ": 1690,
      "चीन": 1691,
      "जाब": 1692,
      "జాత": 1693,
      "चित्र:": 1694,
      "](https://mr.wikipedia.org/wiki/भारत#cite_": 1695,
      "म्राज": 1696,
      "521": 1697,
      "RC": 1698,
      "\")*": 1699,
      "lection": 1700,
      "▁2007": 1701,
      "\"))\r\n": 1702,
      "ater": 1703,
      "ज्ञ": 1704,
      "%E0%A4%": 1705,
      "oh": 1706,
      "IN": 1707,
      "Oxford": 1708,
      "dit": 1709,
      "లా": 1710,
      "▁सम": 1711,
      "ase": 1712,
      "▁reg": 1713,
      "ంగా": 1714,
      "पंजाब": 1715,
      "▁[![": 1716,
      "ome": 1717,
      "ashm": 1718,
      "row": 1719,
      "template": 1720,
      "velopment": 1721,
      "Dw": 1722,
      "World": 1723,
      "पी": 1724,
      "सम": 1725,
      "▁(201": 1726,
      "dition": 1727,
      "akistan": 1728,
      "alay": 1729,
      "uring": 1730,
      ".nic.in/": 1731,
      "ef": 1732,
      "lish": 1733,
      "चल": 1734,
      "िन": 1735,
      "ूच": 1736,
      "డ్": 1737,
      "ిల్": 1738,
      "▁జ": 1739,
      "any": 1740,
      "alth": 1741,
      "shi": 1742,
      "▁4": 1743,
      "emplate": 1744,
      "/https://www.": 1745,
      "pu": 1746,
      "se": 1747,
      "ख्या": 1748,
      "orth": 1749,
      "](https://en.wikipedia.org/wiki/In": 1750,
      "hr": 1751,
      "mer": 1752,
      "mund": 1753,
      "\\_S": 1754,
      "othermund": 1755,
      "/c": 1756,
      "_language": 1757,
      "లి": 1758,
      "▁पू": 1759,
      "lion": 1760,
      "స్త్ర": 1761,
      "▁तक": 1762,
      "roup": 1763,
      "साँचा": 1764,
      "led": 1765,
      "urope": 1766,
      "irst": 1767,
      "05": 1768,
      "जरा": 1769,
      "वन": 1770,
      "ulke": 1771,
      "ंदिर": 1772,
      "पूर्व": 1773,
      "ograp": 1774,
      "radesh": 1775,
      "62": 1776,
      "census": 1777,
      "కా": 1778,
      "ణా": 1779,
      "దక్ష": 1780,
      "ధిక": 1781,
      "▁[L": 1782,
      "anc": 1783,
      "](https://hi.wikipedia.org/wiki/ब": 1784,
      "](https://hi.wikipedia.org/wiki/भारतीय_": 1785,
      "▁ప్రా": 1786,
      "स्थान": 1787,
      "▁వి": 1788,
      "సియా": 1789,
      "overnment": 1790,
      "िल्ली": 1791,
      "జాతీయ": 1792,
      "ati": 1793,
      "▁languages": 1794,
      "▁धर्म": 1795,
      "erv": 1796,
      "▁sub": 1797,
      "न्न": 1798,
      "odern": 1799,
      "AARC": 1800,
      "पाकिस्तान": 1801,
      "म्राज्य": 1802,
      "Singh": 1803,
      "[![](https://upload.wikimedia.org/wikipedia/commons/thumb/": 1804,
      "▁ad": 1805,
      "▁mil": 1806,
      "▁were": 1807,
      "doi": 1808,
      "ligion": 1809,
      ".sv": 1810,
      "रब": 1811,
      "शी": 1812,
      "వం": 1813,
      "▁पा": 1814,
      "ational_": 1815,
      "ों_की_स": 1816,
      "tical": 1817,
      "▁సం": 1818,
      "▁చరిత్ర": 1819,
      "2003": 1820,
      "▁cont": 1821,
      "government": 1822,
      ".;": 1823,
      "59": 1824,
      "_F": 1825,
      "प्त": 1826,
      "ैन": 1827,
      "](https://en.wikipedia.org/wiki/K": 1828,
      "▁18": 1829,
      "ound": 1830,
      "स्था": 1831,
      "Stein2010": 1832,
      "हारा": 1833,
      "ओं": 1834,
      "िव": 1835,
      "డి": 1836,
      "▁[the": 1837,
      "ice": 1838,
      "]](https://hi.wikipedia.org/wiki/भारत#cite_note-FOOTNOTE": 1839,
      "ंग्रेज़ी": 1840,
      "6)": 1841,
      "ril": 1842,
      "\\_errors": 1843,
      "help": 1844,
      "\"](https://www.": 1845,
      "-india": 1846,
      "7)": 1847,
      "_the": 1848,
      "oi": 1849,
      "old": 1850,
      "तिहास": 1851,
      "▁le": 1852,
      "_by": 1853,
      "दे": 1854,
      "ంధ": 1855,
      "▁किया": 1856,
      "isher": 1857,
      "ाला": 1858,
      "స్త": 1859,
      "तील": 1860,
      "▁विश": 1861,
      "_के_राज्य": 1862,
      "▁రాజ్యం": 1863,
      "conomic": 1864,
      "Stein1998": 1865,
      "▁సామ్రాజ్యం": 1866,
      "వర్గ": 1867,
      "దక్షి": 1868,
      "Singh2009": 1869,
      "65": 1870,
      "usin": 1871,
      "\\_and": 1872,
      "mber": 1873,
      "▁[उ": 1874,
      "ाने": 1875,
      "ames": 1876,
      "▁१९": 1877,
      "▁Hindu": 1878,
      "History": 1879,
      "val": 1880,
      "▁ha": 1881,
      "ined": 1882,
      "▁St": 1883,
      "ght": 1884,
      "_and_S": 1885,
      "क्": 1886,
      "वरी": 1887,
      "దీ": 1888,
      "▁[In": 1889,
      "▁\"L": 1890,
      "▁**[": 1891,
      "ండి": 1892,
      "వర్గం:": 1893,
      "Talbot": 1894,
      "▁2": 1895,
      "▁errors": 1896,
      "2008": 1897,
      "▁2021": 1898,
      "▁([help": 1899,
      "AsherTalbot": 1900,
      "▁errors\"))\r\n": 1901,
      "_भाषा": 1902,
      "ण्": 1903,
      "मे": 1904,
      "ूप": 1905,
      "age/": 1906,
      ".jpg)](File:": 1907,
      "omb": 1908,
      "continent": 1909,
      "gan": 1910,
      "ms": 1911,
      "ुल": 1912,
      "తర": 1913,
      "ది": 1914,
      "▁బ": 1915,
      "▁खाना": 1916,
      "ission": 1917,
      "ों_की_सूची": 1918,
      "rate": 1919,
      "\").[[": 1920,
      "ystem": 1921,
      "▁8": 1922,
      "ise": 1923,
      "▁2010": 1924,
      "▁Asian": 1925,
      "_प्रदेश": 1926,
      "-in": 1927,
      "1_": 1928,
      "5)": 1929,
      "69": 1930,
      "2005": 1931,
      "une": 1932,
      "टी": 1933,
      "बसे": 1934,
      "िम": 1935,
      "ట్": 1936,
      "ిత": 1937,
      "▁\"उ": 1938,
      "्रिट": 1939,
      "](https://en.wikipedia.org/wiki/Indian_": 1940,
      "न्द्र": 1941,
      "▁गया": 1942,
      "▁राज्यों": 1943,
      "हाराष्ट्र": 1944,
      "fn_": 1945,
      "uary": 1946,
      "▁26": 1947,
      "▁error": 1948,
      "▁template": 1949,
      "no-t": 1950,
      "▁Sfn": 1951,
      "\\_no-t": 1952,
      "▁target": 1953,
      "](https://web.archive.org/web/20": 1954,
      "fn\\_no-t": 1955,
      "template_": 1956,
      "arget\\_errors": 1957,
      "\\_Sfn\\_no-t": 1958,
      "\\_and\\_Sfn\\_no-t": 1959,
      "_and_Sfn_": 1960,
      "▁error:": 1961,
      "▁target:": 1962,
      "template_errors": 1963,
      "arget\\_errors\r\n": 1964,
      "\\_and\\_Sfn\\_no-target\\_errors\r\n": 1965,
      "_and_Sfn_template_errors": 1966,
      "dom": 1967,
      "uk": 1968,
      "▁स्व": 1969,
      "▁Comm": 1970,
      "ंगा": 1971,
      "ंग्": 1972,
      "भाग": 1973,
      "ail": 1974,
      "ant": 1975,
      "on-": 1976,
      "ace": 1977,
      "▁wh": 1978,
      ".jpg/250px-": 1979,
      "58": 1980,
      "_చ": 1981,
      "पश्चि": 1982,
      "ం\")": 1983,
      "ork": 1984,
      "▁\"మ": 1985,
      "▁मान": 1986,
      "माण": 1987,
      "▁[मूल": 1988,
      "ింది.": 1989,
      "C&pg=PA": 1990,
      "vis": 1991,
      "▁CITEREF": 1992,
      "india.gov.in/": 1993,
      "ंप": 1994,
      "पाल": 1995,
      "बंध": 1996,
      "▁\"F": 1997,
      "\")**": 1998,
      "▁Ap": 1999,
      "ंगाल": 2000,
      "-g": 2001,
      "▁25": 2002,
      "ुर": 2003,
      "▁ఎ": 2004,
      "▁[మ": 2005,
      "ari": 2006,
      "](https://hi.wikipedia.org/wiki/चित्र:": 2007,
      "▁सबसे": 2008,
      "uly": 2009,
      "ियों": 2010,
      "▁(సా.శ.పూ.": 2011,
      "श्मी": 2012,
      "▁पुरालेखित": 2013,
      "▁पुरालेखित।": 2014,
      "hind": 2015,
      "ood": 2016,
      "▁sfn": 2017,
      "Edit": 2018,
      "Page/": 2019,
      "o-": 2020,
      "pr": 2021,
      "▁सि": 2022,
      "िक्ष": 2023,
      "](http://www.": 2024,
      "inistry": 2025,
      "▁सूची\")": 2026,
      "EditPage/": 2027,
      "ister": 2028,
      "rib": 2029,
      "earch": 2030,
      "34": 2031,
      "_c": 2032,
      "fter": 2033,
      "lass": 2034,
      "year": 2035,
      "ధ్య": 2036,
      "▁గ": 2037,
      "▁శ": 2038,
      "▁territ": 2039,
      "ories": 2040,
      "off": 2041,
      "ियाँ": 2042,
      "ంద్ర": 2043,
      "▁शास": 2044,
      "ustry": 2045,
      "matics": 2046,
      "क्ति": 2047,
      "द्वीप": 2048,
      "/artic": 2049,
      "cies": 2050,
      "ashmir": 2051,
      "-l": 2052,
      "aw": 2053,
      "yn": 2054,
      "सी": 2055,
      "aman": 2056,
      "▁अधिक": 2057,
      "▁आधार": 2058,
      "▁आहे.": 2059,
      "ण्ड": 2060,
      "68": 2061,
      "Wiki": 2062,
      "▁ch": 2063,
      "_L": 2064,
      "।[[": 2065,
      "ైన": 2066,
      "arch": 2067,
      "](https://te.wikipedia.org/wiki/మ": 2068,
      "ats": 2069,
      "▁जिस": 2070,
      "▁పే": 2071,
      "▁[भारतीय": 2072,
      "गुजरा": 2073,
      "स्कृत": 2074,
      "51": 2075,
      "air": 2076,
      "▁[F": 2077,
      "2014": 2078,
      "_Indian_": 2079,
      "Union": 2080,
      "CS1": 2081,
      "तंत्र": 2082,
      "भी": 2083,
      "](https://en.wikipedia.org/wiki/L": 2084,
      "_सं": 2085,
      "▁उप": 2086,
      "DwAAQBAJ&pg=PA": 2087,
      "्रिटिश": 2088,
      "330": 2089,
      "▁An": 2090,
      "act": 2091,
      "▁10": 2092,
      "Rothermund": 2093,
      "टे": 2094,
      "थी": 2095,
      "व्य": 2096,
      "ట్ట": 2097,
      "హింద": 2098,
      "▁ri": 2099,
      "▁భారతదేశం": 2100,
      "ारी": 2101,
      "](https://hi.wikipedia.org/wiki/भारत#CITEREF": 2102,
      "▁17": 2103,
      "ంగ్": 2104,
      "▁है।\r\n": 2105,
      "▁साथ": 2106,
      "ద్ధ": 2107,
      "](https://hi.wikipedia.org/wiki/भारत_में_": 2108,
      "ज्ञान": 2109,
      "mb": 2110,
      "uch": 2111,
      "ugh": 2112,
      "eneral": 2113,
      "ley": 2114,
      "umber": 2115,
      "197": 2116,
      "ople": 2117,
      "▁this": 2118,
      "nglish": 2119,
      "युक्त": 2120,
      "1/": 2121,
      "Kulke": 2122,
      "mar": 2123,
      "ed.": 2124,
      "low": 2125,
      "▁New": 2126,
      "ower": 2127,
      "a,": 2128,
      "s\")": 2129,
      "आई": 2130,
      "डी": 2131,
      "ించ": 2132,
      "▁ఒ": 2133,
      "▁ag": 2134,
      "▁था": 2135,
      "▁భాష": 2136,
      "](Special:BookSources/978-1": 2137,
      "▁[క": 2138,
      "▁\"श्रेणी:Harv": 2139,
      "▁\"Special:BookSources/978-1": 2140,
      "](https://hi.wikipedia.org/wiki/श्रेणी:Harv": 2141,
      "▁India,": 2142,
      "ాల్": 2143,
      "▁द्व": 2144,
      "▁संघ": 2145,
      "हिन्द": 2146,
      "▁./श्रेणी:Harv": 2147,
      "▁./Category:": 2148,
      "▁यु": 2149,
      "▁Island": 2150,
      "▁([help](https://hi.wikipedia.org/wiki/श्रेणी:Harv": 2151,
      "_and_Sfn_template_errors?action=edit&redlink=1": 2152,
      "▁./श्रेणी:Harv\\_and\\_Sfn\\_no-target\\_errors\r\n": 2153,
      "▁([help](https://hi.wikipedia.org/wiki/श्रेणी:Harv_and_Sfn_template_errors?action=edit&redlink=1": 2154,
      "8/": 2155,
      "data": 2156,
      "lear": 2157,
      "▁Pres": 2158,
      "ongress": 2159,
      "/http://www.": 2160,
      "ombined": 2161,
      "1,": 2162,
      "100": 2163,
      "PP": 2164,
      "aper": 2165,
      "ority": 2166,
      "्यट": 2167,
      "्वर": 2168,
      "▁Empire": 2169,
      "क्षेत्र": 2170,
      "पुरा": 2171,
      "▁World": 2172,
      "emplate:": 2173,
      "▁विश्व": 2174,
      "att": 2175,
      "emb": 2176,
      "▁Asia\")": 2177,
      "Hindi": 2178,
      "]](https://te.wikipedia.org/wiki/భారతదేశం#cite_": 2179,
      "చ్చ": 2180,
      "జీ": 2181,
      "ేంద్ర": 2182,
      "▁\"క": 2183,
      "](https://hi.wikipedia.org/wiki/उ": 2184,
      "edi": 2185,
      "uman": 2186,
      "▁दे": 2187,
      "line": 2188,
      "lim": 2189,
      "iron": 2190,
      "KulkeRothermund": 2191,
      "uj": 2192,
      "त्य": 2193,
      "▁राष्ट्रीय": 2194,
      "radition": 2195,
      "▁प्रदेश\")": 2196,
      "57": 2197,
      "_at": 2198,
      "gy": 2199,
      "▁July": 2200,
      "uclear": 2201,
      "ledge": 2202,
      "▁April": 2203,
      "गढ़": 2204,
      "लोक": 2205,
      "ोन": 2206,
      "త్య": 2207,
      "బ్": 2208,
      "మీ": 2209,
      "▁9": 2210,
      "▁[W": 2211,
      "▁[सं": 2212,
      "](https://te.wikipedia.org/wiki/ద": 2213,
      "▁वा": 2214,
      "్యా": 2215,
      "రాష్ట్ర": 2216,
      "म्म": 2217,
      "▁./వర్గం:": 2218,
      "▁लि": 2219,
      "Hindu": 2220,
      "news/": 2221,
      "तमिल": 2222,
      "-c": 2223,
      "Dyson": 2224,
      "ure": 2225,
      "king": 2226,
      "entral": 2227,
      "ummit\")": 2228,
      "7-1": 2229,
      "Combined": 2230,
      "ober": 2231,
      "ution": 2232,
      "लु": 2233,
      "▁\"इ": 2234,
      "▁कार": 2235,
      "िकी": 2236,
      "▁दक्षिण": 2237,
      "्याया": 2238,
      "ect": 2239,
      "here": 2240,
      "▁पूर्व": 2241,
      ".\"\r\n": 2242,
      "121": 2243,
      "2-0)": 2244,
      "du": 2245,
      "dus": 2246,
      "kno": 2247,
      "pt": 2248,
      "viron": 2249,
      "▁government": 2250,
      "ori": 2251,
      "odi": 2252,
      "vironment": 2253,
      "07": 2254,
      "_न": 2255,
      "ves": 2256,
      "भू": 2257,
      "००": 2258,
      "ంక": 2259,
      "ప్": 2260,
      "యు": 2261,
      "▁[J": 2262,
      "▁\"J": 2263,
      "▁\"South": 2264,
      "ारा": 2265,
      "rab": 2266,
      "▁cons": 2267,
      "्यां": 2268,
      "▁En": 2269,
      "eptem": 2270,
      "ड़ा": 2271,
      "తంత్ర": 2272,
      "▁not": 2273,
      "engal": 2274,
      "](https://te.wikipedia.org/wiki/భారతదేశం#cite_ref-": 2275,
      "▁बाद": 2276,
      "దక్షిణ": 2277,
      "]](https://te.wikipedia.org/wiki/భారతదేశం#cite_note-": 2278,
      "eptember": 2279,
      "▁pl": 2280,
      "_पर": 2281,
      "गो": 2282,
      "▁us": 2283,
      "▁[न": 2284,
      "ide": 2285,
      "ref-1": 2286,
      "note-1": 2287,
      "▁Pradesh": 2288,
      "fficial": 2289,
      "▁language\")": 2290,
      "also": 2291,
      "history": 2292,
      "च्च": 2293,
      "ographi": 2294,
      "9)": 2295,
      "athe": 2296,
      "cre": 2297,
      "▁year": 2298,
      "cient": 2299,
      "▁into": 2300,
      "▁system": 2301,
      "▁par": 2302,
      "_Press": 2303,
      "uropean": 2304,
      "\"](https://": 2305,
      "_స": 2306,
      "_और": 2307,
      "एं": 2308,
      "गा": 2309,
      "दिल्ली": 2310,
      "सद": 2311,
      "తము": 2312,
      "వే": 2313,
      "ష్": 2314,
      "ాన్": 2315,
      "▁\"आ": 2316,
      "](https://en.wikipedia.org/wiki/F": 2317,
      "స్క": 2318,
      "क्षा": 2319,
      "imes": 2320,
      "▁यह": 2321,
      "▁भू": 2322,
      "शासित": 2323,
      "ిల్లీ": 2324,
      "▁have": 2325,
      "2_": 2326,
      "▁off": 2327,
      "▁Pro": 2328,
      "%28": 2329,
      "-20": 2330,
      "0.": 2331,
      "_re": 2332,
      "national": 2333,
      "ocial": 2334,
      "त.": 2335,
      "▁[इ": 2336,
      "](https://en.wikipedia.org/wiki/J": 2337,
      "anges": 2338,
      "▁अस": 2339,
      "▁विक": 2340,
      "▁15": 2341,
      "▁जु": 2342,
      "ेश्वर": 2343,
      "▁during": 2344,
      "s.[[": 2345,
      "ritan": 2346,
      "▁साम्राज्य": 2347,
      "Dyson2018": 2348,
      ",000": 2349,
      "fl": 2350,
      "uis": 2351,
      "▁econom": 2352,
      "\")*.": 2353,
      "ince": 2354,
      "idd": 2355,
      "argest": 2356,
      "brary": 2357,
      "▁[Archived](https://web.archive.org/web/20": 2358,
      "पे": 2359,
      "में": 2360,
      "वस्था": 2361,
      "జి": 2362,
      "ధాన": 2363,
      "బె": 2364,
      "▁\"विशेष:पुस्तक": 2365,
      "inister": 2366,
      "](https://hi.wikipedia.org/wiki/ISBN_(identifier)": 2367,
      "](https://hi.wikipedia.org/wiki/विशेष:पुस्तक": 2368,
      "▁स्रोत/": 2369,
      "▁their": 2370,
      "▁मंदिर": 2371,
      "ారు": 2372,
      "▁comp": 2373,
      "](https://hi.wikipedia.org/wiki/भारत_के_": 2374,
      "लाई": 2375,
      "ember": 2376,
      "_स्रोत/": 2377,
      "विधान": 2378,
      "▁కా": 2379,
      "▁[ISBN](https://hi.wikipedia.org/wiki/ISBN_(identifier)": 2380,
      "▁./श्रेणी:": 2381,
      "_के_आ": 2382,
      "▁రాజ": 2383,
      "द्योग": 2384,
      "▁(PDF)": 2385,
      "साँचा:": 2386,
      "ंग्ला": 2387,
      "श्मीर": 2388,
      "](https://hi.wikipedia.org/wiki/विशेष:पुस्तक_स्रोत/": 2389,
      "_d": 2390,
      "jab": 2391,
      "mi": 2392,
      "oor": 2393,
      "cience": 2394,
      "ram": 2395,
      "▁Archived": 2396,
      "▁first": 2397,
      "ill": 2398,
      "ayan": 2399,
      "▁Press\").": 2400,
      "outledge": 2401,
      "shit": 2402,
      "/p": 2403,
      "_K": 2404,
      "ote": 2405,
      "ागर": 2406,
      "▁con": 2407,
      "▁countries": 2408,
      "▁बहु": 2409,
      "▁गण": 2410,
      "ctober": 2411,
      "▁October": 2412,
      "330px-": 2413,
      "ritannic": 2414,
      "son": 2415,
      "▁21": 2416,
      "▁24": 2417,
      "▁also": 2418,
      "▁[t": 2419,
      "ond": 2420,
      "▁2023": 2421,
      "thern": 2422,
      ".svg": 2423,
      "ban": 2424,
      "par": 2425,
      "रो": 2426,
      "దు": 2427,
      "మ్": 2428,
      "శ్": 2429,
      "▁केंद्र": 2430,
      "](https://te.wikipedia.org/wiki/క": 2431,
      "▁part": 2432,
      "urr": 2433,
      "▁16": 2434,
      "్యవ": 2435,
      "▁[↑](https://hi.wikipedia.org/wiki/भारत#cite_": 2436,
      "▁है,": 2437,
      "1994": 2438,
      "ంది.": 2439,
      "liament": 2440,
      "▁region": 2441,
      "ूचना": 2442,
      "_చరిత్ర": 2443,
      "/0": 2444,
      "/A": 2445,
      "44": 2446,
      "ive": 2447,
      "▁dis": 2448,
      "usiness": 2449,
      "-26": 2450,
      "India)": 2451,
      "▁कि": 2452,
      "india/": 2453,
      "▁2024": 2454,
      "-80": 2455,
      "udden": 2456,
      "ne": 2457,
      "ule": 2458,
      "estern": 2459,
      "berg": 2460,
      "▁state": 2461,
      "hism": 2462,
      "-19": 2463,
      "_आ": 2464,
      "ंक": 2465,
      "ल\")": 2466,
      "ఢిల్లీ": 2467,
      "పంచ": 2468,
      "–1": 2469,
      "time": 2470,
      "▁मो": 2471,
      "▁India:": 2472,
      "etwe": 2473,
      "ారి": 2474,
      "▁Chin": 2475,
      "ural": 2476,
      "chno": 2477,
      "rop": 2478,
      "▁दिस": 2479,
      "▁world": 2480,
      "िया\")": 2481,
      "_की_": 2482,
      "Special:BookSources/978": 2483,
      "नेमा": 2484,
      "_मेला": 2485,
      "ृत्य": 2486,
      "धार_पर": 2487,
      "▁नाम": 2488,
      "మూస": 2489,
      "_के_आधार_पर": 2490,
      "etween": 2491,
      "_के_आधार_पर_भारत": 2492,
      "_3": 2493,
      "fr": 2494,
      "ology": 2495,
      "▁22": 2496,
      "19-8": 2497,
      "racy": 2498,
      "▁se": 2499,
      "▁Aug": 2500,
      "▁September": 2501,
      "▁2019": 2502,
      "▁form": 2503,
      "ishing": 2504,
      "ternational": 2505,
      "▁(PDF).": 2506,
      "▁Commission": 2507,
      "▁August": 2508,
      "_अ": 2509,
      "_ब": 2510,
      "rans": 2511,
      "टक": 2512,
      "वर": 2513,
      "स्ट": 2514,
      "▁class": 2515,
      "unjab": 2516,
      "संख्या": 2517,
      "स्कृ": 2518,
      "▁[Archived](https://web.archive.org/web/201": 2519,
      "_H": 2520,
      "wing": 2521,
      "▁[I": 2522,
      "▁Act": 2523,
      "pib": 2524,
      "एशिया": 2525,
      "వు": 2526,
      "▁फ": 2527,
      "▁wi": 2528,
      "▁it": 2529,
      "▁\"భారతీయ": 2530,
      "thno": 2531,
      "adu": 2532,
      "▁Metcalf": 2533,
      "▁उत्": 2534,
      "ंडिया": 2535,
      "बाद": 2536,
      "%E0%A4%B": 2537,
      "▁subcontinent": 2538,
      "▁पुरालेखित।.": 2539,
      "▁जुलाई": 2540,
      "_के_आधार_पर_भारत_के_राज्य": 2541,
      "1-0)": 2542,
      "_%28": 2543,
      "iver": 2544,
      "wn": 2545,
      "wart": 2546,
      "zberg": 2547,
      "2023": 2548,
      "ool": 2549,
      "-17": 2550,
      "chwart": 2551,
      "University_Press": 2552,
      "chwartzberg": 2553,
      "श्री": 2554,
      "ीत": 2555,
      "ीस": 2556,
      "▁ड": 2557,
      "▁2018": 2558,
      "210": 2559,
      "▁Re": 2560,
      "▁2006": 2561,
      "87": 2562,
      "one": 2563,
      "▁Sh": 2564,
      "oll": 2565,
      "able": 2566,
      "31": 2567,
      "4-0)": 2568,
      "CE": 2569,
      "hol": 2570,
      "ual": 2571,
      "एस": 2572,
      "खा": 2573,
      "मार": 2574,
      "ौद्ध": 2575,
      "జన": 2576,
      "టు": 2577,
      "టె": 2578,
      "▁झ": 2579,
      "▁[ज": 2580,
      "▁\"न": 2581,
      "omen": 2582,
      "raven": 2583,
      "entre": 2584,
      "amb": 2585,
      "▁रूप": 2586,
      "▁చె": 2587,
      "నాయ": 2588,
      "▁been": 2589,
      "–సా.శ.పూ.": 2590,
      "▁[↑](https://hi.wikipedia.org/wiki/भारत#cite_ref-FOOTNOTE": 2591,
      "बांग्ला": 2592,
      "मुख": 2593,
      "▁ఆర్": 2594,
      "▁देशों": 2595,
      "gency": 2596,
      "పాలిత": 2597,
      "స్త్రం:": 2598,
      "▁ప్రాంత": 2599,
      "ేంద్రపాలిత": 2600,
      "](https://te.wikipedia.org/wiki/దస్త్రం:": 2601,
      "3-0)": 2602,
      "8)": 2603,
      "▁6": 2604,
      "▁\"H": 2605,
      "iddle": 2606,
      "\".": 2607,
      "%29": 2608,
      "-re": 2609,
      "min": 2610,
      "pl": 2611,
      "tal": 2612,
      "ेट": 2613,
      "▁ट": 2614,
      "▁res": 2615,
      "▁\"O": 2616,
      "▁India\"),": 2617,
      "▁Cambridge": 2618,
      "▁Ass": 2619,
      "▁June": 2620,
      "ortal": 2621,
      "chnology": 2622,
      ".html": 2623,
      "_University_Press": 2624,
      "ya": 2625,
      "tec": 2626,
      "eser": 2627,
      "▁but": 2628,
      "ument": 2629,
      "str": 2630,
      "_in_": 2631,
      "▁[*A": 2632,
      ".jpg/330px-": 2633,
      "ikshit": 2634,
      "cri": 2635,
      "न](https://hi.wikipedia.org/wiki/": 2636,
      "ఖ్య": 2637,
      "గో": 2638,
      "తో": 2639,
      "బి": 2640,
      "హి": 2641,
      "▁[H": 2642,
      "▁\"ज": 2643,
      "1947": 2644,
      "▁population": 2645,
      "▁between": 2646,
      "नाड": 2647,
      "नाथ": 2648,
      "▁2016": 2649,
      "▁तट": 2650,
      "▁एवं": 2651,
      "ड़ी": 2652,
      "ffair": 2653,
      "ंबई": 2654,
      "aint:": 2655,
      "స్కృ": 2656,
      "-language": 2657,
      "countries": 2658,
      "oast": 2659,
      "▁[[": 2660,
      "andhi": 2661,
      "edic": 2662,
      "%2F": 2663,
      "904": 2664,
      "▁2014.\r\n": 2665,
      "_I": 2666,
      "_W": 2667,
      "fric": 2668,
      "lad": 2669,
      "ok": 2670,
      "pp": 2671,
      "ran": 2672,
      "नगर": 2673,
      "पट": 2674,
      "▁ध": 2675,
      "▁[आ": 2676,
      "er,": 2677,
      "arh": 2678,
      "ान\")": 2679,
      "▁more": 2680,
      "राजस्थान": 2681,
      "harma": 2682,
      "Harle": 2683,
      "विश्व": 2684,
      "embly": 2685,
      "fil": 2686,
      "rish": 2687,
      "▁al": 2688,
      "▁ac": 2689,
      "ped": 2690,
      "ident": 2691,
      "amp": 2692,
      "▁Population": 2693,
      "avid": 2694,
      "india.gov.in": 2695,
      "ritannica": 2696,
      ":[": 2697,
      "Template:": 2698,
      "_ప": 2699,
      "han": 2700,
      "van": 2701,
      "ठी": 2702,
      "दू": 2703,
      "ाम": 2704,
      "ैक": 2705,
      "హా": 2706,
      "ి.\r\n": 2707,
      "▁Y": 2708,
      "▁all": 2709,
      "▁ను": 2710,
      "▁జాతీయ": 2711,
      ".org/10.": 2712,
      "्तर": 2713,
      "िक्": 2714,
      "राष्ट्रप": 2715,
      "%20%20": 2716,
      "▁अनुसार": 2717,
      "▁स्थ": 2718,
      "_का_": 2719,
      "doi.org/10.": 2720,
      "్యవస్థ": 2721,
      "mu": 2722,
      "oon": 2723,
      "▁[Indian": 2724,
      "ones": 2725,
      "rade": 2726,
      "life": 2727,
      "▁bec": 2728,
      "▁music": 2729,
      "igh": 2730,
      "ligi": 2731,
      "logue": 2732,
      "▁century": 2733,
      "]](https://mr.wikipedia.org/wiki/भारत#cite_": 2734,
      "ces": 2735,
      "ee": 2736,
      "खंड": 2737,
      "ोर्": 2738,
      "▁\"I": 2739,
      "▁\"W": 2740,
      "2024": 2741,
      "▁क्र": 2742,
      "▁मूल": 2743,
      "▁पार": 2744,
      "▁जो": 2745,
      "▁2009": 2746,
      "▁उत्तर": 2747,
      "▁For": 2748,
      "depend": 2749,
      "-2)": 2750,
      "ंत्री": 2751,
      "64": 2752,
      "88": 2753,
      "ering": 2754,
      "ade": 2755,
      "ures": 2756,
      "istan": 2757,
      "harat": 2758,
      "epublic": 2759,
      "umbai": 2760,
      "ourt": 2761,
      "2/": 2762,
      "ck": 2763,
      "ft": 2764,
      "fic": 2765,
      "ibrary": 2766,
      "lang": 2767,
      "por": 2768,
      "va": 2769,
      "एँ": 2770,
      "कल": 2771,
      "तर": 2772,
      "हित": 2773,
      "ृष्": 2774,
      "ोड़": 2775,
      "డా": 2776,
      "దా": 2777,
      "బడ": 2778,
      "మే": 2779,
      "రణ": 2780,
      "▁లో": 2781,
      "peration": 2782,
      "▁\"सं": 2783,
      "icy": 2784,
      "\\_with": 2785,
      "▁अप": 2786,
      "▁dance": 2787,
      "▁Th": 2788,
      "▁न्याया": 2789,
      "▁after": 2790,
      "▁सेना": 2791,
      "▁కూ": 2792,
      "ాలు,": 2793,
      "-81": 2794,
      "ose": 2795,
      "▁రాష్ట్ర": 2796,
      "rick": 2797,
      "ompany": 2798,
      "view": 2799,
      "▁जाता": 2800,
      "కిస్తాన్": 2801,
      "clud": 2802,
      "म्बर": 2803,
      "▁చరిత్ర\")": 2804,
      "पश्चिम": 2805,
      "ujar": 2806,
      "म्मू": 2807,
      "thnologue": 2808,
      "a/": 2809,
      "ttar": 2810,
      "▁[3": 2811,
      "▁East": 2812,
      "500": 2813,
      "81": 2814,
      "imp": 2815,
      "ठा": 2816,
      "लि": 2817,
      "▁over": 2818,
      "ia\")": 2819,
      "alley": 2820,
      "▁संग": 2821,
      "2000": 2822,
      "▁most": 2823,
      "cember": 2824,
      "▁ab": 2825,
      "230": 2826,
      "माज": 2827,
      "▁1950": 2828,
      "▁Jan": 2829,
      "▁इतिहास": 2830,
      "पाद": 2831,
      "▁[Stein": 2832,
      "▁अन्य": 2833,
      "▁वर्ष": 2834,
      "र्थिक": 2835,
      "वेब": 2836,
      "ovement": 2837,
      "dustry": 2838,
      "p?": 2839,
      "pur": 2840,
      "tates": 2841,
      "▁28": 2842,
      "▁per": 2843,
      "▁other": 2844,
      "kim": 2845,
      "iation": 2846,
      "▁National": 2847,
      "fore": 2848,
      "ummits": 2849,
      "cyc": 2850,
      "emple": 2851,
      "olitical": 2852,
      "▁Press.": 2853,
      "▁years": 2854,
      "CO": 2855,
      "_देश": 2856,
      "wo": 2857,
      "िळ": 2858,
      "▁ఈ": 2859,
      "▁భారత": 2860,
      "▁हे": 2861,
      "▁comm": 2862,
      "▁व्य": 2863,
      "नाग": 2864,
      "▁di": 2865,
      "_क्षेत्र": 2866,
      "▁India\")\r\n": 2867,
      "▁English": 2868,
      "త్రి": 2869,
      "ాలు](https://te.wikipedia.org/wiki/": 2870,
      "▁(identifier)\"):[": 2871,
      "▁एशिया": 2872,
      "त्तरा": 2873,
      "▁2011.\r\n": 2874,
      "▁निर्": 2875,
      "\\_with\\_": 2876,
      "6_": 2877,
      "75": 2878,
      "_O": 2879,
      "lam": 2880,
      "ird": 2881,
      "form": 2882,
      "▁2020": 2883,
      "▁number": 2884,
      "ctor": 2885,
      "auth": 2886,
      "ganisation": 2887,
      "%7": 2888,
      ".as": 2889,
      "4–": 2890,
      "CN": 2891,
      "ges": 2892,
      "rin": 2893,
      "y\")": 2894,
      "कि": 2895,
      "जय": 2896,
      "नुसार": 2897,
      "▁27": 2898,
      "▁[Metcalf": 2899,
      "▁मार्": 2900,
      "rime": 2901,
      "▁ही": 2902,
      "anglad": 2903,
      "_सा": 2904,
      "ी_भाषा": 2905,
      "वंश": 2906,
      "्यटन": 2907,
      "angladesh": 2908,
      "1–": 2909,
      "oin": 2910,
      "▁es": 2911,
      "theast": 2912,
      "ash": 2913,
      "2019": 2914,
      "▁Ar": 2915,
      "obb": 2916,
      "/articl": 2917,
      "*,": 2918,
      "-to": 2919,
      "79": 2920,
      "ID": 2921,
      "_క": 2922,
      "ls": 2923,
      "डिया": 2924,
      "लय": 2925,
      "తు": 2926,
      "పతి": 2927,
      "▁ऑ": 2928,
      "▁ని": 2929,
      "▁స్థ": 2930,
      "▁[అ": 2931,
      "▁[ప": 2932,
      "▁\"భారతదేశం": 2933,
      "are": 2934,
      "asia": 2935,
      "్రి": 2936,
      "ర్వ": 2937,
      "న్ని": 2938,
      "पुरी": 2939,
      "▁संस्कृ": 2940,
      "apit": 2941,
      "_De": 2942,
      ".jpg)](https://hi.wikipedia.org/wiki/चित्र:": 2943,
      "धिकार": 2944,
      "మిళ": 2945,
      "▁हिन्दी": 2946,
      "ंतर": 2947,
      "](https://mr.wikipedia.org/wiki/भारत#cite_ref-": 2948,
      "వంశ": 2949,
      "तंत्रता": 2950,
      "ographic": 2951,
      "]](https://mr.wikipedia.org/wiki/भारत#cite_note-": 2952,
      "_t": 2953,
      "ron": 2954,
      "▁en": 2955,
      "rahm": 2956,
      "2001": 2957,
      "olicy": 2958,
      "▁election": 2959,
      "ustral": 2960,
      "▁[2](https://en.wikipedia.org/wiki/India#cite_ref-FOOTNOTE": 2961,
      "▁[1](https://en.wikipedia.org/wiki/India#cite_ref-FOOTNOTE": 2962,
      "times.com/": 2963,
      "ughal": 2964,
      "Ar": 2965,
      "IA": 2966,
      "co": 2967,
      "तु": 2968,
      "धु": 2969,
      "रवरी": 2970,
      "िंध": 2971,
      "encies": 2972,
      "arb": 2973,
      "reat": 2974,
      "atus": 2975,
      "▁Congress": 2976,
      "_of_the": 2977,
      "▁Talbot": 2978,
      "▁May": 2979,
      "](https://mr.wikipedia.org/wiki/म": 2980,
      ".ph": 2981,
      "देव": 2982,
      "-21": 2983,
      "89": 2984,
      "Fisher": 2985,
      "▁[e": 2986,
      "▁[v": 2987,
      "ann": 2988,
      "2012": 2989,
      "union": 2990,
      "ode": 2991,
      "Fisher2018": 2992,
      "-f": 2993,
      "-le": 2994,
      "76": 2995,
      "IM": 2996,
      "_4": 2997,
      "_మ": 2998,
      "_భాష": 2999,
      "ze": 3000,
      "तिक": 3001,
      "स\")": 3002,
      "िज़": 3003,
      "ఫ్": 3004,
      "▁స్": 3005,
      "▁[బ": 3006,
      "▁[స": 3007,
      "▁[South": 3008,
      "▁\"అ": 3009,
      "ics": 3010,
      "▁spe": 3011,
      "▁Constitution": 3012,
      "▁अग": 3013,
      "wealth": 3014,
      "▁13": 3015,
      "▁2012": 3016,
      "त्रि": 3017,
      "ters": 3018,
      "న్నాయ": 3019,
      "विज्ञान": 3020,
      "▁కాల": 3021,
      "ాలు\")": 3022,
      "▁शिक्ष": 3023,
      "ake": 3024,
      "]](https://hi.wikipedia.org/wiki/भारत#cite_note-1": 3025,
      "eport": 3026,
      "ड़े": 3027,
      "▁Oxford": 3028,
      "ndaman": 3029,
      "ులు](https://te.wikipedia.org/wiki/": 3030,
      ".jpg)](https://te.wikipedia.org/wiki/దస్త్రం:": 3031,
      "ध्ये": 3032,
      "▁రై": 3033,
      "▁समय": 3034,
      "गुजरात": 3035,
      "व्यवस्था": 3036,
      "హిందూ": 3037,
      "▁[↑](https://hi.wikipedia.org/wiki/भारत#cite_ref-1": 3038,
      "▁2006](https://en.wikipedia.org/wiki/India#CITEREF": 3039,
      "4).": 3040,
      "oy": 3041,
      "oth": 3042,
      "▁k": 3043,
      "](https://en.wikipedia.org/wiki/W": 3044,
      "ara": 3045,
      "ale": 3046,
      "ased": 3047,
      "▁Census": 3048,
      "lob": 3049,
      "ched": 3050,
      "120px-": 3051,
      "▁territories": 3052,
      "known": 3053,
      "-25": 3054,
      "32": 3055,
      "Vi": 3056,
      "_f": 3057,
      "_territ": 3058,
      "dis": 3059,
      "oci": 3060,
      "गोल": 3061,
      "मालय": 3062,
      "ाट": 3063,
      "ौर": 3064,
      "▁'": 3065,
      "▁ई": 3066,
      "▁23": 3067,
      "](https://doi.org/10.": 3068,
      "▁[ग": 3069,
      "▁\"ग": 3070,
      "▁मा": 3071,
      "र्ना": 3072,
      "र्दू": 3073,
      "ाले": 3074,
      "▁संविधान": 3075,
      "▁had": 3076,
      "हासागर": 3077,
      "censusindia.gov.in/": 3078,
      "ed.).": 3079,
      "▁official": 3080,
      "▁विकास": 3081,
      "langoff": 3082,
      "▁January": 3083,
      ".india": 3084,
      "Asia": 3085,
      "▁[s": 3086,
      "\");": 3087,
      "onwealth": 3088,
      "eration": 3089,
      "ourc": 3090,
      "ough": 3091,
      "riod": 3092,
      "ing\\_": 3093,
      "ama": 3094,
      "adi": 3095,
      "▁tradition": 3096,
      "term": 3097,
      "emoc": 3098,
      "▁Budd": 3099,
      "▁BCE": 3100,
      "ight": 3101,
      "▁national": 3102,
      "▁[2](https://en.wikipedia.org/wiki/India#cite_ref-": 3103,
      "▁[1](https://en.wikipedia.org/wiki/India#cite_ref-": 3104,
      "AsherTalbot2008": 3105,
      "▁2010](https://en.wikipedia.org/wiki/India#CITEREF": 3106,
      "NG": 3107,
      "Uttar": 3108,
      "has": 3109,
      "pa": 3110,
      "पार": 3111,
      "मंत्री": 3112,
      "ल](https://hi.wikipedia.org/wiki/": 3113,
      "स](https://hi.wikipedia.org/wiki/": 3114,
      "सभा": 3115,
      "।\r\n": 3116,
      "१९": 3117,
      "ఆసియా": 3118,
      "ద్ర": 3119,
      "భూ": 3120,
      "మె": 3121,
      "య్య": 3122,
      "ర్య": 3123,
      "▁छ": 3124,
      "▁ల": 3125,
      "▁up": 3126,
      "▁\"ప": 3127,
      "▁\"బ": 3128,
      "▁\"స": 3129,
      "\")[[": 3130,
      "](https://hi.wikipedia.org/wiki/न": 3131,
      "](https://hi.wikipedia.org/wiki/सं": 3132,
      "ofindia": 3133,
      "▁[↑](https://te.wikipedia.org/wiki/భారతదేశం#cite_ref-": 3134,
      "ross": 3135,
      "दीव": 3136,
      "త్త": 3137,
      "▁అధిక": 3138,
      "▁ప్రదేశ్": 3139,
      "सेना": 3140,
      "ప్రదేశ్": 3141,
      "▁चु": 3142,
      "▁हुई": 3143,
      "vision": 3144,
      "▁युद्ध": 3145,
      "files/": 3146,
      "▁నుండి": 3147,
      "र्नाटक": 3148,
      "7/": 3149,
      "bi": 3150,
      "country": 3151,
      "ru": 3152,
      "orthern": 3153,
      "pect": 3154,
      "ar,": 3155,
      "andard": 3156,
      "eds.": 3157,
      "come": 3158,
      "▁1,": 3159,
      "▁dec": 3160,
      ".png": 3161,
      "▁Hindi": 3162,
      "▁December": 3163,
      "▁became": 3164,
      "-78": 3165,
      "-28": 3166,
      "1]](https://en.wikipedia.org/wiki/India#cite_note-FOOTNOTE": 3167,
      "73": 3168,
      "TR": 3169,
      "ंका": 3170,
      "म\")": 3171,
      "वै": 3172,
      "▁ऊ": 3173,
      "▁two": 3174,
      "▁me": 3175,
      "change": 3176,
      "नाव": 3177,
      "्टी": 3178,
      "▁*The": 3179,
      "-40": 3180,
      "▁2022": 3181,
      "थाप": 3182,
      "▁It": 3183,
      "_summit": 3184,
      "%2C_": 3185,
      "▁होता": 3186,
      "61": 3187,
      "▁ro": 3188,
      "▁[O": 3189,
      "ised": 3190,
      "▁Pe": 3191,
      "▁Plate": 3192,
      "▁1.": 3193,
      "▁March": 3194,
      "1997": 3195,
      "▁Development": 3196,
      ",[[": 3197,
      "-23": 3198,
      "5-0)": 3199,
      "_19": 3200,
      "f/": 3201,
      "क्र": 3202,
      "खाना": 3203,
      "योग": 3204,
      "ाच्या": 3205,
      "ణి": 3206,
      "తమిళ": 3207,
      "మైన": 3208,
      "హార": 3209,
      "ోర్": 3210,
      "▁\"ఇ": 3211,
      "▁\"భారత": 3212,
      "](https://te.wikipedia.org/wiki/బ": 3213,
      "▁Ch": 3214,
      "▁दिया": 3215,
      "▁आणि": 3216,
      "▁बढ़": 3217,
      "स्ला": 3218,
      "abad": 3219,
      "▁మొ": 3220,
      "पात": 3221,
      "నాగ": 3222,
      ".gov.in/": 3223,
      "త్తర": 3224,
      "under": 3225,
      "ులు\")": 3226,
      "▁स्थान": 3227,
      "वर्ग": 3228,
      "▁हुआ": 3229,
      "फ़रवरी": 3230,
      "गणना": 3231,
      "मेर": 3232,
      "▁लिए": 3233,
      "శ్మీ": 3234,
      "మూస:": 3235,
      "राष्ट्रपति": 3236,
      "censusindia.gov.in/2011": 3237,
      ".n": 3238,
      "7-0": 3239,
      "8-0)": 3240,
      "En": 3241,
      "ae": 3242,
      "ehr": 3243,
      "if": 3244,
      "lations": 3245,
      "▁we": 3246,
      "](https://en.wikipedia.org/wiki/H": 3247,
      "](https://en.wikipedia.org/wiki/The": 3248,
      "read": 3249,
      "omin": 3250,
      "▁includ": 3251,
      "▁summit\")": 3252,
      "etail": 3253,
      "▁caste": 3254,
      "ussia": 3255,
      "loy": 3256,
      "ilg": 3257,
      "ticles": 3258,
      "formatics": 3259,
      "▁2025": 3260,
      "▁general": 3261,
      "▁[*India": 3262,
      "▁\"Economy": 3263,
      "](https://en.wikipedia.org/wiki/Economy": 3264,
      "ivil": 3265,
      "ligious": 3266,
      ".indiatimes.com/": 3267,
      "-B": 3268,
      "6).": 3269,
      "cat": 3270,
      "way": 3271,
      "काल": 3272,
      "बर": 3273,
      "लंका": 3274,
      "वार": 3275,
      "▁लेख": 3276,
      "▁भाग": 3277,
      "▁[doi": 3278,
      "city": 3279,
      "▁पर्व": 3280,
      "र्जा": 3281,
      "inguis": 3282,
      "▁जून": 3283,
      "doc": 3284,
      "▁ext": 3285,
      "▁\"Doi": 3286,
      "ैदान": 3287,
      "oi_(identifier)": 3288,
      "▁(identifier)\"):[10.": 3289,
      "2).": 3290,
      "4/": 3291,
      "EO": 3292,
      "WEO": 3293,
      "cord": 3294,
      "get": 3295,
      "nam": 3296,
      "vol": 3297,
      "▁$": 3298,
      "▁Union": 3299,
      "tionary": 3300,
      "rain": 3301,
      "▁Times": 3302,
      "▁Reg": 3303,
      ".gov/": 3304,
      "_11": 3305,
      "rganisation": 3306,
      "wal": 3307,
      "हरी": 3308,
      "०१": 3309,
      "శా": 3310,
      "ైనా": 3311,
      "▁j": 3312,
      "▁ओ": 3313,
      "▁थी": 3314,
      "▁[ఇ": 3315,
      "▁[India": 3316,
      "teen": 3317,
      "▁\"జ": 3318,
      "eral_": 3319,
      "arn": 3320,
      "▁सु": 3321,
      "्यता": 3322,
      "▁India.": 3323,
      "ooperation": 3324,
      "](https://te.wikipedia.org/wiki/ఇ": 3325,
      "](https://te.wikipedia.org/wiki/స": 3326,
      "्त्र": 3327,
      "atar": 3328,
      "chool": 3329,
      "భారత_": 3330,
      "olk": 3331,
      "▁बन": 3332,
      "▁BRICS": 3333,
      "_(India)": 3334,
      "రాజ": 3335,
      "లో](https://te.wikipedia.org/wiki/": 3336,
      "రిజ": 3337,
      "క్కు": 3338,
      "हिमा": 3339,
      "ండ్": 3340,
      "जाति": 3341,
      "ow/": 3342,
      "eshow/": 3343,
      "धानमंत्री": 3344,
      "केर": 3345,
      "▁क्षेत्र\")": 3346,
      "पूर्": 3347,
      "्रीका": 3348,
      "](https://en.wikipedia.org/wiki/Doi_(identifier)": 3349,
      "ंबर": 3350,
      "▁period": 3351,
      "ovember": 3352,
      "क्स": 3353,
      "▁खाना\")": 3354,
      "माणु": 3355,
      "द्योगिकी": 3356,
      "▁दिसम्बर": 3357,
      "స్కృతి": 3358,
      "IMF": 3359,
      "▁[doi](https://en.wikipedia.org/wiki/Doi_(identifier)": 3360,
      "/S": 3361,
      "99": 3362,
      "ele": 3363,
      "▁time": 3364,
      "ini": 3365,
      "▁incre": 3366,
      "olper": 3367,
      "▁Fe": 3368,
      ".jpg/120px-": 3369,
      "▁Commissioner": 3370,
      "ffairs": 3371,
      "inguistic": 3372,
      "olpert": 3373,
      "5–": 3374,
      "6–": 3375,
      "C).": 3376,
      "स्व": 3377,
      "िन्": 3378,
      "िहार": 3379,
      "ूह": 3380,
      "ोष": 3381,
      "▁30": 3382,
      "tel": 3383,
      "▁\"ओ": 3384,
      "omas": 3385,
      "1950": 3386,
      "▁Sanskrit": 3387,
      "▁अरब": 3388,
      "ung": 3389,
      "्यात": 3390,
      "▁2008": 3391,
      "imalay": 3392,
      "हाय": 3393,
      "▁लोक": 3394,
      "bruary": 3395,
      "ublishing": 3396,
      "ikh": 3397,
      "▁प्राचीन": 3398,
      "▁शासन": 3399,
      "▁गणराज्य": 3400,
      ".aspx": 3401,
      "55": 3402,
      "6-0)": 3403,
      "Craven": 3404,
      "cms": 3405,
      "slam": 3406,
      "ton": 3407,
      "yayan": 3408,
      "▁hi": 3409,
      "▁ref": 3410,
      "▁rate": 3411,
      "tes": 3412,
      "than": 3413,
      "](https://en.wikipedia.org/wiki/I": 3414,
      "19-9": 3415,
      "▁sh": 3416,
      "▁sup": 3417,
      "logo": 3418,
      "▁modern": 3419,
      "illion": 3420,
      "cean": 3421,
      "▁war": 3422,
      "▁one": 3423,
      "al_P": 3424,
      "▁War": 3425,
      "hina": 3426,
      "▁Press](https://en.wikipedia.org/wiki/": 3427,
      "econd": 3428,
      "olitics": 3429,
      "ultan": 3430,
      "ainting": 3431,
      "521-80": 3432,
      "atsyayan": 3433,
      "KulkeRothermund2004": 3434,
      "Hinduism": 3435,
      "tecture": 3436,
      "countries_by": 3437,
      "904-7": 3438,
      "_Island": 3439,
      "ricket": 3440,
      "ujarat": 3441,
      "Craven1997": 3442,
      "521-80904-7": 3443,
      "&s": 3444,
      ".htm": 3445,
      "LA": 3446,
      "bn": 3447,
      "s-": 3448,
      "tro": 3449,
      "ल्या": 3450,
      "ुंबई": 3451,
      "ैंड": 3452,
      "ం?action=edit&redlink=1": 3453,
      "చే": 3454,
      "బా": 3455,
      "▁राष्ट्र": 3456,
      "▁फ़रवरी": 3457,
      "▁[జ": 3458,
      "tex": 3459,
      "▁\"ह": 3460,
      "▁(eds.": 3461,
      "▁पह": 3462,
      "ict": 3463,
      "](https://hi.wikipedia.org/wiki/भारतीय": 3464,
      "](https://hi.wikipedia.org/wiki/भारत_की_": 3465,
      "▁अर्थ": 3466,
      "urn": 3467,
      "▁दर": 3468,
      "▁दृ": 3469,
      "▁प्रति": 3470,
      "▁प्रमुख": 3471,
      "▁పా": 3472,
      "▁बना": 3473,
      "विध": 3474,
      "▁2004": 3475,
      "▁వా": 3476,
      "त्तीस": 3477,
      "▁group": 3478,
      "ండు": 3479,
      "▁చూ": 3480,
      "త్వ": 3481,
      "▁states": 3482,
      "ప్రధాన": 3483,
      "▁తే": 3484,
      "हीं": 3485,
      "mbol": 3486,
      "▁द्वारा": 3487,
      "वेबैक": 3488,
      "▁मार्च": 3489,
      "minist": 3490,
      "▁0.": 3491,
      "\"):": 3492,
      "-14": 3493,
      "chin": 3494,
      "1990": 3495,
      "1162": 3496,
      "▁than": 3497,
      "▁northern": 3498,
      "▁[*The": 3499,
      "duction": 3500,
      "ervation": 3501,
      "2]](https://en.wikipedia.org/wiki/India#cite_note-FOOTNOTE": 3502,
      "Main": 3503,
      "_उ": 3504,
      "ahar": 3505,
      "back": 3506,
      "jan": 3507,
      "m.nic.in/": 3508,
      "ncl": 3509,
      "vatsyayan": 3510,
      "णे": 3511,
      "ाप": 3512,
      "ीमा": 3513,
      "ैल": 3514,
      "▁am": 3515,
      "▁29": 3516,
      "▁emp": 3517,
      "▁end": 3518,
      "▁[ओ": 3519,
      "▁[![](https://upload.wikimedia.org/wikipedia/commons/thumb/": 3520,
      "arge": 3521,
      "▁such": 3522,
      "▁जल": 3523,
      "▁दो": 3524,
      "▁भारतात": 3525,
      "](https://mr.wikipedia.org/wiki/स": 3526,
      "109": 3527,
      "▁later": 3528,
      "▁there": 3529,
      "वाद": 3530,
      "वादी": 3531,
      "▁art": 3532,
      "▁Language": 3533,
      "र्वो": 3534,
      "तेलु": 3535,
      "ांधी": 3536,
      "-108": 3537,
      "-107-1": 3538,
      "मुख्य": 3539,
      "_BRICS": 3540,
      "▁स्थाप": 3541,
      "athak": 3542,
      "▁million": 3543,
      "-in-": 3544,
      "-lord": 3545,
      "19-88": 3546,
      "▁classical": 3547,
      "श्रीलंका": 3548,
      "ehru": 3549,
      "nclm.nic.in/": 3550,
      "vatsyayan-lord": 3551,
      "c=": 3552,
      "ealth": 3553,
      "lor": 3554,
      "site": 3555,
      "utt": 3556,
      "ered": 3557,
      "▁(*": 3558,
      "ild": 3559,
      "state": 3560,
      "▁2017": 3561,
      "▁Min": 3562,
      "akh": 3563,
      "▁1947": 3564,
      "ankar": 3565,
      "lobal": 3566,
      "2–": 3567,
      "7-0)": 3568,
      "86": 3569,
      "JP": 3570,
      "National_": 3571,
      "_V": 3572,
      "_ए": 3573,
      "_సా": 3574,
      "_13": 3575,
      "d/": 3576,
      "lag": 3577,
      "ving": 3578,
      "y,": 3579,
      "किम": 3580,
      "खण्ड": 3581,
      "िला": 3582,
      "ेस": 3583,
      "ोम": 3584,
      "ంప": 3585,
      "కో": 3586,
      "గణ": 3587,
      "దిన": 3588,
      "నై": 3589,
      "రీ": 3590,
      "▁\"ल": 3591,
      "▁\"చ": 3592,
      "arliament": 3593,
      "](https://hi.wikipedia.org/wiki/इ": 3594,
      "भारतीय": 3595,
      "ould": 3596,
      "](https://te.wikipedia.org/wiki/జ": 3597,
      "ారం": 3598,
      "ammu": 3599,
      "▁Se": 3600,
      "▁वार": 3601,
      "▁2013": 3602,
      "▁Modern": 3603,
      "ticle": 3604,
      "▁British": 3605,
      "ताब्": 3606,
      "▁క్రీ": 3607,
      "క్‌": 3608,
      "నికి": 3609,
      "ల్ల": 3610,
      "ంగీ": 3611,
      "▁సి": 3612,
      "osed": 3613,
      "▁K.": 3614,
      "](https://hi.wikipedia.org/wiki/भारत#cite_ref-FOOTNOTE": 3615,
      "నాభా": 3616,
      "ांति": 3617,
      "▁हैं,": 3618,
      "జాబి": 3619,
      "Hindust": 3620,
      "erala": 3621,
      "रेल": 3622,
      "▁इसके": 3623,
      "वीं": 3624,
      "▁मुख्य": 3625,
      "पालिका": 3626,
      "▁सिनेमा": 3627,
      "▁శా": 3628,
      "▁భాష\")": 3629,
      "▁Environment": 3630,
      "బెంగ": 3631,
      "िक्किम": 3632,
      "वर्ग:": 3633,
      "▁February": 3634,
      "ताब्दी": 3635,
      "జాబితా": 3636,
      "BC": 3637,
      "a.": 3638,
      "cul": 3639,
      "rar": 3640,
      "ras": 3641,
      "war": 3642,
      "](https://en.wikipedia.org/wiki/O": 3643,
      "arly": 3644,
      "arna": 3645,
      "ed/": 3646,
      "▁(2018": 3647,
      "astern": 3648,
      "etra": 3649,
      "rim": 3650,
      "right": 3651,
      "atak": 3652,
      "▁mathe": 3653,
      "▁Per": 3654,
      "▁Pakistan": 3655,
      "istrar": 3656,
      "▁2019.": 3657,
      "olle": 3658,
      "Spear": 3659,
      "▁[\"C": 3660,
      "owland": 3661,
      "ouse": 3662,
      "MetcalfMetcalf2006),": 3663,
      "rowth": 3664,
      "▁who": 3665,
      "limate": 3666,
      "▁2018](https://en.wikipedia.org/wiki/India#CITEREF": 3667,
      "Harle1994": 3668,
      "](https://en.wikipedia.org/wiki/Economy_of_": 3669,
      ".IN": 3670,
      "5%": 3671,
      "UN": 3672,
      "len": 3673,
      "nal": 3674,
      "ंह": 3675,
      "दार": 3676,
      "धि": 3677,
      "भो": 3678,
      "रू": 3679,
      "रक्ष": 3680,
      "विक": 3681,
      "शक": 3682,
      "esearch": 3683,
      "नाम": 3684,
      "▁2015": 3685,
      "ताज": 3686,
      "_Sh": 3687,
      "▁2003": 3688,
      "▁[\"India": 3689,
      "ंग्रेस": 3690,
      "onstituent": 3691,
      "च्छ": 3692,
      "pura": 3693,
      "▁2021.\r\n": 3694,
      "भीम": 3695,
      "WEO.IN": 3696,
      "IMFWEO.IN": 3697,
      "-of": 3698,
      "9-0)": 3699,
      "Ludden": 3700,
      "Qu": 3701,
      "UCN": 3702,
      "_for": 3703,
      "tb": 3704,
      "yan": 3705,
      "▁under": 3706,
      "tig": 3707,
      "▁14": 3708,
      "errit": 3709,
      "do-A": 3710,
      "rown": 3711,
      "Wikipedia": 3712,
      "ector": 3713,
      "▁Act,": 3714,
      "300": 3715,
      "3]](https://en.wikipedia.org/wiki/India#cite_note-FOOTNOTE": 3716,
      "Dikshit": 3717,
      "Empire": 3718,
      "European": 3719,
      "Schwartzberg": 3720,
      "can": 3721,
      "cent": 3722,
      "dones": 3723,
      "ner": 3724,
      "rm": 3725,
      "ria": 3726,
      "ua": 3727,
      "ura": 3728,
      "west": 3729,
      "छत्तीस": 3730,
      "झार": 3731,
      "त्या": 3732,
      "सिट": 3733,
      "ा:": 3734,
      "ॉल": 3735,
      "ौद्योगिकी": 3736,
      "చల్": 3737,
      "యన్": 3738,
      "షు": 3739,
      "ూర్": 3740,
      "▁भा": 3741,
      "▁[m": 3742,
      "▁[ह": 3743,
      "▁[చ": 3744,
      "▁[భారత": 3745,
      "▁[భారతీయ": 3746,
      "▁[हिन्दी": 3747,
      "▁[पुरा": 3748,
      "▁\"V": 3749,
      "▁\"पंजाब": 3750,
      "](https://en.wikipedia.org/wiki/V": 3751,
      "](https://en.wikipedia.org/wiki/South_Asia": 3752,
      "▁सर्": 3753,
      "▁industry": 3754,
      "rative": 3755,
      "](https://te.wikipedia.org/wiki/ప": 3756,
      "](https://te.wikipedia.org/wiki/భారతీయ": 3757,
      "ార్ట": 3758,
      "ingdom": 3759,
      "्ता:": 3760,
      "agar": 3761,
      "▁many": 3762,
      "ాలయ": 3763,
      "▁[↑](https://mr.wikipedia.org/wiki/भारत#cite_ref-": 3764,
      "ेशिया": 3765,
      "▁नदी": 3766,
      "▁long": 3767,
      "▁large": 3768,
      "24)": 3769,
      "క్క": 3770,
      "▁వ్యవస్థ": 3771,
      "aksh": 3772,
      "ast_Asia": 3773,
      "प्रा": 3774,
      "▁संबंध": 3775,
      "▁ము": 3776,
      "osi": 3777,
      "ండో": 3778,
      "िये": 3779,
      "utra": 3780,
      "ముంబ": 3781,
      "సిన": 3782,
      "▁ये": 3783,
      "ినల్": 3784,
      "ద్ద": 3785,
      "▁ఉన్న": 3786,
      "▁ఉన్నాయ": 3787,
      "▁rule": 3788,
      "िशा": 3789,
      "పాకిస్తాన్": 3790,
      "▁people": 3791,
      "ूरो": 3792,
      "पूर्वी": 3793,
      "ంధీ": 3794,
      "inistry_of_": 3795,
      "_संघ": 3796,
      "▁ఒక": 3797,
      "▁ఒరిజ": 3798,
      "Special:BookSources/978-81": 3799,
      "हित्य": 3800,
      "▁न्यायालय": 3801,
      "धिकारिक": 3802,
      "వంశం": 3803,
      "▁अगस्त": 3804,
      "▁(eds.).": 3805,
      "▁తేదీ": 3806,
      "▁among": 3807,
      "र्वोच्च": 3808,
      "DikshitSchwartzberg": 3809,
      "▁[पुरालेखित": 3810,
      "ార్టీ": 3811,
      "▁ఒరిజినల్": 3812,
      "DikshitSchwartzberg2023": 3813,
      "\"](https://books.google.com/books?id=": 3814,
      "2,": 3815,
      "3/": 3816,
      "_n": 3817,
      "aus": 3818,
      "▁[978": 3819,
      "▁[United": 3820,
      "▁Ac": 3821,
      "ssam": 3822,
      "▁union": 3823,
      "ances": 3824,
      "545": 3825,
      "98": 3826,
      "cog": 3827,
      "jec": 3828,
      "ph": 3829,
      "दर्": 3830,
      "निक": 3831,
      "मर": 3832,
      "लग": 3833,
      "ळे": 3834,
      "हन": 3835,
      "ाक": 3836,
      "िख": 3837,
      "ीन": 3838,
      "ोब": 3839,
      "▁out": 3840,
      "▁history": 3841,
      "▁[पंजाब": 3842,
      "religion": 3843,
      "2016": 3844,
      "र्ष": 3845,
      "-15": 3846,
      "uslim": 3847,
      "▁All": 3848,
      "▁अने": 3849,
      "▁Bank": 3850,
      "23)": 3851,
      ".com/news/": 3852,
      "118": 3853,
      "▁original](https://www.": 3854,
      "चेरी": 3855,
      "िरपे": 3856,
      "▁आहेत.": 3857,
      "ार्क": 3858,
      "▁2021.": 3859,
      "/articleshow/": 3860,
      "िरपेक्ष": 3861,
      "01": 3862,
      "7,": 3863,
      "7_": 3864,
      "Pro": 3865,
      "languages": 3866,
      "pic": 3867,
      "rg": 3868,
      "rof": 3869,
      "rdu": 3870,
      "work": 3871,
      "▁em": 3872,
      "pee": 3873,
      "▁\"India": 3874,
      "India_": 3875,
      "alore": 3876,
      "rac": 3877,
      "▁some": 3878,
      "▁Arab": 3879,
      "▁Afric": 3880,
      "achin": 3881,
      "angalore": 3882,
      "rol": 3883,
      "_Summit": 3884,
      "2905": 3885,
      "key": 3886,
      "ext": 3887,
      "ineering": 3888,
      "viol": 3889,
      "arket": 3890,
      "\"](https://web.archive.org/web/20160": 3891,
      "ynast": 3892,
      "_at_the": 3893,
      "▁economic": 3894,
      "_in_South_Asia": 3895,
      ".png)": 3896,
      "1162-2": 3897,
      "-107-11162-2": 3898,
      "19-882905": 3899,
      "erritory": 3900,
      "ast_Asia_Summit": 3901,
      "19-882905-8": 3902,
      ".fr": 3903,
      "6/": 3904,
      "_धर्म": 3905,
      "rd": 3906,
      "sch": 3907,
      "ymbol": 3908,
      "गत": 3909,
      "िवर्": 3910,
      "ील": 3911,
      "ेक": 3912,
      "జ్": 3913,
      "వరి": 3914,
      "శ్చ": 3915,
      "ిన్న": 3916,
      "ెల": 3917,
      "▁ra": 3918,
      "▁ला": 3919,
      "▁[च": 3920,
      "▁\"प": 3921,
      "▁\"భారతదేశ": 3922,
      "▁कु": 3923,
      "](https://hi.wikipedia.org/wiki/आ": 3924,
      "](https://hi.wikipedia.org/wiki/ओ": 3925,
      "](https://hi.wikipedia.org/wiki/ग": 3926,
      "tions": 3927,
      "▁सैन": 3928,
      "▁मध्य": 3929,
      "ical_": 3930,
      "్రె": 3931,
      "▁हा": 3932,
      "▁अप्र": 3933,
      "ालदीव": 3934,
      "ियां": 3935,
      "](https://mr.wikipedia.org/wiki/क": 3936,
      "▁नी": 3937,
      "resident": 3938,
      "254": 3939,
      "1996": 3940,
      "िस्ट": 3941,
      "ాలు\r\n": 3942,
      "నిస్తాన్": 3943,
      "वायु": 3944,
      "▁इंडिया": 3945,
      "▁మధ్య": 3946,
      "▁[Asher": 3947,
      "▁Kashmir": 3948,
      "▁भाषाओं": 3949,
      "▁करने": 3950,
      "▁original](https://": 3951,
      "पर्यटन": 3952,
      "](https://te.wikipedia.org/wiki/భారతదేశంలో": 3953,
      "ंग्रेजी": 3954,
      "▁*[The": 3955,
      "స్థాన్": 3956,
      "endra": 3957,
      "▁मेला\")": 3958,
      "करण": 3959,
      "▁हुए": 3960,
      "ैदरा": 3961,
      "hrist": 3962,
      "meric": 3963,
      "▁धर्म\")": 3964,
      "पश्चिमी": 3965,
      "▁పేజీ": 3966,
      "▁कार्य": 3967,
      "orities": 3968,
      "మ్మూ": 3969,
      "▁Assembly": 3970,
      "नाडु": 3971,
      "▁\"భారతదేశంలో": 3972,
      "हिमाचल": 3973,
      "▁చూసిన": 3974,
      "▁తేదీ:": 3975,
      "▁अनेक": 3976,
      "శ్చి": 3977,
      "▁పేజీని": 3978,
      "84": 3979,
      "II": 3980,
      "ix": 3981,
      "▁imp": 3982,
      "tition": 3983,
      "ictionary": 3984,
      "▁since": 3985,
      "▁CE": 3986,
      "ulti": 3987,
      "▁R.": 3988,
      "ments": 3989,
      "▁Economic": 3990,
      "▁GDP": 3991,
      "_Centre": 3992,
      "ingham": 3993,
      ".svg/": 3994,
      "olden": 3995,
      "▁territory": 3996,
      "/auth": 3997,
      "3_": 3998,
      "6]](https://en.wikipedia.org/wiki/India#cite_note-": 3999,
      "71": 4000,
      "94": 4001,
      "RL": 4002,
      "_घ": 4003,
      "ave": 4004,
      "detail": 4005,
      "eb": 4006,
      "election": 4007,
      "fgh": 4008,
      "iri": 4009,
      "jpg": 4010,
      "k:": 4011,
      "olog": 4012,
      "yle": 4013,
      "zation": 4014,
      "त्व": 4015,
      "थे": 4016,
      "दल": 4017,
      "लंग": 4018,
      "ेड": 4019,
      "▁he": 4020,
      "▁her": 4021,
      "▁चित्र": 4022,
      "dian": 4023,
      "▁[19": 4024,
      "▁\"Oxford": 4025,
      "ines": 4026,
      "inance": 4027,
      "ally": 4028,
      "itary": 4029,
      "2015": 4030,
      "2017": 4031,
      "▁social": 4032,
      "urton": 4033,
      "▁वे": 4034,
      "▁maj": 4035,
      "▁minister": 4036,
      "ility": 4037,
      "26)": 4038,
      "Special:EditPage/": 4039,
      "upta": 4040,
      "▁Nadu": 4041,
      "-317": 4042,
      "▁गु": 4043,
      "ains": 4044,
      "ainism": 4045,
      "▁उद्य": 4046,
      "apan": 4047,
      "▁...": 4048,
      "▁article": 4049,
      "ंडोन": 4050,
      "▁Official": 4051,
      "▁रहा": 4052,
      "s](https://en.wikipedia.org/wiki/M": 4053,
      "overe": 4054,
      "ते.": 4055,
      "ligence": 4056,
      "▁अनु": 4057,
      "ंध्र": 4058,
      "▁प्राप्त": 4059,
      "ैदिक": 4060,
      "▁tex": 4061,
      "ohn": 4062,
      "/article": 4063,
      "गुजराती": 4064,
      "▁भूम": 4065,
      "त्रिपुरा": 4066,
      "ources": 4067,
      "censusindia.gov.in/2011census": 4068,
      "teenth": 4069,
      "arnatak": 4070,
      "telligence": 4071,
      "Spear1990": 4072,
      "fghan": 4073,
      "Special:EditPage/Template:": 4074,
      "415": 4075,
      "Pages": 4076,
      "a-": 4077,
      "e/": 4078,
      "oa": 4079,
      "orest": 4080,
      "▁(1,": 4081,
      "itz": 4082,
      "▁Cons": 4083,
      "▁Raj": 4084,
      "▁land": 4085,
      "28)": 4086,
      "_New": 4087,
      "▁3,": 4088,
      "...": 4089,
      "▁used": 4090,
      "0)": 4091,
      "119": 4092,
      "3),": 4093,
      "91": 4094,
      "_द": 4095,
      "_राज": 4096,
      "hang": 4097,
      "i,": 4098,
      "ihar": 4099,
      "press": 4100,
      "ँच": 4101,
      "खन": 4102,
      "टि": 4103,
      "तट": 4104,
      "थल": 4105,
      "मह": 4106,
      "वली": 4107,
      "िज": 4108,
      "షన్": 4109,
      "హ్": 4110,
      "ెలు": 4111,
      "▁ले": 4112,
      "▁2.": 4113,
      "▁1998": 4114,
      "▁term": 4115,
      "▁[V": 4116,
      "▁[ल": 4117,
      "▁[Oxford": 4118,
      "▁\"च": 4119,
      "▁सद": 4120,
      "▁they": 4121,
      "▁India*](https://books.google.com/books?id=": 4122,
      "राठी": 4123,
      "](https://te.wikipedia.org/wiki/అ": 4124,
      "ety": 4125,
      "etary": 4126,
      "inger": 4127,
      "▁केन्द्र": 4128,
      "▁जी": 4129,
      "ेशन": 4130,
      "▁दिल्ली": 4131,
      "▁प्रकार": 4132,
      "▁नृत्य": 4133,
      "▁नहीं": 4134,
      "▁से](http://www.": 4135,
      "రియా": 4136,
      "▁शताब्दी": 4137,
      "▁మార్": 4138,
      "▁है।[[": 4139,
      "▁Wiki": 4140,
      "▁लग": 4141,
      "ournal": 4142,
      "own": 4143,
      "ప్రపంచ": 4144,
      "मुद्र": 4145,
      "ीपी": 4146,
      "विशेष:EditPage/": 4147,
      "▁वर्षा": 4148,
      "गणराज्य": 4149,
      "▁సంస్కృతి": 4150,
      "దీవ": 4151,
      "▁स्रोत/978-0-": 4152,
      "▁स्रोत/978-1": 4153,
      "](https://hi.wikipedia.org/wiki/विशेष:पुस्तक_स्रोत/978-0-": 4154,
      "](https://hi.wikipedia.org/wiki/विशेष:पुस्तक_स्रोत/978-1": 4155,
      "▁उत्पाद": 4156,
      "_साम्राज्य": 4157,
      "_Development": 4158,
      "union_territ": 4159,
      "▁चुनाव": 4160,
      "रेलू": 4161,
      "▁[पुरालेखित](https://web.archive.org/web/201": 4162,
      "विशेष:EditPage/साँचा:": 4163,
      "63": 4164,
      "6]](https://en.wikipedia.org/wiki/India#cite_note-FOOTNOTE": 4165,
      "_In": 4166,
      "az": 4167,
      "garh": 4168,
      "owe": 4169,
      "▁ci": 4170,
      "▁oc": 4171,
      "▁\"United": 4172,
      "▁\"History": 4173,
      "](https://en.wikipedia.org/wiki/History": 4174,
      "19-5": 4175,
      "1970": 4176,
      "-06": 4177,
      "▁SAARC": 4178,
      "▁found": 4179,
      "ada": 4180,
      "▁trans": 4181,
      "▁both": 4182,
      "urban": 4183,
      "industry": 4184,
      "▁largest": 4185,
      "▁General": 4186,
      "ryan": 4187,
      "verse": 4188,
      "▁2026": 4189,
      "riculture": 4190,
      "reek": 4191,
      "ography": 4192,
      "▁play": 4193,
      "▁world's": 4194,
      "Articles": 4195,
      "▁2006](https://en.wikipedia.org/wiki/India#CITEREFMetcalfMetcalf2006),": 4196,
      "▁article:": 4197,
      "fghanistan": 4198,
      "▁occ": 4199,
      "219": 4200,
      "3TR": 4201,
      "Ag": 4202,
      "_en": 4203,
      "ao": 4204,
      "गू": 4205,
      "तन": 4206,
      "बी": 4207,
      "मिक": 4208,
      "लया": 4209,
      "वास": 4210,
      "enn": 4211,
      "Informatics": 4212,
      "्यान": 4213,
      "▁मैदान": 4214,
      "rature": 4215,
      "-00": 4216,
      "▁Al": 4217,
      "▁व्या": 4218,
      "ISO": 4219,
      "▁बंगाल": 4220,
      "▁ते": 4221,
      "25)": 4222,
      "india-g": 4223,
      "▁Nations": 4224,
      "harm": 4225,
      "▁संसद": 4226,
      "imf": 4227,
      "_मंदिर": 4228,
      "ffer": 4229,
      "ffice": 4230,
      "▁होती": 4231,
      "-pro": 4232,
      "ुरू": 4233,
      "actbook": 4234,
      "rishn": 4235,
      "▁लेख:": 4236,
      "3TRt": 4237,
      "127": 4238,
      "9).": 4239,
      "bank": 4240,
      "i-": 4241,
      "itt": 4242,
      "stitu": 4243,
      "▁/": 4244,
      "ancy": 4245,
      "▁(20": 4246,
      "▁Science": 4247,
      "▁12": 4248,
      "onsoon": 4249,
      "▁India\").": 4250,
      "ubcontinent": 4251,
      "▁north": 4252,
      "▁Fr": 4253,
      "▁status": 4254,
      "-india-": 4255,
      "CS1\\_": 4256,
      "formation": 4257,
      ".aspx?": 4258,
      "*)": 4259,
      "-विज्ञान": 4260,
      "1-1": 4261,
      "4-108": 4262,
      "Robb": 4263,
      "Sharma": 4264,
      "_J": 4265,
      "_వ": 4266,
      "_with": 4267,
      "britannica": 4268,
      "gram": 4269,
      "hal": 4270,
      "ili": 4271,
      "lack": 4272,
      "ning": 4273,
      "ov": 4274,
      "ris": 4275,
      "ंट": 4276,
      "ईरा": 4277,
      "पान": 4278,
      "फल": 4279,
      "फ्रीका": 4280,
      "र-": 4281,
      "वेश": 4282,
      "षय": 4283,
      "सून": 4284,
      "ीच": 4285,
      "ेघ": 4286,
      "ం\"),": 4287,
      "ంత్రి": 4288,
      "ఆఫ్": 4289,
      "కత": 4290,
      "కై": 4291,
      "క్య": 4292,
      "దాయ": 4293,
      "రే": 4294,
      "లంక": 4295,
      "వీ": 4296,
      "శ్రీ": 4297,
      "షి": 4298,
      "సు": 4299,
      "▁ఏ": 4300,
      "](Category:": 4301,
      "▁[सा": 4302,
      "▁[సి": 4303,
      "▁[दक्षिण": 4304,
      "▁\"दक्षिण": 4305,
      "▁\"हिन्दी": 4306,
      "▁\"पाकिस्तान": 4307,
      "aran": 4308,
      "ess/": 4309,
      "▁कई": 4310,
      "▁कश्मीर": 4311,
      "](https://hi.wikipedia.org/wiki/हिन्दी": 4312,
      "](https://hi.wikipedia.org/wiki/पंजाब": 4313,
      "reme": 4314,
      "▁(India": 4315,
      "▁महासागर": 4316,
      "▁पश्चि": 4317,
      "icon": 4318,
      "](https://te.wikipedia.org/wiki/చ": 4319,
      "▁sp": 4320,
      "▁power": 4321,
      "▁Company": 4322,
      "▁Summit\")": 4323,
      "los": 4324,
      "▁member": 4325,
      "road": 4326,
      "స్సా": 4327,
      "▁పరి": 4328,
      "▁పార్టీ": 4329,
      "▁आधिकारिक": 4330,
      "▁बीच": 4331,
      "emale": 4332,
      "న్‌": 4333,
      "▁Bengal": 4334,
      "▁Delhi": 4335,
      "▁से](http://": 4336,
      "▁Gandhi": 4337,
      "▁కు": 4338,
      "लेट": 4339,
      "▁వచ్చ": 4340,
      ".[[3": 4341,
      "▁इन": 4342,
      "epal": 4343,
      "▁\"Category:": 4344,
      "ముద్ర": 4345,
      "हाद्वीप": 4346,
      "▁began": 4347,
      "तेलंग": 4348,
      "ूनिवर्": 4349,
      "▁करोड़": 4350,
      "न्दा": 4351,
      "न्दिर": 4352,
      "ock": 4353,
      "▁[अंग्रेज़ी": 4354,
      "▁\"अंग्रेज़ी": 4355,
      "हरिया": 4356,
      "uddhism": 4357,
      "ibet": 4358,
      "▁राजनी": 4359,
      "engali": 4360,
      "▁\"National": 4361,
      "articles": 4362,
      "ultural": 4363,
      "_pro": 4364,
      "గాంధీ": 4365,
      "▁जनगणना": 4366,
      "▁हैं।\r\n": 4367,
      "ष्ण": 4368,
      "ब्ब": 4369,
      "ducation": 4370,
      "నేపాల": 4371,
      "Oxford_University_Press": 4372,
      "Stein2010),": 4373,
      "usiness/": 4374,
      "▁जिसमें": 4375,
      "▁పేరు": 4376,
      "హిందీ": 4377,
      "▁द्वीप": 4378,
      "हिन्दू": 4379,
      "▁Empire\")": 4380,
      "▁कारण": 4381,
      "074-108": 4382,
      "गोआ": 4383,
      "_मेला?action=edit&redlink=1": 4384,
      "▁చెయ్య": 4385,
      "esert": 4386,
      "▁स्थित": 4387,
      "ोर्ड": 4388,
      "▁కూడా": 4389,
      "▁संस्कृति": 4390,
      "▁2010](https://en.wikipedia.org/wiki/India#CITEREFStein2010),": 4391,
      "-78074-108": 4392,
      "▁high": 4393,
      "▁Press](https://en.wikipedia.org/wiki/Oxford_University_Press": 4394,
      "ultanate": 4395,
      "ministrative": 4396,
      "ంగీతం": 4397,
      "yanmar": 4398,
      "do-Aryan": 4399,
      "झारखंड": 4400,
      "ముంబై": 4401,
      "rgani": 4402,
      "శ్చిమ": 4403,
      "Spear199024": 4404,
      "▁మార్గ": 4405,
      "britannica.com/": 4406,
      "gramme": 4407,
      "ूनिवर्सिट": 4408,
      "▁[अंग्रेज़ी](https://hi.wikipedia.org/wiki/अ": 4409,
      "▁చెయ్యబడ": 4410,
      "-78074-108-6": 4411,
      "-India": 4412,
      "130": 4413,
      "54": 4414,
      ";\r\n": 4415,
      "c.": 4416,
      "ho": 4417,
      "ie": 4418,
      "ities": 4419,
      "ks": 4420,
      "ling": 4421,
      "t-": 4422,
      "ins": 4423,
      "hief": 4424,
      "ement": 4425,
      "105": 4426,
      "▁David": 4427,
      "▁2005": 4428,
      "akhand": 4429,
      "epart": 4430,
      "▁Valley": 4431,
      "▁left": 4432,
      "▁States": 4433,
      "-largest": 4434,
      "-language\\_": 4435,
      "-to-": 4436,
      "epartment": 4437,
      ".world": 4438,
      "110": 4439,
      "5/": 4440,
      "CL": 4441,
      "Re": 4442,
      "Report": 4443,
      "ey": 4444,
      "eval": 4445,
      "भर": 4446,
      "मध्ये": 4447,
      "ाय": 4448,
      "▁५": 4449,
      "▁50": 4450,
      "▁[पाकिस्तान": 4451,
      "▁C.": 4452,
      "▁Con": 4453,
      "local": 4454,
      "▁maint:": 4455,
      "▁made": 4456,
      "▁Pl": 4457,
      "▁11": 4458,
      "▁2011.": 4459,
      "▁आर्थिक": 4460,
      "▁total": 4461,
      "index": 4462,
      "क्षर": 4463,
      "िस्": 4464,
      "षाण": 4465,
      "▁[\"The": 4466,
      "ंडी": 4467,
      "▁रो": 4468,
      "def": 4469,
      "_Delhi": 4470,
      "▁देश\")": 4471,
      "▁depend": 4472,
      "ालीन": 4473,
      "रुणा": 4474,
      "पीठ": 4475,
      "ुरक्षा": 4476,
      "edieval": 4477,
      "गातील": 4478,
      "▁साम्राज्य\")": 4479,
      "▁पर्वत": 4480,
      "cogni": 4481,
      "Informatics_Centre": 4482,
      "रुणाचल": 4483,
      "-C": 4484,
      ".bn": 4485,
      "124": 4486,
      "1-3": 4487,
      "7]](https://en.wikipedia.org/wiki/India#cite_note-FOOTNOTE": 4488,
      "Congress": 4489,
      "_9": 4490,
      "be": 4491,
      "mal": 4492,
      "pres": 4493,
      "oral": 4494,
      "▁[p": 4495,
      "anor": 4496,
      "thnic": 4497,
      "](https://en.wikipedia.org/wiki/South": 4498,
      "tice": 4499,
      "eries": 4500,
      "arl": 4501,
      "aria": 4502,
      "aldi": 4503,
      "cip": 4504,
      "▁(2006": 4505,
      "asing": 4506,
      "icha": 4507,
      "▁prime": 4508,
      "ament": 4509,
      "lowing": 4510,
      "urch": 4511,
      "states": 4512,
      "003": 4513,
      "▁Be": 4514,
      "sian": 4515,
      "ly,": 4516,
      "▁From": 4517,
      "aputra": 4518,
      "](https://web.archive.org/web/200": 4519,
      "otals": 4520,
      "s](https://en.wikipedia.org/wiki/List_of_": 4521,
      "undament": 4522,
      "avy": 4523,
      "ommonwealth": 4524,
      "_Temple": 4525,
      "order": 4526,
      "rough": 4527,
      "histor": 4528,
      "_East_Asia_Summit": 4529,
      "qual": 4530,
      "](https://en.wikipedia.org/wiki/List_of_countries_by": 4531,
      "/cb": 4532,
      "▁lead": 4533,
      "flu": 4534,
      "▁York": 4535,
      "rahmaputra": 4536,
      "emocracy": 4537,
      "▁(India)\")": 4538,
      "rganization": 4539,
      "aldives": 4540,
      "ichael": 4541,
      "9,": 4542,
      "Wolpert": 4543,
      "_2": 4544,
      "glia": 4545,
      "zed": 4546,
      "पि": 4547,
      "भु": 4548,
      "भ्यता": 4549,
      "शन": 4550,
      "हरा": 4551,
      "१८": 4552,
      "గర": 4553,
      "టక": 4554,
      "టా": 4555,
      "దార": 4556,
      "నీ": 4557,
      "రో": 4558,
      "సభ": 4559,
      "ెద్ద": 4560,
      "▁[ड": 4561,
      "▁[प": 4562,
      "▁\"సి": 4563,
      "▁कुल": 4564,
      "](https://hi.wikipedia.org/wiki/ल": 4565,
      "](https://hi.wikipedia.org/wiki/ह": 4566,
      "ret": 4567,
      "भारत)": 4568,
      "▁सूचना": 4569,
      "as,": 4570,
      "lect": 4571,
      "](https://te.wikipedia.org/wiki/భారత_": 4572,
      "र्ज": 4573,
      "ams": 4574,
      "ata_": 4575,
      "](https://hi.wikipedia.org/wiki/भारत_का_": 4576,
      "▁अव": 4577,
      "▁movement": 4578,
      "▁दशक": 4579,
      "▁పు": 4580,
      "▁Mon": 4581,
      "▁नद": 4582,
      "emon": 4583,
      "तात.": 4584,
      "▁D.": 4585,
      "_सि": 4586,
      "రాజ్య": 4587,
      "▁కేంద్రపాలిత": 4588,
      "elang": 4589,
      "▁शक्ति": 4590,
      "▁[मध्य": 4591,
      "▁మా": 4592,
      "हिमालय": 4593,
      "▁చే": 4594,
      "ము\")": 4595,
      "▁\"मध्य": 4596,
      "▁लोग": 4597,
      "త్స": 4598,
      "▁రాజ్య": 4599,
      "▁क्षेत्रीय": 4600,
      "▁area": 4601,
      "వాతంత్ర": 4602,
      "ivis": 4603,
      "▁जाती": 4604,
      "जनसंख्या": 4605,
      "▁वर्ग": 4606,
      "▁जनसंख्या": 4607,
      "द्वार": 4608,
      "▁దేశాల": 4609,
      "లాదేశ్": 4610,
      "]](https://hi.wikipedia.org/wiki/भारत#cite_note-FOOTNOTEStein1998": 4611,
      "]](https://hi.wikipedia.org/wiki/भारत#cite_note-FOOTNOTESingh2009": 4612,
      "స్తు": 4613,
      "▁సామ్రాజ్యం](https://te.wikipedia.org/wiki/": 4614,
      "ంగ్లాదేశ్": 4615,
      "▁భాషలు": 4616,
      "ారు.": 4617,
      ".svg.png)": 4618,
      ".html)": 4619,
      "_ప్రా": 4620,
      "fication": 4621,
      "त्तराखण्ड": 4622,
      "▁estim": 4623,
      "్రిటి": 4624,
      "▁शिक्षा": 4625,
      "▁అధికార": 4626,
      "▁अर्थव्यवस्था": 4627,
      "ildlife": 4628,
      "etraglia": 4629,
      "ताजमह": 4630,
      "ూర్పు": 4631,
      "▁[हिन्दी](https://hi.wikipedia.org/wiki/हिन्दी": 4632,
      "▁अप्रैल": 4633,
      "ैदराबाद": 4634,
      "3TRtDwAAQBAJ&pg=PA": 4635,
      "కైవు": 4636,
      "ंडीगढ़": 4637,
      "318": 4638,
      "vid": 4639,
      "▁ed.).": 4640,
      "▁[c": 4641,
      "reed": 4642,
      "▁country": 4643,
      "▁Sec": 4644,
      "lopedia": 4645,
      "▁Publishing": 4646,
      "21)": 4647,
      "▁Tamil": 4648,
      "▁Di": 4649,
      "▁Ex": 4650,
      "▁Himalay": 4651,
      "ounci": 4652,
      "imach": 4653,
      "▁Press,": 4654,
      "olitic": 4655,
      "odiversity": 4656,
      "▁2019.\r\n": 4657,
      "cript": 4658,
      "cyclopedia": 4659,
      "apita": 4660,
      "ustralia": 4661,
      "ociety": 4662,
      "document": 4663,
      "-S": 4664,
      "-and": 4665,
      "-29": 4666,
      "129": 4667,
      "IJ": 4668,
      "Library": 4669,
      "Rowland": 4670,
      "SAARC": 4671,
      "Un": 4672,
      "af": 4673,
      "aury": 4674,
      "ject": 4675,
      "kar": 4676,
      "lance": 4677,
      "sur": 4678,
      "shar": 4679,
      "uth": 4680,
      "ym": 4681,
      "ंच": 4682,
      "कालीन": 4683,
      "टा": 4684,
      "बेट": 4685,
      "मो": 4686,
      "ृद्ध": 4687,
      "▁his": 4688,
      "orce": 4689,
      "ortheast": 4690,
      "▁\"[": 4691,
      "onom": 4692,
      "hib": 4693,
      "aries": 4694,
      "20)": 4695,
      "▁काल": 4696,
      "leg": 4697,
      "▁south": 4698,
      "rig": 4699,
      "-135": 4700,
      "▁co": 4701,
      "ages/": 4702,
      "▁अभ": 4703,
      "▁विस्त": 4704,
      "▁mar": 4705,
      "mrits": 4706,
      "olon": 4707,
      "00)": 4708,
      "linkim": 4709,
      "▁River": 4710,
      "](https://mr.wikipedia.org/wiki/अ": 4711,
      "](https://mr.wikipedia.org/wiki/आ": 4712,
      "्वे": 4713,
      "▁काळ": 4714,
      "aylor": 4715,
      "क्षद्वीप": 4716,
      "▁Ge": 4717,
      "force": 4718,
      "▁शहर": 4719,
      "](https://en.wikipedia.org/wiki/India#CITEREFB": 4720,
      "abha": 4721,
      "asting": 4722,
      "▁non-": 4723,
      "काता": 4724,
      "udi": 4725,
      "▁विविध": 4726,
      "ummer": 4727,
      "overty": 4728,
      "ternal": 4729,
      "चेन्न": 4730,
      "ोलकाता": 4731,
      "operation": 4732,
      "ublication": 4733,
      "ज्ज": 4734,
      "तमिळ": 4735,
      "▁२०१": 4736,
      "do-P": 4737,
      "\")*,": 4738,
      "%E0%A4%A": 4739,
      "िवस": 4740,
      "शासित_प्रदेश": 4741,
      "-lead": 4742,
      "NGDP": 4743,
      "nclm.nic.in/shar": 4744,
      "ed/linkim": 4745,
      "भीमबेट": 4746,
      "donesia": 4747,
      "▁सैन्य": 4748,
      "india-glance": 4749,
      "Rowland1970": 4750,
      "चेन्नई": 4751,
      "nclm.nic.in/shared/linkim": 4752,
      "भीमबेटका": 4753,
      "india-glance/": 4754,
      "nclm.nic.in/shared/linkimages/": 4755,
      "-22": 4756,
      "/P": 4757,
      "53": 4758,
      "All": 4759,
      "QAAQBAJ&pg=PA": 4760,
      "dr": 4761,
      "ser": 4762,
      "ors": 4763,
      "arath": 4764,
      "ominal": 4765,
      "educ": 4766,
      "▁(19": 4767,
      "▁S.": 4768,
      "\\_us": 4769,
      "vel": 4770,
      "▁western": 4771,
      "▁Republic": 4772,
      "-30": 4773,
      "▁human": 4774,
      "▁Linguistic": 4775,
      "visions": 4776,
      ".php?": 4777,
      "education": 4778,
      "-n": 4779,
      "-with": 4780,
      ".ni": 4781,
      "09": 4782,
      "DD": 4783,
      "_इ": 4784,
      "ple": 4785,
      "public": 4786,
      "rial": 4787,
      "s\r\n": 4788,
      "ंची": 4789,
      "को": 4790,
      "तृत": 4791,
      "फ्र": 4792,
      "महाद्वीप": 4793,
      "यपुर": 4794,
      "रण": 4795,
      "लों": 4796,
      "लिस": 4797,
      "श्य": 4798,
      "सि": 4799,
      "ంజా": 4800,
      "గి": 4801,
      "టీ": 4802,
      "టాన్": 4803,
      "మంత్రి": 4804,
      "లను": 4805,
      "వె": 4806,
      "వరణ": 4807,
      "హదార": 4808,
      "ూచ": 4809,
      "▁హ": 4810,
      "▁భారతదేశ": 4811,
      ".org": 4812,
      "▁[4": 4813,
      "▁\"व": 4814,
      "▁\"सा": 4815,
      "▁\"तमिल": 4816,
      "on,": 4817,
      "arli": 4818,
      "▁कॉ": 4819,
      "](https://hi.wikipedia.org/wiki/च": 4820,
      "them": 4821,
      "्यों": 4822,
      "్రమ": 4823,
      "ानव": 4824,
      "ing_": 4825,
      "ेंज": 4826,
      "url": 4827,
      "▁P.": 4828,
      "▁दोन": 4829,
      "▁प्रधानमंत्री": 4830,
      "▁प्रौद्योगिकी": 4831,
      "▁आशिया": 4832,
      "▁भारत\")": 4833,
      "्वतंत्रता": 4834,
      "▁ब्रिटिश": 4835,
      "భారతదేశ_": 4836,
      "▁కొ": 4837,
      "-3)": 4838,
      "▁వ్యా": 4839,
      "▁new": 4840,
      "▁J.": 4841,
      "▁మత": 4842,
      "▁మతము": 4843,
      "good": 4844,
      "160": 4845,
      "स्तान": 4846,
      "ियार": 4847,
      "తావరణ": 4848,
      "నాడు": 4849,
      "▁राज्य\")": 4850,
      "ांची": 4851,
      "परमाणु": 4852,
      "ोलन": 4853,
      "▁ఉంది.": 4854,
      "▁राजधान": 4855,
      "▁राजवंश": 4856,
      "गुप्त": 4857,
      "▁life": 4858,
      "▁ఇతర": 4859,
      "▁मेला](https://hi.wikipedia.org/wiki/": 4860,
      "ాయి": 4861,
      "economic": 4862,
      "ship": 4863,
      "ణాసియా": 4864,
      "pringer": 4865,
      "▁right": 4866,
      "▁था।": 4867,
      "టెడ్": 4868,
      "▁ఆర్కైవు": 4869,
      "▁पार्टी": 4870,
      "▁निर्माण": 4871,
      "▁ऑफ": 4872,
      "िंधु": 4873,
      "▁రైలు": 4874,
      "భూటాన్": 4875,
      "pectancy": 4876,
      "▁पहले": 4877,
      "तेलुगू": 4878,
      "_సామ్రాజ్యం": 4879,
      "▁सर्वा": 4880,
      "▁चुनावों": 4881,
      "▁\"पाकिस्तान\")": 4882,
      "Wolpert2003": 4883,
      "వాతంత్ర్య": 4884,
      "\"[[": 4885,
      "2]](https://en.wikipedia.org/wiki/India#cite_note-": 4886,
      "2-4": 4887,
      "72": 4888,
      "Gua": 4889,
      "JIJ": 4890,
      "Zva": 4891,
      "_14": 4892,
      "aha": 4893,
      "ez": 4894,
      "ham": 4895,
      "lurton": 4896,
      "rid": 4897,
      "s_of_India": 4898,
      "▁urban": 4899,
      "ency": 4900,
      "erry": 4901,
      "arendra": 4902,
      "▁them": 4903,
      "icob": 4904,
      "▁India](https://en.wikipedia.org/wiki/G": 4905,
      "▁influ": 4906,
      "rat": 4907,
      "ravi": 4908,
      "▁pre": 4909,
      "▁painting": 4910,
      "-16": 4911,
      "ature": 4912,
      "lief": 4913,
      "▁dire": 4914,
      "▁app": 4915,
      "nium": 4916,
      "▁Data": 4917,
      "ayback": 4918,
      "▁Europe": 4919,
      "▁eastern": 4920,
      "▁1960": 4921,
      "▁[\"A": 4922,
      "uduch": 4923,
      "▁Lank": 4924,
      "-90": 4925,
      "▁Kingdom": 4926,
      "ots": 4927,
      "▁[↑](https://en.wikipedia.org/wiki/India#cite_ref-FOOTNOTEMetcalfMetcalf2006": 4928,
      "avi": 4929,
      "_Nadu": 4930,
      "ikkim": 4931,
      "general_": 4932,
      "amil_Nadu": 4933,
      "▁1994": 4934,
      "▁contrib": 4935,
      "_Indian_general_": 4936,
      "urrent": 4937,
      "▁dispu": 4938,
      "%7C": 4939,
      "%7c": 4940,
      "volution": 4941,
      "▁employ": 4942,
      "quality": 4943,
      "GuaJIJ": 4944,
      "ZvaGuaJIJ": 4945,
      "uducherry": 4946,
      "_Indian_general_election": 4947,
      "ZvaGuaJIJgo": 4948,
      "-50": 4949,
      "/ark": 4950,
      "3,": 4951,
      "320": 4952,
      "9–": 4953,
      "New": 4954,
      "National": 4955,
      "Vu": 4956,
      "ZVu": 4957,
      "_प": 4958,
      "_श": 4959,
      "_on": 4960,
      "_राज्य": 4961,
      "f.fr": 4962,
      "kZVu": 4963,
      "map": 4964,
      "णाली": 4965,
      "दु": 4966,
      "निरपेक्ष": 4967,
      "रि": 4968,
      "र\")": 4969,
      "ुक": 4970,
      "४७": 4971,
      "५०": 4972,
      "▁३": 4973,
      ":/121": 4974,
      "▁[वि": 4975,
      "▁\"य": 4976,
      "208": 4977,
      "▁साल": 4978,
      "▁सभा": 4979,
      "▁मिल": 4980,
      "राम": 4981,
      "▁second": 4982,
      "ripura": 4983,
      "217": 4984,
      "▁भारताच्या": 4985,
      "](https://mr.wikipedia.org/wiki/इ": 4986,
      "](https://mr.wikipedia.org/wiki/ब": 4987,
      "▁नव": 4988,
      "akes": 4989,
      "ियन": 4990,
      "▁\"महाराष्ट्र": 4991,
      "ांत": 4992,
      "anipur": 4993,
      "48/cb": 4994,
      "▁नेतृत": 4995,
      "hya": 4996,
      "शीन": 4997,
      "▁economy": 4998,
      "cyclop": 4999,
      "धुनिक": 5000,
      "Uttarakhand": 5001,
      "hasha": 5002,
      "पूर्ण": 5003,
      "▁Minorities": 5004,
      "▁चित्रपट": 5005,
      ".bnf.fr": 5006,
      "/ark:/121": 5007,
      ".bnf.fr/ark:/121": 5008,
      ".bnf.fr/ark:/12148/cb": 5009,
      "-on-": 5010,
      "3-8": 5011,
      "NA": 5012,
      "bb": 5013,
      "cess": 5014,
      "cise": 5015,
      "gra": 5016,
      "hra": 5017,
      "ii": 5018,
      "▁6.": 5019,
      "tered": 5020,
      "es,": 5021,
      "estic": 5022,
      "▁culture": 5023,
      "▁billion": 5024,
      "urve": 5025,
      "26.": 5026,
      "▁Government": 5027,
      "ritsch": 5028,
      "▁Indus": 5029,
      "▁Ocean": 5030,
      "ource": 5031,
      "ogue": 5032,
      "MetcalfMetcalf2012": 5033,
      "▁[National": 5034,
      "▁2,": 5035,
      "8/8": 5036,
      "duct": 5037,
      ".html).": 5038,
      "cording": 5039,
      "text": 5040,
      "National_Informatics_Centre": 5041,
      "National_Informatics_Centre2005": 5042,
      "/D": 5043,
      "3–": 5044,
      "4]](https://en.wikipedia.org/wiki/India#cite_note-": 5045,
      "5]](https://en.wikipedia.org/wiki/India#cite_note-FOOTNOTE": 5046,
      "Kashmir": 5047,
      "Taj": 5048,
      "aut": 5049,
      "each": 5050,
      "iz": 5051,
      "ka": 5052,
      "lood": 5053,
      "oard": 5054,
      "ward": 5055,
      "yer": 5056,
      "yam": 5057,
      "अभि": 5058,
      "एन": 5059,
      "जं": 5060,
      "दि": 5061,
      "ध्या": 5062,
      "नु": 5063,
      "न्तर": 5064,
      "फोर्ड": 5065,
      "मरी": 5066,
      "मिल": 5067,
      "मृत": 5068,
      "यत": 5069,
      "ळी": 5070,
      "शोक": 5071,
      "ी.": 5072,
      "ैंक": 5073,
      "ोली": 5074,
      "ौसेना": 5075,
      "्ह": 5076,
      "२००": 5077,
      "ంశ": 5078,
      "ఆర్": 5079,
      "ఉత్తర": 5080,
      "ఒడి": 5081,
      "కీయ": 5082,
      "గలు": 5083,
      "చు": 5084,
      "జరా": 5085,
      "తూర్పు": 5086,
      "భు": 5087,
      "మన్": 5088,
      "యి": 5089,
      "లస": 5090,
      "ీన": 5091,
      "ేక": 5092,
      "▁,": 5093,
      "▁·": 5094,
      "▁औ": 5095,
      "▁డ": 5096,
      "▁im": 5097,
      "▁జాబితా": 5098,
      "iam": 5099,
      "pecial": 5100,
      "▁[य": 5101,
      "▁[భారతదేశ": 5102,
      "▁\"ड": 5103,
      "esti": 5104,
      "▁किन": 5105,
      "](https://hi.wikipedia.org/wiki/दक्षिण": 5106,
      "](https://hi.wikipedia.org/wiki/पाकिस्तान": 5107,
      "report": 5108,
      "▁सह": 5109,
      "▁मौ": 5110,
      "ootb": 5111,
      "ानगर": 5112,
      "▁summits": 5113,
      "](https://hi.wikipedia.org/wiki/भारत_के": 5114,
      "▁far": 5115,
      "\"),[[": 5116,
      "ver,": 5117,
      "ists": 5118,
      "ular": 5119,
      "uled": 5120,
      "hell": 5121,
      "▁जय": 5122,
      "▁women": 5123,
      "▁పట్ట": 5124,
      "](https://mr.wikipedia.org/wiki/ज": 5125,
      "](https://mr.wikipedia.org/wiki/चित्र:": 5126,
      "▁**జాతీయ": 5127,
      "ర్\")": 5128,
      "▁तर": 5129,
      "न्स": 5130,
      "253": 5131,
      "▁काम": 5132,
      "ित्त": 5133,
      "ecu": 5134,
      "▁Gu": 5135,
      "▁November": 5136,
      "▁Nehru": 5137,
      "architecture": 5138,
      "నిక": 5139,
      "▁report": 5140,
      "▁relations": 5141,
      "थाई": 5142,
      "▁उन": 5143,
      "▁1965": 5144,
      "▁[महाराष्ट्र": 5145,
      "ంగ్రె": 5146,
      "▁సభ": 5147,
      "osp": 5148,
      "▁forest": 5149,
      "ड़ियाँ": 5150,
      "▁gre": 5151,
      "▁विदेश": 5152,
      "తాబ్": 5153,
      "law": 5154,
      "matic": 5155,
      "▁राज्यक्षेत्र": 5156,
      "arty": 5157,
      "aves": 5158,
      "▁ప్రపంచ": 5159,
      "▁ప్రభు": 5160,
      "oreign": 5161,
      "iley": 5162,
      "केन्द्र": 5163,
      "▁अन्त": 5164,
      "▁क्षेत्रों": 5165,
      "_summits": 5166,
      "▁ఆసియా": 5167,
      "▁खास": 5168,
      "▁[Government": 5169,
      "athura": 5170,
      "మ్రాజ్య": 5171,
      "▁जनवरी": 5172,
      "पुरम": 5173,
      "▁मेला\"),": 5174,
      "णिपुरी": 5175,
      "▁हिन्द": 5176,
      "ंग्रेज़ी_भाषा": 5177,
      "▁technology": 5178,
      "ब्ल": 5179,
      "timesofindia": 5180,
      "గుజరా": 5181,
      "](https://en.wikipedia.org/wiki/List_of_SAARC": 5182,
      "ज्ञाप": 5183,
      "▁regions": 5184,
      "▁[![A": 5185,
      "ashmiri": 5186,
      "समिया": 5187,
      "alayal": 5188,
      "ancis": 5189,
      "▁సామ్రాజ్యం\")": 5190,
      "▁Hinduism": 5191,
      "▁State": 5192,
      "▁स्वतंत्रता": 5193,
      "▁मानसून": 5194,
      "ंपनी": 5195,
      "बंधन": 5196,
      "▁पुरालेखित।,": 5197,
      "awahar": 5198,
      "▁युग": 5199,
      "త్యేక": 5200,
      "రాష్ట్రపతి": 5201,
      "kingdom": 5202,
      "ప్ప": 5203,
      "_और_संघ": 5204,
      "▁కాశ్మీ": 5205,
      "▁రాజవంశం": 5206,
      "▁बहुत": 5207,
      "_के_आधार_पर_भारत_के_राज्यों_की_सूची": 5208,
      "▁చెంద": 5209,
      "बांग्लादेश": 5210,
      "▁ఆర్ధిక": 5211,
      "eserve": 5212,
      "%20%20%20%20": 5213,
      "नागाल": 5214,
      "oint": 5215,
      "▁స్థాన": 5216,
      "▁ईसा": 5217,
      "-4020": 5218,
      "తమిళనాడు": 5219,
      "ilgrim": 5220,
      "▁ओर": 5221,
      "क्सफोर्ड": 5222,
      "omason": 5223,
      "_Islands": 5224,
      "ప్రధానమంత్రి": 5225,
      "_BRICS_summit": 5226,
      "గణతంత్ర": 5227,
      "▁క్రీడ": 5228,
      "▁Persian": 5229,
      "छत्तीसगढ़": 5230,
      "▁ఉన్నాయి.": 5231,
      "Provision": 5232,
      "ymbols": 5233,
      "▁कुछ": 5234,
      "overeign": 5235,
      "ेघालय": 5236,
      "ఆఫ్ఘ": 5237,
      "శ్రీలంక": 5238,
      "షియా": 5239,
      "న్‌ఫ": 5240,
      "तेलंगाना": 5241,
      "हरियाणा": 5242,
      "నేపాల్": 5243,
      "▁[अंग्रेज़ी](https://hi.wikipedia.org/wiki/अंग्रेज़ी_भाषा": 5244,
      "icobar": 5245,
      "ZvaGuaJIJgoC&pg=PA": 5246,
      "अभिज्ञाप": 5247,
      "ootball": 5248,
      "▁summits\")": 5249,
      "తాబ్ద": 5250,
      "timesofindia.indiatimes.com/": 5251,
      "](https://en.wikipedia.org/wiki/List_of_SAARC_summits": 5252,
      "awaharl": 5253,
      "अभिज्ञापक": 5254,
      "-D": 5255,
      "123": 5256,
      "52": 5257,
      "7.\r\n": 5258,
      "Ethnologue": 5259,
      "a)": 5260,
      "nc": 5261,
      "ned": 5262,
      "nominal": 5263,
      "que": 5264,
      "tl": 5265,
      "lem": 5266,
      "entury": 5267,
      "\\_articles": 5268,
      "umar": 5269,
      "▁mi": 5270,
      "▁man": 5271,
      "ilk": 5272,
      "▁Territory": 5273,
      "▁Research": 5274,
      "iger": 5275,
      "▁H.": 5276,
      "_St": 5277,
      "archive.org/detail": 5278,
      "166": 5279,
      "▁2024.": 5280,
      "struc": 5281,
      "langoff-1": 5282,
      "hristian": 5283,
      "Pages\\_us": 5284,
      "fferent": 5285,
      "nominal)": 5286,
      "archive.org/details/": 5287,
      "/files/": 5288,
      "125": 5289,
      "7).": 5290,
      "AS": 5291,
      "Bharat": 5292,
      "Con": 5293,
      "_languages": 5294,
      "ime": 5295,
      "most": 5296,
      "voy": 5297,
      "ंदी": 5298,
      "गढ": 5299,
      "गान": 5300,
      "ठार": 5301,
      "ण\")": 5302,
      "पत्त": 5303,
      "शत": 5304,
      "िर्": 5305,
      "▁°": 5306,
      "▁रा": 5307,
      "▁Qu": 5308,
      "▁[व": 5309,
      "▁[श": 5310,
      "▁[प्र": 5311,
      "en,": 5312,
      "hild": 5313,
      "erg": 5314,
      "▁समाज": 5315,
      "▁सीमा": 5316,
      "▁पद": 5317,
      "▁sector": 5318,
      "्तु": 5319,
      "▁Centre": 5320,
      "urity": 5321,
      "्षिक": 5322,
      "▁des": 5323,
      "▁प्रत्य": 5324,
      "▁Rothermund": 5325,
      "▁सेवा": 5326,
      "28.": 5327,
      "_Ass": 5328,
      "aryana": 5329,
      "22-9": 5330,
      "▁name": 5331,
      "▁साहित्य": 5332,
      "▁[Ministry": 5333,
      "▁\"British": 5334,
      "मुळे": 5335,
      "hmed": 5336,
      "feb": 5337,
      "_and_depend": 5338,
      "_128": 5339,
      "▁produc": 5340,
      "_भारतीय_": 5341,
      "official": 5342,
      "▁देख": 5343,
      "ृष्ठ": 5344,
      "▁Plateau": 5345,
      "क्रम": 5346,
      "टिबंध": 5347,
      "▁Wikidata": 5348,
      "▁रोजी": 5349,
      "olitical_": 5350,
      ".\")\r\n": 5351,
      ".](https://upload.wikimedia.org/wikipedia/commons/thumb/": 5352,
      "/India": 5353,
      "1-0": 5354,
      "313": 5355,
      "4]](https://en.wikipedia.org/wiki/India#cite_note-FOOTNOTE": 5356,
      "577": 5357,
      "8–": 5358,
      "MC": 5359,
      "MID": 5360,
      "_g": 5361,
      "_26": 5362,
      "ate_": 5363,
      "ather": 5364,
      "ced": 5365,
      "code": 5366,
      "casting": 5367,
      "hu": 5368,
      "hat": 5369,
      "had": 5370,
      "ij": 5371,
      "ker": 5372,
      "ncient": 5373,
      "pture": 5374,
      "rust": 5375,
      "yy": 5376,
      "▁low": 5377,
      "▁[U": 5378,
      "▁[f": 5379,
      "th_BRICS_summit": 5380,
      "arlo": 5381,
      "araj": 5382,
      "aland": 5383,
      "alli": 5384,
      "▁caus": 5385,
      "▁Civil": 5386,
      "agari": 5387,
      "▁Schwartzberg": 5388,
      "▁tree": 5389,
      "loth": 5390,
      "▁Punjab": 5391,
      "_of_2011": 5392,
      "▁2014.": 5393,
      "▁This": 5394,
      "▁M.": 5395,
      "ema": 5396,
      "emic": 5397,
      "emographic": 5398,
      "hatt": 5399,
      "oples": 5400,
      "▁only": 5401,
      "ained": 5402,
      "▁rem": 5403,
      "▁these": 5404,
      "](https://en.wikipedia.org/wiki/India#CITEREFM": 5405,
      "22.": 5406,
      "_Paper": 5407,
      "▁[↑](https://en.wikipedia.org/wiki/India#cite_ref-FOOTNOTEB": 5408,
      "a_d": 5409,
      "rief": 5410,
      "ligions": 5411,
      "_Totals": 5412,
      "ociation": 5413,
      "ockey": 5414,
      "opulation_Totals": 5415,
      "▁language\"),": 5416,
      "▁development": 5417,
      "▁Press](https://en.wikipedia.org/wiki/C": 5418,
      "ikhism": 5419,
      "ibcode": 5420,
      "▁[Dyson": 5421,
      "ender": 5422,
      "▁\"Re": 5423,
      "674": 5424,
      "_1_of_2011": 5425,
      "do-European": 5426,
      "▁languages\")": 5427,
      "▁addition": 5428,
      "▁when": 5429,
      "o-operation": 5430,
      "_Lank": 5431,
      "▁Islands\")": 5432,
      "gypt": 5433,
      "uisine": 5434,
      "vanagari": 5435,
      "ighth": 5436,
      "dependence": 5437,
      ".php": 5438,
      "disha": 5439,
      "al_Population_Totals": 5440,
      "JPG": 5441,
      "arnatic": 5442,
      "ynasty": 5443,
      "ological": 5444,
      "](https://en.wikipedia.org/wiki/History_of_": 5445,
      "roadcasting": 5446,
      "mritsar": 5447,
      "Provisional_Population_Totals": 5448,
      "_Paper_1_of_2011": 5449,
      "Provisional_Population_Totals_Paper_1_of_2011": 5450,
      "Provisional_Population_Totals_Paper_1_of_2011_India": 5451,
      "-r": 5452,
      ".uk": 5453,
      "0–": 5454,
      "5).": 5455,
      "AG": 5456,
      "C-0": 5457,
      "EX": 5458,
      "IUCN": 5459,
      "\\*": 5460,
      "_24": 5461,
      "_38": 5462,
      "_एशिया": 5463,
      "_ప్రదేశ్": 5464,
      "ds": 5465,
      "ues": 5466,
      "अंग्रेज़ी": 5467,
      "अनुसार": 5468,
      "गलु": 5469,
      "डिशा": 5470,
      "दरा": 5471,
      "पाली": 5472,
      "भग": 5473,
      "यर": 5474,
      "शा": 5475,
      "ाची": 5476,
      "ैली": 5477,
      "ोड": 5478,
      "ोस": 5479,
      "ोला": 5480,
      "ం,": 5481,
      "ఉప": 5482,
      "కొ": 5483,
      "కేంద్రపాలిత": 5484,
      "జె": 5485,
      "ఢ్": 5486,
      "ది.": 5487,
      "నాల": 5488,
      "లే": 5489,
      "ళు": 5490,
      "ౌద్ధ": 5491,
      "▁४": 5492,
      "▁భా": 5493,
      "▁[ने": 5494,
      "▁[వి": 5495,
      "▁\"द": 5496,
      "▁\"ने": 5497,
      "▁\"दिल्ली": 5498,
      "an-": 5499,
      "tis": 5500,
      "ars": 5501,
      "2025": 5502,
      "▁कम": 5503,
      "](https://hi.wikipedia.org/wiki/ज": 5504,
      "](https://hi.wikipedia.org/wiki/तमिल": 5505,
      "rel": 5506,
      "▁सित": 5507,
      "▁मई": 5508,
      "raj": 5509,
      "ेंगलु": 5510,
      "](https://hi.wikipedia.org/wiki/भारत_के_राज्य": 5511,
      "िकोब": 5512,
      "adhya": 5513,
      "loc": 5514,
      "ాలీ": 5515,
      "▁में,": 5516,
      "▁जब": 5517,
      "▁2012.": 5518,
      "▁प्रेस": 5519,
      "ंग्र": 5520,
      "-0)\r\n": 5521,
      "ర్చ": 5522,
      "न्ह": 5523,
      "_(भारत)": 5524,
      "irth": 5525,
      "_से": 5526,
      "तिब्ब": 5527,
      "ాలు?action=edit&redlink=1": 5528,
      "_Act": 5529,
      "▁गई": 5530,
      "▁religious": 5531,
      "▁Fund": 5532,
      "ड़िया": 5533,
      "म्भ": 5534,
      "त्तरी": 5535,
      "संधान": 5536,
      "स्त्र": 5537,
      "]](https://hi.wikipedia.org/wiki/भारत#cite_note-pib": 5538,
      "_Pro": 5539,
      "_के_अनुसार": 5540,
      "▁लिये": 5541,
      "▁यूनिवर्सिट": 5542,
      "–సా.శ.18": 5543,
      "▁అత్య": 5544,
      "▁ఆధ": 5545,
      "▁आहेत": 5546,
      "మాఖ్య": 5547,
      "వాణా": 5548,
      "द्यालय": 5549,
      "ంటి": 5550,
      "▁जनजाति": 5551,
      "वेली": 5552,
      "content": 5553,
      "▁घाट": 5554,
      "धील": 5555,
      "▁దేశం": 5556,
      "onstitutional": 5557,
      "शास्त्र": 5558,
      "▁भाषा\")[[": 5559,
      "html).": 5560,
      "డ్డ": 5561,
      "▁జనాభా": 5562,
      "దక్షిణాసియా": 5563,
      "▁\"उत्तर": 5564,
      "▁గల": 5565,
      "▁భారతదేశంలో": 5566,
      "ంగ్లీ": 5567,
      "_नदी": 5568,
      "యునై": 5569,
      "ష్ణ": 5570,
      "_చరిత్ర?action=edit&redlink=1": 5571,
      "%E0%A4%BE": 5572,
      "नाडू": 5573,
      "ोर्ट": 5574,
      "▁రాష్ట్రాలు,": 5575,
      "माजिक": 5576,
      "_देशों_की_सूची": 5577,
      "_మతము": 5578,
      "▁మొద": 5579,
      "_उत्": 5580,
      "▁(2018),": 5581,
      "ंडोनेशिया": 5582,
      "rishnan": 5583,
      "▁చెయ్యబడింది.": 5584,
      "▁[पाकिस्तान](https://hi.wikipedia.org/wiki/पाकिस्तान": 5585,
      "क्षरता": 5586,
      "_सिनेमा": 5587,
      "▁कॉंग्रेस": 5588,
      "kZVuDwAAQBAJ&pg=PA": 5589,
      "▁\"महाराष्ट्र\")": 5590,
      "ेंगलुरु": 5591,
      "िकोबार": 5592,
      "▁यूनिवर्सिटी": 5593,
      "యునైటెడ్": 5594,
      "/b": 5595,
      "/hind": 5596,
      "2)\r\n": 5597,
      "338": 5598,
      "34)": 5599,
      "S.": 5600,
      "day": 5601,
      "dust": 5602,
      "fob": 5603,
      "hut": 5604,
      "iodiversity": 5605,
      "ox": 5606,
      "ption": 5607,
      "s18": 5608,
      "▁z": 5609,
      "▁36": 5610,
      "▁old": 5611,
      "▁[World": 5612,
      "▁\"19": 5613,
      "▁prom": 5614,
      "▁Central": 5615,
      "0000": 5616,
      "1017": 5617,
      "▁2001": 5618,
      "▁near": 5619,
      "407": 5620,
      "27)": 5621,
      "▁[Singh": 5622,
      "▁[British": 5623,
      "ternational_": 5624,
      "▁def": 5625,
      "▁\"Government": 5626,
      "article": 5627,
      "▁[Kulke": 5628,
      "overnment_of_India": 5629,
      "▁use": 5630,
      "▁composed": 5631,
      "▁wide": 5632,
      "▁along": 5633,
      "catal": 5634,
      "Hindustan": 5635,
      "cognized": 5636,
      "reedom": 5637,
      "ouncil": 5638,
      "arliest": 5639,
      "urvey": 5640,
      "-logo": 5641,
      "1-4": 5642,
      "2%": 5643,
      "2)[[": 5644,
      "66": 5645,
      "9/": 5646,
      "ES": 5647,
      "F)": 5648,
      "Fr": 5649,
      "IF": 5650,
      "Language": 5651,
      "_-": 5652,
      "_v": 5653,
      "_pe": 5654,
      "_17": 5655,
      "_43": 5656,
      "ax": 5657,
      "cover": 5658,
      "epend": 5659,
      "i.": 5660,
      "ren": 5661,
      "y-": 5662,
      "ंती": 5663,
      "गध": 5664,
      "जपुरी": 5665,
      "तो": 5666,
      "तुल": 5667,
      "पास": 5668,
      "यो": 5669,
      "लम": 5670,
      "हम": 5671,
      "ाख": 5672,
      "ातील": 5673,
      "ृष": 5674,
      "ैथि": 5675,
      "ॉग": 5676,
      "्न": 5677,
      "–24": 5678,
      "▁United": 5679,
      "iary": 5680,
      "orn": 5681,
      "](Template:": 5682,
      "▁[द": 5683,
      "▁[लोक": 5684,
      "▁\"का": 5685,
      "anat": 5686,
      "ारो": 5687,
      "alit": 5688,
      "▁समा": 5689,
      "anda": 5690,
      "ed,": 5691,
      "▁(199": 5692,
      "asi": 5693,
      "ashi": 5694,
      "▁India.[[": 5695,
      "▁India*.": 5696,
      "▁India](https://en.wikipedia.org/wiki/C": 5697,
      "raz": 5698,
      "र्क": 5699,
      "▁colle": 5700,
      "▁Cooperation": 5701,
      "\\_cont": 5702,
      "▁fam": 5703,
      "adwe": 5704,
      "adras": 5705,
      "▁अमेर": 5706,
      "▁Park": 5707,
      "comm": 5708,
      "▁दी": 5709,
      "]](https://en.wikipedia.org/wiki/India#cite_note-Combined": 5710,
      "▁आक": 5711,
      "▁Man": 5712,
      "▁बौद्ध": 5713,
      "▁B.;": 5714,
      "▁att": 5715,
      "ign_": 5716,
      "igarh": 5717,
      "eccan": 5718,
      "क्षण": 5719,
      "▁Games": 5720,
      "▁religion": 5721,
      "▁through": 5722,
      "▁शु": 5723,
      "ability": 5724,
      "▁संस्थान": 5725,
      "▁hum": 5726,
      "AAJ": 5727,
      "▁growth": 5728,
      "▁\"Mughal": 5729,
      ".gov.in": 5730,
      "a_Empire": 5731,
      "▁within": 5732,
      "-107-0": 5733,
      "▁\"Template:": 5734,
      "▁exp": 5735,
      "%2C_India": 5736,
      "issing": 5737,
      "▁[Dikshit": 5738,
      "49-2": 5739,
      "ports": 5740,
      "दाख": 5741,
      "ahal": 5742,
      "handigarh": 5743,
      "समूह": 5744,
      "_Force": 5745,
      "▁[उत्तर": 5746,
      "AsherTalbot20": 5747,
      "ंग्ल": 5748,
      "india.gov.in/india-glance/": 5749,
      "ynth": 5750,
      "ughal_": 5751,
      "▁ago": 5752,
      "attle": 5753,
      "ediff": 5754,
      "ographical": 5755,
      "Dyson2018),": 5756,
      "mitt": 5757,
      "ote:": 5758,
      "ortal:": 5759,
      "rishna": 5760,
      "▁संगीत": 5761,
      "जयनगर": 5762,
      "▁especial": 5763,
      "▁Buddhist": 5764,
      "▁increased": 5765,
      ".htm)": 5766,
      "▁groups": 5767,
      "culpture": 5768,
      "▁2018](https://en.wikipedia.org/wiki/India#CITEREFDyson2018),": 5769,
      "भोजपुरी": 5770,
      "akshadwe": 5771,
      "प्राचीन": 5772,
      "achine": 5773,
      "violence": 5774,
      "▁भूमिका": 5775,
      "arnataka": 5776,
      "uthority": 5777,
      "तमिळनाडू": 5778,
      "▁नेतृत्व": 5779,
      "▁Quote:": 5780,
      "hattis": 5781,
      "ैथिली": 5782,
      "\\_contain": 5783,
      "▁especially": 5784,
      "akshadweep": 5785,
      "-ex": 5786,
      "-world": 5787,
      "324": 5788,
      "350": 5789,
      "418": 5790,
      "Alig": 5791,
      "CH": 5792,
      "PO": 5793,
      "_h": 5794,
      "lm": 5795,
      "vent": 5796,
      "▁—": 5797,
      "tection": 5798,
      "▁(b": 5799,
      "198": 5800,
      "rest": 5801,
      ".jpe": 5802,
      "115": 5803,
      "50th": 5804,
      "▁Incre": 5805,
      "dex": 5806,
      "emplate_": 5807,
      "709": 5808,
      "iance": 5809,
      "▁[978-0-521": 5810,
      "_population": 5811,
      "▁control": 5812,
      "on-Alig": 5813,
      "ondon": 5814,
      "bi.n": 5815,
      "4/4": 5816,
      ".nih": 5817,
      "ncbi.n": 5818,
      "Pages\\_using\\_": 5819,
      "lm.nih": 5820,
      "on-Aligned": 5821,
      "ncbi.nlm.nih": 5822,
      "\"](http://": 5823,
      ",NGDP": 5824,
      "/s": 5825,
      "226": 5826,
      "4,": 5827,
      ":EditPage/": 5828,
      "_న": 5829,
      "_20": 5830,
      "_36": 5831,
      "ek": 5832,
      "eth": 5833,
      "ईसा": 5834,
      "उप": 5835,
      "केंद्र": 5836,
      "गंगा": 5837,
      "चेंज": 5838,
      "जें": 5839,
      "थियार": 5840,
      "फा": 5841,
      "मत": 5842,
      "रिया": 5843,
      "वल": 5844,
      "हू": 5845,
      "ाचे": 5846,
      "ॉक": 5847,
      "्लेट": 5848,
      "२६": 5849,
      "५७": 5850,
      "ఖండ": 5851,
      "గం": 5852,
      "టిక": 5853,
      "డే": 5854,
      "ద్య": 5855,
      "మార్": 5856,
      "మాలయ": 5857,
      "లలో": 5858,
      "లకు": 5859,
      "ళ్": 5860,
      "వ](https://te.wikipedia.org/wiki/": 5861,
      "ానికి": 5862,
      "ాళు": 5863,
      "ీర్": 5864,
      "▁భ": 5865,
      "▁యు": 5866,
      "▁थे": 5867,
      "win": 5868,
      "▁[राज्य": 5869,
      "▁[तमिल": 5870,
      "▁\"వి": 5871,
      "ारम्भ": 5872,
      "alt": 5873,
      "](https://hi.wikipedia.org/wiki/प": 5874,
      "](https://hi.wikipedia.org/wiki/य": 5875,
      "recognized": 5876,
      "thehind": 5877,
      "▁स्तर": 5878,
      "▁सभ्यता": 5879,
      "▁महा": 5880,
      "रात": 5881,
      "ानक": 5882,
      "▁popul": 5883,
      "▁हवा": 5884,
      "ator": 5885,
      "▁Chand": 5886,
      "](https://hi.wikipedia.org/wiki/भारत_स": 5887,
      "](https://hi.wikipedia.org/wiki/भारत_का": 5888,
      "▁असे": 5889,
      "▁अलग": 5890,
      "ాలో": 5891,
      "▁जिन": 5892,
      "స్వ": 5893,
      "స్లా": 5894,
      "ंगीत": 5895,
      "▁పాల": 5896,
      "▁बड़े": 5897,
      "भाजन": 5898,
      "▁त्या": 5899,
      "▁नगर": 5900,
      "న్\")": 5901,
      "▁B.": 5902,
      "▁काही": 5903,
      "267": 5904,
      "वियत": 5905,
      "oung": 5906,
      "▁కార": 5907,
      "▁కలి": 5908,
      "_Affairs": 5909,
      "రిహ": 5910,
      "రికత": 5911,
      "క్నాల": 5912,
      "▁गांधी": 5913,
      "ంది.\r\n": 5914,
      "నిమా": 5915,
      "▁సంగీతం": 5916,
      "▁विभाग": 5917,
      "संख्य": 5918,
      "▁रक्षा": 5919,
      "▁./वर्ग:": 5920,
      "▁చి": 5921,
      "](https://hi.wikipedia.org/wiki/भारत#cite_ref-pib": 5922,
      "](https://hi.wikipedia.org/wiki/भारत#cite_ref-langoff": 5923,
      "]](https://hi.wikipedia.org/wiki/भारत#cite_note-langoff-1": 5924,
      "lative": 5925,
      "हाँ": 5926,
      "ndhra": 5927,
      "-7mar": 5928,
      "ులు\"),": 5929,
      "–సా.శ.13": 5930,
      "▁అయ": 5931,
      "▁ప్రధాన": 5932,
      "▁करता": 5933,
      "](https://hi.wikipedia.org/wiki/मध्य": 5934,
      "ప్రదాయ": 5935,
      "ప్రత్యేక": 5936,
      "ద్వీ": 5937,
      "▁ఉప": 5938,
      "aith": 5939,
      "▁రె": 5940,
      "issile": 5941,
      "_GDP": 5942,
      "న్నడ": 5943,
      "वर्ष": 5944,
      "ంటు": 5945,
      "Asher2006": 5946,
      "AsherAsher2006": 5947,
      "▁घोष": 5948,
      "धीश": 5949,
      "धीरे": 5950,
      "▁దేశంలో": 5951,
      "▁निभा": 5952,
      "ल्प": 5953,
      "html)": 5954,
      "120]](https://hi.wikipedia.org/wiki/भारत#cite_note-langoff-1": 5955,
      "కాశ్మీ": 5956,
      "▁पाकिस्तान": 5957,
      "ంధు": 5958,
      "Stein1998),": 5959,
      "Singh2009),": 5960,
      "వర్గం:Harv": 5961,
      "ों_की_सूची?action=edit&redlink=1": 5962,
      "▁CITEREFStein1998": 5963,
      "▁CITEREFSingh2009": 5964,
      "ंपरा": 5965,
      "▁शासित": 5966,
      "▁उपमहाद्वीप": 5967,
      "](https://hi.wikipedia.org/wiki/भारत#CITEREFStein1998),": 5968,
      "](https://hi.wikipedia.org/wiki/भारत#CITEREFSingh2009),": 5969,
      "ద్ధం": 5970,
      "ద్ధి": 5971,
      "ాల్దీవ": 5972,
      "చ్చే": 5973,
      "KulkeRothermund200": 5974,
      "ureau": 5975,
      "దక్షిణ_": 5976,
      "▁मंदिर\")": 5977,
      "▁కాంగ్రె": 5978,
      "रोहर": 5979,
      "▁मोदी": 5980,
      "▁दिसंबर": 5981,
      "▁डॉल": 5982,
      "టెక్నాల": 5983,
      "▁ప్రాంతాలు": 5984,
      "హిమాలయ": 5985,
      "▁2009](https://hi.wikipedia.org/wiki/भारत#CITEREFSingh2009),": 5986,
      "▁वर्षों": 5987,
      "▁व्यवस्था": 5988,
      "▁संस्कृती": 5989,
      "View": 5990,
      "_from": 5991,
      "ौर्य": 5992,
      "▁లే": 5993,
      "త్తరా": 5994,
      "स्लाम": 5995,
      "स्लामी": 5996,
      "నాగరికత": 5997,
      "క్కువ": 5998,
      "troduction": 5999,
      "▁दृश्य": 6000,
      "క్‌సభ": 6001,
      "▁सिनेमा\"),": 6002,
      "▁శాస్త్ర": 6003,
      "tiger": 6004,
      "ెలుగు": 6005,
      "▁1998](https://hi.wikipedia.org/wiki/भारत#CITEREFStein1998),": 6006,
      "bank.org/": 6007,
      "▁पश्चिम": 6008,
      "▁వచ్చింది.": 6009,
      "_ప్రాంత": 6010,
      "पत्ति": 6011,
      "टिबंधीय": 6012,
      "ర్చ:": 6013,
      "dustrial": 6014,
      ":EditPage/మూస:": 6015,
      "ాళుక్య": 6016,
      "](https://hi.wikipedia.org/wiki/भारत#cite_ref-langoff_128": 6017,
      "-7mar2011": 6018,
      "ప్రత్యేక:EditPage/మూస:": 6019,
      "_GDP_(": 6020,
      "120]](https://hi.wikipedia.org/wiki/भारत#cite_note-langoff-128)": 6021,
      "టెక్నాలజీ": 6022,
      "*](http://": 6023,
      "-an": 6024,
      "/).": 6025,
      "3).": 6026,
      "3.\r\n": 6027,
      "6.\r\n": 6028,
      "7%": 6029,
      "7C": 6030,
      "9]](https://en.wikipedia.org/wiki/India#cite_note-": 6031,
      "9]](https://en.wikipedia.org/wiki/India#cite_note-FOOTNOTE": 6032,
      "Census": 6033,
      "Ex": 6034,
      "IB": 6035,
      "Petraglia": 6036,
      "Raj": 6037,
      "_&": 6038,
      "_2024": 6039,
      "ative": 6040,
      "baki": 6041,
      "c/c": 6042,
      "dic": 6043,
      "henn": 6044,
      "khand": 6045,
      "lue": 6046,
      "rang": 6047,
      "subcontinent": 6048,
      "vil": 6049,
      "wana": 6050,
      "▁ge": 6051,
      "▁eng": 6052,
      "▁histor": 6053,
      "orship": 6054,
      "ences": 6055,
      "▁\"World": 6056,
      "](https://en.wikipedia.org/wiki/World": 6057,
      "erved": 6058,
      "erman": 6059,
      "aro": 6060,
      "artition": 6061,
      "ala": 6062,
      "ederal": 6063,
      "▁(ed.).": 6064,
      "ichell": 6065,
      "▁political": 6066,
      "ately": 6067,
      "▁coast": 6068,
      "uss": 6069,
      "ref-10": 6070,
      "atna": 6071,
      "▁Comp": 6072,
      "▁Affairs": 6073,
      "note-10": 6074,
      "ango": 6075,
      "angam": 6076,
      "lite": 6077,
      "▁bu": 6078,
      "lock": 6079,
      "urry": 6080,
      "very": 6081,
      "▁14.": 6082,
      "iland": 6083,
      "stani": 6084,
      "▁work": 6085,
      "▁dom": 6086,
      "oln": 6087,
      "▁Michael": 6088,
      "identifiers": 6089,
      "▁By": 6090,
      "eck": 6091,
      "india.com/": 6092,
      "hai": 6093,
      "hak": 6094,
      "_Air": 6095,
      "-459": 6096,
      "-85": 6097,
      "harkhand": 6098,
      "oss": 6099,
      "406]](https://en.wikipedia.org/wiki/India#cite_note-": 6100,
      "▁\"Cambridge": 6101,
      "ountain": 6102,
      "▁gen": 6103,
      "▁[Cambridge": 6104,
      "_Comm": 6105,
      "ourbaki": 6106,
      "▁[↑](https://en.wikipedia.org/wiki/India#cite_ref-FOOTNOTEStein2010": 6107,
      "s](https://en.wikipedia.org/wiki/A": 6108,
      "s](https://en.wikipedia.org/wiki/S": 6109,
      "▁before": 6110,
      "](https://en.wikipedia.org/wiki/British": 6111,
      "arden": 6112,
      "▁range": 6113,
      "aking": 6114,
      "akistani": 6115,
      "vention": 6116,
      "class": 6117,
      "677": 6118,
      "▁lite": 6119,
      "ambridge_University_Press": 6120,
      "▁vill": 6121,
      "erves": 6122,
      "aceu": 6123,
      "1971": 6124,
      "ollingham": 6125,
      "hola": 6126,
      "cheduled": 6127,
      "▁People": 6128,
      "▁including": 6129,
      "▁Registrar": 6130,
      "▁[India](https://en.wikipedia.org/wiki/India": 6131,
      "vatsyayan-lord-4": 6132,
      "vatsyayan-lord_43": 6133,
      "nergy": 6134,
      "](https://en.wikipedia.org/wiki/South_Asian_": 6135,
      "owever,": 6136,
      "Articles\\_contain": 6137,
      "harmaceu": 6138,
      "undamental": 6139,
      "olonial": 6140,
      "do-Pakistani": 6141,
      "Allchin": 6142,
      "alayalam": 6143,
      "▁Press](https://en.wikipedia.org/wiki/Cambridge_University_Press": 6144,
      "hutan": 6145,
      "PetragliaAllchin": 6146,
      "hennai": 6147,
      "406]](https://en.wikipedia.org/wiki/India#cite_note-vatsyayan-lord-4": 6148,
      "/india": 6149,
      "41": 6150,
      "6)\r\n": 6151,
      "M50th": 6152,
      "NCL": 6153,
      "_0": 6154,
      "_यु": 6155,
      "_वार": 6156,
      "equality": 6157,
      "kb": 6158,
      "m2": 6159,
      "o-d": 6160,
      "round": 6161,
      "क\")": 6162,
      "ग्वे": 6163,
      "धन": 6164,
      "नत": 6165,
      "ल्त": 6166,
      "लाल": 6167,
      "ुरा": 6168,
      "▁46": 6169,
      "▁[का": 6170,
      "ened": 6171,
      "▁\"राजस्थान": 6172,
      "arth": 6173,
      "▁सुरक्षा": 6174,
      "▁मन": 6175,
      "▁pres": 6176,
      "agen": 6177,
      "\\_(": 6178,
      "\\_in": 6179,
      "▁वृद्ध": 6180,
      "istor": 6181,
      "Southeast": 6182,
      "▁आज": 6183,
      "▁आप": 6184,
      "▁Muslim": 6185,
      "▁बार": 6186,
      "10)": 6187,
      "23.": 6188,
      "▁Dictionary": 6189,
      "▁Health": 6190,
      "▁संख्या": 6191,
      "▁[\"G": 6192,
      "▁[\"P": 6193,
      "%20A": 6194,
      "पूर": 6195,
      "राष्ट्रीय_स": 6196,
      "%E0%A5%": 6197,
      "णिपुर": 6198,
      "▁हिमालय": 6199,
      "▁(2014).": 6200,
      "▁१९९": 6201,
      "▁Chinese": 6202,
      "लिंग": 6203,
      "▁नदी\")": 6204,
      "Report.pdf)": 6205,
      "nclm.nic.in/shared/linkimages/NCL": 6206,
      "▁प्रत्येक": 6207,
      "M50thReport.pdf)": 6208,
      "ल्तनत": 6209,
      "▁\"राजस्थान\")": 6210,
      "nclm.nic.in/shared/linkimages/NCLM50thReport.pdf)": 6211,
      "2),": 6212,
      "400": 6213,
      "5_": 6214,
      ";[[": 6215,
      "C)": 6216,
      "Pakistan": 6217,
      "Th": 6218,
      "aul": 6219,
      "ead": 6220,
      "ece": 6221,
      "s:": 6222,
      "▁[n": 6223,
      "▁\"U": 6224,
      "of\\_": 6225,
      "asht": 6226,
      "1967": 6227,
      "id-": 6228,
      "ets": 6229,
      "-13": 6230,
      "-1\").\r\n": 6231,
      "atab": 6232,
      "▁Ad": 6233,
      "▁Society": 6234,
      "\\_of\\_": 6235,
      "loped": 6236,
      "_of_Congress": 6237,
      "▁Minister": 6238,
      "bert": 6239,
      "▁2007.": 6240,
      "opland": 6241,
      "▁1962": 6242,
      "ody": 6243,
      "▁house": 6244,
      "48)": 6245,
      "▁[New": 6246,
      "type": 6247,
      "onstitution_of_India": 6248,
      "▁contin": 6249,
      "▁Programme": 6250,
      "▁different": 6251,
      "▁estimate": 6252,
      "hmedabad": 6253,
      "%3": 6254,
      "-w": 6255,
      "-the": 6256,
      "-24": 6257,
      ".పూ.": 6258,
      "221": 6259,
      "5]](https://en.wikipedia.org/wiki/India#cite_note-": 6260,
      "7]](https://en.wikipedia.org/wiki/India#cite_note-": 6261,
      "8]](https://en.wikipedia.org/wiki/India#cite_note-FOOTNOTE": 6262,
      "=20": 6263,
      "Collingham": 6264,
      "GDP": 6265,
      "S$": 6266,
      "Tarlo": 6267,
      "_industry": 6268,
      "aos": 6269,
      "business": 6270,
      "business/": 6271,
      "der": 6272,
      "eat": 6273,
      "lar": 6274,
      "mand": 6275,
      "mill": 6276,
      "odia": 6277,
      "rune": 6278,
      "sc": 6279,
      "s_in_India": 6280,
      "tate": 6281,
      "via": 6282,
      "yth": 6283,
      "ंस": 6284,
      "ंद्र": 6285,
      "ंचा": 6286,
      "इन": 6287,
      "ईद": 6288,
      "ऊर्जा": 6289,
      "ऍथ": 6290,
      "ऑक्सफोर्ड": 6291,
      "कणी": 6292,
      "जपा": 6293,
      "जिस्ट": 6294,
      "टिका": 6295,
      "ताल": 6296,
      "दान": 6297,
      "नोल": 6298,
      "पीय": 6299,
      "बू": 6300,
      "मक": 6301,
      "माल": 6302,
      "लोर": 6303,
      "लैंड": 6304,
      "वान": 6305,
      "शि": 6306,
      "सर": 6307,
      "ाटी": 6308,
      "िरा": 6309,
      "ुम्ब": 6310,
      "ूबर": 6311,
      "ॉकी": 6312,
      "्स": 6313,
      "ంతం": 6314,
      "ఆగ": 6315,
      "కళ": 6316,
      "ఖండ్": 6317,
      "గ్": 6318,
      "గిన": 6319,
      "గఢ్": 6320,
      "జో": 6321,
      "ట్ర": 6322,
      "తెలుగు": 6323,
      "ద్రా": 6324,
      "పద": 6325,
      "భి": 6326,
      "యో": 6327,
      "లక్ష": 6328,
      "వర": 6329,
      "శో": 6330,
      "షా": 6331,
      "హు": 6332,
      "హార్": 6333,
      "హాయ": 6334,
      "ాష్ట్ర": 6335,
      "ీక": 6336,
      "ీహార్": 6337,
      "ుల": 6338,
      "ుల్": 6339,
      "ోల్": 6340,
      "ోత్స": 6341,
      "ౌర్య": 6342,
      "▁kingdom": 6343,
      "iated": 6344,
      "](Special:BookSources/978-81": 6345,
      "▁[Y": 6346,
      "▁[హ": 6347,
      "▁[राजस्थान": 6348,
      "en:": 6349,
      "▁\"హ": 6350,
      "▁\"पु": 6351,
      "▁\"प्र": 6352,
      "▁\"साँचा": 6353,
      "▁\"साँचा:": 6354,
      "▁\"ఢిల్లీ": 6355,
      "▁\"Special:BookSources/978-81": 6356,
      "ino-": 6357,
      "inema": 6358,
      "ants": 6359,
      "tile": 6360,
      "him": 6361,
      "hir": 6362,
      "ester": 6363,
      "es.[[": 6364,
      "्रार": 6365,
      "](https://hi.wikipedia.org/wiki/ड": 6366,
      "](https://hi.wikipedia.org/wiki/व": 6367,
      "](https://hi.wikipedia.org/wiki/साँचा": 6368,
      "](https://hi.wikipedia.org/wiki/पूर्व": 6369,
      "](https://hi.wikipedia.org/wiki/साँचा:": 6370,
      "ofker": 6371,
      "▁सक": 6372,
      "▁सम्": 6373,
      "omo": 6374,
      "्यूरो": 6375,
      "itation": 6376,
      "asthan": 6377,
      "▁मन्दिर": 6378,
      "▁पास": 6379,
      "▁पड़": 6380,
      "▁पहा": 6381,
      "▁पठार": 6382,
      "▁प्लेट": 6383,
      "్రూ": 6384,
      "idy": 6385,
      "ratic": 6386,
      "](https://te.wikipedia.org/wiki/సి": 6387,
      "entr": 6388,
      "▁school": 6389,
      "etry": 6390,
      "ries/": 6391,
      "▁हथियार": 6392,
      "ingap": 6393,
      "amy": 6394,
      "ating": 6395,
      "▁Asher": 6396,
      "▁Sabha": 6397,
      "acmill": 6398,
      "\\_क": 6399,
      "▁fol": 6400,
      "▁four": 6401,
      "angered": 6402,
      "urk": 6403,
      "uran": 6404,
      "▁main": 6405,
      "ాలా": 6406,
      "ాలలో": 6407,
      "well": 6408,
      "్యం": 6409,
      "▁ज़": 6410,
      "ेशिया\")": 6411,
      "ोंकणी": 6412,
      "त्री": 6413,
      "fir": 6414,
      "▁would": 6415,
      "▁प्रभा": 6416,
      "ंगला": 6417,
      "▁Temple": 6418,
      "▁आन्द": 6419,
      "▁Routledge": 6420,
      "_केंद्र": 6421,
      "▁बने": 6422,
      "▁बड़ा": 6423,
      "भाष": 6424,
      "ర్ణా": 6425,
      "ర్మే": 6426,
      "▁तो": 6427,
      "▁नौसेना": 6428,
      "्टॉक": 6429,
      "s.\"\r\n": 6430,
      "igved": 6431,
      "igration": 6432,
      "indhi": 6433,
      "▁led": 6434,
      "ास्त": 6435,
      "▁*India": 6436,
      "विद्यालय": 6437,
      "ional": 6438,
      "upt": 6439,
      "లోక్‌సభ": 6440,
      "hap": 6441,
      "hailand": 6442,
      "_in_New": 6443,
      "tudi": 6444,
      "▁Greek": 6445,
      "▁N.": 6446,
      "▁Nicobar": 6447,
      "-345": 6448,
      "ले.": 6449,
      "_A7C": 6450,
      "▁गठ": 6451,
      "▁వంశ": 6452,
      "▁third": 6453,
      "▁शुरू": 6454,
      "ablish": 6455,
      "कांक": 6456,
      "▁संस्कृत": 6457,
      "aph": 6458,
      "▁परंपरा": 6459,
      "]](https://hi.wikipedia.org/wiki/भारत#cite_note-10": 6460,
      "▁\"Chin": 6461,
      "ountries/": 6462,
      "ंडमान": 6463,
      "▁विज्ञान": 6464,
      "ండర్": 6465,
      "▁Languages": 6466,
      "▁Organization": 6467,
      "▁सागर": 6468,
      "राष्ट्रीय_": 6469,
      "_Pradesh": 6470,
      "ngineering": 6471,
      "▁[Central": 6472,
      "](https://books.google.com/books?id=3TRtDwAAQBAJ&pg=PA": 6473,
      "▁\"महा": 6474,
      "▁\"मुंबई": 6475,
      "otal": 6476,
      "▁लिया": 6477,
      "త్మా": 6478,
      "मीरात": 6479,
      "▁[↑](https://en.wikipedia.org/wiki/India#cite_ref-FOOTNOTEM": 6480,
      "▁राज्ये": 6481,
      "a_1": 6482,
      "▁అతి": 6483,
      "ికి": 6484,
      "▁करना": 6485,
      "](https://en.wikipedia.org/wiki/Mughal_": 6486,
      "ogri": 6487,
      "▁१२": 6488,
      "](https://hi.wikipedia.org/wiki/महाराष्ट्र": 6489,
      "परेशन": 6490,
      "▁now": 6491,
      "ద్దు": 6492,
      "▁\"En": 6493,
      "%2C5": 6494,
      "हारजिस्ट": 6495,
      "▁రహదార": 6496,
      "▁areas": 6497,
      "మాచల్": 6498,
      "▁సామ్రాజ్య": 6499,
      "_River": 6500,
      "▁\"कु": 6501,
      "_Bank": 6502,
      "రువా": 6503,
      "రుణా": 6504,
      "मान्य": 6505,
      "](https://en.wikipedia.org/wiki/En": 6506,
      "▁Ved": 6507,
      "▁[कु": 6508,
      "న్నో": 6509,
      "▁[2](https://hi.wikipedia.org/wiki/भारत#cite_ref-FOOTNOTE": 6510,
      "▁जाते": 6511,
      "▁[1](https://hi.wikipedia.org/wiki/भारत#cite_ref-FOOTNOTE": 6512,
      "ameez": 6513,
      "ष्ठ": 6514,
      "▁घरेलू": 6515,
      "▁घाटी": 6516,
      "](https://en.wikipedia.org/wiki/National_": 6517,
      "మిజో": 6518,
      "▁like": 6519,
      "दादरा": 6520,
      "▁ఇది": 6521,
      "egistrar": 6522,
      "33-7": 6523,
      "do-G": 6524,
      "▁Urdu": 6525,
      "▁2007\r\n": 6526,
      "▁[![The": 6527,
      "DwAAQBAJ": 6528,
      "alaysia": 6529,
      "ूचकांक": 6530,
      "▁జరి": 6531,
      "▁విస్త": 6532,
      "न्नड़": 6533,
      "▁millen": 6534,
      "क्के": 6535,
      "मेन": 6536,
      "ukesh": 6537,
      "श्मीरी": 6538,
      "▁सिंह": 6539,
      "▁శతాబ్ద": 6540,
      "▁change": 6541,
      "ట్టు": 6542,
      "▁river": 6543,
      "आईएस": 6544,
      "▁agriculture": 6545,
      "▁था,": 6546,
      "PPP": 6547,
      "రాష్ట్రాలు": 6548,
      "▁पूर्वी": 6549,
      "_न्याया": 6550,
      "भूट": 6551,
      "▁Pradesh\")": 6552,
      "athematics": 6553,
      "వేద": 6554,
      "▁[Archived](https://web.archive.org/web/20210": 6555,
      "▁రాజకీయ": 6556,
      "mirate": 6557,
      "▁[↑](https://hi.wikipedia.org/wiki/भारत#cite_ref-10": 6558,
      "–123": 6559,
      "pib.nic.in/": 6560,
      "▁subcontinent\")": 6561,
      "ually": 6562,
      "ambodia": 6563,
      "tected": 6564,
      "హిమాచల్": 6565,
      "▁तटीय": 6566,
      "హాత్మా": 6567,
      "▁Force": 6568,
      "ृष्ण": 6569,
      "▁अपने": 6570,
      "▁These": 6571,
      "िज़ोर": 6572,
      "▁species": 6573,
      "chedule": 6574,
      "emocratic": 6575,
      "▁ప్రదేశ్\")": 6576,
      "▁rock": 6577,
      "హారాష్ట్ర": 6578,
      "पातकाल": 6579,
      "ominion": 6580,
      "▁2025.": 6581,
      "శాస్త్ర": 6582,
      "ataraj": 6583,
      "olkata": 6584,
      "రాజస్థాన్": 6585,
      "▁दृष्ट": 6586,
      "▁వాతావరణ": 6587,
      "janta": 6588,
      "▁जलवायु": 6589,
      "దినోత్స": 6590,
      "▁वार्ता:": 6591,
      "బెంగాలీ": 6592,
      "धिराज्य": 6593,
      "యన్మార్": 6594,
      "▁ముఖ్య": 6595,
      "▁[978-81": 6596,
      "▁[पंजाब](https://hi.wikipedia.org/wiki/पंजाब": 6597,
      "ार्कटिका": 6598,
      "▁emerg": 6599,
      "▁majority": 6600,
      "_राजवंश": 6601,
      "खनऊ": 6602,
      "▁सदस": 6603,
      "▁लगभग": 6604,
      "▁occup": 6605,
      "लयालम": 6606,
      "Sharma2007": 6607,
      "aranth": 6608,
      "▁राजनीतिक": 6609,
      "भरत": 6610,
      "▁Before": 6611,
      "elangana": 6612,
      "फ्रां": 6613,
      "ంజాబ్": 6614,
      "▁दोनों": 6615,
      "▁వ్యాస": 6616,
      "▁राजधानी": 6617,
      "lurton199": 6618,
      "ravidian": 6619,
      "▁appro": 6620,
      "▁employed": 6621,
      "_राज्यक्षेत्र": 6622,
      "▁[महाराष्ट्र](https://hi.wikipedia.org/wiki/महाराष्ट्र": 6623,
      "osphere": 6624,
      "గుజరాత్": 6625,
      "नागालैंड": 6626,
      "ఆఫ్ఘనిస్తాన్": 6627,
      "న్‌ఫర్మే": 6628,
      "tlas": 6629,
      "voyage": 6630,
      "lothing": 6631,
      "Front": 6632,
      "IFT": 6633,
      "तुल्य": 6634,
      "ृषि": 6635,
      "razil": 6636,
      "फाएं": 6637,
      "వ](https://te.wikipedia.org/wiki/List_of_": 6638,
      "రిహద్దు": 6639,
      "▁निभाई": 6640,
      "చ్చేరి": 6641,
      "▁डॉलर": 6642,
      "olnar": 6643,
      "_Commission": 6644,
      "_वार्ता:": 6645,
      "▁वृद्धि": 6646,
      "Tarlo1996": 6647,
      "business-": 6648,
      "runei": 6649,
      "ऍथनोल": 6650,
      "ुम्बई": 6651,
      "](https://hi.wikipedia.org/wiki/साँचा_वार्ता:": 6652,
      "ingapore": 6653,
      "▁Asher,": 6654,
      "acmillan": 6655,
      "ర్ణాటక": 6656,
      "_in_New_Delhi": 6657,
      "tudies": 6658,
      "हारजिस्ट्रार": 6659,
      "రుణాచల్": 6660,
      "న్‌ఫర్మేషన్": 6661,
      "ऍथनोलॉग": 6662,
      "-T": 6663,
      ".ed": 6664,
      "Forest": 6665,
      "Jha": 6666,
      "TO": 6667,
      "ault": 6668,
      "hl": 6669,
      "mil": 6670,
      "ott": 6671,
      "ogo": 6672,
      "tou": 6673,
      "orm": 6674,
      "](https://id": 6675,
      "onk": 6676,
      "tification": 6677,
      "▁(c": 6678,
      "▁(a)": 6679,
      "19.": 6680,
      "▁sq": 6681,
      "ager": 6682,
      "▁Policy": 6683,
      "rowing": 6684,
      "▁Day": 6685,
      "17.": 6686,
      "▁Asia:": 6687,
      "1):": 6688,
      "angetic": 6689,
      "▁leg": 6690,
      "isease": 6691,
      "parame": 6692,
      "▁Short": 6693,
      "▁commun": 6694,
      "▁2020.": 6695,
      "▁km2": 6696,
      "f/f": 6697,
      "d/d": 6698,
      "Wikipedia\\_articles": 6699,
      "itzel": 6700,
      "▁Conservation": 6701,
      "...]": 6702,
      "ield": 6703,
      "▁Minorities,": 6704,
      "▁(b)": 6705,
      "▁Increase": 6706,
      ".edu": 6707,
      "\"](http://www.": 6708,
      ")\"),": 6709,
      "-27": 6710,
      "2nd": 6711,
      "74": 6712,
      "First": 6713,
      "Home": 6714,
      "Official": 6715,
      "_201": 6716,
      "_2004": 6717,
      "ethnologue": 6718,
      "g)": 6719,
      "gu": 6720,
      "went": 6721,
      "}}": 6722,
      "कु": 6723,
      "ग्": 6724,
      "घर": 6725,
      "डे": 6726,
      "पया": 6727,
      "मधील": 6728,
      "ये": 6729,
      "र्य": 6730,
      "सार": 6731,
      "िष": 6732,
      "ोह": 6733,
      "▁:": 6734,
      "▁९": 6735,
      "▁web": 6736,
      "▁9.": 6737,
      "orig": 6738,
      "▁[ए": 6739,
      "▁[पु": 6740,
      "▁[धर्म": 6741,
      "▁[दिल्ली": 6742,
      "▁\"श": 6743,
      "▁\"राष्ट्रीय": 6744,
      "▁\"लोक": 6745,
      "\")\"": 6746,
      "▁सूर": 6747,
      "▁मिळ": 6748,
      "▁म्ह": 6749,
      "▁पै": 6750,
      "र्त": 6751,
      "-138": 6752,
      "▁can": 6753,
      "\\_country": 6754,
      "▁fig": 6755,
      "78.": 6756,
      "▁अति": 6757,
      "▁वन": 6758,
      "▁men": 6759,
      "_of_S": 6760,
      "▁जै": 6761,
      "▁जात": 6762,
      "illi": 6763,
      "ilbert": 6764,
      "ंगड": 6765,
      "▁Mar": 6766,
      "्याय": 6767,
      "▁Br": 6768,
      "ता\")": 6769,
      "1016": 6770,
      "indic": 6771,
      "▁Economy": 6772,
      "ldlife": 6773,
      "▁गे": 6774,
      "aks": 6775,
      "▁उद्योग": 6776,
      "▁ne": 6777,
      "प्रदेश": 6778,
      "नेट": 6779,
      "▁पर्यटन": 6780,
      "_महासागर": 6781,
      "▁[SAARC": 6782,
      "▁Hindus": 6783,
      "_Gandhi": 6784,
      "▁चार": 6785,
      "वंट": 6786,
      "_and_union_territ": 6787,
      "▁\"ब्रिटिश": 6788,
      "iteracy": 6789,
      "गणतंत्र": 6790,
      "_Fund": 6791,
      "स्थाप": 6792,
      "▁[संयुक्त": 6793,
      "_आणि": 6794,
      "▁झाले": 6795,
      "countries_and_depend": 6796,
      "▁\"संस्कृत": 6797,
      "ctorate": 6798,
      "encies_by": 6799,
      "▁Environmental": 6800,
      "jection": 6801,
      ".worldbank.org/": 6802,
      "▁dependencies": 6803,
      "imachal": 6804,
      "_उत्पाद": 6805,
      "fobox": 6806,
      "▁widely": 6807,
      "hattisgarh": 6808,
      "▁प्रभाव": 6809,
      "ethnologue.com/": 6810,
      "▁म्हण": 6811,
      "_and_union_territories": 6812,
      "countries_and_dependencies_by": 6813,
      "*](https://": 6814,
      "-e": 6815,
      "-k": 6816,
      "1]](https://en.wikipedia.org/wiki/India#cite_note-": 6817,
      "220": 6818,
      "5-3": 6819,
      "Countries": 6820,
      "Wright": 6821,
      "_un": 6822,
      "_2011": 6823,
      "_Union": 6824,
      "cu": 6825,
      "cod": 6826,
      "ctive": 6827,
      "caste": 6828,
      "men": 6829,
      "mall": 6830,
      "ocal": 6831,
      "ppe": 6832,
      "page": 6833,
      "put": 6834,
      "rban": 6835,
      "s\").": 6836,
      "search": 6837,
      "u,": 6838,
      "uries": 6839,
      "upee": 6840,
      "wat": 6841,
      "▁7.": 6842,
      "▁known": 6843,
      "org": 6844,
      "orpor": 6845,
      "tte": 6846,
      "](Special:EditPage/Template:": 6847,
      "](https://www": 6848,
      "▁[History": 6849,
      "enj": 6850,
      "▁\"Special:EditPage/Template:": 6851,
      "anchi": 6852,
      "ties/": 6853,
      "alace": 6854,
      "alk:": 6855,
      "reen": 6856,
      "▁(S": 6857,
      "▁(2007": 6858,
      "▁(India)": 6859,
      "itar": 6860,
      "ick": 6861,
      "▁independence": 6862,
      "raman": 6863,
      "-05": 6864,
      "-0\").\r\n": 6865,
      "▁prac": 6866,
      "▁cre": 6867,
      "ation,": 6868,
      "▁Agency": 6869,
      "▁Sub": 6870,
      "acred": 6871,
      "▁talk:": 6872,
      "lima": 6873,
      "lose": 6874,
      "umeration": 6875,
      "istent": 6876,
      "▁[↑](https://en.wikipedia.org/wiki/India#cite_": 6877,
      "_of_South_Asia": 6878,
      "rove": 6879,
      "rocod": 6880,
      "una": 6881,
      "▁divis": 6882,
      "](https://en.wikipedia.org/wiki/India#cite_ref-vatsyayan-lord_43": 6883,
      "▁Tim": 6884,
      "▁Trade": 6885,
      "ola": 6886,
      "igen": 6887,
      "▁Dance": 6888,
      "▁Dyson": 6889,
      "2649": 6890,
      "269,": 6891,
      "▁last": 6892,
      "ayana": 6893,
      "lymp": 6894,
      "▁[↑](https://en.wikipedia.org/wiki/India#cite_ref-4": 6895,
      "▁Emer": 6896,
      "287,": 6897,
      "upreme": 6898,
      "beral": 6899,
      "▁east": 6900,
      "▁Ganges": 6901,
      "-349": 6902,
      "-4\").\r\n": 6903,
      "▁republic": 6904,
      "▁though": 6905,
      "akers": 6906,
      "establish": 6907,
      "osa": 6908,
      "40px-": 6909,
      "▁International": 6910,
      "_and_N": 6911,
      "_and_Development": 6912,
      "▁\"Central": 6913,
      "▁\"Climate": 6914,
      "▁On": 6915,
      "▁[China": 6916,
      "](https://en.wikipedia.org/wiki/China": 6917,
      "▁\"Ministry": 6918,
      "ourism": 6919,
      "s](https://en.wikipedia.org/wiki/B": 6920,
      "▁become": 6921,
      "▁[Mughal": 6922,
      "▁str": 6923,
      "rchitecture": 6924,
      "lled": 6925,
      "orea": 6926,
      "▁\"Template": 6927,
      "▁ancient": 6928,
      "_Ram": 6929,
      "▁\"Delhi": 6930,
      "▁Vedic": 6931,
      "](https://en.wikipedia.org/wiki/Template_": 6932,
      "](https://en.wikipedia.org/wiki/Delhi": 6933,
      "▁2011](https://en.wikipedia.org/wiki/India#CITEREF": 6934,
      "▁\"Routledge": 6935,
      "▁[Routledge": 6936,
      "▁[Tamil": 6937,
      "](Special:BookSources/978-0-521": 6938,
      "▁\"Special:BookSources/978-0-521": 6939,
      "](https://en.wikipedia.org/wiki/Routledge": 6940,
      "hyan": 6941,
      "_Economic": 6942,
      "▁2014](https://en.wikipedia.org/wiki/India#CITEREF": 6943,
      "▁tea": 6944,
      "▁US$": 6945,
      "▁centuries": 6946,
      "▁2007](https://en.wikipedia.org/wiki/India#CITEREF": 6947,
      "▁(2017).": 6948,
      "▁milk": 6949,
      "▁military": 6950,
      "prof": 6951,
      "▁[Fisher": 6952,
      "▁plain": 6953,
      "▁parliament": 6954,
      "▁[t](https://en.wikipedia.org/wiki/Template_": 6955,
      "▁China": 6956,
      "▁sever": 6957,
      "place": 6958,
      "talk:": 6959,
      "230-345": 6960,
      "▁Talbot,": 6961,
      "▁[e](Special:EditPage/Template:": 6962,
      "▁[v](Template:": 6963,
      "Fisher2018),": 6964,
      "▁Buddha": 6965,
      "▁upper": 6966,
      "Environment": 6967,
      "▁2025.\r\n": 6968,
      "arliamentary": 6969,
      "Hindustani": 6970,
      "▁2018](https://en.wikipedia.org/wiki/India#CITEREFFisher2018),": 6971,
      "rofile": 6972,
      "merican": 6973,
      "olden_Temple": 6974,
      "▁(1,269,": 6975,
      "▁3,287,": 6976,
      "▁Francis": 6977,
      "ibetan": 6978,
      "present": 6979,
      "▁(2006).": 6980,
      "forcement": 6981,
      "▁India](https://en.wikipedia.org/wiki/Government_of_India": 6982,
      "▁direct": 6983,
      "▁1994](https://en.wikipedia.org/wiki/India#CITEREF": 6984,
      "estival": 6985,
      "▁mi)": 6986,
      "struction": 6987,
      "▁Games\")": 6988,
      "-107-02649": 6989,
      "▁engineering": 6990,
      "▁village": 6991,
      "harmaceutical": 6992,
      "first": 6993,
      "▁millennium": 6994,
      "touch": 6995,
      "Wright2010": 6996,
      "▁(2007).": 6997,
      "limate_": 6998,
      "▁Dyson,": 6999,
      "▁[China](https://en.wikipedia.org/wiki/China": 7000,
      "▁\"Routledge\").": 7001,
      "▁[Routledge](https://en.wikipedia.org/wiki/Routledge": 7002,
      "▁[t](https://en.wikipedia.org/wiki/Template_talk:": 7003,
      "230-34549-2": 7004,
      "▁3,287,26": 7005,
      "-107-02649-0": 7006,
      "\"](https://web.archive.org/web/20": 7007,
      "*](https://web.archive.org/web/201": 7008,
      "-पूर्व": 7009,
      "-गंगा": 7010,
      "/g": 7011,
      "1200": 7012,
      "3-1": 7013,
      "528": 7014,
      "B0%": 7015,
      "OLA": 7016,
      "_त": 7017,
      "gar": 7018,
      "hdr": 7019,
      "sources": 7020,
      "tation": 7021,
      "zer": 7022,
      "ँकि": 7023,
      "ऋतु": 7024,
      "ऑपरेशन": 7025,
      "चार": 7026,
      "जल": 7027,
      "ण्यात": 7028,
      "तमान": 7029,
      "थाली": 7030,
      "प्": 7031,
      "म](https://hi.wikipedia.org/wiki/": 7032,
      "ऱ्या": 7033,
      "वड": 7034,
      "वत": 7035,
      "स,": 7036,
      "सत": 7037,
      "ంతి": 7038,
      "కాల": 7039,
      "కారం": 7040,
      "ఖ్": 7041,
      "గంగా": 7042,
      "టో": 7043,
      "డిన": 7044,
      "తీ": 7045,
      "ధి": 7046,
      "ధించ": 7047,
      "నల్": 7048,
      "మన": 7049,
      "మర": 7050,
      "ర్యా": 7051,
      "లం": 7052,
      "లతో": 7053,
      "లమె": 7054,
      "ీస్": 7055,
      "ూప": 7056,
      "ూరు": 7057,
      "ెనీ": 7058,
      "ౌక": 7059,
      "▁`": 7060,
      "▁ऐ": 7061,
      "▁६": 7062,
      "▁७": 7063,
      "▁ద": 7064,
      "▁ఫ": 7065,
      "▁దక్షిణ": 7066,
      "▁హిందూ": 7067,
      "▁గాంధీ": 7068,
      "tter": 7069,
      "▁[ना": 7070,
      "▁[భారతదేశం": 7071,
      "▁[राष्ट्रीय": 7072,
      "▁[ఢిల్లీ": 7073,
      "▁[गुजरात": 7074,
      "ene": 7075,
      "▁\"ची": 7076,
      "▁\"गुजरात": 7077,
      "▁\"विशेष:EditPage/साँचा:": 7078,
      "arak": 7079,
      "्रह": 7080,
      "▁कर्ज": 7081,
      "](https://hi.wikipedia.org/wiki/द": 7082,
      "](https://hi.wikipedia.org/wiki/प्र": 7083,
      "](https://hi.wikipedia.org/wiki/ने": 7084,
      "](https://hi.wikipedia.org/wiki/दिल्ली": 7085,
      "](https://hi.wikipedia.org/wiki/विशेष:EditPage/साँचा:": 7086,
      "reater": 7087,
      "भारत)\")": 7088,
      "▁सर्वोच्च": 7089,
      "▁सल्तनत": 7090,
      "▁(भारत)\")": 7091,
      "asp?": 7092,
      "▁मह": 7093,
      "▁मील": 7094,
      "▁पहु": 7095,
      "राक": 7096,
      "lease": 7097,
      "ानुसार": 7098,
      "▁pri": 7099,
      "▁हवेली": 7100,
      "ారస": 7101,
      "्त्री": 7102,
      "▁capita": 7103,
      "यास": 7104,
      "\\_identifiers": 7105,
      "▁वै": 7106,
      "ume": 7107,
      "ాలను": 7108,
      "नाइ": 7109,
      "ोंड": 7110,
      "స్](https://te.wikipedia.org/wiki/": 7111,
      "राजनी": 7112,
      "▁प्रजा": 7113,
      "▁प्रणाली": 7114,
      "▁प्रारम्भ": 7115,
      "21.": 7116,
      "▁పెద్ద": 7117,
      "▁आधुनिक": 7118,
      "00–సా.శ.పూ.": 7119,
      "▁Report": 7120,
      "लावा": 7121,
      "▁बनी": 7122,
      "▁बड़ी": 7123,
      "ర్లు": 7124,
      "▁निय": 7125,
      "s.com": 7126,
      "238": 7127,
      "ित्व": 7128,
      "24.": 7129,
      "లు\")": 7130,
      "िसी": 7131,
      "पुत्र": 7132,
      "माय": 7133,
      "-45": 7134,
      "▁गए": 7135,
      "ంది": 7136,
      "▁వే": 7137,
      "काश": 7138,
      "▁[महा": 7139,
      "▁परमाणु": 7140,
      "सां": 7141,
      "साय": 7142,
      "त्ता": 7143,
      "▁विवाद": 7144,
      "▁रहे": 7145,
      "द्रा": 7146,
      "स्ता": 7147,
      "▁सामाजिक": 7148,
      "14.": 7149,
      "ियान": 7150,
      "monsoon": 7151,
      "_के_देश": 7152,
      "जापान": 7153,
      "త్తం": 7154,
      "▁\"Sanskrit": 7155,
      "▁भाषाएँ": 7156,
      "▁(సా.శ.13": 7157,
      "▁(సా.శ.15": 7158,
      "चा:": 7159,
      "▁అనే": 7160,
      "▁ప్రజ": 7161,
      "తం\")": 7162,
      "0%E0%A": 7163,
      "▁१५": 7164,
      "▁१८": 7165,
      "](https://hi.wikipedia.org/wiki/महा": 7166,
      "ंदर": 7167,
      "ంచి": 7168,
      "▁[भारत](https://hi.wikipedia.org/wiki/भारत": 7169,
      "▁ఆఫ్": 7170,
      "भिन्न": 7171,
      "▁సాం": 7172,
      "ातंत्र": 7173,
      "ార్లమె": 7174,
      "द्यान": 7175,
      "▁Vol": 7176,
      "కిస్థాన్": 7177,
      "▁यादी": 7178,
      "▁जनता": 7179,
      "-symbols": 7180,
      "newsite": 7181,
      "](https://hi.wikipedia.org/wiki/कु": 7182,
      "▁घे": 7183,
      "▁నే": 7184,
      "▁నగర": 7185,
      "general": 7186,
      "द्वित": 7187,
      "▁इसी": 7188,
      "ాయి.": 7189,
      "▁२००": 7190,
      "టిబె": 7191,
      "▁1997": 7192,
      "్రీ.పూ.": 7193,
      "▁समूह": 7194,
      "पीए": 7195,
      "](https://hi.wikipedia.org/wiki/ब्रिटिश": 7196,
      "शील": 7197,
      "ैनिक": 7198,
      "ालाँकि": 7199,
      "ండియా": 7200,
      ".jpg/250px-S": 7201,
      "▁ఎక్కువ": 7202,
      "▁ఎన్నో": 7203,
      "िक्षा": 7204,
      "▁अधिकार": 7205,
      "▁जिसके": 7206,
      "हिन्द_महासागर": 7207,
      "्यटन\")": 7208,
      "](https://hi.wikipedia.org/wiki/उत्तर": 7209,
      "▁वायु": 7210,
      "▁./వర్గం:Wikipedia\\_articles": 7211,
      "_సం": 7212,
      "▁भूगोल": 7213,
      "national-symbols": 7214,
      "ారు.\r\n": 7215,
      "▁./श्रेणी:CS1\\_": 7216,
      "▁[t](https://hi.wikipedia.org/wiki/साँचा_वार्ता:": 7217,
      "श्रीनगर": 7218,
      "టుంబ": 7219,
      "▁\"जम्मू": 7220,
      "_का_खाना": 7221,
      "▁अपनी": 7222,
      "▁భారత్": 7223,
      "▁एशिया\")": 7224,
      "2001),": 7225,
      "धु-गंगा": 7226,
      "▁[e](https://hi.wikipedia.org/wiki/विशेष:EditPage/साँचा:": 7227,
      "▁[v](https://hi.wikipedia.org/wiki/साँचा:": 7228,
      "▁माध्य": 7229,
      "మెరి": 7230,
      "](https://hi.wikipedia.org/wiki/संस्कृत": 7231,
      "▁ऊँ": 7232,
      "▁ऊर्जा": 7233,
      "▁మొత్తం": 7234,
      "▁हुआ।": 7235,
      "▁सुधार": 7236,
      "బాద్": 7237,
      "▁प्रतिशत": 7238,
      "▁2004](https://hi.wikipedia.org/wiki/भारत#CITEREF": 7239,
      "_एवं": 7240,
      "ంపెనీ": 7241,
      "Wikipedia:": 7242,
      "ूरोपीय": 7243,
      "▁उद्यान": 7244,
      "▁उद्यान\")": 7245,
      "హ్మ": 7246,
      "▁व्यापार": 7247,
      ".aspx?rel": 7248,
      "▁ఏర్": 7249,
      "▁\"हिन्दी\")": 7250,
      "-language\\_sources": 7251,
      "१८५७": 7252,
      "retary": 7253,
      "▁शक्तिपीठ": 7254,
      "్రిటిషు": 7255,
      "-22)": 7256,
      "▁राजवंश\")": 7257,
      "▁किन्तु": 7258,
      "▁सहयोग": 7259,
      "▁विदेशी": 7260,
      "_और_संघ_क्षेत्र": 7261,
      "_Lanka": 7262,
      "AGE": 7263,
      "▁सितंबर": 7264,
      "▁जबकि": 7265,
      "तिब्बत": 7266,
      "_के_अनुसार_देशों_की_सूची": 7267,
      "▁అత్యధిక": 7268,
      "ईसाई": 7269,
      "ీర్ణ": 7270,
      "దక్షిణ_ఆసియా": 7271,
      "▁गठबंधन": 7272,
      "pib.nic.in/newsite": 7273,
      "र्तग": 7274,
      "▁\"गुजरात\")": 7275,
      "lease.aspx?rel": 7276,
      "▁प्रजाती": 7277,
      "-language\\_sources\\_(": 7278,
      "-asia": 7279,
      "2.\r\n": 7280,
      "3-": 7281,
      "4-3": 7282,
      "BRICS": 7283,
      "Mon": 7284,
      "Mumbai": 7285,
      "States": 7286,
      "Web": 7287,
      "_15": 7288,
      "_45": 7289,
      "_dom": 7290,
      "gion": 7291,
      "hā": 7292,
      "les/": 7293,
      "var": 7294,
      "wa": 7295,
      "{{": 7296,
      "▁Z": 7297,
      "▁40": 7298,
      "▁ob": 7299,
      "istered": 7300,
      "▁(2011": 7301,
      "ices": 7302,
      "19)": 7303,
      "rak": 7304,
      "▁poll": 7305,
      "▁census": 7306,
      "atch": 7307,
      "▁Singh": 7308,
      "▁based": 7309,
      "vert": 7310,
      "▁185": 7311,
      "ily": 7312,
      "▁top": 7313,
      "▁Book": 7314,
      "103": 7315,
      "108": 7316,
      "links": 7317,
      "tud": 7318,
      "▁Gujarat": 7319,
      "-39": 7320,
      "ell": 7321,
      "opal": 7322,
      "2221": 7323,
      ".[[23": 7324,
      "▁1980": 7325,
      "▁nation": 7326,
      "▁John": 7327,
      "270": 7328,
      "170": 7329,
      "▁West": 7330,
      "-519": 7331,
      "_Times": 7332,
      "489": 7333,
      "▁expectancy": 7334,
      "▁\"International": 7335,
      "times.indiatimes.com/": 7336,
      "orthographic": 7337,
      "▁[Ludden": 7338,
      "▁adop": 7339,
      "unjabi": 7340,
      "▁[*An": 7341,
      "/articles/": 7342,
      "▁2022.\r\n": 7343,
      "cms).": 7344,
      "KulkeRothermund2004),": 7345,
      "▁(2018).": 7346,
      "resident_of_India": 7347,
      "_projection": 7348,
      "ksai": 7349,
      "Library_of_Congress": 7350,
      "economictimes.indiatimes.com/": 7351,
      "▁zone": 7352,
      "onkani": 7353,
      "indicator": 7354,
      "orthographic_projection": 7355,
      "&ss": 7356,
      "-O": 7357,
      "-R": 7358,
      "-j": 7359,
      "-th": 7360,
      "2-0": 7361,
      "3]](https://en.wikipedia.org/wiki/India#cite_note-": 7362,
      "3-7": 7363,
      "8+": 7364,
      "9-6": 7365,
      ":**": 7366,
      "=`": 7367,
      "David": 7368,
      "MAAJ": 7369,
      "SN": 7370,
      "Sanskrit": 7371,
      "_10": 7372,
      "_28": 7373,
      "_50": 7374,
      "_18": 7375,
      "_1.": 7376,
      "bhasha": 7377,
      "cted": 7378,
      "ees": 7379,
      "even": 7380,
      "evanagari": 7381,
      "fun": 7382,
      "iosphere": 7383,
      "ji": 7384,
      "mas": 7385,
      "more": 7386,
      "oz": 7387,
      "rian": 7388,
      "rince": 7389,
      "ten": 7390,
      "top": 7391,
      "tain": 7392,
      "vin": 7393,
      "xim": 7394,
      "डु": 7395,
      "दारी": 7396,
      "पदी": 7397,
      "बे": 7398,
      "लिम": 7399,
      "ळ\")": 7400,
      "वरा": 7401,
      "श्र": 7402,
      "सव": 7403,
      "सित": 7404,
      "ृष्ट": 7405,
      "ोण": 7406,
      "ोत्तर": 7407,
      "ौपदी": 7408,
      "६६": 7409,
      "–4": 7410,
      "▁ve": 7411,
      "▁education": 7412,
      "▁establish": 7413,
      "pen": 7414,
      "▁[पश्चिम": 7415,
      "▁\"विश्व": 7416,
      "inan": 7417,
      "an,": 7418,
      "anada": 7419,
      "](https://en.wikipedia.org/wiki/U": 7420,
      "till": 7421,
      "India_G": 7422,
      "eri": 7423,
      "ers,": 7424,
      "ergy": 7425,
      "arrow": 7426,
      "alla": 7427,
      "ising": 7428,
      "isted": 7429,
      "cid": 7430,
      "▁समुद्र": 7431,
      "▁often": 7432,
      "▁महाराष्ट्र": 7433,
      "▁पक्ष": 7434,
      "ico": 7435,
      "▁India\"](https://web.archive.org/web/201": 7436,
      "रामाय": 7437,
      "lex": 7438,
      "▁inte": 7439,
      "▁inter": 7440,
      "raw": 7441,
      "र्ट": 7442,
      "र्न": 7443,
      "▁su": 7444,
      "▁sou": 7445,
      "▁set": 7446,
      "▁served": 7447,
      "▁pur": 7448,
      "am\")": 7449,
      "uscript": 7450,
      "▁Cather": 7451,
      "▁After": 7452,
      "▁See": 7453,
      "ad-": 7454,
      "adakh": 7455,
      "▁trade": 7456,
      "▁middle": 7457,
      "▁market": 7458,
      "▁Publication": 7459,
      "comp": 7460,
      "cha": 7461,
      "hek": 7462,
      "style": 7463,
      "▁दि": 7464,
      "unle": 7465,
      "fied": 7466,
      "▁where": 7467,
      "]](https://en.wikipedia.org/wiki/India#cite_note-1": 7468,
      "▁dist": 7469,
      "ंगोल": 7470,
      "00–": 7471,
      "लाओ": 7472,
      "▁तसे": 7473,
      "▁तुल": 7474,
      "▁निकोबार": 7475,
      "emen": 7476,
      "तात": 7477,
      "107": 7478,
      "ayashi": 7479,
      "▁*A": 7480,
      "haw": 7481,
      "_in_M": 7482,
      "_in_the": 7483,
      "bercu": 7484,
      "▁ele": 7485,
      "▁even": 7486,
      "▁early": 7487,
      "▁Nuclear": 7488,
      "स्थ": 7489,
      "स्लिम": 7490,
      "elated": 7491,
      "_Agency": 7492,
      "-405": 7493,
      "508": 7494,
      "▁religions": 7495,
      "-8\").\r\n": 7496,
      "abel": 7497,
      "astron": 7498,
      "वाहर": 7499,
      "1857": 7500,
      "ली.": 7501,
      "ghts": 7502,
      "AAMAAJ": 7503,
      "_मु": 7504,
      "▁विषय": 7505,
      "▁Indians": 7506,
      "▁Law": 7507,
      "▁रू": 7508,
      "▁रे": 7509,
      "ensive": 7510,
      "द्रौपदी": 7511,
      "s/p": 7512,
      "▁Wiley": 7513,
      "lated": 7514,
      "▁[Craven": 7515,
      "s](https://en.wikipedia.org/wiki/P": 7516,
      "ajasthan": 7517,
      "-2\").": 7518,
      "undarb": 7519,
      "dira": 7520,
      "र्मू": 7521,
      "द्दाख": 7522,
      "▁ass": 7523,
      "_Modi": 7524,
      "_Mahal": 7525,
      "ommaraj": 7526,
      "_Tamil_Nadu": 7527,
      "▁\"Tamil": 7528,
      "▁[Pakistan": 7529,
      "hinese": 7530,
      "2011religion": 7531,
      "kee": 7532,
      "ublisher": 7533,
      "▁नेहर": 7534,
      "▁deve": 7535,
      "त्न": 7536,
      "त्मा": 7537,
      "▁rise": 7538,
      "▁rural": 7539,
      "▁rupee": 7540,
      "ically": 7541,
      "issions": 7542,
      "▁\"Ge": 7543,
      "▁V.": 7544,
      "▁[Delhi": 7545,
      "वर्ती": 7546,
      "जनप": 7547,
      "neworld": 7548,
      "ष्क": 7549,
      "दाबाद": 7550,
      "▁31": 7551,
      "](https://en.wikipedia.org/wiki/Re": 7552,
      "▁\"बंगाल": 7553,
      "म्राट": 7554,
      "▁\"Indus": 7555,
      "amily": 7556,
      "▁central": 7557,
      "uggle": 7558,
      "%E0%A4%9": 7559,
      "ohan": 7560,
      "ohenj": 7561,
      "न्नड": 7562,
      "ational_P": 7563,
      "▁[उर्दू": 7564,
      "▁१९७": 7565,
      "▁१९८": 7566,
      "-in-india": 7567,
      "▁\"उर्दू": 7568,
      "▁whose": 7569,
      "arch_2004": 7570,
      "2014-p": 7571,
      "▁Islands": 7572,
      "raditional": 7573,
      "▁[संस्कृत": 7574,
      "_dance": 7575,
      "oorkee": 7576,
      "▁बहुमत": 7577,
      "son2014-p": 7578,
      "ropped": 7579,
      "▁Shankar": 7580,
      "_War": 7581,
      "▁century,": 7582,
      "▁numbers": 7583,
      "cott": 7584,
      "▁speakers": 7585,
      "▁शिक्षण": 7586,
      "rupee": 7587,
      "▁include": 7588,
      "▁2008](https://en.wikipedia.org/wiki/India#CITEREF": 7589,
      "हाय्य": 7590,
      "athakali": 7591,
      "sites/": 7592,
      "lag_of_India": 7593,
      "▁mathematic": 7594,
      "-of-india-": 7595,
      "Ludden2014": 7596,
      "riage": 7597,
      "▁longer": 7598,
      "inistry_of_Home": 7599,
      "▁Africa": 7600,
      "▁major": 7601,
      "union_territory": 7602,
      "▁cities": 7603,
      "lackb": 7604,
      "losis": 7605,
      "▁द्वीपसमूह": 7606,
      "anorama": 7607,
      "arlung": 7608,
      "rigonom": 7609,
      "▁contribu": 7610,
      "Taj_Mahal": 7611,
      "ecutive": 7612,
      "awaharlal": 7613,
      "▁caused": 7614,
      "a_dynasty": 7615,
      "rajbhasha": 7616,
      "▁oldest": 7617,
      "हमदाबाद": 7618,
      "Census2011religion": 7619,
      "▁[India](https://en.wikipedia.org/wiki/India)": 7620,
      "o-daro": 7621,
      "entral_": 7622,
      "Tarlo1996-26": 7623,
      "▁[↑](https://en.wikipedia.org/wiki/India#cite_ref-1": 7624,
      "](https://en.wikipedia.org/wiki/India#cite_ref-vatsyayan-lord_432": 7625,
      "igenous": 7626,
      "beralisation": 7627,
      "Davidson2014-p": 7628,
      "inancial": 7629,
      "▁Catherine": 7630,
      "▁तसेच": 7631,
      "_in_March_2004": 7632,
      "berculosis": 7633,
      "astronom": 7634,
      "वाहरलाल": 7635,
      "undarbans": 7636,
      "ohenjo-daro": 7637,
      "inistry_of_Home_Affairs": 7638,
      "Taj_Mahal_in_March_2004": 7639,
      "\";\r\n": 7640,
      "/M": 7641,
      "223": 7642,
      "534": 7643,
      "6,": 7644,
      "76.": 7645,
      "AQAAQBAJ&pg=PA": 7646,
      "St": 7647,
      "_per": 7648,
      "_history": 7649,
      "aci": 7650,
      "egh": 7651,
      "maint:": 7652,
      "▁<": 7653,
      "](Special:BookSources/": 7654,
      "](Special:BookSources/978": 7655,
      "inated": 7656,
      "Indian_": 7657,
      "▁(1):": 7658,
      "etwork": 7659,
      "▁Century": 7660,
      "\\_parame": 7661,
      "library": 7662,
      "▁Movement": 7663,
      "emor": 7664,
      "25.": 7665,
      "1999": 7666,
      "Univers": 7667,
      "▁Ne": 7668,
      "forest": 7669,
      "▁198": 7670,
      "40.": 7671,
      "27.": 7672,
      "▁London": 7673,
      "▁([link": 7674,
      "▁[*M": 7675,
      "_maint:": 7676,
      "alaya": 7677,
      "ervice": 7678,
      "ukh": 7679,
      "CS1_maint:": 7680,
      "orities/": 7681,
      "▁consid": 7682,
      "/08/": 7683,
      "a/a": 7684,
      "-level": 7685,
      "AsherTalbot2008),": 7686,
      "cms)": 7687,
      "▁Monetary": 7688,
      "▁domestic": 7689,
      "maint:\\_": 7690,
      "\\_parameters": 7691,
      ".t": 7692,
      "/we": 7693,
      "2%29": 7694,
      "3-3": 7695,
      "428": 7696,
      "520": 7697,
      ":IN": 7698,
      "British": 7699,
      "E﻿": 7700,
      "KI": 7701,
      "Pe": 7702,
      "_ग": 7703,
      "_या": 7704,
      "_30": 7705,
      "_39": 7706,
      "_जन": 7707,
      "_జాబితా": 7708,
      "aver": 7709,
      "a-b": 7710,
      "bu": 7711,
      "cia": 7712,
      "gration": 7713,
      "music": 7714,
      "sci": 7715,
      "uin": 7716,
      "ंनी": 7717,
      "ंजन": 7718,
      "ंच्या": 7719,
      "अरब": 7720,
      "इव": 7721,
      "कटिबंधीय": 7722,
      "ख्": 7723,
      "घा": 7724,
      "टना": 7725,
      "ण्या": 7726,
      "मूल": 7727,
      "यार": 7728,
      "लेशिया": 7729,
      "शाली": 7730,
      "शक्ति": 7731,
      "हते": 7732,
      "ाचा": 7733,
      "ुस्तान": 7734,
      "ूटी": 7735,
      "ूनाइ": 7736,
      "ोसी": 7737,
      "२०१": 7738,
      "ఆంధ": 7739,
      "కీ": 7740,
      "కాలు": 7741,
      "క్రమ": 7742,
      "గర్": 7743,
      "డో": 7744,
      "థి": 7745,
      "నె": 7746,
      "నాలు": 7747,
      "పించ": 7748,
      "బడ్డ": 7749,
      "భర": 7750,
      "మహ": 7751,
      "మై": 7752,
      "యన": 7753,
      "రంగ": 7754,
      "లయా": 7755,
      "వార": 7756,
      "శీ": 7757,
      "షనల్": 7758,
      "స్య": 7759,
      "ృద్ధి": 7760,
      "ెంగ": 7761,
      "ేర": 7762,
      "–17": 7763,
      "–120": 7764,
      "▁దా": 7765,
      "▁local": 7766,
      "▁धीरे": 7767,
      "▁నాగరికత": 7768,
      "▁టెక్నాలజీ": 7769,
      "tten": 7770,
      "](https://catal": 7771,
      "▁[ख": 7772,
      "▁[चीन": 7773,
      "▁\"बा": 7774,
      "▁\"पश्चिम": 7775,
      "▁\"केर": 7776,
      "\")1": 7777,
      "tives": 7778,
      "ारे": 7779,
      "es.": 7780,
      "▁कला": 7781,
      "](https://hi.wikipedia.org/wiki/राजस्थान": 7782,
      "▁सश": 7783,
      "▁सी": 7784,
      "▁सो": 7785,
      "▁समान": 7786,
      "्यपालिका": 7787,
      "▁मशीन": 7788,
      "▁पृष्ठ": 7789,
      "▁India\r\n": 7790,
      "राइ": 7791,
      "let": 7792,
      "్రై": 7793,
      "్రప్రదేశ్": 7794,
      "rame": 7795,
      "](https://te.wikipedia.org/wiki/ఢిల్లీ": 7796,
      "ानून": 7797,
      "र्ण": 7798,
      "र्भ": 7799,
      "र्मा": 7800,
      "▁sim": 7801,
      "20085": 7802,
      "▁policy": 7803,
      "ritten": 7804,
      "▁हिल्": 7805,
      "▁हालाँकि": 7806,
      "ing,": 7807,
      "\\_template": 7808,
      "िकेट": 7809,
      "▁अभी": 7810,
      "▁वी": 7811,
      "ालर": 7812,
      "▁12.": 7813,
      "▁जिन्": 7814,
      "ilar": 7815,
      "stre": 7816,
      "దేశం": 7817,
      "దేశాల": 7818,
      "దేశాలు": 7819,
      "▁do": 7820,
      "▁प्रमाण": 7821,
      "▁Te": 7822,
      "olia": 7823,
      "▁आम": 7824,
      "▁आय": 7825,
      "▁आंद": 7826,
      "▁आदि": 7827,
      "▁Modi": 7828,
      "▁Machine": 7829,
      "▁Ram": 7830,
      "](https://mr.wikipedia.org/wiki/उ": 7831,
      "्वज": 7832,
      "▁बल": 7833,
      "▁बदल": 7834,
      "▁बैंक": 7835,
      "ర్‌": 7836,
      "▁ती": 7837,
      "▁तीस": 7838,
      "▁air": 7839,
      "s.jpg": 7840,
      "▁से](https://": 7841,
      "_स्": 7842,
      "_सागर": 7843,
      "లు?action=edit&redlink=1": 7844,
      "्रेल": 7845,
      "1991": 7846,
      "రాఠ": 7847,
      "विजयनगर": 7848,
      "▁Home": 7849,
      "▁కి": 7850,
      "▁కో": 7851,
      "स्चेंज": 7852,
      "रीक्षण": 7853,
      "క్టో": 7854,
      "▁गति": 7855,
      "నియా": 7856,
      "▁వర్": 7857,
      "▁వారస": 7858,
      "▁शांति": 7859,
      "abin": 7860,
      "geoh": 7861,
      "▁उस": 7862,
      "वाँ": 7863,
      "ల్వే": 7864,
      "ap_en": 7865,
      "▁సరిహద్దు": 7866,
      "साठी": 7867,
      "▁మన": 7868,
      "▁మూ": 7869,
      "os/": 7870,
      "ड़िशा": 7871,
      "पांड": 7872,
      "15/": 7873,
      "_and_T": 7874,
      "▁around": 7875,
      "म्प": 7876,
      "म्प्र": 7877,
      "ंडल": 7878,
      "ండమా": 7879,
      "▁रु": 7880,
      "▁చిన్న": 7881,
      "]](https://hi.wikipedia.org/wiki/भारत#cite_note-Combined": 7882,
      "తాన": 7883,
      "uccess": 7884,
      "ముఖ": 7885,
      "త్వం": 7886,
      "▁being": 7887,
      "▁भाषाएं": 7888,
      "कार्यपालिका": 7889,
      "▁(సా.శ.14": 7890,
      "dire": 7891,
      "ులు,": 7892,
      "–సా.శ.15": 7893,
      "–సా.శ.17": 7894,
      "▁ప్రతి": 7895,
      "▁ప్రస్తు": 7896,
      "▁ప్రకారం": 7897,
      "▁ప్రముఖ": 7898,
      "_Data_": 7899,
      "▁१०": 7900,
      "ంచిన": 7901,
      "కుడు": 7902,
      "▁[↑](https://hi.wikipedia.org/wiki/भारत#cite_ref-Combined": 7903,
      "▁प्रदेश](https://hi.wikipedia.org/wiki/मध्य": 7904,
      "నుమ": 7905,
      ".jpg)](https://mr.wikipedia.org/wiki/चित्र:": 7906,
      "irectorate": 7907,
      "ंत्रिक": 7908,
      "ंत्रिम": 7909,
      "▁पुलिस": 7910,
      "ింది.\r\n": 7911,
      "▁any": 7912,
      "▁deb": 7913,
      "▁రో": 7914,
      "▁రంగ": 7915,
      "▁రవాణా": 7916,
      "▁होते": 7917,
      "▁సాధించ": 7918,
      "▁\"कर्नाटक": 7919,
      "ష్టు": 7920,
      "▁[कर्नाटक": 7921,
      "E0%B0%": 7922,
      "▁[GDP": 7923,
      "▁चल": 7924,
      "वर्ल्": 7925,
      ",_కేంద్రపాలిత": 7926,
      "▁वर्ण": 7927,
      "▁वर्तमान": 7928,
      "ంతో": 7929,
      "रेन्द्र": 7930,
      "▁తరువా": 7931,
      "పాలన": 7932,
      "▁नागर": 7933,
      "ం](https://te.wikipedia.org/wiki/భారతీయ": 7934,
      "▁uni": 7935,
      "_map_en": 7936,
      "గుర్": 7937,
      "నేషనల్": 7938,
      "ूचियाँ": 7939,
      "anced": 7940,
      "▁ప్రాంతం": 7941,
      "[![](https://upload.wikimedia.org/wikipedia/commons/thumb/7/": 7942,
      "వందే": 7943,
      "तिहासिक": 7944,
      "▁किया।": 7945,
      "▁రాజ్యం](https://te.wikipedia.org/wiki/": 7946,
      "▁[International": 7947,
      "AsherTalbot20085": 7948,
      "▁బా": 7949,
      "▁బహు": 7950,
      "▁బెంగ": 7951,
      "▁गया।[[": 7952,
      "▁मानव": 7953,
      "▁CITEREFKulkeRothermund2004": 7954,
      "684": 7955,
      "_संविधान": 7956,
      "टेड": 7957,
      "आई.": 7958,
      "ాల్లో": 7959,
      "data.worldbank.org/": 7960,
      "](https://hi.wikipedia.org/wiki/उर्दू": 7961,
      "knowin": 7962,
      "▁notation": 7963,
      "శ్వా": 7964,
      "ूचना-विज्ञान": 7965,
      "ారిటీ": 7966,
      "स्ट्रेल": 7967,
      "एस.": 7968,
      "▁[↑](https://hi.wikipedia.org/wiki/भारत#cite_ref-FOOTNOTEStein1998": 7969,
      "-report": 7970,
      "ministered": 7971,
      "▁टक्के": 7972,
      "▁\"Official": 7973,
      "గోళ": 7974,
      "▁2016.\r\n": 7975,
      "ड़ीसा": 7976,
      "▁धरोहर": 7977,
      "▁across": 7978,
      "▁पार्ट": 7979,
      "कल_घ": 7980,
      "బడిన": 7981,
      "▁अपना": 7982,
      "▁Thomas": 7983,
      "▁संग्रा": 7984,
      "▁इतिहास\")": 7985,
      "▁28.": 7986,
      "त्तराखंड": 7987,
      "▁Art": 7988,
      "తున్న": 7989,
      "న్నిక": 7990,
      "▁స్వాతంత్ర్య": 7991,
      "▁కాలంలో": 7992,
      "▁संविधान\")": 7993,
      "१९४७": 7994,
      "राष्ट्रपति\")": 7995,
      ".net": 7996,
      "cat.org/": 7997,
      "▁थी।": 7998,
      "िन्धु-गंगा": 7999,
      "हायक": 8000,
      "▁स्थापना": 8001,
      "ంపి": 8002,
      "▁वार्षिक": 8003,
      "బెంగాల్": 8004,
      "विकि": 8005,
      "विकास": 8006,
      "▁According": 8007,
      "ెలవు": 8008,
      "▁लाख": 8009,
      "▁नीति": 8010,
      "](https://te.wikipedia.org/wiki/భారతదేశంలో_": 8011,
      "▁अनुसंधान": 8012,
      "▁लेकर": 8013,
      "ीपी)": 8014,
      "रेलू_उत्पाद": 8015,
      "ष्णकटिबंधीय": 8016,
      "britannica.com/place": 8017,
      "-India.pdf)": 8018,
      "▁सूचना-विज्ञान": 8019,
      "▁అధికారిక": 8020,
      "▁विस्तृत": 8021,
      "MetcalfMetcalf2012-26": 8022,
      "ఆర్ధిక": 8023,
      "▁मौसम": 8024,
      "▁పట్టణ": 8025,
      "▁కాశ్మీరు": 8026,
      "▁\"दिल्ली\")": 8027,
      "_सेना": 8028,
      "ంగ్లీషు": 8029,
      "▁अमेरिका": 8030,
      "thehindu": 8031,
      "▁हवामान": 8032,
      "संख्ये": 8033,
      "▁అయిన": 8034,
      "▁రెండు": 8035,
      "ాల్దీవులు": 8036,
      "ట్రో": 8037,
      "ుల్తాన": 8038,
      "▁[राजस्थान](https://hi.wikipedia.org/wiki/राजस्थान": 8039,
      "\\_कड़ियाँ": 8040,
      "రాష్ట్రాలు,_కేంద్రపాలిత": 8041,
      "भूटान": 8042,
      "దినోత్సవం": 8043,
      "▁వ్యాసం:": 8044,
      "्यायपालिका": 8045,
      "_and_union_territories_of_India": 8046,
      "0%E0%A4%": 8047,
      "▁[भारत](https://hi.wikipedia.org/wiki/भारत)": 8048,
      "ార్లమెంట": 8049,
      "▁./వర్గం:Wikipedia\\_articles\\_with\\_": 8050,
      "▁2004](https://hi.wikipedia.org/wiki/भारत#CITEREFKulkeRothermund2004),": 8051,
      "▁ఏర్ప": 8052,
      "-language\\_sources\\_(en": 8053,
      "▁तुलना": 8054,
      "▁[उर्दू](https://hi.wikipedia.org/wiki/उर्दू": 8055,
      "_यादी": 8056,
      "मूल्य": 8057,
      "ूनाइटेड": 8058,
      "ఆంధ్రప్రదేశ్": 8059,
      "లయాళ": 8060,
      "▁similar": 8061,
      "geohack": 8062,
      "▁प्रदेश](https://hi.wikipedia.org/wiki/मध्य_प्रदेश": 8063,
      "वर्ल्ड": 8064,
      "data.worldbank.org/indicator": 8065,
      "knowindia": 8066,
      "कल_घरेलू_उत्पाद": 8067,
      "రాష్ట్రాలు,_కేంద్రపాలిత_ప్రాంత": 8068,
      "*](https://www.": 8069,
      "*](https://web.archive.org/web/200": 8070,
      ",_India": 8071,
      "/news/": 8072,
      "0/": 8073,
      "0-0)": 8074,
      "1b": 8075,
      "1)\r\n": 8076,
      "4_": 8077,
      "4-0": 8078,
      "6%": 8079,
      "6-1": 8080,
      "8%": 8081,
      "8]](https://en.wikipedia.org/wiki/India#cite_note-": 8082,
      "AL": 8083,
      "BI": 8084,
      "CIA": 8085,
      "Constituent": 8086,
      "Flag_of_India": 8087,
      "Ge": 8088,
      "K:": 8089,
      "Navy": 8090,
      "OV": 8091,
      "PT": 8092,
      "Zor": 8093,
      "_ci": 8094,
      "_con": 8095,
      "_2008": 8096,
      "aur": 8097,
      "ahib": 8098,
      "audi": 8099,
      "bird": 8100,
      "b/b": 8101,
      "cutt": 8102,
      "dministrative": 8103,
      "digenous": 8104,
      "ealand": 8105,
      "ful": 8106,
      "hag": 8107,
      "io": 8108,
      "jha": 8109,
      "jayan": 8110,
      "lé": 8111,
      "mon": 8112,
      "pi": 8113,
      "pub": 8114,
      "sol": 8115,
      "spect": 8116,
      "tle": 8117,
      "water": 8118,
      "ypr": 8119,
      "–11": 8120,
      "–Pakistan": 8121,
      "▁X": 8122,
      "▁35": 8123,
      "▁4.": 8124,
      "▁5.": 8125,
      "▁8.": 8126,
      "▁times": 8127,
      "ora": 8128,
      "orary": 8129,
      "orne": 8130,
      ".wikidata": 8131,
      ".org/wiki/Q": 8132,
      "▁[Harle": 8133,
      "teri": 8134,
      "▁\"Special:BookSources/978": 8135,
      "in-O": 8136,
      "anal": 8137,
      "anch": 8138,
      "though": 8139,
      "hili": 8140,
      "ardian": 8141,
      "alak": 8142,
      "alcutt": 8143,
      "isa": 8144,
      "ison": 8145,
      "istic": 8146,
      "isak": 8147,
      "tion,": 8148,
      "anding": 8149,
      "▁(in": 8150,
      "▁(union": 8151,
      "▁(nominal)": 8152,
      "ito": 8153,
      "itor": 8154,
      "ital": 8155,
      "itchi": 8156,
      "asar": 8157,
      "ases": 8158,
      "asian": 8159,
      "](https://en.wikipedia.org/wiki/Indian": 8160,
      "▁India](https://en.wikipedia.org/wiki/P": 8161,
      "now": 8162,
      "▁ins": 8163,
      "▁so": 8164,
      "▁sultanate": 8165,
      "▁small": 8166,
      "▁plate": 8167,
      "etnam": 8168,
      "riy": 8169,
      "▁char": 8170,
      "▁cap": 8171,
      "ustice": 8172,
      "aten": 8173,
      "atri": 8174,
      "▁Cynth": 8175,
      "▁Am": 8176,
      "▁As": 8177,
      "▁Age": 8178,
      "▁Affair": 8179,
      "▁Schedule": 8180,
      "acher": 8181,
      "▁festival": 8182,
      "▁trib": 8183,
      "▁turn": 8184,
      "urg": 8185,
      "urasia": 8186,
      "urasian": 8187,
      "▁mark": 8188,
      "▁Prin": 8189,
      "_of_N": 8190,
      "ially": 8191,
      "ilt": 8192,
      "uns": 8193,
      "▁2016.": 8194,
      "]](https://en.wikipedia.org/wiki/India#cite_note-Dyson2018": 8195,
      "olice": 8196,
      "emi": 8197,
      "▁Bharat": 8198,
      "mentin-O": 8199,
      "nific": 8200,
      "ignific": 8201,
      "_(union_territory": 8202,
      "ir_S": 8203,
      "▁Desert": 8204,
      "▁India\").[[": 8205,
      "24_A7C": 8206,
      "▁[↑](https://en.wikipedia.org/wiki/India#cite_ref-3": 8207,
      "▁[↑](https://en.wikipedia.org/wiki/India#cite_ref-Combined": 8208,
      "▁E.": 8209,
      "_in_A": 8210,
      "_in_T": 8211,
      "▁eaten": 8212,
      "▁2000": 8213,
      "elug": 8214,
      "_Ag": 8215,
      "▁three": 8216,
      "](https://en.wikipedia.org/wiki/India#CITEREFCraven1997": 8217,
      "abour": 8218,
      "▁1970": 8219,
      "▁1971": 8220,
      "29)": 8221,
      "▁[\"M": 8222,
      "▁Journal": 8223,
      "Harmand": 8224,
      "epali": 8225,
      "▁[Sri": 8226,
      "16]](https://en.wikipedia.org/wiki/India#cite_note-": 8227,
      "▁L.": 8228,
      "▁Organisation": 8229,
      "▁Olymp": 8230,
      "ension": 8231,
      "-9\").\r\n": 8232,
      "-981": 8233,
      "_Census": 8234,
      "](https://en.wikipedia.org/wiki/Climate_": 8235,
      "laci": 8236,
      "dog": 8237,
      ".gov.": 8238,
      "Harvard": 8239,
      "▁[↑](https://en.wikipedia.org/wiki/India#cite_ref-FOOTNOTECraven1997": 8240,
      "s](https://en.wikipedia.org/wiki/United": 8241,
      "-2\").\r\n": 8242,
      "-2](Special:BookSources/978-1": 8243,
      "artial": 8244,
      "ysis": 8245,
      "alled": 8246,
      "▁original](http://www.": 8247,
      "2006),": 8248,
      "temporary": 8249,
      "39)": 8250,
      "▁\"East": 8251,
      "▁\"Economic": 8252,
      "_Re": 8253,
      "_Nations": 8254,
      "_November": 8255,
      "_National_P": 8256,
      "ians": 8257,
      "_Games": 8258,
      "_Golden_Temple": 8259,
      "ible": 8260,
      "▁[978-0-19-9": 8261,
      "▁[978-0-521-80904-7": 8262,
      "ultures": 8263,
      "_pilgrim": 8264,
      "▁\"Russia": 8265,
      "▁[Russia": 8266,
      "](Special:BookSources/978-0-19-9": 8267,
      "▁\"Special:BookSources/978-0-19-9": 8268,
      "](https://en.wikipedia.org/wiki/Russia": 8269,
      "economy": 8270,
      "▁centre": 8271,
      "▁(2016).": 8272,
      "](https://en.wikipedia.org/wiki/Indus": 8273,
      "atis": 8274,
      "▁subject": 8275,
      "Stein201011": 8276,
      "58)": 8277,
      "_Indian_subcontinent": 8278,
      "▁./Category:Articles\\_contain": 8279,
      "_relations": 8280,
      "_des": 8281,
      "▁2023.": 8282,
      "▁2023](https://en.wikipedia.org/wiki/India#CITEREF": 8283,
      "ortality": 8284,
      "crimin": 8285,
      "oastrian": 8286,
      "ppines": 8287,
      "ample": 8288,
      "▁music\")": 8289,
      "ujarati": 8290,
      "▁about": 8291,
      "▁common": 8292,
      "▁diversity": 8293,
      "ID-19": 8294,
      "▁election\"),": 8295,
      "IAF": 8296,
      "_of_the_": 8297,
      "Vijayan": 8298,
      "Vietnam": 8299,
      "▁traditional": 8300,
      "▁well": 8301,
      "ikh_pilgrim": 8302,
      "al_Pradesh": 8303,
      "aharasht": 8304,
      "▁mathematics": 8305,
      "Harle1994),": 8306,
      "_Shankar": 8307,
      "rmy": 8308,
      "_at_the_Golden_Temple": 8309,
      ".svg/40px-": 8310,
      "hanghai": 8311,
      "▁player": 8312,
      "Robb2011": 8313,
      "ilies": 8314,
      "▁highest": 8315,
      "-language\\_text": 8316,
      "default": 8317,
      "anoram": 8318,
      "lectri": 8319,
      ".svg.png)](File:": 8320,
      "▁Publishing\").": 8321,
      "▁Europe*](https://books.google.com/books?id=": 8322,
      "otsp": 8323,
      "bbc": 8324,
      "izor": 8325,
      "hristianity": 8326,
      "▁remain": 8327,
      "▁colleges": 8328,
      "▁popular": 8329,
      "ichell2000": 8330,
      "_Air_Force": 8331,
      "67733-7": 8332,
      "kbar": 8333,
      "▁following": 8334,
      "▁\"China\")": 8335,
      "do-Gangetic": 8336,
      "ataraja": 8337,
      "▁emerged": 8338,
      "▁approxim": 8339,
      "IFTY": 8340,
      "▁legis": 8341,
      "orporation": 8342,
      "](https://www.wikidata": 8343,
      "▁divisions": 8344,
      "▁1994](https://en.wikipedia.org/wiki/India#CITEREFHarle1994),": 8345,
      "touchability": 8346,
      "▁1997](https://en.wikipedia.org/wiki/India#CITEREFCraven1997": 8347,
      "wait": 8348,
      "Library_of_Congress2004": 8349,
      "8+5": 8350,
      "rincely": 8351,
      "▁developed": 8352,
      "OVID-19": 8353,
      "Zoroastrian": 8354,
      "lémentin-O": 8355,
      "yprus": 8356,
      "hilippines": 8357,
      "alakrishnan": 8358,
      "alcutta": 8359,
      "itchison": 8360,
      "▁Cynthia": 8361,
      "_(union_territory)": 8362,
      "ir_Sahib": 8363,
      "Harmandir_Sahib": 8364,
      "_National_Park": 8365,
      "ikh_pilgrim_at_the_Golden_Temple": 8366,
      "aharashtra": 8367,
      "](https://www.wikidata.org/wiki/Q": 8368,
      "▁1997](https://en.wikipedia.org/wiki/India#CITEREFCraven1997),": 8369,
      "lémentin-Ojha": 8370,
      "#P": 8371,
      "-H": 8372,
      "-for": 8373,
      "-24)": 8374,
      "._": 8375,
      ".स": 8376,
      "/india/": 8377,
      "1%20": 8378,
      "613": 8379,
      "96": 8380,
      "CCN": 8381,
      "DR": 8382,
      "Economic": 8383,
      "RA": 8384,
      "_ध": 8385,
      "_he": 8386,
      "_ex": 8387,
      "bd": 8388,
      "culture": 8389,
      "gi": 8390,
      "hhattisgarh": 8391,
      "p)": 8392,
      "p.org/": 8393,
      "post": 8394,
      "y=": 8395,
      "इतिहास": 8396,
      "गी": 8397,
      "गरा": 8398,
      "जास": 8399,
      "डो": 8400,
      "तः": 8401,
      "तपु": 8402,
      "नै": 8403,
      "पीप": 8404,
      "मोर": 8405,
      "वणी": 8406,
      "सरी": 8407,
      "ैस": 8408,
      "्म": 8409,
      "्मार": 8410,
      "▁%": 8411,
      "▁ढ": 8412,
      "▁har": 8413,
      "▁टे": 8414,
      "▁[28": 8415,
      "▁[विश्व": 8416,
      "▁[केर": 8417,
      "▁[श्रीलंका": 8418,
      "▁\"धर्म": 8419,
      "▁\"श्रीलंका": 8420,
      "▁\"en:": 8421,
      "2020": 8422,
      "्रु": 8423,
      "▁कंपनी": 8424,
      "ispu": 8425,
      "्यु": 8426,
      "▁(J": 8427,
      "asu": 8428,
      "▁माना": 8429,
      "ica": 8430,
      "▁India\"](https://": 8431,
      "▁India\".": 8432,
      "राव": 8433,
      "राठा": 8434,
      "rah": 8435,
      "▁Court": 8436,
      "▁केले": 8437,
      "\\_देश": 8438,
      "▁birth": 8439,
      "urmu": 8440,
      "▁mo": 8441,
      "▁Portal": 8442,
      "▁दर्": 8443,
      "▁दिवस": 8444,
      "▁प्रशास": 8445,
      "▁Mana": 8446,
      "▁Mani": 8447,
      "▁ताप": 8448,
      "▁तीन": 8449,
      "▁Britannica": 8450,
      "▁Barb": 8451,
      "▁Bengali": 8452,
      "240": 8453,
      "▁Gana": 8454,
      "113": 8455,
      "▁2002": 8456,
      "▁गा": 8457,
      "▁शा": 8458,
      "▁शहरी": 8459,
      "▁उदा": 8460,
      "▁Food": 8461,
      "▁Factbook": 8462,
      "▁संयुक्त": 8463,
      "▁इतर": 8464,
      "135": 8465,
      "_मो": 8466,
      "त्ताक": 8467,
      "▁growing": 8468,
      "▁Ludden": 8469,
      "laim": 8470,
      "▁करते": 8471,
      "ंदिरा": 8472,
      "ंत्रण": 8473,
      "%2C_A": 8474,
      "%2C_M": 8475,
      "▁आहे.\r\n": 8476,
      "▁आहे.[[": 8477,
      "](https://mr.wikipedia.org/wiki/भारतीय_": 8478,
      "जीवन": 8479,
      "ार्थ": 8480,
      "▁[ब्रिटिश": 8481,
      "▁[बौद्ध": 8482,
      "▁[बिहार": 8483,
      "▁\"बिहार": 8484,
      "▁नाव": 8485,
      "ख्यिकी": 8486,
      "ल्स": 8487,
      "ल्पा": 8488,
      "▁History*](https://books.google.com/books?id=": 8489,
      "IND": 8490,
      "puri": 8491,
      "/countries/": 8492,
      "roupadi": 8493,
      "मेव": 8494,
      "34238": 8495,
      "68–": 8496,
      "▁Present": 8497,
      "त्यमेव": 8498,
      "_नृत्य": 8499,
      "्यांची": 8500,
      "▁विकसित": 8501,
      "flict": 8502,
      "▁केंद्रशासित": 8503,
      "▁मोठ": 8504,
      "▁झाला": 8505,
      "▁टा": 8506,
      "1947)": 8507,
      "▁\"संयुक्त": 8508,
      "▁न्यायाधीश": 8509,
      "▁ईस्ट": 8510,
      "aedia": 8511,
      "तेलुगु": 8512,
      "▁\"पंजाबी": 8513,
      "ause": 8514,
      "दर्भ": 8515,
      "▁[पंजाबी": 8516,
      "11934238": 8517,
      "्यानमार": 8518,
      "arathi": 8519,
      "▁dispute": 8520,
      "cyclopaedia": 8521,
      "▁आकर्ष": 8522,
      "ग्वेद": 8523,
      "िषद": 8524,
      "s.com/": 8525,
      "ातंत्र्य": 8526,
      "रामायण": 8527,
      "eghalaya": 8528,
      "जासत्ताक": 8529,
      "▁\"श्रीलंका\")": 8530,
      "▁Ludden,": 8531,
      "▁\"बिहार\")": 8532,
      "*[": 8533,
      "-hind": 8534,
      "/)": 8535,
      "1st": 8536,
      "126": 8537,
      "2-10": 8538,
      "310": 8539,
      "425": 8540,
      "623": 8541,
      "6-9": 8542,
      "Ali": 8543,
      "CA": 8544,
      "Col": 8545,
      "G20": 8546,
      "Republic": 8547,
      "ize": 8548,
      "lc": 8549,
      "rance": 8550,
      "ster": 8551,
      "vanced": 8552,
      "–29": 8553,
      "▁ter": 8554,
      "people": 8555,
      ".org/w": 8556,
      "thme": 8557,
      "▁India](https://en.wikipedia.org/wiki/D": 8558,
      "▁inequality": 8559,
      "id=1": 8560,
      "▁sec": 8561,
      "▁size": 8562,
      "ation)": 8563,
      "▁Council": 8564,
      "▁Ag": 8565,
      "▁Ste": 8566,
      "▁Sikh": 8567,
      "[[14": 8568,
      "▁ful": 8569,
      "789": 8570,
      "chol": 8571,
      "▁11.": 8572,
      "▁2015.": 8573,
      "ficient": 8574,
      "261": 8575,
      "▁India\")*.": 8576,
      "▁Har": 8577,
      "▁2009.": 8578,
      "18.": 8579,
      "▁[\"H": 8580,
      "▁Informatics": 8581,
      "▁[Ar": 8582,
      "16.": 8583,
      "▁Library": 8584,
      "_President_of_India": 8585,
      "ummary": 8586,
      ")[[13": 8587,
      "35.": 8588,
      "47)": 8589,
      "▁[BRICS": 8590,
      "▁\"BRICS": 8591,
      "▁II": 8592,
      "_Mar": 8593,
      "7080": 8594,
      "39.": 8595,
      "▁\"New": 8596,
      "▁provid": 8597,
      "\"](https://web.archive.org/web/20140": 8598,
      "iterature": 8599,
      "▁(2019).": 8600,
      "efence": 8601,
      "data.bnf.fr/ark:/12148/cb": 8602,
      "atter": 8603,
      "▁regional": 8604,
      "edicine": 8605,
      "▁above": 8606,
      "CON": 8607,
      "ustralian": 8608,
      "Ludden200": 8609,
      ".com/news/world": 8610,
      "index.php?": 8611,
      "▁Himalayas": 8612,
      "ogue.bnf.fr/ark:/12148/cb": 8613,
      "istorical": 8614,
      "atabase": 8615,
      "▁continu": 8616,
      "](https://id.": 8617,
      ".edu/": 8618,
      "profile": 8619,
      "rakash": 8620,
      "▁adopted": 8621,
      "thmetic": 8622,
      "#S": 8623,
      "-Y": 8624,
      "-v": 8625,
      "-ve": 8626,
      "-पाकिस्तान": 8627,
      ".JPG": 8628,
      "0/0": 8629,
      "0&s": 8630,
      "1.\r\n": 8631,
      "122": 8632,
      "3%": 8633,
      "478": 8634,
      "5.pdf)": 8635,
      "728": 8636,
      "7)[[": 8637,
      "72.": 8638,
      "748": 8639,
      "Atlas": 8640,
      "Business": 8641,
      "Curry": 8642,
      "Chennai": 8643,
      "Copland": 8644,
      "DS": 8645,
      "Gum": 8646,
      "Garg": 8647,
      "HQ": 8648,
      "Kumar": 8649,
      "L.": 8650,
      "Nehru": 8651,
      "OP": 8652,
      "SE": 8653,
      "Search": 8654,
      "Template": 8655,
      "Tritsch": 8656,
      "US": 8657,
      "Women": 8658,
      "YS": 8659,
      "Yum": 8660,
      "Young": 8661,
      "[https": 8662,
      "_Z": 8663,
      "_ह": 8664,
      "_te": 8665,
      "_21": 8666,
      "_वि": 8667,
      "_di": 8668,
      "_వి": 8669,
      "_2009": 8670,
      "_2007": 8671,
      "_World": 8672,
      "_val": 8673,
      "_पार": 8674,
      "_खाना": 8675,
      "_కాశ్మీ": 8676,
      "_monsoon": 8677,
      "_विकास": 8678,
      "a](https://en.wikipedia.org/wiki/A": 8679,
      "aze": 8680,
      "aidy": 8681,
      "dhy": 8682,
      "d=20": 8683,
      "fos": 8684,
      "fall": 8685,
      "gions": 8686,
      "iote": 8687,
      "jol": 8688,
      "k-e": 8689,
      "lation": 8690,
      "lla": 8691,
      "mc": 8692,
      "mt": 8693,
      "nus": 8694,
      "nins": 8695,
      "nathura": 8696,
      "oal": 8697,
      "ochi": 8698,
      "rh": 8699,
      "ride": 8700,
      "s)": 8701,
      "s_in_South_Asia": 8702,
      "tripura": 8703,
      "uff": 8704,
      "yr": 8705,
      "zard": 8706,
      "ædia": 8707,
      "ंज़": 8708,
      "ंपर": 8709,
      "अतुल्य": 8710,
      "आर्": 8711,
      "इप्र": 8712,
      "उद्यान": 8713,
      "ऋग्वेद": 8714,
      "ओआई": 8715,
      "कूल": 8716,
      "ख़": 8717,
      "चित": 8718,
      "जे": 8719,
      "जना": 8720,
      "जवा": 8721,
      "थम": 8722,
      "थुरा": 8723,
      "दून": 8724,
      "दयपुर": 8725,
      "धाक": 8726,
      "धोला": 8727,
      "निव": 8728,
      "नत्व": 8729,
      "नजं": 8730,
      "बलि": 8731,
      "मआई": 8732,
      "रिया\")": 8733,
      "ल-": 8734,
      "लब्": 8735,
      "व\")": 8736,
      "शहरा": 8737,
      "सू": 8738,
      "सों": 8739,
      "सैनिक": 8740,
      "हान": 8741,
      "़तर": 8742,
      "िझ": 8743,
      "िली": 8744,
      "ीकरण": 8745,
      "ुट": 8746,
      "ूड": 8747,
      "ैम्ब": 8748,
      "ो-": 8749,
      "ोढ़": 8750,
      "ोटे": 8751,
      "ोडिया": 8752,
      "१५": 8753,
      "४.": 8754,
      "ంస్కృ": 8755,
      "ఉత్తరా": 8756,
      "ఖో": 8757,
      "ఘాలయ": 8758,
      "చ్": 8759,
      "టై": 8760,
      "టర్": 8761,
      "డమ్": 8762,
      "డఖ్": 8763,
      "ణే": 8764,
      "ణంగా": 8765,
      "తే": 8766,
      "తెల": 8767,
      "దరంగ": 8768,
      "నో": 8769,
      "నంద": 8770,
      "బర్": 8771,
      "బార్": 8772,
      "యె": 8773,
      "రె": 8774,
      "లడఖ్": 8775,
      "ళా": 8776,
      "ళి": 8777,
      "శు": 8778,
      "హించ": 8779,
      "ుకు": 8780,
      "ెన్న": 8781,
      "ెట్రో": 8782,
      "ేతి": 8783,
      "ేఘాలయ": 8784,
      "ైనిక": 8785,
      "ొగలు": 8786,
      "ోళ": 8787,
      "‌కా": 8788,
      "‌మహ": 8789,
      "▁x": 8790,
      "▁y": 8791,
      "▁ठ": 8792,
      "▁८": 8793,
      "▁ఐ": 8794,
      "▁ఖ": 8795,
      "▁ki": 8796,
      "▁er": 8797,
      "▁enti": 8798,
      "▁go": 8799,
      "▁op": 8800,
      "▁rit": 8801,
      "▁–సా.శ.": 8802,
      "▁భారతీయ": 8803,
      "▁3.": 8804,
      "▁very": 8805,
      "kid=20": 8806,
      "orse": 8807,
      "orbe": 8808,
      "ttac": 8809,
      "perc": 8810,
      "▁[g": 8811,
      "▁[రాష్ట్ర": 8812,
      "▁[జన": 8813,
      "▁[बांग्ला": 8814,
      "▁[గో": 8815,
      "▁[...]": 8816,
      "enced": 8817,
      "tesv": 8818,
      "▁\"Y": 8819,
      "▁\"ना": 8820,
      "▁\"పా": 8821,
      "▁\"జన": 8822,
      "▁\"बांग्ला": 8823,
      "▁\"గో": 8824,
      "▁\"మూస:": 8825,
      "▁\"Hinduism": 8826,
      "▁\"पूर्वी": 8827,
      "▁\"हिमाचल": 8828,
      "▁\"ISO": 8829,
      "Infos": 8830,
      "thang": 8831,
      "th_East_Asia_Summit": 8832,
      "](https://en.wikipedia.org/wiki/United": 8833,
      "til": 8834,
      "hic": 8835,
      "hip": 8836,
      "er-": 8837,
      "erce": 8838,
      "arc": 8839,
      "arayan": 8840,
      "algh": 8841,
      "्रिज": 8842,
      "▁किल्": 8843,
      "](https://hi.wikipedia.org/wiki/पु": 8844,
      "](https://hi.wikipedia.org/wiki/का": 8845,
      "](https://hi.wikipedia.org/wiki/धर्म": 8846,
      "](https://hi.wikipedia.org/wiki/लोक": 8847,
      "](https://hi.wikipedia.org/wiki/बांग्ला": 8848,
      "](https://hi.wikipedia.org/wiki/विश्व": 8849,
      "](https://hi.wikipedia.org/wiki/गुजरात": 8850,
      "](https://hi.wikipedia.org/wiki/राष्ट्रीय_स": 8851,
      "भारत_के_राज्य": 8852,
      "▁सहायक": 8853,
      "andy": 8854,
      "andoor": 8855,
      "andemic": 8856,
      "oms": 8857,
      "omic": 8858,
      "edary": 8859,
      "▁(2010": 8860,
      "▁(2003": 8861,
      "▁(2005": 8862,
      "▁(अभिज्ञापक": 8863,
      "▁मत": 8864,
      "▁मध्ये": 8865,
      "▁मिला": 8866,
      "▁महारजिस्ट्रार": 8867,
      "▁पड": 8868,
      "▁पी": 8869,
      "▁पत्र": 8870,
      "▁पब्ल": 8871,
      "▁India](https://en.wikipedia.org/wiki/E": 8872,
      "रान": 8873,
      "19-1": 8874,
      "nold": 8875,
      "ooking": 8876,
      "▁institu": 8877,
      "](https://te.wikipedia.org/wiki/భారతదేశ": 8878,
      "](https://te.wikipedia.org/wiki/గో": 8879,
[...]
